#version: 0.2
Ġ Ð
Ð ¾
Ð °
Ð µ
Ñ Ĥ
Ð ½
Ð ¸
Ñ ģ
Ñ Ģ
Ð¾ Ð
Ð »
Ð ¹
Ð º
Ñ Į
Ñ ĭ
Ð ¼
Ñĭ Ð¹
Ġ Ñģ
Ñ ĥ
Ð½ ÑĭÐ¹
Ð ²
Ð ¿
ĠÐ ¼
ĠÐ º
ĠÐ ¿
Ñģ ÑĤ
Ð ·
Ðµ Ð½
Ð» ÑĮ
Ñ ı
Ġ -
Ð¸ Ðµ
Ð ´
0 0
Ð¾Ð ²
ĠÐ ´
Ñ ĩ
Ð° ÑĤ
Ð ³
Ðµ ÑĢ
Ġ 1
ĠÐ ¸
Ð ±
ÑĤ Ð°
Ð¾Ð »
ĠÐ ¾
ÑĢ Ð°
Ð¾Ð ¹
ĠÐ ²
ĠÐ ½
Ðº Ð°
ĠÐ¼ Ð¼
ÐµÐ½ Ð¸Ðµ
Ð¾ ÑĢ
Ġ ÑĤ
Ñ ħ
Ð¾Ð ´
Ð¸ Ð½
Ġ 2
Ð¾ ÑģÑĤ
Ð» Ð°
ĠÐ¿ ÑĢ
Ñ Ĩ
Ð¸ Ð¹
ÑĤ ÑĢ
Ð¾ Ð½
Ġ Ñ
ĠÐ¸ Ð·
Ð¾Ð ¿
ĠÐ °
ÑĤÐ° Ð»ÑĮ
ĠÐ ±
Ð° ÑĢ
Ðµ Ð»ÑĮ
Ðµ Ñģ
ĠÐ ³
Ð¾Ð º
Ð¸ ÑĤ
Ġ 3
Ġ 4
Ġ Ñĥ
Ð ¶
Ðº Ð¸Ð¹
Ð¾ÑģÑĤ ÑĮ
Ð¼ Ðµ
Ð¸ Ñı
Ñ ī
Ġ c
ĠÑģ ÑĤÐ°Ð»ÑĮ
Ð° Ð½
Ġ ÑĢÐ°
Ñģ Ñģ
Ð¸ Ð°
Ñ Ħ
ÑĢ Ñĥ
Ð» Ñı
Ġ .
Ġ 0
Ð¸Ð½ Ð°
ĠÐº Ð»Ð°
Ð¾ ÑĤ
ĠÐ½ Ð°
Ð¸ Ð²
Ð¼Ðµ ÑĤÑĢ
Ðµ Ð·
Ð¸ Ñĩ
ĠÐ´ Ð¸Ð°
5 0
ĠÐ ·
Ġ s
ĠÐ´Ð¸Ð° Ð¼ÐµÑĤÑĢ
Ð°ÑĤ ÑĮ
Ðµ Ðº
ĠÐºÐ»Ð° ÑģÑģ
Ð½ Ð¾Ð¹
Ġ m
Ð½ Ð¾ÑģÑĤÑĮ
Ðµ Ð´
Ġ i
Ð¾Ð ¼
ĠÐ´ Ð»Ñı
Ñ Ī
Ð» ÐµÐ½Ð¸Ðµ
Ð° Ñģ
Ðµ Ð³
Ð¸ ÑģÑĤ
ĠÐ· Ð°
Ġ d
Ġ t
ĠÑģ ÑĤ
ÑĢ Ð¾Ð²
Ð¸Ñĩ ÐµÑģ
Ð¸ÑĩÐµÑģ ÐºÐ¸Ð¹
ĠÐ¾ ÑĤ
Ðµ ÑĤ
Ġ a
ĠÑ į
ĠÐ »
ĠÐ± ÐµÐ·
Ð¾Ð ·
ĠÐ¾ Ð±
Ð¾Ð½ Ð½ÑĭÐ¹
Ð¸ÑĤ ÑĮ
ÐµÐ³ Ð¾ÑĢ
ĠÐº Ð°
Ð¾ Ñĩ
Ġ 6
ĠÑ Ī
ĠÐº Ð°ÑĤ
Ñ ĳ
Ð¼ Ð°ÑĤ
Ñģ Ð¿
Ðµ Ñĩ
ÐµÐ³Ð¾ÑĢ Ð¸Ñı
Ð¾Ð ±
o n
ĠÐºÐ°ÑĤ ÐµÐ³Ð¾ÑĢÐ¸Ñı
Ðº Ð»Ð°
Ġ 9
Ð¾ Ñģ
Ð¾Ð² Ð¾Ð¹
ÑĨ Ð¸Ñı
Ð¸ Ð¿
Ġ p
ĠÑģ Ð²
Ñ İ
ĠÑĤ Ð¾Ð»
Ð± ÐµÐ»ÑĮ
Ð½ Ð°
Ġ 5
Ð¾Ð¿ Ð°Ñģ
ĠÑĤÐ¾Ð» Ñī
Ð¾Ð¿Ð°Ñģ Ð½Ð¾ÑģÑĤÑĮ
Ð° Ð²
Ðµ Ð¼
ĠÐ¿ ÐµÑĢ
Ð»ÑĮ Ð½ÑĭÐ¹
ĠÑĤÐ¾Ð»Ñī Ð¸Ð½Ð°
Ð» Ð¸
ĠÐ±ÐµÐ· Ð¾Ð¿Ð°ÑģÐ½Ð¾ÑģÑĤÑĮ
ÑĤ ÑĮ
ĠÑĢÐ° Ð·
ĠÑĤ Ð¸Ð¿
t i
Ð¾Ð² ÑĭÐ¹
e r
ĠÐº Ð³
Ġ o
ĠÐ¿ÑĢ Ð¸
ĠÑĥ Ð³
o r
Ð¸ Ð·
Ðµ Ð¹
Ġi i
Ð» ÐµÐº
Ñĥ ÑĢ
Ð¾ÑģÑĤ Ð¾Ð¹
Ðµ Ð»
ĠÑ Ħ
Ġ n
ĠÐ° ÑĢ
Ð¼ ÐµÑĢ
Ðµ ÑģÑĤ
Ġ ÑĢ
Ñģ Ð¼
ĠÐ´ Ð¾
Ġ2 0
Ð¸ Ðº
ÐºÐ»Ð° Ð´
Ġ 8
Ñĥ Ñħ
Ð± Ð°
Ð¿ Ð°
1 0
Ġ1 00
Ðº Ð¾ÑģÑĤÑĮ
ĠÐ°ÑĢ Ð¼Ð°ÑĤ
Ð½ ÐµÐ½Ð¸Ðµ
ÐµÑĩ ÐµÐ½Ð¸Ðµ
Ð¸ÑĤ ÐµÐ»ÑĮ
ĠÐ¼ Ð°ÑĢ
t e
ĠÑĤ ÑĢÑĥ
ÐµÐ½ ÑĤ
Ðµ Ð¿
2 0
Ðµ ÑĤÐ°
Ð¸ Ð»
Ñħ Ð¾Ð´
ĠÐ¼Ð°ÑĢ Ðº
ÑĢ Ñĭ
ÐµÐ¹ ÑģÐ¼
Ð¸ Ð»ÑĮ
ĠÐºÐ° Ð±ÐµÐ»ÑĮ
ĠÑģ ÐµÐ¹ÑģÐ¼
ÑĨ Ð¸Ð½
Ġ f
Ð» ÐµÑĢ
Ð¸ ÑĢÐ¾Ð²
Ð¿ Ð°Ð½
ĠÑģÐµÐ¹ÑģÐ¼ Ð¾ÑģÑĤÐ¾Ð¹
ÑĨÐ¸Ð½ Ðº
Ð¾Ð² Ð°ÑĤÑĮ
ĠÐº Ð¾Ð½
Ġ Ñħ
Ġ1 0
Ñ į
ĠÐ¿ÑĢ Ð¾
ĠÐ ¶
ĠÐ¿ Ð¾Ð»
Ð¾Ð· Ð´
Ġ q
Ġ h
Ð¾Ð» ÑĮ
5 00
ÐµÑĢ Ð°
ĠÐ½ Ðµ
a l
Ġ ÑĤÐ°
Ġ 7
ĠÐ¿ Ð¾
Ð¾Ðº Ð°ÑĤ
Ð»ÐµÐº ÑĤÑĢ
ÑĨÐ¸Ð½Ðº Ð¾Ð²Ð°ÑĤÑĮ
Ðµ Ð²
Ð¶ Ð½ÑĭÐ¹
ĠÑĢÐ°Ð· Ð¼ÐµÑĢ
Ġ b
ÑĥÑĢ Ð½ÑĭÐ¹
Ðµ ÑĤÐ°Ð»ÑĮ
ĠÐ¾ÑĤ Ð²
ĠÑį Ð»ÐµÐºÑĤÑĢ
ĠÑģÑĤÐ°Ð»ÑĮ Ð½Ð¾Ð¹
s s
Ð½ Ñĥ
ĠÐ¾ ÑĨÐ¸Ð½ÐºÐ¾Ð²Ð°ÑĤÑĮ
ti on
Ð¾Ð·Ð´ ÑĥÑħ
Ð² Ð¾
ĠÐ² Ñĭ
Ð¸Ð² Ð¾Ð´
Ð½Ð° Ñı
ĠÐ¸ ÑģÐ¿
Ð¸ Ð¾Ð½Ð½ÑĭÐ¹
Ð¸ÑģÑĤ ÑĭÐ¹
Ð¾Ð ¶
ĠÑģÐ² Ð°ÑĢ
Ð» Ð»
ĠÐ°ÑĢÐ¼Ð°ÑĤ ÑĥÑĢÐ½ÑĭÐ¹
Ð¾Ñĩ Ð½ÑĭÐ¹
Ñģ Ð»
Ġii i
ÑĢ ÐµÐ´
ĠÐ·Ð° ÐºÐ»Ð°Ð´
ĠÐ³ Ð¾ÑĢ
00 0
ĠÑģÐµÐ¹ÑģÐ¼Ð¾ÑģÑĤÐ¾Ð¹ ÐºÐ¾ÑģÑĤÑĮ
Ð»ÐµÑĢ Ð¾Ð´
ĠÐ³ Ð°
a te
Ð¾Ð» Ð½ÐµÐ½Ð¸Ðµ
ÐµÑģ ÑĮ
Ñĥ ÑĦ
ĠÑĥÐ³ Ð»ÐµÑĢÐ¾Ð´
Ð¸ÑģÑĤ Ð¾Ð²Ð¾Ð¹
ĠÐ¾ Ð´
Ð³ Ð½
ÑĢÐ° Ð½
Ð¾Ð¿ ÑĢ
00 1
Ñı Ñĩ
ĠÐ¸ÑģÐ¿ Ð¾Ð»Ð½ÐµÐ½Ð¸Ðµ
ĠÐ¾ Ð¿
ÐµÐ´ Ð¸Ð½
Ġ1 2
ĠÐ·Ð°ÐºÐ»Ð°Ð´ Ð½Ð°Ñı
ÐµÑĢ Ð¶
Ñģ Ð¾
ÐµÐ½ ÑĮ
ĠÑĥÐ³Ð»ÐµÑĢÐ¾Ð´ Ð¸ÑģÑĤÑĭÐ¹
Ġ v
Ðµ ÑĨ
ÑĢÐ¾Ð² Ð¾Ð´
Ġ1 6
ÑĢÐ° Ð²
Ð¸ Ð´
Ð½ Ð¸Ð¹
Ð½ Ð¾
Ġo f
r o
Ð¾ÑĢ Ð½ÑĭÐ¹
e l
Ġ 50
ĠÐ¿ÑĢ Ð¾ÐºÐ°ÑĤ
e t
s i
Ð°Ð² Ð»ÐµÐ½Ð¸Ðµ
ĠÐ¼ ÐµÑĤÐ°
Ð¿ ÑĢ
Ð» Ñİ
Ð¸ÑĢÐ¾Ð² Ð°ÑĤÑĮ
ĠÐ´ Ð°Ð²Ð»ÐµÐ½Ð¸Ðµ
ĠÐ¼ÐµÑĤÐ° Ð»Ð»
ÑĢÑĭ ÑĤ
Ð¾Ð² Ð¾Ð´
ĠÐ¶ Ð¸ÑĤÑĮ
Ġ w
a n
ĠÐº Ð¾Ð¼
Ð¾Ð¿ ÑĢÐ¾Ð²Ð¾Ð´
Ġ Â
Ð¾Ð» Ñı
ĠÐ´ Ð²
e d
ĠÑģ ÑĢÐµÐ´
ÐµÑģÑĤ Ð²Ð¾
Ð°Ð½ Ð¸Ðµ
ĠÐ¿ Ð»
Ð°ÑĢ Ð½ÑĭÐ¹
or y
g ory
ate gory
ĠÑĢÐ° Ð±
Ð¼ Ð°
ĠÐºÐ°Ð±ÐµÐ»ÑĮ Ð½ÑĭÐ¹
ĠÑĥ Ð¿
Ġ l
Ð¼ Ð¾
Ġc ategory
ĠÐº Ð¾ÑĢ
ĠÂ °
Ġc l
ĠÐº Ð²
Ġm m
ĠÑģ Ð¿
ĠÐ² Ð¾Ð·Ð´ÑĥÑħ
Ñı Ð¶
ĠÐ¿ Ð¾Ð´
Ð¾Ð ³
ÑĨ Ð¸Ð¾Ð½Ð½ÑĭÐ¹
Ġ2 5
Ġ ÑĨ
Ġq a
Ġ9 7
ĠÐºÐ° Ñĩ
Ġd n
Ð¸ÑĤÐµÐ»ÑĮ Ð½ÑĭÐ¹
Ġ Ñĩ
ÑĢÐ°Ð² Ð»ÐµÐ½Ð¸Ðµ
2 5
Ġ2 00
ĠÐ½ Ð¿
ĠÐº ÑĢ
Ðµ Ðµ
ĠÑģÑĤ ÐµÐ½
ĠÑĤÑĢÑĥ Ð±
v e
ĠÑģ ÐµÑĩÐµÐ½Ð¸Ðµ
ÑĢÑĭÑĤ Ð¸Ðµ
ĠÐºÐ°Ñĩ ÐµÑģÑĤÐ²Ð¾
Ġ r
ĠÐ¼ Ð¿Ð°
ÐºÐ° Ð±ÐµÐ»ÑĮ
Ñī Ð¸Ð¹
Ð¼ ÐµÐ½
ÑĥÑĦ ÑĤÐ°
ĠÐ½ Ð°ÑĢ
o m
ĠÐ¾Ð± ÐµÑģ
i n
Ġc on
Ñĥ ÑĢÐ°
ĠÐ½ Ð¾Ð¼
4 0
ĠÐ± ÐµÑĤ
ĠÐ¼ Ð°
ĠÑĥ ÑģÐ»
ÑĦ Ð¸Ð»ÑĮ
ĠÑĥÐ¿ ÑĢÐ°Ð²Ð»ÐµÐ½Ð¸Ðµ
ĠÐ¿ÐµÑĢ Ð¸
3 0
Ð½ Ð¸Ðº
Ð»Ð° Ð½
ÐµÐº Ð°ÑĤ
1 8
ĠÐ¾Ð±ÐµÑģ Ð¿
ÑıÑĩ ÐµÐºÐ°ÑĤ
ĠÐ¾Ð±ÐµÑģÐ¿ ÐµÑĩÐµÐ½Ð¸Ðµ
ĠÐ½Ð¾Ð¼ Ð¸Ð½Ð°
ĠÐ½Ð¾Ð¼Ð¸Ð½Ð° Ð»ÑĮÐ½ÑĭÐ¹
Ð¾Ð¶ Ð°ÑĢÐ½ÑĭÐ¹
ĠÐ½Ð°ÑĢ Ñĥ
ĠÐ¿ Ð¾Ðº
i t
ĠÑģÑĢÐµÐ´ Ð°
ĠÑĥÑģÐ» Ð¾Ð²
ĠÑĤÑĢÑĥ Ð±Ð°
ĠÐºÐ¾Ð¼ Ð¿
ĠÑģ Ð¼
ĠÐ° ÑĤ
ĠÑģÐ²Ð°ÑĢ ÐºÐ°
ĠÐ¼ ÐµÐ´
ĠÐ´ ÐµÑĤÐ°Ð»ÑĮ
ĠÐºÐ»Ð° Ð¿Ð°Ð½
ĠÐ¸Ð· Ð³
Ñĥ Ñģ
ĠÐ½Ð°ÑĢÑĥ Ð¶Ð½ÑĭÐ¹
Ð¾ÑĤ Ð¾Ð²
ÑĤÑĢ Ñĥ
Ð¾ÑĤ Ð¸Ð²
Ġ g
Ð°ÑĤ ÐµÐ»ÑĮ
r i
ÐµÐ´Ð¸Ð½ ÐµÐ½Ð¸Ðµ
Ð¸ ÑĢ
ĠÑģÑĤÐµÐ½ ÐºÐ°
ĠÐ¿Ð¾Ðº ÑĢÑĭÑĤÐ¸Ðµ
Ð°Ð½ Ð½ÑĭÐ¹
ĠÑĪ ÑĤ
ĠÐ¼ÐµÐ´ Ð½ÑĭÐ¹
Ð¾Ð»ÑĮ Ð½ÑĭÐ¹
Ð¸ÑĤ Ð½ÑĭÐ¹
ÐµÐ½ Ð½ÑĭÐ¹
ĠÐ¿ÑĢÐ¸ Ð¼ÐµÐ½
ÐºÐ»Ð° Ð¿Ð°Ð½
ĠÐ¸Ð·Ð³ Ð¾ÑĤÐ¾Ð²
Ġ1 5
ĠÐ¿ÑĢÐ¸Ð¼ÐµÐ½ ÐµÐ½Ð¸Ðµ
Ð¼Ð°ÑĤ Ð¸ÑĩÐµÑģÐºÐ¸Ð¹
Ð½ Ð¸Ðµ
1 5
ĠÐº Ð»Ð¸
Ð¾Ð» Ð¾Ðº
ĠÐ³ ÑĢÑĥ
Ð¾ÑģÑĤ Ð°Ð²
ĠÑĤÐ° Ðº
ĠÐºÐ»Ð¸ Ð¼Ð°ÑĤÐ¸ÑĩÐµÑģÐºÐ¸Ð¹
Ġo p
ĠÐ´ Ð»
Ġ4 0
ĠÐ¿Ð¾Ð» Ð¸
ÑĨ ÐµÐ²
ĠÐ¾ÑĤÐ² ÐµÑĢ
ĠÐ¿ÑĢÐ¾ ÑĦÐ¸Ð»ÑĮ
Ð» Ð¾Ðº
Ðµ Ñħ
Ð´ ÐµÐ»ÑĮ
Ġ9 0
ĠÐ¸ Ð»Ð¸
Ðº ÑĤ
Ġ u
ÑģÑĤ Ð¸Ðµ
ĠÐ¾ÑĤÐ²ÐµÑĢ ÑģÑĤÐ¸Ðµ
ÑģÑģ Ð°
Ð¾Ð² ÐºÐ°
1 00
ĠÐ´Ð» Ð¸Ð½Ð°
Ġ ÑĢÑĥ
s p
1 6
Ġ2 50
Ñī ÐµÐ½Ð¸Ðµ
a g
Ġ4 00
8 0
ĠÐ» Ð¸ÑģÑĤÐ¾Ð²Ð¾Ð¹
Ð»Ñı ÑĤÑĮ
m a
Ñĥ Ð³
Ð· Ð°
ĠÐ¸Ð·Ð³Ð¾ÑĤÐ¾Ð² Ð¸ÑĤÑĮ
Ð¹ ÐºÐ°
ĠÐ¾Ð´ Ð¸Ð½
ĠÑĤÑĢÑĥÐ± Ð¾Ð¿ÑĢÐ¾Ð²Ð¾Ð´
e c
Ð¾Ð² Ñĭ
Ġ k
ĠÑģ Ð¾
ĠÐ¾ Ð³Ð½
ĠÑĦ Ð»Ð°Ð½
ĠÐ¿ÑĢ Ð¾ÑĤÐ¸Ð²
Ġ3 00
ĠÐ¿ÑĢ Ð¸Ð²Ð¾Ð´
Ð¾Ð»Ñı ÑĨÐ¸Ñı
ÑĢÐ° Ð±
Ñĳ Ð¼
e n
ÐµÐ¿ Ð»
i r
ÑĢ Ð¾
Ð» ÑĭÐ¹
Ð¾Ð¿ Ð¾Ð¶Ð°ÑĢÐ½ÑĭÐ¹
Ġ5 00
ĠÐ¿ÑĢÐ¾ÑĤÐ¸Ð² Ð¾Ð¿Ð¾Ð¶Ð°ÑĢÐ½ÑĭÐ¹
ĠÑĥ ÑģÑĤ
1 2
Ð¾Ñģ ÑĦ
Ð»ÐµÐº ÑĤ
ÑĢ Ð¾Ð·
ÑģÑĤ ÑĢÑĥ
ĠÐ½ Ð¸Ð·
ĠÐ» Ñİ
Ġ %
Ð¾Ð¿ÑĢ Ð¸Ð²Ð¾Ð´
ĠÑįÐ»ÐµÐºÑĤÑĢ Ð¾Ð¿ÑĢÐ¸Ð²Ð¾Ð´
ÑĤ Ð¾Ð²ÑĭÐ¹
p e
ÐµÐ¼ ÐµÐ½ÑĤ
e i
ĠÐ½Ð° ÐºÐ»Ð°Ð´
ĠÑģ Ð¸Ð»
ĠÐ³ Ð½Ñĥ
Ð¿ Ð¿Ð°
ĠÐ±ÐµÑĤ Ð¾Ð½Ð½ÑĭÐ¹
a ss
ĠÑĢÐ°Ð· Ð¼Ðµ
ĠÑģÐ¸Ð» Ð¾Ð²Ð¾Ð¹
Ġ3 2
ĠÐ² Ð¾Ð´
Ð¸Ð² ÐºÐ°
ĠÐ¿ÑĢ Ñı
6 0
Ġcl ass
ĠÐ°ÑĤ Ð¼
Ð°ÑĤ Ð½ÑĭÐ¹
Ð² Ð¾Ð´
ĠÐ½Ð°ÐºÐ»Ð°Ð´ Ð½ÑĭÐ¹
ĠÐ± Ð¾Ð»
4 00
Ġ100 0
ĠÑĢÐ° ÑģÐ¿
ĠÐ·Ð° Ð¿
Ð» Ð¸Ñĩ
ĠÑģÐ² ÐµÑĢ
ĠÐ° Ð½
ÑģÐ¾ ÐµÐ´Ð¸Ð½ÐµÐ½Ð¸Ðµ
Ð¾ÑģÑĤÐ°Ð² Ð»ÑıÑĤÑĮ
ĠÐ¿ÑĢ Ð¾Ð±
ĠÐ½Ð¸Ð· ÐºÐ¸Ð¹
ĠÑħ ÑĢÐ°
ĠÐ³ Ð¾ÑģÑĤ
ÑıÐ¶ ÐµÐ½Ð¸Ðµ
ĠÑĤ ÐµÐ¿Ð»
Ð»Ð° Ð´
Ñİ ÑīÐ¸Ð¹
ĠÐ°ÑĤÐ¼ Ð¾ÑģÑĦ
ĠÐ² ÐµÑģÑĮ
Ð½Ñĥ ÑĤÑĢ
Ġ1 50
u m
Ð± Ð¾Ð¹
ĠÐ¾ Ñģ
ĠÐ¾ÑĤ Ð´ÐµÐ»ÑĮ
ĠÑĤ ÑĢ
ĠÑĥÑģÐ»Ð¾Ð² Ð¸Ðµ
Ð° Ð½ÑĭÐ¹
Ð´ ÐµÑĤÐ°Ð»ÑĮ
t or
ĠÐ¿ Ð¾ÑģÑĤÐ°Ð²Ð»ÑıÑĤÑĮ
ĠÐ°ÑĢÐ¼Ð°ÑĤ ÑĥÑĢÐ°
ÑĤÑĮ Ñĳ
Ġt y
ĠÐ½Ð° Ð¿ÑĢ
ĠÐ»Ñİ Ð±Ð¾Ð¹
ĠÐ°ÑĤÐ¼Ð¾ÑģÑĦ ÐµÑĢÐ°
ĠÐ¼ÐµÑĤÐ°Ð»Ð» Ð¸ÑĩÐµÑģÐºÐ¸Ð¹
ĠÑģÐ²ÐµÑĢ Ð»ÐµÐ½Ð¸Ðµ
ĠÑį ÑĤ
Ñı ÑĤÑĮ
ĠÐ¼Ð° ÑģÑģÐ°
6 00
ĠÐ½Ð° Ð»Ð¸Ñĩ
ĠÐ³Ð½Ñĥ ÑĤÑĮÑĳ
ĠÐ½Ð°Ð»Ð¸Ñĩ Ð¸Ðµ
ĠÐ½Ð°Ð¿ÑĢ ÑıÐ¶ÐµÐ½Ð¸Ðµ
ĠÐ¾ÑĤÐ´ÐµÐ»ÑĮ Ð½Ð¾
ĠÐ¿ÑĢÐ¾Ð± Ð¸Ð²ÐºÐ°
ĠÐ¼ ÑĥÑĦÑĤÐ°
ĠÑħÑĢÐ° Ð½ÐµÐ½Ð¸Ðµ
9 0
ÐµÑĢÐ° ÑĨÐ¸Ñı
ĠÐ¾Ð¿ ÐµÑĢÐ°ÑĨÐ¸Ñı
ĠÑįÑĤ Ð¾ÑĤ
c e
ÐµÑĤÐ° Ð½Ð¸Ðµ
ĠÑģ Ð¾Ñĩ
ÑĤÑĢÑĥ Ð±Ð°
ĠÐ¸Ð· Ð¾Ð»ÑıÑĨÐ¸Ñı
Ġd ri
ĠÑģÐ¾Ñĩ ÐµÑĤÐ°Ð½Ð¸Ðµ
Ġdri ve
ÐµÑĩ ÐµÐ½ÑĮ
ĠÐ¿ÐµÑĢ ÐµÑĩÐµÐ½ÑĮ
ĠÑĢÐ°Ð·Ð¼Ðµ ÑīÐµÐ½Ð¸Ðµ
ĠÑĢ ÐµÐ·
Ġ6 0
ĠÐ¼ Ð°ÑĤ
2 00
Ġs a
Ðº Ð¾Ð½
Ð¸Ð° Ð»
Ġ 00
ĠÐ² Ð½ÑĥÑĤÑĢ
Ġ1 4
ÐµÑĢ Ð¸Ð°Ð»
ĠÐ³ÑĢÑĥ Ð¿Ð¿Ð°
ĠÐ² ÑĤ
Ð¸ ÑĨ
ÐµÐ½ÑĤ Ð¸
Ð»Ñİ Ñĩ
ĠÐ·Ð° Ñī
Ðº Ð¾Ð»
Ġn p
Ġty pe
ÐµÐ½ Ð½Ð¸Ð¹
ĠÑĢÑĥ Ñĩ
Ð¸ ÑĦ
Ġsa f
et y
Ġsaf ety
ĠÐ²Ð½ÑĥÑĤÑĢ ÐµÐ½Ð½Ð¸Ð¹
ĠÑĥÑģÑĤ Ð°Ð½
ĠÐºÐ¾Ð¼Ð¿ Ð»ÐµÐºÑĤ
ĠÐº ÑĢÑĥ
Ð¸ ÑĤÐ°
Ð¾Ñģ Ð¾Ð±
Ġi p
ĠÐ±Ð¾Ð» ÐµÐµ
ÐµÐ½ÑĤÐ¸ Ð»Ñı
ĠÑģ ÑĤÐ°
Ñ Ĭ
Ð´ ÐµÐ»
ĠÑĢÐ° Ñģ
ĠÑģÐ¿ Ð¾ÑģÐ¾Ð±
i um
Ġa s
u r
Ġm ed
i c
ĠÐ¿ÑĢÐ¾ ÑħÐ¾Ð´
ÑĢÐ° Ñģ
Ġmed ium
Ġ3 0
Ð¼ Ð¸Ð½
ĠÐ¼Ð°ÑĤ ÐµÑĢÐ¸Ð°Ð»
Ðµ ÑĪ
ÑĢ Ð°ÑĤÐ½ÑĭÐ¹
Ð¿ ÐµÑĢ
Ġ6 00
ĠÑĢÑĥÑĩ Ð½Ð¾Ð¹
ÑĤ Ð¾ÑĢ
ĠÐ½ ÐµÑĢÐ¶
Ðº Ð»ÑİÑĩ
Ð° Ð´
m o
Ð¸ Ð±
Ð½ Ð¾Ð²
ĠÐ³Ð° Ð¹ÐºÐ°
ĠÑĤ Ð¾Ð½
ĠÐºÑĢ ÐµÐ¿
ÑıÑĩÐµÐºÐ°ÑĤ Ð°Ð½ÑĭÐ¹
Ð¸ Ð¼
ĠÐ²Ð¾Ð·Ð´ÑĥÑħ Ð¾Ð²Ð¾Ð´
Ġd e
1 4
Ġop er
Ð¸Ð» ÐµÐ½
Ġm p
Ðµ ÑħÐ¾Ð´
Ġp er
Ð½ Ð³
3 5
ĠÐ¼ Ð¾Ð½
Ġ8 0
Ð¿ Ñģ
Ð¾ ÑĢÐ°
Ð¾Ñĩ ÐºÐ°
ĠÐ¿Ð» Ð¾Ñģ
Ð³ Ð¾ÑĢ
ĠÑĪ Ð¸ÑĢ
ĠÐ² ÐµÑģ
7 5
l s
Ġm a
ÑĪ ÐºÐ°
ÐµÑģÑĤ Ð¾Ð¹
ĠÐ¾Ð³Ð½ ÐµÑģÑĤÐ¾Ð¹
ÐºÐ¾Ð» Ð¸ÑģÑĤÐ¾Ð²Ð¾Ð¹
ĠÑĤÐ¾Ð½ ÐºÐ¾Ð»Ð¸ÑģÑĤÐ¾Ð²Ð¾Ð¹
Ð»Ð° ÑģÑĤ
Ðº ÐµÑĢ
ĠÐ¾Ð´ Ð½
ĠÑĥÑģÑĤÐ°Ð½ Ð¾Ð²ÐºÐ°
ÑĤ ÐºÐ°
ÑĬ ÑĳÐ¼
ĠÐ¼Ð¾Ð½ ÑĤÐ°
Ġ0 1
2 4
Ð¾ÑĤ Ð¾Ðº
ĠÐ¾Ð± Ð¾Ð»
ĠÐ¾Ð±Ð¾Ð» Ð¾ÑĩÐºÐ°
ĠÐ¿Ð»Ð¾Ñģ ÐºÐ¸Ð¹
ĠÐ¿ÐµÑĢÐ¸ Ð¼ÐµÑĤÑĢ
ÑģÐ¾ ÑĤÐ°
ĠÐ²Ñĭ ÑģÐ¾ÑĤÐ°
Ñĥ Ð¶
ĠÐº Ð»
Ð» ÐµÐ¼ÐµÐ½ÑĤ
Ð² ÐµÑĤ
u al
Ð¾Ð´ Ð¸ÑĩÐµÑģÐºÐ¸Ð¹
Ð¾ Ñī
Ġ â
Ðµ ÑİÑīÐ¸Ð¹
Ñĥ Ð½
ÑĪ ÑĤ
an ce
ĠÑĤ ÐµÑĢ
Ð´ÐµÐ» Ð¸Ðµ
Ð³Ð½ Ð³
ÑģÑĤ Ð²
ĠÐ¿ÐµÑĢÐ¸ Ð¾Ð´Ð¸ÑĩÐµÑģÐºÐ¸Ð¹
ĠÐ² ÐµÐ½ÑĤÐ¸Ð»Ñı
Ð½Ð° Ñĩ
Ġ1 8
l e
ĠÐ½ÐµÑĢÐ¶ Ð°Ð²
Ð¼ÐµÑĢ Ð½ÑĭÐ¹
ĠÑĦÐ»Ð°Ð½ ÐµÑĨ
ĠÐ½ÐµÑĢÐ¶Ð°Ð² ÐµÑİÑīÐ¸Ð¹
Ð¸ ÐºÐ°
7 0
ĠÐ¿ Ð¾Ð²
ĠÐ° Ð»Ñİ
ss ur
Ð² Ð¸
Ġn om
Ð° Ð»
Ð½Ð°Ñĩ ÐµÐ½Ð¸Ðµ
Ġ2 4
Ð¾ÑģÑĤ ÑĢÐ°Ð½
ĠÑĢÐµÐ· ÑĮ
ĠÐ¿ÐµÑĢ ÐµÑħÐ¾Ð´
ĠÐ°Ð»Ñİ Ð¼Ð¸Ð½
ĠÑį Ð»ÐµÐ¼ÐµÐ½ÑĤ
Ð¾Ð½ Ð°
3 00
g n
ÑıÑĩÐµÐºÐ°ÑĤ Ð°Ð½Ð½ÑĭÐ¹
Ð°Ð½ Ð¸ÑĩÐµÑģÐºÐ¸Ð¹
Ð°ÑĢ ÐºÐ°
Ð² ÑĤ
Ð¸ÑĢÐ¾Ð² Ð°Ð½Ð½ÑĭÐ¹
it y
Ð° Ð»ÑĮ
t ro
ti c
1 1
Ðº ÑĨÐ¸Ñı
ĠÐºÐ¾Ð½ ÑĤÑĢ
si gn
ĠÑĥÐ³ Ð¾Ð»Ð¾Ðº
ĠÐ¾Ñģ Ð½Ð¾Ð²
Ð¼Ðµ ÑĤ
Ñĥ Ð¿
ĠÑģÐ¼ ÐµÑģÑĮ
ĠÐ·Ð° Ð¼
h er
Ġa t
Ð¾ÑģÑĤÐ¾Ð¹ ÐºÐ¸Ð¹
ÐµÑĢ Ð¼ÐµÑĤ
ĠÐºÐ¾Ð½ ÑģÑĤÑĢÑĥ
Ðº ÑĢÐ°Ð½
ĠÐ³Ð¾ÑĢ ÐµÐ½Ð¸Ðµ
Ð¾Ð² Ð½ÑĭÐ¹
ĠÐ¿ Ð²
Ġde sign
ĠÐ² Ð²
ĠÐ¿ÑĢÑı Ð¼Ð¾
ĠÐºÐ¾ÑĢ ÑĢÐ¾Ð·
Ð² ÑĭÐ¹
ĠÑģÐµÐ¹ÑģÐ¼Ð¾ÑģÑĤÐ¾Ð¹ ÐºÐ¸Ð¹
tro l
s m
d i
0 1
Ð¾ÑģÑĤÑĢÐ°Ð½ ÑıÑĤÑĮ
Ġcon trol
0 3
ĠÐ¿Ð¾Ð»Ð¸ Ñį
Ġq ual
Ġqual ity
ĠÐ µ
Ġa ssur
Ġassur ance
ÑĪ Ð¾Ð²Ð½ÑĭÐ¹
s t
Ð¿ ÑĥÑģ
Ġa ir
ĠÐºÑĢÑĥ Ð³
ĠÐ½Ð° Ð·
ĠÑĥ Ð½
ĠÑĢÐ°ÑģÐ¿ ÑĢ
ĠÐ½Ð°Ð· Ð½Ð°ÑĩÐµÐ½Ð¸Ðµ
ÐµÑħ Ð°Ð½Ð¸ÑĩÐµÑģÐºÐ¸Ð¹
ĠÐ¿ÑĢÐ¸ ÑģÐ¾ÐµÐ´Ð¸Ð½ÐµÐ½Ð¸Ðµ
ei sm
eism ic
ĠÑĢÐ°ÑģÐ¿ÑĢ Ð¾ÑģÑĤÑĢÐ°Ð½ÑıÑĤÑĮ
Ġs eismic
Ġ0 8
Ð¸Ðµ Ð²ÑĭÐ¹
Ð² Ð¾Ð·Ð´ÑĥÑħ
ĠÑĦ Ð°Ñģ
ĠÑĤ Ð¾Ðº
n g
ĠÑģ Ð»
ĠÐ´Ð² ÑĥÑħ
Ð¼ ÑĥÑĦÑĤÐ°
Ġ4 5
ÑĦ Ð¾ÑĢ
Ġv al
Ð¸Ð´ Ð½ÑĭÐ¹
Ð¸ Ð¾Ð½
ĠÐ²Ð¾Ð´ Ð°
Ñĥ Ð»
6 8
o d
ĠÐ¿ÑĢ Ð¸Ð²
Ġval ve
ag e
ĠÑĢÐ°Ñģ ÑħÐ¾Ð´
ĠÑĤ Ð¾ÑĤ
Ġf or
ĠÐºÐ³ Ñģ
Ð²Ð¾Ð·Ð´ÑĥÑħ Ð¾Ð²Ð¾Ð´
ĠÐ± Ð»Ð¾Ðº
ĠÐ°Ð»ÑİÐ¼Ð¸Ð½ Ð¸ÐµÐ²ÑĭÐ¹
in g
ma tic
ĠÐ¾ Ðº
ĠÐºÑĢÑĥÐ³ Ð»ÑĭÐ¹
Ð± Ð»Ð¾Ðº
ĠÑģÑĤ Ð¾Ð¹
ÐµÐ¼ Ð°
Ġcl i
Ð² ÐµÐ»
ĠÐ¼ ÐµÐ½
Ġk w
ĠÐ¼ÐµÐ½ ÐµÐµ
Ġm et
Ġcli matic
Ðº Ð¾Ð²ÑĭÐ¹
ĠÑģÐ²Ð°ÑĢ Ð½Ð¾Ð¹
2 50
Ġat mo
her e
ĠÐ¿ Ð°
Ġatmo sp
Ġatmosp here
ĠÑĢÐµÐ·ÑĮ Ð±Ð°
ĠÐ·Ð°Ð¿ Ð¾ÑĢÐ½ÑĭÐ¹
Ġs tor
di tion
ĠÑĪÐ¸ÑĢ Ð¸Ð½Ð°
Ð¾Ð´ Ñĥ
ÐµÑĤ ÐºÐ°
Ġstor age
n om
Ð²ÐµÐ» Ð»ÐµÑĢ
Ġcon dition
ÐµÐ»ÑĮ Ð½ÑĭÐ¹
ÑĨÐµÐ² ÑĭÐ¹
Ġcondition s
3 2
Ġmp ag
Ð³ ÑĢ
Ð¸Ð· Ð¾Ð»Ñı
ĠÐ·Ð°Ñī Ð¸ÑĤÐ°
Ġ8 00
ĠÐ³ ÐµÑĢÐ¼ÐµÑĤ
ĠÐ³Ð¾ÑĢ ÑıÑĩÐµÐºÐ°ÑĤÐ°Ð½ÑĭÐ¹
ĠÑĥÐ³ Ð¾Ð»
Ġmet h
ÑĦ Ð¾Ð½Ð½ÑĭÐ¹
ĠÐº Ð¾Ð»
1 50
ĠÐ¾ÑĤÐ² ÐµÑĤ
Ġ0 5
Ð± Ð°ÑĢ
ec tion
Ð¸Ð»ÐµÐ½ Ð¾Ð²ÑĭÐ¹
ĠÐ·Ð°Ð¼ Ð¾Ðº
ĠÐ³Ð° Ð·
Ð¸Ñĩ Ð½ÑĭÐ¹
Ð¸ÑģÑĤ ÐµÐ¼Ð°
ĠÐ¼Ð¾Ð½ÑĤÐ° Ð¶Ð½ÑĭÐ¹
Ġmeth od
ĠÐ¿ Ð¾ÑĢ
Ġ1 1
ĠÑģ Ð±
Ġ1 7
ĠÑģÑĤ ÐµÐº
Ð¾Ð¿ Ð¾Ð»
ĠÑĥÐ³ Ð»
Ġ e
Ñģ Ñı
Ð¾Ñĩ Ð¸Ð¹
ĠÑģÑĤÐ° Ð½
Ð» Ð¾Ð³
ĠÐ²Ð² Ð³Ð½Ð³
ĠÐ°Ð½ ÐºÐµÑĢ
Ð¸Ð² Ð½ÑĭÐ¹
Ð° Ð»ÑĮÐ½ÑĭÐ¹
6 5
x l
Ðº Ð¾ÑĢ
ĠÐ¿Ð¾Ð»Ð¸Ñį ÑĤ
Ġ1 9
ĠÐ¿ÑĢ ÐµÐ´
ĠÐ¼ Ð¸Ð½
ĠÑģ Ð¸ÑģÑĤÐµÐ¼Ð°
Ð¾ÑĤ ÐºÐ°
ÑĢÐ¾ ÑģÑģ
Ð¿ÐµÑĢ Ð°ÑĤ
ĠÐ¼ ÑĥÑĦ
ĠÐ± ÐµÑģ
ÐµÐ¼ Ð¿ÐµÑĢÐ°ÑĤ
ĠÐ¼ÑĥÑĦ ÑĤÐ¾Ð²ÑĭÐ¹
ÑĥÐ» ÐºÐ°
ĠÐ¿Ð¾Ð»Ð¸ Ð¼ÐµÑĢÐ½ÑĭÐ¹
si on
Ñĳ ÑĤÐºÐ°
1 9
Ġ7 0
Ð¾Ð´ ÐµÑĢÐ¶
Ð³Ð¾ÑĢ ÑıÑĩÐµÐºÐ°ÑĤÐ°Ð½Ð½ÑĭÐ¹
ĠÐ¾ÑĤÐ² Ð¾Ð´
Ñĥ ÑĪ
c tion
Ð¾Ð² Ð°Ð½Ð¸Ðµ
ĠÐ½Ð° Ð¿
ĠÐ´ Ñĭ
Ġ1 3
ĠÐ´Ð² ÐµÑĢ
ĠÑģ Ðº
Ġd i
ĠÐ¾ÑĤ Ðº
ĠÑĪ Ð²ÐµÐ»Ð»ÐµÑĢ
Ð°ÑĢ Ð½Ð¾Ð¹
Ð¾Ðº Ð»Ð°Ð´
ĠÐ½ Ð¾ÑĢ
Ð¸Ð·Ð¾Ð»Ñı ÑĨÐ¸Ð¾Ð½Ð½ÑĭÐ¹
ĠÑĤ ÐµÐ¼Ð¿ÐµÑĢÐ°ÑĤ
ĠÑĢÐ° Ð´
Ð¾Ð²Ñĭ Ñı
ĠÐ½Ð° Ðº
Ð±Ð°ÑĢ Ð¸ÑĤÐ½ÑĭÐ¹
ĠÐ· Ð´
h f
ĠÐ²ÑĤ ÑĥÐ»ÐºÐ°
Ð° Ð¼
ĠÑģÑĤÐµÐº Ð»
Ð¶ Ð´
ÑĥÐ³ Ð¾Ð»ÑĮÐ½ÑĭÐ¹
ĠÐºÐ¾Ð½ ÑĨÐµÐ²
ÐºÐ»ÑİÑĩ Ð°ÑĤÐµÐ»ÑĮ
ĠÐ² Ð½
ĠÑģÐ» Ð¾Ð¹
ĠÐºÐ¾ÑĢ Ð¿ÑĥÑģ
ĠÐ¸Ð· Ð´ÐµÐ»Ð¸Ðµ
Ġr e
2 2
Ð¸Ð¾Ð½ Ð½
ÐµÑĪ ÑĳÑĤÐºÐ°
Ð¾ÑĢ Ð¾ÑĤ
ĠÑĥÑģÐ»Ð¾Ð² Ð½ÑĭÐ¹
t er
ĠÐ¶ ÐµÐ»
ĠÐ¾Ð¿ Ð¾ÑĢÐ°
Ð¸Ð¾Ð½Ð½ Ð¾ÑģÑĤÐ¾Ð¹ÐºÐ¸Ð¹
o si
ĠÐ¾Ð³Ð½ÐµÑģÑĤÐ¾Ð¹ ÐºÐ¾ÑģÑĤÑĮ
Ġc xl
ÑĤ Ð½ÑĭÐ¹
ĠÐ¶ÐµÐ» ÐµÐ·
ĠÐ¿ÑĢÑıÐ¼Ð¾ ÑĥÐ³Ð¾Ð»ÑĮÐ½ÑĭÐ¹
Ð° ÑģÑĤ
ĠÐºÐ¾ÑĢ Ð¾Ð±
ĠÐ± Ð°
ĠÐ» Ð¾ÑĤÐ¾Ðº
ĠÐ¾Ð± ÑĬÑĳÐ¼
ÑģÐ¼ ÐµÑģÑĮ
ĠÐ¿ÑĢ Ð¾ÐºÐ»Ð°Ð´
ĠÑģ Ð¾ÑĢ
Ð¸Ð´ Ð½Ð¾Ð¹
i l
ĠÐ¿ÑĢÐ¾ÑħÐ¾Ð´ ÐºÐ°
Ð»Ð¸ ÑĤÐ°
ti ng
ĠÐ²ÐµÐ½ÑĤÐ¸Ð»Ñı ÑĨÐ¸Ð¾Ð½Ð½ÑĭÐ¹
ĠÐ°Ð½ ÑĤ
Ð¾Ð± ÐµÑĤ
ĠÐ±ÐµÑģ ÑĪÐ¾Ð²Ð½ÑĭÐ¹
Ðº Ð¼
ĠÑĤÐµÐ¼Ð¿ÐµÑĢÐ°ÑĤ ÑĥÑĢÐ°
ĠÐ±ÐµÑĤ Ð¾Ð½
Ġ2 000
ĠÐ³ Ð¸Ð´
ĠÐ± ÑĥÑĢ
d g
Ð¾Ð´ Ð½ÑĭÐ¹
Ð» Ñĥ
Ñı Ð·
ĠÑĤ ÑıÐ¶
1 3
Ð² Ð°
ĠÑĦÐ»Ð°Ð½ ÑĨÐµÐ²ÑĭÐ¹
Ġt d
ÐµÐ³ Ñĥ
ĠÐºÑĢÐµÐ¿ Ð»ÐµÐ½Ð¸Ðµ
Ġ3 5
Ġc o
Ġ el
ĠÐ² ÑģÑĤ
ÐºÐ¾ÑĢ Ð¾Ð±
Ñĳ Ð»ÑĭÐ¹
ĠÑģ Ð¸Ð»ÑĮ
ĠÑĤÑıÐ¶ ÑĳÐ»ÑĭÐ¹
Ñħ Ð»
ĠÑģÐ¸Ð»ÑĮ ÑĦÐ¾Ð½Ð½ÑĭÐ¹
Ð¾Ð¹ Ð½Ð¸Ðº
Ð½ Ð½ÑĭÐ¹
ĠÐ½Ð¾ÑĢ Ð¼Ð°
Ġp n
Ñĥ ÑģÑĤ
ĠÑģÐ² ÐµÑĤ
Ðµ Ð±
Ð´ Ðµ
ĠÑĢÐ°Ð± Ð¾ÑĩÐ¸Ð¹
it h
ĠÐ¿Ð° ÑĢÐ°
Ð¾Ð±ÐµÑĤ Ð¾Ð½Ð½ÑĭÐ¹
Ð¸Ð² Ð°
ĠÐ¿Ð» Ð¾ÑĤ
ĠÑģÐ¾ ÐµÐ´Ð¸Ð½
Ñģ Ð½ÑĭÐ¹
ĠÐº Ð°Ð½
Ð¿ Ð¾Ð»
ÑģÑĤ Ð²Ð¾
ĠÐ´Ð²ÐµÑĢ Ð½Ð¾Ð¹
Ġv er
Ġw ith
ÑģÑĤ Ð°Ð»ÑĮ
Ñĥ ÑĤ
Ðº Ñģ
ĠÑģ Ð¾Ð´ÐµÑĢÐ¶
Ð² Ð¾ÑĢ
ĠÐ¿ Ð»Ð°ÑģÑĤ
Ġver sion
Ð¾Ð¼ Ð½ÑĭÐ¹
ĠÐºÐ² ÑĤ
Ġâ Ħ
ĠâĦ ĸ
ĠÐ¿ÑĢÑı Ð¼
Ñĭ ÑĪ
al l
ĠÐ½Ð°Ðº Ð¸Ð´Ð½Ð¾Ð¹
ÑĤÑĢÑĥ Ð±
Ð»Ð¸ ÑĢÐ¾Ð²
ĠÑĤÐµÐ¿Ð» Ð¾
Ġp i
ĠÐ° Ð²ÑĤ
ĠÐ´ Ñĥ
7 4
ĠÐ¾ÑģÐ½Ð¾Ð² Ð°
Ġ2 20
Ð¸ÑĨ Ð°
ĠÐ¿Ð¾Ð² Ð¾ÑĢÐ¾ÑĤ
ĠÑįÐ»ÐµÐºÑĤÑĢ Ð¾Ð¼
ĠÐ±ÑĥÑĢ ÑĤ
ĠÐ¾Ð± ÑĢÐ°ÑĤÐ½ÑĭÐ¹
ĠÐ³ Ð¸Ð±
Ñģ Ð¾Ðº
Ġa k
ĠÐºÐ¾ÑĢÑĢÐ¾Ð· Ð¸Ð¾Ð½Ð½Ð¾ÑģÑĤÐ¾Ð¹ÐºÐ¸Ð¹
Ġ3 80
Ġa n
Ð´Ðµ Ð»ÐµÐ½Ð¸Ðµ
ÑģÐ¿ ÐµÑĨ
ÑĢÐ° Ð´
ĠÐ¿Ð»Ð¾ÑĤ Ð½Ð¾ÑģÑĤÑĮ
Ð¾Ð· Ð¸
ĠÐ³Ð¾ÑĢ ÑıÑĩ
ĠÐ¶ÐµÐ»ÐµÐ· Ð¾Ð±ÐµÑĤÐ¾Ð½Ð½ÑĭÐ¹
ĠÐ±ÑĥÑĢÑĤ Ð¾Ð²ÑĭÑı
ÑģÐ¿ÐµÑĨ ÑģÐ¾ÐµÐ´Ð¸Ð½ÐµÐ½Ð¸Ðµ
ĠÐ¿ÑĢÑıÐ¼ Ð¾Ð¹
ĠÑĦÐ°Ñģ Ð¾Ð½Ð½ÑĭÐ¹
a r
ĠÐ·Ð´ Ð°Ð½Ð¸Ðµ
ĠÑĤÐµÑĢ Ð¼Ð¾
ÑĢÐ¾ÑģÑģ ÐµÐ»ÑĮ
ÐµÐ¿ ÐµÐ½ÑĮ
ĠÑģÑĤ ÐµÐ¿ÐµÐ½ÑĮ
ĠÐ² Ð¾Ð·Ð´
Ð²Ð¸ Ð¶
ÑĢÐ° Ð»ÑĮÐ½ÑĭÐ¹
Ð¾Ð²Ñĭ Ð´ÐµÐ»ÐµÐ½Ð¸Ðµ
ĠÑį Ð¿
osi tion
Ð³ Ð°
ĠÐ¿Ð² Ñħ
ĠÑĪ Ð¿
ÐµÐ¼ ÑĭÐ¹
4 4
ÐµÐ· Ð°
Ġ7 5
ĠÐ´Ñĭ Ð¼Ð¾
Ð°ÑĤ Ð°
ma x
Ð¸Ðº Ð¾ÑĢ
o l
Ð¾Ñģ Ð²
Ġ1 10
ĠÐ¼ Ð¾Ð´Ñĥ
ÑĢÐ° Ð·
ÑĢÐ°Ð± Ð¾ÑĤÐºÐ°
ĠÐ¿ÑĢÐ¸Ð² Ð°ÑĢÐºÐ°
ĠÐ¼Ð¸Ð½ ÐµÑĢÐ°
Ð¸ Ð³
ĠÐ³Ð° Ð±Ð°ÑĢÐ¸ÑĤÐ½ÑĭÐ¹
ÑĢÑĭ ÑĪÐºÐ°
Ġm o
ĠÐ°Ð½ÑĤ Ð¸ÐºÐ¾ÑĢ
Ð¾Ð¿ÑĢ Ð¾ÐºÐ°ÑĤ
Ð² ÐµÑģ
ĠÐ¼ÐµÑĤÐ°Ð»Ð» Ð¾Ð¿ÑĢÐ¾ÐºÐ°ÑĤ
ĠÐ²Ñĭ ÑģÐ¾Ðº
Ġak u
Ġdi sp
ĠÐ°Ð½ÑĤÐ¸ÐºÐ¾ÑĢ ÑĢÐ¾Ð·
ĠÑ ī
Ġdisp osition
ÐµÑĢ Ñħ
ĠÐ½ Ð¶
Ð¾Ð·Ð¸ ÑĨÐ¸Ñı
ĠÐ°ÑĤ Ð¾Ð¼Ð½ÑĭÐ¹
ĠÐºÑĢÐµÐ¿ Ñĳ
Ñĩ Ð°ÑĤ
6 6
ĠÐ°Ð²ÑĤ Ð¾Ð¼
ĠÐ¼ ÐµÑħÐ°Ð½Ð¸ÑĩÐµÑģÐºÐ¸Ð¹
Ġ8 9
ÑĤÐ°Ð»ÑĮ Ð½ÑĭÐ¹
Ð´ ÑĢ
Ð¸Ð² Ð°ÑĤÑĮ
ĠÐ± ÑģÑĤ
Ð° Ð¶
Ð¾Ð½ ÑĤÐ°Ð»ÑĮÐ½ÑĭÐ¹
ĠÐ²Ñĭ ÐºÐ»ÑİÑĩÐ°ÑĤÐµÐ»ÑĮ
ĠÑĪ Ð°ÑĢ
8 00
ÐµÑĢ Ñģ
ĠÐ³Ð¾ÑĢ Ð¸Ð·
Ġ2 2
Ñĥ Ð´
f r
Ð¸Ð»ÑĮ Ð½Ð¸Ðº
u n
ĠÐ³Ð¸Ð± ÐºÐ¸Ð¹
ĠÐ³Ð°Ð· Ð¾Ð²ÑĭÐ´ÐµÐ»ÐµÐ½Ð¸Ðµ
Ġ1 20
Ġ0 68
Ð´ Ð²Ð¸Ð¶
ĠÐºÐ¾Ð½ÑĤÑĢ Ð¾Ð»ÑĮÐ½ÑĭÐ¹
Ð³ ÑĢÑĥ
Ð¸ÑĦ Ð¸ÑĨ
ĠÐ³Ð¾ÑĢÐ¸Ð· Ð¾Ð½ÑĤÐ°Ð»ÑĮÐ½ÑĭÐ¹
Ð¾Ñī Ð°Ð´
ĠÐ¼ Ð¾Ñī
ĠÐ¼Ð¾Ñī Ð½Ð¾ÑģÑĤÑĮ
1 7
Ð¶ Ð¸Ð¼
ĠÑģÐ¾ ÐµÐ´Ð¸Ð½ÐµÐ½Ð¸Ðµ
Ð¸Ð½ ÑĤ
ÑĢÑĭ Ð²
ĠÑģÑĤ ÐµÑĢÐ¶
Ð¸ÑĦÐ¸ÑĨ Ð¸ÑĢÐ¾Ð²Ð°ÑĤÑĮ
ĠÐ¿ Ð¾Ð¶Ð°ÑĢÐ½ÑĭÐ¹
en t
ĠÑį ÐºÑĢÐ°Ð½
ĠÑĢÐ°Ð´ Ð¸Ð°
ĠÐºÑĢ ÐµÐ¼
il ti
in e
Ġh ilti
Ð°ÑĤ Ð¾ÑĢ
Ġmo tor
Ġp ro
r e
ir e
Ð° Ðº
ĠÐ¿Ð» Ð¾ÑīÐ°Ð´
ĠÐ¿Ð¾Ð»Ð¸ÑįÑĤ Ð¸Ð»ÐµÐ½Ð¾Ð²ÑĭÐ¹
Ġt max
ĠÑģÑĤÐµÑĢÐ¶ ÐµÐ½ÑĮ
Ð»Ð¸ÑĢÐ¾Ð² Ð°ÑĤÑĮ
Ð¾Ð· Ð°
ĠÑĤÐµÐ¿Ð» Ð¾Ð²Ð¾Ð¹
Ñĥ Ð¼
ĠÐ¿ÐµÑĢÐµÑħÐ¾Ð´ Ð½ÑĭÐ¹
ĠÑĥ Ð´
ĠÑģ ÐµÐº
Ð¾Ð¹ ÐºÐ°
Ð¾Ð»Ð¾Ðº Ð°
ĠÑĥÐ½ Ð¸ÑĦÐ¸ÑĨÐ¸ÑĢÐ¾Ð²Ð°ÑĤÑĮ
Ðº ÑĢ
Ġ ei
Ð¾Ð¹ Ð½ÑĭÐ¹
ĠÑĤ ÑĢÐ°
d r
ÑĩÐ°ÑĤ ÑĭÐ¹
Ġ2 8
Ð¸ ÑģÐ»
ĠÐ¾Ð± ÑīÐ¸Ð¹
Ġh dg
Ġ16 0
Ġs ection
ĠÐ» Ð¸ÑģÑĤ
Ġf ire
Ð¾Ð¿ Ð¾ÑĢÐ½ÑĭÐ¹
Ð¾Ð¼ Ð¿
ĠÐ¾Ðº ÑĢÐ°Ñģ
ĠÑĢ ÐµÐ³Ñĥ
ĠÐº Ð¿Ñģ
Ð¸ Ñģ
Ġc ro
ĠÑģ ÐµÑĢ
ĠÐ·Ð°Ñī Ð¸ÑĤÐ½ÑĭÐ¹
ĠÑĥÐ³Ð» Ð¾Ð²Ð¾Ð¹
Ġcro ss
ĠÑĨ ÐµÐ½ÑĤ
ĠÑĨÐµÐ½ÑĤ ÑĢÐ°Ð»ÑĮÐ½ÑĭÐ¹
u p
Ð½ ÑĤ
ĠÑģ ÐµÑĤÐºÐ°
ĠÐ°Ð²ÑĤÐ¾Ð¼ Ð°ÑĤ
4 5
ĠÑĤÐµÑĢ Ð¼
ÐµÐ² Ð¾Ð¹
Ð¿ Ð»Ð¸ÑĤÐ°
ÐµÐ¼ ÐµÐ½Ð½ÑĭÐ¹
Ġb el
Ñģ Ð²
1 000
ĠÐ²Ð¾Ð·Ð´ ÑĥÑĪ
ĠÑģÑĤ Ð°ÑĤÑĮ
ĠÑģÐ² ÑıÐ·
ĠÑģÐ¾ÐµÐ´Ð¸Ð½ Ð¸ÑĤÐµÐ»ÑĮÐ½ÑĭÐ¹
ĠÑģÑĤ Ð¾Ð¿Ð¾ÑĢÐ½ÑĭÐ¹
Ð¾ ÑĪ
Ġpi p
ĠÐºÐ¾Ð½ÑģÑĤÑĢÑĥ ÐºÑĤ
ÐµÑĤ ÑĮ
2 8
ĠÐ¿Ð¾Ð» Ð¸Ð²
Ð¸Ð» Ð¸Ð½
ĠÑģÐ¾ÑĢ ÑĤÐ¾Ð²ÑĭÐ¹
ÑĢÑĭ ÑĤÑĮ
ĠÐ¿ÑĢ Ð¾Ð²Ð¾Ð´
Ġt a
Ð¸Ð½ Ð¸Ð»
Ð¸Ð»Ð¸Ð½ Ð´ÑĢ
ÐµÐ½ ÑĤÐ°
Ð¾ÑĤ Ð²Ð¾Ð´
ĠÐ¼Ð¸Ð½ÐµÑĢÐ° Ð»ÑĮÐ½ÑĭÐ¹
ĠÑģÐ¿ ÐµÑĨ
ĠÐ²Ð¾Ð·Ð´ÑĥÑĪ Ð½ÑĭÐ¹
Ġ3 000
Ġ "
Ġt h
ĠÐ¿ÑĢ Ð¾Ð²
Ġs te
ĠÐ¾Ð³Ð½ÐµÑģÑĤÐ¾Ð¹ ÐºÐ¸Ð¹
Ð° Ð·
el ine
ĠÑģ ÑĤÑĢ
Ġpip eline
i i
ĠÐ² Ð°ÑĤÐ°
ÑħÐ» Ð¾ÑĢ
ĠÐ¿ÑĢÐµÐ´ ÐµÐ»
Ġ1 40
ĠÐ³Ð° Ð»Ð¾Ð³
3 6
Ð¾ ÑĤÐ°
ĠÐ¿ÑĢ ÑĥÐ¶
ĠÐ³Ð°Ð»Ð¾Ð³ ÐµÐ½
Ñģ Ð¾Ð»ÑĮ
ĠÐ¿Ð¾Ð»Ð¸Ð² Ð¸Ð½Ð¸Ð»
ĠÐ³Ð¸Ð´ ÑĢÐ¾
ĠÑģÑĢÐµÐ´ Ð½Ð¸Ð¹
ĠÐ¾ÐºÑĢÐ°Ñģ Ð¸ÑĤÑĮ
a ting
ĠÐºÐ¾Ð¼Ð¿ Ð¾Ð·Ð¸ÑĨÐ¸Ñı
ĠÐ¿Ð¾Ð»Ð¸Ð²Ð¸Ð½Ð¸Ð» ÑħÐ»Ð¾ÑĢ
Ð¾ÑģÐ² Ð°ÑĢÐ½Ð¾Ð¹
ĠÑģÐ± Ð¾ÑĢ
5 5
ĠÐ¿ Ð¾Ð½
Ġcon n
Ð°ÑĤ Ð²Ð¾ÑĢ
Ðµ Ð¾Ð±
Ġc a
ÑģÑĤ Ð¾Ð¹ÐºÐ°
ĠÐ¿ÐµÑĢ ÐµÐ¼ÐµÐ½Ð½ÑĭÐ¹
ĠÑĤÐµÐ¿Ð»Ð¾ Ð¸Ð·Ð¾Ð»ÑıÑĨÐ¸Ð¾Ð½Ð½ÑĭÐ¹
ÑĥÐ¶ ÐµÐ½Ð¸Ðµ
Ġs dr
ÑĢÐµÐ´ ÐµÐ»
Ð¸Ð½ Ð¾Ð²ÑĭÐ¹
ĠÐ°Ð½ÑĤÐ¸ÐºÐ¾ÑĢÑĢÐ¾Ð· Ð¸Ð¾Ð½Ð½ÑĭÐ¹
Ð´ Ð°ÑĢ
Ġ6 3
2 6
ĠÐºÐ» ÐµÐ¼
Ð¾Ð¹ ÑģÑĤÐ²Ð¾
ĠÑĤÐµÑĢÐ¼Ð¾ ÑĥÑģ
Ð°Ð² ÐºÐ°
Ġel ec
Ð¾Ñĩ Ð½Ð¾ÑģÑĤÑĮ
ĠÑĩ Ð°Ñģ
all y
Ð¾ÑĢ ÑĥÐ¶ÐµÐ½Ð¸Ðµ
Ġ5 7
Ġt o
Ð¾Ðº Ñģ
Ð¾ Ñı
ĠÐ¿Ð¾Ð»Ð¸Ð²Ð¸Ð½Ð¸Ð»ÑħÐ»Ð¾ÑĢ Ð¸Ð´Ð½ÑĭÐ¹
ĠÑģÑĤÐµÐºÐ» Ð¾Ð¿
ĠÐºÑĢÐµÐ¿Ñĳ Ð¶
ÐµÑĢ ÑĤ
Ġp ÑĢÐ°Ð±
3 7
ĠÐ¾ Ñħ
ĠÐ¿Ð»Ð¾ÑīÐ°Ð´ ÑĮ
ĠÐ¾Ð± ÑĢÐ°Ð±Ð¾ÑĤÐºÐ°
Ġ3 6
ĠÑįÐ»ÐµÐºÑĤÑĢ Ð¾ÑģÐ²Ð°ÑĢÐ½Ð¾Ð¹
ÐµÐ½ ÑĤÑĢ
ri c
ÑĤÑĢÑĥÐ± Ð¾Ð¿ÑĢÐ¾Ð²Ð¾Ð´
Ġste el
ĠÑģÐ¾ Ð¾ÑĢÑĥÐ¶ÐµÐ½Ð¸Ðµ
Ġan d
ĠÑĤÐµÑĢÐ¼Ð¾ÑĥÑģ Ð°Ð¶
Ð¸Ð³ Ð½Ð°
Ð¸Ð· Ð¸ÑĤÑĮ
ĠÑģÐ¾Ð´ÐµÑĢÐ¶ Ð°ÑĤÑĮ
ĠÐ² Ð²Ð¾Ð´
Ġa c
ĠÐ¿Ð¾Ð½ Ð¸Ð·Ð¸ÑĤÑĮ
4 20
Ðº Ð¾Ð¼Ð¿
ÑĢ Ð¾Ð¿
ĠÐ±Ð° Ð·Ð°
ÐµÑĪ Ð½Ð¸Ð¹
Ð½ ÑĥÑĢ
ĠÐ· Ð¾Ð½Ð°
Ñĳ ÑĢ
ĠÑģÑĤÐ°Ð½ Ð´Ð°ÑĢ
ĠÐº Ð°ÑĢÐºÐ°
ĠÐ¿ÑĢÐ¾ÐºÐ»Ð°Ð´ ÐºÐ°
ĠÑģ Ð¸Ð³Ð½Ð°
ĠÐ¾ÑĤÐ²ÐµÑĤ Ð½ÑĭÐ¹
ĠÐ²Ð½ ÐµÑĪÐ½Ð¸Ð¹
0 2
Ġs p
03 1
ÑģÑĤÑĢÑĥ ÐºÑĨÐ¸Ñı
Ð½ ÐµÐ·
Ġp l
ÑĢ ÐµÐ·
5 4
ÐµÑħ Ð½
Ð¸Ð²Ð° ÐµÐ¼ÑĭÐ¹
ĠÐ¿ÑĢ ÐµÐ¾Ð±
Ð³Ð¾ÑĢ ÑıÑĩÐµÐºÐ°ÑĤÐ°Ð½ÑĭÐ¹
Ġs h
ÑĳÐ¼ Ð½ÑĭÐ¹
ÐµÐ½ÑĤ Ð½ÑĭÐ¹
ĠÑĪ Ð°
Ġ3 50
ĠÑĤÐµÑĢÐ¼Ð¾ÑĥÑģÐ°Ð¶ Ð¸Ð²Ð°ÐµÐ¼ÑĭÐ¹
Ġ2 7
Ð² Ðµ
ĠÑħ Ð¾Ð»
ÑĢ Ð¾Ð¹ÑģÑĤÐ²Ð¾
ĠÑĤÑĢÐ° ÑģÑģÐ°
ĠÐ» Ð¸Ð½
ĠÑĩ Ð°ÑģÑĤ
Ġelec t
ĠÐº Ð¿
ĠÐ¿ ÐµÐ½
Ð¸Ð· Ð²Ð¾Ð´
Ġf l
Ð· ÐºÐ°
Ð»Ð° Ð¶Ð´
ÑĥÐ½ Ð½ÑĭÐ¹
ĠÐ¿Ð¾Ð» Ð¸Ð¿
Ð¸Ð»ÑĮ ÐºÐ°
ĠÑģÑĤÐ¾Ð¹ ÐºÐ¸Ð¹
ĠÐ¿ Ð°Ð½
ĠÐ¿ÑĢÐ¾Ð² Ð¾Ð»Ð¾ÐºÐ°
ĠÑĢÐ°ÑģÐ¿ ÑĢÐµÐ´ÐµÐ»
ĠÐºÐ¾Ð½ÑģÑĤÑĢÑĥ ÐºÑĨÐ¸Ñı
ĠÐ¿Ð¾Ð»Ð¸Ð¿ ÑĢÐ¾Ð¿
ĠÐºÐ°ÑĢÐºÐ° Ñģ
Ġelect ric
Ð¸Ð² ÐµÑĢÑģ
Ġpro te
Ġs t
ĠÑĨ Ð²ÐµÑĤ
Ġre sp
Ð¸Ð²ÐµÑĢÑģ Ð°Ð»ÑĮÐ½ÑĭÐ¹
Ð· ÐµÐ¼
Ġi n
Ð¸ Ð»ÑĮÐ½ÑĭÐ¹
Ð»ÑĮ Ð½Ð¾
Ð¾Ð· Ð²
Ñĭ Ðº
ĠÐº Ð¼
Ġ2 1
ĠÐºÐ¾ÑĢÐ¾Ð± ÐºÐ°
Ð¾ ÑħÐ¾Ð´
Ð· ÐµÐ»
Ġâ Ģ
Ġma x
ĠÑĤÑĢ ÐµÑħ
ĠÑĥÐ½ Ð¸Ð²ÐµÑĢÑģÐ°Ð»ÑĮÐ½ÑĭÐ¹
ÐºÐ° Ð½
ĠÑĪÐ°ÑĢ Ð¾Ð²Ð¾Ð¹
Ġprote ction
ĠÐ¿Ð»Ð°ÑģÑĤ Ð¸Ðº
el d
o w
7 1
Ð» Ð¸Ð½
ĠÐµ Ð´
ÑĤÑĢ Ð¾Ð¹Ð½Ð¸Ðº
Ð¸Ð· Ð´ÐµÐ»Ð¸Ðµ
ĠÐ´Ð² Ð°
Ġf un
ĠÑĪ Ð½ÑĥÑĢ
Ñĥ Ñĩ
ĠÑįÐ¿ Ð¾ÐºÑģ
6 3
ÑĢ Ð¾Ð¼
ÐµÑĢ Ð½ÑĭÐ¹
ĠÐ¿ÑĢÐ¾ Ð¸Ð·Ð²Ð¾Ð´
Ġfun ction
ÑĤ ÑĭÐ¹
ÐµÐ¼ÐµÐ½ÑĤ Ð½ÑĭÐ¹
Ġ ÑĨÐ¸Ð½Ðº
Ñİ Ñĩ
ĠÑįÐ»ÐµÐºÑĤÑĢ Ð¸ÑĩÐµÑģÐºÐ¸Ð¹
ĠÐº ÑĢÑĭÑĪÐºÐ°
ÑģÑĤÐ² Ð¾ÑĢ
ĠÑģÑĤÑĢ Ð¾
ĠÐ¾Ñħ Ð»Ð°Ð¶Ð´
Ð¶ ÐµÐ½Ð¸Ðµ
ÐµÑĩ Ð½Ð¸Ðº
ĠÑģ ÑĢ
Ð³ÑĢ ÐµÐ²
Ðº Ð·
ĠÐ¿ Ð¾Ð²Ñĭ
ĠÑģ Ð¾Ð¿ÑĢ
Ð³ÑĢÑĥ Ð·ÐºÐ°
ĠÐ¸ ÑĤ
Ġu nom
Ġw a
Ð² Ð½
ĠÑĢÐµÐ³Ñĥ Ð»Ð¸ÑĢÐ¾Ð²Ð°ÑĤÑĮ
ÐµÑģ Ñģ
Ñģ Ðº
ĠÑĢ ÐµÑĪÑĳÑĤÐºÐ°
ĠÐ½Ð° Ð³ÑĢÑĥÐ·ÐºÐ°
ĠÐ½Ð¾ÑĢÐ¼Ð° Ð»ÑĮÐ½Ð¾
ĠÑįÐ»ÐµÐºÑĤÑĢÐ¾Ð¼ ÐµÑħÐ°Ð½Ð¸ÑĩÐµÑģÐºÐ¸Ð¹
Ġp f
ĠÑģÑĤÐ°Ð½ ÑĨÐ¸Ñı
ÑĢÑĭÑĤ ÑĭÐ¹
ĠÐ³ ÑĢÐ°Ð´
a c
ĠÑģÑĤÐ°Ð½Ð´Ð°ÑĢ ÑĤÐ½ÑĭÐ¹
ÑĪ ÐµÐ½Ð½ÑĭÐ¹
Ð¾ÑĤÐ¸Ð² Ð»ÐµÐ½Ð¸Ðµ
ĠÑģ Ð¾ÑģÑĤÐ°Ð²
Ġw eld
Ð¾Ð» Ð¾ÑĩÐ½ÑĭÐ¹
Ġn nom
Ġg ro
Ð°Ð½ ÐºÐµÑĢ
ĠÐ¼ Ð½
ÐµÐ» Ðµ
ĠÑģÐ¾Ð¿ÑĢ Ð¾ÑĤÐ¸Ð²Ð»ÐµÐ½Ð¸Ðµ
Ð» Ð¾Ð½
Ġ6 5
ĠÐ·Ð°Ð¿ Ð°Ñģ
ĠâĢ ĵ
ĠÐ² ÐµÑĢÑĤ
ĠÑĢÐ°ÑģÐ¿ÑĢÐµÐ´ÐµÐ» Ð¸ÑĤÐµÐ»ÑĮÐ½ÑĭÐ¹
ÐµÐ¹ Ð½
Ñĥ Ðº
Ð¸ÑĤÐµÐ»ÑĮ Ð½Ð¾ÑģÑĤÑĮ
Ġb e
2 1
Ð´Ð²Ð¸Ð¶ ÐºÐ°
ĠÑĢÐ° Ð²Ð½
an d
Ġgro up
Ðµ ÑĦÐ¾ÑĢ
ĠÐ²ÐµÑĢÑĤ Ð¸ÐºÐ°
Ð³ Ð»Ñĥ
Ġc om
Ð¿ Ð½Ð³
ÑĤÐ° ÐºÑĤ
ĠÐ² Ð¾Ð·Ð²
Ð³Ð»Ñĥ ÑĪÐºÐ°
Ð»Ð¸ Ð·Ð°
ĠÐºÑĢÐµÐ¼ Ð½ÐµÐ·
ĠÑįÐ¿Ð¾ÐºÑģ Ð¸Ð´Ð½ÑĭÐ¹
ĠÐ¾Ð´Ð½ Ð¾Ðº
u t
ĠÐ¿ÑĢÐµÐ¾Ð± Ð»Ð°Ð´
Ġ9 5
ate d
ĠÐ¿ÑĢÐµÐ¾Ð±Ð»Ð°Ð´ Ð°Ð½Ð¸Ðµ
ĠÐ¿ÑĢÑĥÐ¶ Ð¸Ð½Ð°
ÑĢ ÐµÑĪÑĳÑĤÐºÐ°
ÑİÑĩ Ð¸Ð¹
ĠÐºÑĢÐµÐ¼Ð½ÐµÐ· ÑĳÐ¼Ð½ÑĭÐ¹
3 8
ĠÐ¿Ð¾ÑĢ Ð¾ÑĪ
ĠÐ²Ð¾Ð·Ð² ÑĢÐ°ÑĤÐ½ÑĭÐ¹
ĠÐ¸ Ð½
Ġ2 6
ĠÐ²ÐµÑĢÑĤÐ¸ÐºÐ° Ð»ÑĮÐ½ÑĭÐ¹
an g
Ġ16 00
ĠÐ°Ð²ÑĤÐ¾Ð¼Ð°ÑĤ Ð¸ÑĩÐµÑģÐºÐ¸Ð¹
ĠÐ¿Ð¾Ð² ÐµÑĢÑħ
Ñģ Ð²ÐµÑĤ
Ð¾Ð¼ ÑĥÑĤ
Ġwa ter
Ð¸Ð¹ Ð½ÑĭÐ¹
Ð¾Ð» Ð½
Ġc h
Ġweld ed
Ð¿ Ðº
Ð¸ÑģÐ» Ð¾
Ġ en
Ġconn ection
ĠÐ½Ð° ÑģÑĤ
ĠÑĩ Ð¸ÑģÐ»Ð¾
Ð¸Ð² Ð½Ð¾Ð¹
ÑĭÑĪ Ðµ
a m
a tion
ĠÑģÐ² Ð¾Ð±
ĠÑģÐ² ÑĭÑĪÐµ
Ġk g
Ġcom p
Ñģ ÐºÐ¸Ð¹
ĠÐ¼Ð¾Ð½ÑĤÐ° Ð¶
ĠÐ´ ÑĢ
ÐºÐ¾Ð½ ÑģÑĤÑĢÑĥÐºÑĨÐ¸Ñı
ĠÐ³ Ð»Ð°Ð´
Ð¸ÑĤ Ð¾ÑĩÐ½ÑĭÐ¹
Ð¾Ð¼ Ðµ
ÐµÑģÑĤ Ð½
Ġmp a
ĠÐ³Ð»Ð°Ð´ ÐºÐ¸Ð¹
ĠÐ¾Ð¿ ÑĤ
Ð» Ð¾ÑĤÐ¾Ðº
Ñİ ÑģÐ½ÑĭÐ¹
Ð¸ Ð¼Ð°
ÑģÐ» Ð¾Ð¹Ð½ÑĭÐ¹
ĠÐ²ÐµÐ½ÑĤÐ¸Ð»Ñı ÑĤÐ¾ÑĢ
Ġh z
ÐµÑĩ Ð°
Ð¸Ñĩ Ð½Ð¾ÑģÑĤÑĮ
ĠÐ¿ Ñį
ĠÐ¸ÑĤ ÑĤ
i mo
d a
ĠÑģ Ð°Ð¼
ĠÐ¼Ð½ Ð¾Ð³
Ġbel imo
ĠÐ½ ÐµÐ³Ð¾ÑĢ
4 1
ĠÐ½ÐµÐ³Ð¾ÑĢ ÑİÑĩÐ¸Ð¹
ĠÐ¾Ð´Ð½ Ð¾Ð¿
2 7
ĠÐ²ÑĭÑģÐ¾Ðº Ð¸Ð¹
ĠÑĩ ÑĥÐ³
ĠÐ³ÐµÑĢÐ¼ÐµÑĤ Ð¸Ð·
Ġ12 00
2 9
Ġbe ing
ĠÐ¿ÐµÑĢ ÐµÐº
Ġ4 50
ĠÐºÐ¾Ð½ ÑĤÐ°ÐºÑĤ
Ñį Ð½Ð³
Ð¾ÑĢ Ð¾Ð¶
Ġl e
ÑĥÐ¿ Ð¾ÑĢÐ½ÑĭÐ¹
ÐµÑĦÐ¾ÑĢ Ð¼
ĠÐºÐ¾ÑĢÑĢÐ¾Ð· Ð¸Ð¾Ð½Ð½ÑĭÐ¹
ĠÐ¼ ÐºÐ¼
ÑĨ Ð¾
ÑĥÑħ Ð¾Ð¹
4 3
Ġ4 8
Ð¾Ð»ÑĮ ÑĨÐ¾
Ð¸Ð¼Ð° Ð»ÑĮÐ½ÑĭÐ¹
ÑĢÐ°Ð· Ð½ÑĭÐ¹
Ñĩ Ð¸Ðº
fr ls
Ġl o
ĠÑĥ Ñģ
ĠÑĥÐ´ Ð»Ð¸Ð½
ĠÐ´ ÑĢÐ¾ÑģÑģÐµÐ»ÑĮ
ĠÑĥÑģÑĤ ÑĢÐ¾Ð¹ÑģÑĤÐ²Ð¾
ĠÐºÑĢÑĥ Ð¿
ĠÐ¿Ð°Ð½ ÐµÐ»ÑĮ
Ð¾Ð´ Ð°
Ñĳ Ð½Ð½ÑĭÐ¹
ĠÐ¾Ð³Ð½ Ðµ
Ð¾ ÑĦ
Ð» Ðµ
Ð¾ÑĢ ÑĥÐ´
Ð¾Ð» Ð¸ÑĢÐ¾Ð²Ð°ÑĤÑĮ
Ġ12 5
ĠÐ¾Ð± ÐµÑĩÐ°
ĠÐ¾Ð±ÐµÑĩÐ° Ð¹ÐºÐ°
Ġ3 7
Ð¸Ð· Ð¾Ð»ÑıÑĨÐ¸Ñı
ÑģÐ²ÐµÑĤ Ð¸Ð»ÑĮÐ½Ð¸Ðº
ĠÐ¿Ð¾ÑĢ Ð¾Ð´Ð°
ĠÐ¾Ð³Ð½Ðµ ÑĥÐ¿Ð¾ÑĢÐ½ÑĭÐ¹
ĠÐ»Ð¸Ð½ Ð¸Ñı
ĠÑĤÑĢÑĥÐ± Ð½ÑĭÐ¹
ÐµÐ¹ ÐºÐ°
Ñĥ ÑĤÑĮ
ÑģÑĤ Ð¾Ð»
ĠÑĪÐ¿ Ð¸Ð»ÑĮÐºÐ°
ĠÐºÐ¾Ð¼ Ð±
Ð¾Ð½ ÑĪÑĤ
Ð¾Ð½ÑĪÑĤ ÐµÐ¹Ð½
ĠÑģÑĢ Ñį
ĠÐ¾ÑĤÐº ÑĢÑĭÑĤÑĮ
ĠÑĤ ÐµÑħÐ½
ĠÐ¼Ð¾Ð´Ñĥ Ð»ÑĮ
Ġ1 500
ĠÑĤ Ð²
Ñĩ Ñĳ
Ð´ ÑĢÐ¾ÑģÑģÐµÐ»ÑĮ
Ġsp b
ĠÐµÐ´ Ð¸Ð½
ĠÐµÐ´Ð¸Ð½ Ð¸ÑĨÐ°
1 20
Ð»Ð° Ð²
Ð¸Ñģ ÐºÐ¾Ð²ÑĭÐ¹
ĠÐ¿Ð¾Ð´ Ð²ÐµÑģ
ĠÐ² Ð¸Ð´
ĠÑģ Ð°
Ð¸ÑĢÐ¾Ð² Ð¾ÑĩÐ½ÑĭÐ¹
ĠÑģÐ±Ð¾ÑĢ Ð¾ÑĩÐ½ÑĭÐ¹
2 3
ĠÐ² Ð¾Ð»Ð¾Ðº
Ð° ÑĨÐ¸Ñı
ĠÑģ ÑĢÐ°Ð±
Ð½Ð° Ñį
ĠÐºÐ¾Ð½ÑģÑĤÑĢÑĥÐºÑĤ Ð¸Ð²Ð½ÑĭÐ¹
ĠÑĤÑĢ Ð¾Ð¹Ð½Ð¸Ðº
Ð¾Ð¿Ð¾Ð» Ð¸
Ð³ Ð°Ð½
ĠÐ¿ÑĢÐ¸Ð² Ð°ÑĢÐ½Ð¾Ð¹
ĠÐ¼Ð¾Ð´Ñĥ Ð»ÑĮÐ½ÑĭÐ¹
ÑģÐ¾ ÐµÐ´Ð¸Ð½
Ð¾Ð¹ Ð½Ð¾Ð¹
9 5
ĠÐ¿ Ð½Ð°Ñį
d e
ĠÐ¿Ð¾Ð»Ð¸Ð¿ÑĢÐ¾Ð¿ Ð¸Ð»ÐµÐ½Ð¾Ð²ÑĭÐ¹
Ġs n
0 5
Ġl s
Ġu n
ĠÐ¾Ð¿ÑĤ Ð¸ÑĩÐµÑģÐºÐ¸Ð¹
ÐºÐ¾ÑĢÐ¾Ð± ÐºÐ°
Ð¸Ð¼ ÑĭÐ¹
0 8
ĠÐ¿ÑĢ Ð¾ÑĩÐ½Ð¾ÑģÑĤÑĮ
ÐºÐ¾Ð½ ÐµÑĩÐ½Ð¸Ðº
Ð¾ Ñħ
Ġ3 74
ĠÐ¾Ð± Ð¾ÑĢÑĥÐ´
Ð» Ð¸Ð²
ĠÐ±Ð°Ð·Ð° Ð»ÑĮ
ĠÑģÐµÐº ÑĤÐ¾ÑĢ
Ð¸ÑĦ Ð¸ÐºÐ°
Ð¸Ñĩ ÐµÑģÑĤÐ²Ð¾
Ð³Ð½ Ð¸ÑĤÐ½ÑĭÐ¹
ĠÐ¿ Ð¾Ð¶
ĠÐ¼Ð° ÐºÑģ
ĠÐºÐ¾Ð» Ð¸ÑĩÐµÑģÑĤÐ²Ð¾
ĠÑĢ Ðµ
Ġoper ating
Ðº Ð¿
3 1
Ġ00 8
m ent
ĠÐ·Ð° Ð·ÐµÐ¼
t r
ĠÐ² Ð·
Ð¸Ðº Ñģ
a s
ĠÐºÐ² Ð°Ð´
ĠÑĪÐ¸ÑĢ Ð¸Ð½
ĠÐ· Ð°ÑĤÐ²Ð¾ÑĢ
Ð´ Ð²
ĠÐ² ÐºÐ»ÑİÑĩ
Ġ9 00
ÑĭÑĪ Ð»
Ð¹ Ð±Ð°
ĠÐ¿Ð¾Ð¶ Ð°ÑĢ
ĠÑĢÐ° Ð¼Ð°
ĠÐ¿ÑĢÐ¾ ÑĦ
ĠÐ» Ð°ÑĤ
ĠÐ¿Ð¾Ð»Ð¸ÑįÑĤ Ð¸Ð»ÐµÐ½
Ð¼ Ð½ÑĭÐ¹
ÑĨ Ð¸Ð»Ð¸Ð½Ð´ÑĢ
Ð¾ÑģÑĤ ÑĥÐ¿
Ġ10 8
ĠÑģÑĤÑĢÐ¾ Ð¸ÑĤÐµÐ»ÑĮÐ½ÑĭÐ¹
ÑĭÑĪÐ» ÐµÐ½Ð½ÑĭÐ¹
ĠÑĩÐ°ÑģÑĤ ÑĮ
ĠÐ¾ÑĤÐº ÑĢÑĭÑĤÑĭÐ¹
u c
Ð¾Ð´ Ð²Ð¸
ĠÐ¾Ñģ Ð²Ðµ
ĠÐ±Ð°Ð·Ð°Ð»ÑĮ ÑĤÐ¾Ð²ÑĭÐ¹
ĠÐ´Ð² Ð¾Ð¹Ð½Ð¾Ð¹
ĠÐ» ÐµÐ½ÑĤÐ°
Ġ7 00
Ġ0 2
Ð¿ÑĢ Ð¾ÐºÐ°ÑĤ
ĠÐ¾ÑģÐ²Ðµ ÑīÐµÐ½Ð¸Ðµ
Ð¿ Ð¼
ÑĢÐµÐ· Ð½Ð¾Ð¹
ĠÐ¿ÑĢ Ð¸ÑĤÐ¾ÑĩÐ½ÑĭÐ¹
Ð´ÐµÐ»ÑĮ Ð½ÑĭÐ¹
Ð·Ð° Ð´Ð²Ð¸Ð¶ÐºÐ°
ĠÐ¶ Ñĳ
ÐµÑĤ Ð¸ÑĩÐµÑģÐºÐ¸Ð¹
ĠÑģÐ²Ð¾Ð± Ð¾Ð´Ð½ÑĭÐ¹
ĠÐ² ÑģÐ¿
Ð¸ÑĤ Ð¾Ðº
ĠÐ°Ð½ÐºÐµÑĢ ÑĥÑĤÑĮ
ĠÐµ Ðº
ĠÐºÐ²Ð°Ð´ ÑĢÐ°ÑĤÐ½ÑĭÐ¹
ĠÐ¿ÑĢÐ¾Ð¸Ð·Ð²Ð¾Ð´ Ð¸ÑĤÐµÐ»ÑĮÐ½Ð¾ÑģÑĤÑĮ
ĠÐ» ÐµÑģÑĤÐ½
ÐµÐ» ÑĭÐ¹
ĠÐº Ð½
Ġ5 4
ĠÑĨ ÐµÐ¼ÐµÐ½ÑĤÐ½ÑĭÐ¹
9 00
Ð°Ðº ÐµÑĤ
Ñģ ÐµÐº
2 75
ĠÐ´ Ð¾ÑģÑĤÑĥÐ¿
ĠÐ¿ Ð¾ÑĤ
ĠÐ¿Ð¾Ð²ÐµÑĢÑħ Ð½Ð¾ÑģÑĤÑĮ
Ġ 001
Ð² Ð½Ð³
e s
ÐºÑĤ Ð¸Ð²
ĠÐºÑĢÑĥÐ¿ Ð½Ð¾ÑģÑĤÑĮ
Ð¾Ð»Ð½ Ð¸ÑĤÐµÐ»ÑĮ
Ð¸ Ñī
ĠÐ¾Ð±Ð¾ÑĢÑĥÐ´ Ð¾Ð²Ð°Ð½Ð¸Ðµ
Ð¾Ð¿ÑĢ Ð¾ÑħÐ¾Ð´
p er
ĠÐ¼ Ð¸Ð½Ð°
Ð° Ð³Ð½Ð¸ÑĤÐ½ÑĭÐ¹
Ñģ Ð´
9 6
Ñĭ Ð²
Ð² ÐµÐ½ÑĤÐ¸Ð»Ñı
ĠÐ¾ Ð³
Ñĩ Ð°
ĠÐº ÑĢÐ°Ð½
ÑģÑĤÐ² Ð¸Ðµ
Ð½ Ð¾Ñģ
ĠÐ°ÑĢ ÑĤ
ĠÑģÑĤÐµÐºÐ»Ð¾Ð¿ Ð°ÐºÐµÑĤ
ĠÑįÐ»ÐµÐºÑĤÑĢÐ¾Ð¼ Ð°Ð³Ð½Ð¸ÑĤÐ½ÑĭÐ¹
or m
ÐµÑģÑĤ Ð¸
ĠÑģ Ð¼Ð¾
ĠÐ³ÐµÑĢÐ¼ÐµÑĤ Ð¸ÑĩÐ½ÑĭÐ¹
ĠÑĢÐ°Ð´Ð¸Ð° Ð»ÑĮÐ½ÑĭÐ¹
ĠÐ¿ Ð¿
ĠÐº Ð¾Ð²
ĠÐ¿Ð°ÑĢÐ° Ð»Ð»
Ġp e
Ð²ÐµÐ½ÑĤÐ¸Ð»Ñı ÑĤÐ¾ÑĢ
Ġma a
Ñģ Ð¾Ð½
Ġp a
g h
ĠÐ¿ÑĢ Ð¾Ð¼
ĠÐ´ ÐµÐ·Ð°
ĠÐºÐ°Ð½ Ð°Ð»
ÑĥÐ½ Ð´
ĠÐ¼Ð°ÐºÑģ Ð¸Ð¼Ð°Ð»ÑĮÐ½ÑĭÐ¹
ÑĪ Ð¸ÑĢÐ¾Ð²Ð°ÑĤÑĮ
ÑĪ ÐµÐ½Ð¸Ðµ
ÐµÐ½ Ñģ
Ġ2 3
Ð¾Ð·Ð° Ñī
Ð¿ Ð¿
ĠÑģÐµÑĢ Ð¸Ñı
Ġn orm
ĠÐ½Ð°Ð¿ Ð¾ÑĢÐ½ÑĭÐ¹
ĠÐ¿Ð°ÑĢÐ°Ð»Ð» ÐµÐ»ÑĮÐ½ÑĭÐ¹
ÐºÐ»ÑİÑĩ ÐµÐ½Ð¸Ðµ
Ġfl ang
ĠÐ³ÑĢÑĥ Ð·
ĠÑģÐ¼Ð¾ ÑĤÑĢ
c h
ĠÐ¿Ð¾Ð²Ñĭ ÑĪÐµÐ½Ð½ÑĭÐ¹
ÐµÐ± ÐµÐ½ÑĮ
ÐµÑĤÐ° Ð½
Ð½ Ð¸ÑĤÐµÐ»ÑĮÐ½ÑĭÐ¹
ĠÐ½Ð° Ð²ÐµÑģ
Ġf r
ÑĥÑĢ ÐµÑĤÐ°Ð½
a ce
Ġ3 3
Ġb l
ÑĥÑģ Ðº
Ð¾ÑĤ Ð½ÑĭÐ¹
Ġt s
Ð¾ ÑĦÐ¸Ð»ÑĮ
ĠÑħÐ¾Ð» Ð¾Ð´
ÑĦ Ð»Ð°Ð½
ÑĦÐ¾ÑĢ Ð¸ÑĢÐ¾Ð²Ð°Ð½Ð½ÑĭÐ¹
Ð°ÑĤÐµÐ»ÑĮ Ð½ÑĭÐ¹
Ñĥ Ð·ÐµÐ»
9 9
ĠÐ¾ÑĤ ÑĢÐ°Ñģ
ÐºÑĤÐ¸Ð² Ð¸ÑĢÐ¾Ð²Ð°ÑĤÑĮ
ĠÐ¾ÑĤÑĢÐ°Ñģ Ð»ÑĮ
ĠÐ¿ÐµÑĢÐµÐº ÑĢÑĭÑĤÐ¸Ðµ
ÐºÐ° ÑĢ
Ð¿Ð¾Ð» Ð½
ĠÐº Ñģ
Ð¾ÑĤ Ð´ÐµÐ»ÑĮÐ½ÑĭÐ¹
ĠÐ´ÐµÐ·Ð° ÐºÑĤÐ¸Ð²Ð¸ÑĢÐ¾Ð²Ð°ÑĤÑĮ
Ð¾Ð² Ð¾ÑĩÐ½ÑĭÐ¹
ĠÐ¼ Ðµ
ĠÐ´ Ð¾Ð¿
Ð¾ ÑĨÐ¸Ð½ÐºÐ¾Ð²Ð°ÑĤÑĮ
ĠÑģÑĤÐ¾Ð¹ ÐºÐ¾ÑģÑĤÑĮ
ĠÑĤÑĢÑĥÐ± ÐºÐ°
4 2
Ð¿ÑĢ Ð¾ÑĦÐ¸Ð»ÑĮ
Ð¿ Ð»
ĠÐ³Ð¾ÑĢ ÑıÑĩÐµÐºÐ°ÑĤÐ°Ð½Ð½ÑĭÐ¹
ĠÑĨ ÐµÐ½ÑĤÑĢ
Ġpl ace
Ġplace ment
ĠÐ° Ðº
ÐµÐ¹ ÑģÑĤÐ²Ð¸Ðµ
ĠÑģÐ± Ð¾ÑĢÐ½ÑĭÐ¹
Ġnorm ally
ĠÐº ÑĢÐ°Ñģ
Ġco ol
ĠÐ¾Ð± ÑĢÐ°Ð·Ð½ÑĭÐ¹
Ñĥ ÑĤÐ°
ĠÑĪ Ð¸Ð½Ð°
Ð¾Ð¿ Ð¸ÑĩÐµÑģÐºÐ¸Ð¹
Ð¾ÑĢ Ð¾Ð½Ð°
Ñĳ Ð½ÑĭÐ¹
Ð¾ÑģÑĤÐ¾Ð¹ ÐºÐ¾ÑģÑĤÑĮ
ĠÑħ Ð²
0 6
ĠÐ³Ð¸Ð´ÑĢÐ¾ Ð¸Ð·Ð¾Ð»ÑıÑĨÐ¸Ð¾Ð½Ð½ÑĭÐ¹
ĠÑĥ Ðº
ĠÑģÑĤ Ð¾ÑĢÐ¾Ð½Ð°
ÐµÑģÑĤ ÑĮ
Ñĥ ÑİÑīÐ¸Ð¹
ĠÐ³ÑĢÑĥ Ð½ÑĤ
ĠÑĦ Ð¾Ð»ÑĮ
Ð¿Ð¾Ð» ÑİÑģÐ½ÑĭÐ¹
Ð¿ ÐºÐ¼
Ð»Ð¸ ÑĨ
Ñĥ Ð»ÑĮ
ĠÐ¿ÑĢÑıÐ¼Ð¾ ÑĪÐ¾Ð²Ð½ÑĭÐ¹
Ðº Ð²Ð°
ĠÐ¿Ð¾Ð» Ð¾Ñģ
ĠÐ·Ð°ÐºÐ»Ð°Ð´ Ð½Ð¾Ð¹
ĠÐ¾ Ð»
ĠÐ¿ Ð¾Ñģ
Ð¸Ð½ Ð½ÑĭÐ¹
ĠÐ°Ð½ÐºÐµÑĢ Ð½ÑĭÐ¹
ĠÐ¿ Ð½
Ð» Ð¾ÑĤ
Ð¸Ð½ÑĤ ÐµÑĤÐ¸ÑĩÐµÑģÐºÐ¸Ð¹
ĠÐ¿ÐµÐ½ Ð¾Ð¿Ð¾Ð»Ð¸
ĠÐ·Ð° Ð¶Ð¸Ð¼
Ð¾ÑĢÐ¾Ð¶ Ð½ÑĭÐ¹
ÐºÐ¾Ð½ ÑģÐ¾Ð»ÑĮ
ÑĤ ÑĥÑĢ
Ð² Ñĭ
ĠÑģ Ð¸Ð½ÑĤÐµÑĤÐ¸ÑĩÐµÑģÐºÐ¸Ð¹
ÑģÐµÐº ÑĨÐ¸Ñı
ÐµÐ¼ Ð¾ÑģÑĤÑĮ
i d
ÐµÑĩ Ð½ÑĭÐ¹
Ġ ÑıÑĩ
Ð¾Ð½ ÐµÐ½ÑĤÐ½ÑĭÐ¹
Ġ5 60
ĠÐ²Ñĭ ÑħÐ¾Ð´
Ð¾Ð¿ Ð¾ÑĢÐ°
v el
Ð¾Ð´ Ð¸
ĠÐ½Ð° ÐºÐ¾Ð½ÐµÑĩÐ½Ð¸Ðº
Ð¾ÑĦ ÑĢ
ĠÑģ Ð¾Ð±
Ð¸Ð° Ð»ÑĮÐ½ÑĭÐ¹
ĠÐ¼ ÐµÑģÑĤ
Ġd m
a e
ĠÐ¼ Ð¾Ð¼
ÐµÐº ÑĤ
ÑĨÐµÐ² Ð¾Ð¹
Ġ4 2
Ñĩ Ð¸ÑģÑĤ
Ġp p
Ġh and
ĠÑģÐ¾Ð´ÐµÑĢÐ¶ Ð°Ð½Ð¸Ðµ
Ġ4 000
Ð¾Ð¿Ð¾Ð» Ð¾ÑĩÐ½ÑĭÐ¹
Ġle vel
ĠÐºÐ¾Ð½ ÑģÐ¾Ð»ÑĮ
ĠÐ½Ð°Ð²ÐµÑģ Ð½ÑĭÐ¹
ĠÐ¿Ð¾Ð´ ÐºÐ»ÑİÑĩÐµÐ½Ð¸Ðµ
ĠÑĢÐ° ÑģÑĤÐ²Ð¾ÑĢ
ĠÐ½Ð° Ð³ÑĢÐµÐ²
ĠÐºÐ¾Ð½ÑĤÑĢ Ð¾Ð»ÑĮ
Ð¸ÑĤÐ° Ð½Ð¸Ðµ
Ð¾Ð´Ð²Ð¸ Ð³
ĠÐ± ÐµÐ»ÑĭÐ¹
ĠÑħ Ð¾Ð¼ÑĥÑĤ
ĠÐºÐ» Ð¸Ð½Ð¾Ð²ÑĭÐ¹
Ð°Ñģ Ð»Ð¾Ð½
ĠÐºÐ² Ð²
Ġ14 9
ĠÑįÐ»ÐµÐºÑĤÑĢ Ð¾Ð´Ð²Ð¸Ð³
Ġ0 7
Ð¾Ñģ Ð½Ð°
Ð¼Ð° Ð»ÑĮ
Ð°ÑģÐ»Ð¾Ð½ ÐºÐ°
c k
ĠÑģÑĤÐµÐ½ Ð°
0 4
ĠÑĢÐ°Ð· ÑĢÑĭÐ²
ĠÑįÐ»ÐµÐºÑĤÑĢÐ¾Ð´Ð²Ð¸Ð³ Ð°ÑĤÐµÐ»ÑĮ
ĠÐº Ð¾
ĠÐ²Ð¾Ð»Ð¾Ðº Ð½Ð¾
ĠÐ³ Ð¾ÑĦÑĢ
ĠÐ¶Ñĳ ÑģÑĤ
Ð¿ ÑĢÐ¾Ð²Ð¾Ð´
ĠÐºÐ¾Ð½ ÐµÑĨ
ĠÑģÐ¸Ð³Ð½Ð° Ð»ÑĮÐ½ÑĭÐ¹
00 5
Ñĥ Ð²
Ġoper ated
b le
ĠÐ¿ Ð¾Ð·Ð°
ĠÐ½ ÐµÑĢ
Ġ3 8
Ġop en
ÑģÑĤ Ð°
Ġ x
ĠÐ³Ð¾ÑĢÑıÑĩ Ð¸Ð¹
Ġ1 80
ĠÑģÐ° Ð¼Ð¾
ÑĢÑĥ Ð¿
Ðº Ð»
ĠÐ² ÑĢ
ĠÐ¾Ð± Ð»Ð¸ÑĨ
Ðº ÑĢÑĭÑĪÐºÐ°
ĠÐº Ð¾Ð»ÑĮÑĨÐ¾
Ġ6 60
gh t
Ð¾Ð± Ð°
ĠÐ³ Ð»
18 0
ÑĳÑĢ Ð´
ĠÐ¾Ð» Ð¿Ð¿Ð°
ĠÐ¿ Ð¸ÑĤÐ°Ð½Ð¸Ðµ
ÑĤÐ° ÑĨÐ¸Ñı
fr hf
ĠÑģÐ²ÐµÑĤ Ð¸Ð»ÑĮÐ½Ð¸Ðº
ĠÑĥ ÑĤ
ÐºÐ° Ð²
Ġ149 18
Ġ0 4
ĠÑĢÐ°Ð´ Ð¸
Ð» Ð¾
ĠÑĪÐ° Ð¹Ð±Ð°
ĠÑĤÑĢ Ð¾Ð¿Ð¸ÑĩÐµÑģÐºÐ¸Ð¹
ĠÐºÐ»ÐµÐ¼ Ð¼Ð°
ĠÐ¾Ð´Ð½Ð¾Ð¿ Ð¾Ð»ÑĮÐ½ÑĭÐ¹
Ġs s
Ð¾ÑģÑĤ Ð¾Ñı
ĠÐ¿Ð¾Ð²Ð¾ÑĢÐ¾ÑĤ Ð½ÑĭÐ¹
ĠÐ²Ð· ÑĢÑĭÐ²
Ġ z
ĠÐ·Ð°Ð¿ Ð¾Ð»Ð½Ð¸ÑĤÐµÐ»ÑĮ
ĠÐºÐ¾Ð½ÑĤÐ°ÐºÑĤ Ð½ÑĭÐ¹
Ġma de
ĠÑĤÐ² ÑĳÑĢÐ´
Ð¾Ð¿ Ð¾Ð´
ÐµÑĢÐ¶ Ð¸Ð²Ð°ÑĤÑĮ
ĠÑĦÐ¾Ð»ÑĮ Ð³Ð°
ĠÑĥÑģ Ð¸Ð»
l n
16 0
Ð¸ÑĦÐ¸ÐºÐ° ÑĨÐ¸Ñı
t t
ĠÐ¿ Ð»Ð¸ÑĤÐ°
Ð¾Ð·Ð°Ñī Ð¸Ñī
Ġb f
ĠÐ¸Ð·Ð³Ð¾ÑĤÐ¾Ð² Ð»ÐµÐ½Ð¸Ðµ
Ġr f
ÐµÑĦÐ¾ÑĢÐ¼ Ð¸ÑĢÐ¾Ð²Ð°ÑĤÑĮ
Ġm da
Ð³Ð° Ð¹ÐºÐ°
ĠÐ½Ð°ÑģÑĤ ÐµÐ½Ð½ÑĭÐ¹
Ð¸Ðº Ð¾Ð²ÑĭÐ¹
re e
Ð²ÐµÑĤ Ð²
ĠÐ± Ñĭ
ĠÐ´ Ð¾Ðº
ĠÐ» ÐµÐ³
ĠÑģ Ð½
ÐµÐ·Ð° Ñī
ĠÑĤ ÑĢÐ°Ð½
ĠÐ¿ÐµÑĢ ÑĦÐ¾ÑĢÐ¸ÑĢÐ¾Ð²Ð°Ð½Ð½ÑĭÐ¹
ĠÐ¿Ð¾Ð» ÐºÐ°
ĠÑĢÐµÐ· Ð¸Ð½Ð¾Ð²ÑĭÐ¹
ĠÑģÐ²ÑıÐ· ÑĥÑİÑīÐ¸Ð¹
ĠÐºÐ»ÐµÐ¼ Ð¼Ð½ÑĭÐ¹
ĠÐºÐ¾Ð² ÑĪ
00 7
ĠÐ° Ð²
ĠÐ¾ ÑĢ
Ð¸Ð² Ð°Ð½Ð¸Ðµ
y s
Ġ3 15
Ġ7 6
Ð¿ÐµÑĢ ÐµÑħÐ¾Ð´
ÐµÐ½ Ð°
4 8
Ð»Ð¸Ð·Ð° ÑĨÐ¸Ñı
ĠÐ¿ ÐµÑģ
ĠÐ² Ð¸Ð½ÑĤ
ĠÑĤÐ¾Ð» ÑģÑĤÐ¾Ð»
ĠÑĤÐ¾Ð»ÑģÑĤÐ¾Ð» Ð¸ÑģÑĤÐ¾Ð²Ð¾Ð¹
ĠÐ¾Ðº Ð¾Ð½Ð½ÑĭÐ¹
s e
ĠÑħÐ¾Ð»Ð¾Ð´ Ð½
ĠÐ´ Ð¾Ð»
Ð¸ÑĢÐ¾Ð²Ð°ÑĤÑĮ ÑģÑı
ĠÐ° Ð½Ð°
Ð°Ð» ÐµÐµ
Ñĳ Ð½
3 3
Ġac ti
Ð¾Ð·Ð°ÑīÐ¸Ñī ÑĳÐ½Ð½ÑĭÐ¹
Ñı Ð´
ĠÐ¸Ð· Ð¼ÐµÑĢ
Ġt Ñģ
ĠÑģÐ²ÐµÑĤ Ð¾Ð´Ð¸
ÐºÐ°ÑĢ ÐºÐ°
ĠÑĤÑĢ ÐµÐ±
ĠÐ»Ð°ÑĤ ÑĥÐ½Ð½ÑĭÐ¹
Ð´ Ð°
ÐµÐ´ ÐµÑĦÐ¾ÑĢÐ¼Ð¸ÑĢÐ¾Ð²Ð°ÑĤÑĮ
ĠÐ³Ð¾ÑĢÑıÑĩ ÐµÐ´ÐµÑĦÐ¾ÑĢÐ¼Ð¸ÑĢÐ¾Ð²Ð°ÑĤÑĮ
ĠÑģÐ¿ÐµÑĨ Ð¸ÑĦÐ¸ÐºÐ°ÑĨÐ¸Ñı
Ðº Ñĥ
ĠtÑģ ÑĢÐ°Ð±
ÑģÑĤÐ² ÐµÐ½Ð½ÑĭÐ¹
2 40
ĠÐ± ÑĢ
ĠÐ³ ÑĢÐ°Ð½
ĠÐ¿ÑĢ Ð¾Ð´
Ġh st
24 5
6 9
u s
ĠÐ¾Ð± Ñī
ĠÑĢÐ°Ð´Ð¸Ð° ÑĨÐ¸Ð¾Ð½Ð½ÑĭÐ¹
ĠÐ³ ÑĢ
ÑĦ Ð¸ÐºÑģ
Ð³ ÑįÐ½Ð³
Ġdrive n
ĠÑĢÐ°Ð²Ð½ Ð¾Ð¿Ð¾Ð»Ð¾ÑĩÐ½ÑĭÐ¹
ÐºÐ°ÑĢÐºÐ° Ñģ
ĠÑģÑĤÐ¾Ð¹ ÐºÐ°
Ð´Ð²Ð¸Ð¶ Ð½Ð¾Ð¹
ĠÑħ ÑĢÐ¾Ð¼
Ð¾Ð¶ ÑĥÑħ
Ð» Ð¾Ð½Ð½ÑĭÐ¹
ĠÐ° Ð¼
ĠÐ³Ð¾ÑĦÑĢ Ð¸ÑĢÐ¾Ð²Ð°Ð½Ð½ÑĭÐ¹
ĠÐ±Ð¾Ð» ÑĤ
ĠÐ³Ð¾ÑĢÑıÑĩ Ðµ
m in
ĠÐ²Ð·ÑĢÑĭÐ² Ð¾Ð·Ð°ÑīÐ¸ÑīÑĳÐ½Ð½ÑĭÐ¹
Ð¸ Ð¶
ÑıÐ¶ Ð½Ð¾Ð¹
ĠÐ³ÐµÑĢÐ¼ÐµÑĤÐ¸Ð· Ð°ÑĨÐ¸Ñı
m e
Ġ5 5
Ġ2 30
uc t
Ñı ÑīÐ¸Ð¹
2 100
ĠÑĩÑĥÐ³ ÑĥÐ½Ð½ÑĭÐ¹
Ġt u
ĠÐ³Ð¾ÑĢÑıÑĩÐµ Ð¾ÑĨÐ¸Ð½ÐºÐ¾Ð²Ð°ÑĤÑĮ
ĠÑģÐ¼Ð¾ÑĤÑĢ ÐµÑĤÑĮ
ĠÑĨ Ð¸Ð»Ð¸Ð½Ð´ÑĢ
Ġre si
ĠÐ¿ÑĢÐ¾Ð´ Ð¾Ð»ÑĮÐ½ÑĭÐ¹
Ġelectric ally
ÐµÐ¿ ÑĢ
ĠÑĥÐ¿ Ð»Ð¾ÑĤ
ĠÐ¿Ð¾ÑĢÐ¾ÑĪ ÐºÐ¾Ð²ÑĭÐ¹
Ð¿Ð¾Ð»Ð½ Ð¸ÑĤÑĮ
ĠÐ¾ÑħÐ»Ð°Ð¶Ð´ ÐµÐ½Ð¸Ðµ
ĠÐ»ÐµÐ³ Ð¸ÑĢÐ¾Ð²Ð°ÑĤÑĮ
Ġ5 6
k a
ĠÐ¸Ð· Ð¾Ð»Ð¸ÑĢÐ¾Ð²Ð°ÑĤÑĮ
ĠÐ°Ð½Ð° Ð»Ð¾Ð³
ĠÑį Ðº
ĠÑħ Ð°
ĠÐ´ Ð°Ð»ÐµÐµ
Ð¾Ð¿Ð¾Ð´ ÑĬÑĳÐ¼
ĠÐ° Ñį
ĠÐ° ÑģÐ²
Ġ0 3
ĠÐºÐ°Ð½ Ð°
Ġresi st
Ġ2 19
ÑĢÑĥ Ð³
ĠÐ·Ð°Ð·ÐµÐ¼ Ð»ÐµÐ½Ð¸Ðµ
i z
j r
ÑĢÑĥ ÑģÐ½ÑĭÐ¹
ÑĩÐ¸ÑģÑĤ ÐºÐ°
ĠÐ°ÑģÐ² Ñģ
Ð¾ÑĢ Ð¾Ð½
Ġ14 71
ĠÐº Ð¾Ð¶ÑĥÑħ
ÐµÑĢ Ð¼
ĠÑģ ÑĥÑħÐ¾Ð¹
ÑĨ ÐµÐ½ÑĤÑĢ
Ðµ Ñī
Ð¸Ð½ Ð´ÐµÐ»ÑĮ
Ġ374 2
ĠÐ´Ð²ÑĥÑħ ÐºÐ¾Ð¼Ð¿
Ð· Ð¾Ð½
ÐºÐ· Ñģ
ĠÐ· ÑģÐ´
Ġh e
ĠÑĤÑĢÐµÐ± Ð¾Ð²Ð°Ð½Ð¸Ðµ
ĠÑĪÐ¿ Ð¸Ð½Ð´ÐµÐ»ÑĮ
Ð»ÐµÐºÑĤ Ð¾ÑĢ
ĠÐ¼ ÐµÑĤ
Ð¼ÐµÐ½ ÑĤÐ°ÑĨÐ¸Ñı
ÑĪ Ð¿
Ñĥ Ð¼ÐµÐ½ÑĤÐ°ÑĨÐ¸Ñı
ĠÑģÐº ÑĢÑĥ
ĠÐ´Ð¾Ðº ÑĥÐ¼ÐµÐ½ÑĤÐ°ÑĨÐ¸Ñı
Ð¾Ð¿Ð¾Ð´ÑĬÑĳÐ¼ Ð½Ð¾ÑģÑĤÑĮ
Ð»Ñĥ Ð±
Ð»Ð°ÑģÑĤ Ð¸ÐºÐ¾Ð²ÑĭÐ¹
Ð¾ÑĢ ÑģÐºÐ¸Ð¹
ĠÐ³ÑĢÑĥÐ· Ð¾Ð¿Ð¾Ð´ÑĬÑĳÐ¼Ð½Ð¾ÑģÑĤÑĮ
ĠÑıÑĩ ÐµÐ¹ÐºÐ°
Ġs ys
ĠÐ²Ñĭ ÑĢÐµÐ·Ð½Ð¾Ð¹
ĠÐºÐ¾Ð½ÑģÑĤÑĢÑĥÐºÑĤ Ð¾ÑĢÑģÐºÐ¸Ð¹
Ð± Ð¾Ð»
ĠÐ²Ð²Ð¾Ð´ Ð½ÑĭÐ¹
ĠÑĥ ÑħÐ»
Ð»Ð¸Ð² Ð¾ÑĩÐ½ÑĭÐ¹
ĠÐºÐ° ÑĪÐ¸ÑĢÐ¾Ð²Ð°ÑĤÑĮ
ĠÑĪ Ð¸Ð±
Ð¾Ð½ Ð¸Ðº
ÑĪÐºÐ° ÑĦ
8 8
ÑĩÑĳ ÑĤ
ĠÐ½Ð° Ð´
Ġd uct
ĠÐ¿ Ð¾Ð³
Ð¿ÑĥÑģ Ðº
Ġ6 30
ÐµÐ·Ð°Ñī Ð¸ÑĤÐ½ÑĭÐ¹
0 68
ĠÐ» Ð°Ð¼
Ð»ÐµÑĢ Ð°Ð·
ĠÑģÑĤÐ° Ð»ÐµÑĢÐ°Ð·
ĠÑģÑĤÐ°Ð»ÐµÑĢÐ°Ð· Ð»Ð¸Ð²Ð¾ÑĩÐ½ÑĭÐ¹
Ð²Ñĭ ÐºÐ»ÑİÑĩÐ°ÑĤÐµÐ»ÑĮ
Ð¾Ð» Ð¾Ð²ÐºÐ°
ĠÑĪÐ¸Ð± ÐµÑĢÐ½ÑĭÐ¹
ĠÐ´ Ð¿Ð¼
ĠÐ½ Ð³
Ð¾ Ð¾Ð¿Ð°ÑģÐ½Ð¾ÑģÑĤÑĮ
ĠÐ¿ÑĢÐ¾ÑĦ Ð¸Ð»ÑĮÐ½ÑĭÐ¹
ĠÑħÐ° ÑĢÐ°
ĠÐ¾Ð´ Ð½Ð¾
ĠÑĦ Ð¸Ð»ÑĮ
ĠÐ¿Ð¾Ð¶Ð°ÑĢ Ð¾Ð¾Ð¿Ð°ÑģÐ½Ð¾ÑģÑĤÑĮ
ĠÐ·Ð° Ðº
Ð±Ð¾Ð» ÑĤ
7 00
Ð² ÑĢ
3 50
Ġn s
Ġ3 4
ĠÑģÐ°Ð¼Ð¾ ÑĦÐ¸ÐºÑģ
ĠÑģÐ°Ð¼Ð¾ÑĦÐ¸ÐºÑģ Ð¸ÑĢÐ¾Ð²Ð°ÑĤÑĮÑģÑı
ĠÐºÑĢ Ð¾Ð½ÑĪÑĤÐµÐ¹Ð½
ĠÐºÐ¾Ð½ Ð´
l ow
Ð¾ÑĢ ÑĤ
ĠÐ¾ÑĤ Ð¾Ð¿
ĠÐ´ Ð¸ÑģÐºÐ¾Ð²ÑĭÐ¹
Ð¼ÐµÑĢ Ð°
ĠÐ¾ÑģÐ½Ð¾Ð² Ð°Ð½Ð¸Ðµ
Ġ2 40
ĠÑĦÐ°Ñģ ÐºÐ°
Ñĥ Ð±
Ñĩ Ð¾Ðº
Ð·Ð° Ð³Ð»ÑĥÑĪÐºÐ°
Ð¾Ð¿ÑĢÐ¾ÑħÐ¾Ð´ Ð½Ð°Ñı
ĠÐ¾ÑħÐ»Ð°Ð¶Ð´ Ð°ÑĤÑĮ
9 2
Ð¸ÑĤ ÑĥÐ¼
h dg
Ð°Ð»ÑĮ Ð½Ð¸Ðº
ĠÐºÐ°Ð½ Ð°Ð»ÑĮÐ½ÑĭÐ¹
i f
ĠÐ½ Ð¾
ÑĪ Ð½ÑĭÐ¹
ĠÐ¾Ð± ÑĭÐº
ĠÑĪ ÐºÐ°
Ð½Ð¾Ð² ÐµÐ½Ð½ÑĭÐ¹
ĠÐ¾Ð±ÑĭÐº Ð½Ð¾Ð²ÐµÐ½Ð½ÑĭÐ¹
Ð¾ÑĢÐ¾Ð½ Ð½Ð¸Ð¹
Ð± Ð¶ÐµÐ½Ð¸Ðµ
ÐºÑĤ ÐµÑĢ
Ð¾ÑģÐ½Ð° Ð±Ð¶ÐµÐ½Ð¸Ðµ
ĠÑĤ ÐµÐ»Ðµ
ÑĢÐ¾ÑģÑģ ÐµÐ»ÑĮÐ½ÑĭÐ¹
ĠÐ¾Ð¿ Ð¾ÑĢÐ½ÑĭÐ¹
Ġsys te
ĠÑĥ Ñĩ
Ð¸Ð»ÑĮ Ð·Ð°
ĠÐ»Ð°Ð¼ Ð¿Ð°
ĠÐºÑĢÐµÐ¼ Ð½Ð¸Ð¹
ĠÑĦÐ¸Ð»ÑĮ ÑĤÑĢ
ĠÐ» Ð°Ðº
Ġsh e
ÑĢÐ° Ð¶Ð´
ÑģÑģ Ð¾Ð²ÑĭÐ¹
8 5
iz ed
Ġpn ae
ĠÑģÐµÐº ÑĨÐ¸Ñı
ĠÐ¾ ÑģÑĤ
ĠÑģÐ²ÐµÑĤÐ¾Ð´Ð¸ Ð¾Ð´Ð½ÑĭÐ¹
Ġth e
Ñĭ ÑĢ
Ð³ÑĢ Ð°ÑĤÑĮ
ĠÐ²Ð½ Ðµ
ĠÐ²ÑģÑĤ Ð°Ð²ÐºÐ°
ĠÐ´ Ð¾ÑĢÐ¾Ð¶Ð½ÑĭÐ¹
Ġshe et
ĠÐ½Ð¾ÑĢÐ¼Ð° Ð»ÑĮÐ½ÑĭÐ¹
ĠÑĪÐºÐ° ÑĦ
Ġ15 9
2 35
Ġh s
ĠÐº ÑĢÐ¾Ð²
u l
ĠÐ¿Ð»Ð°ÑģÑĤÐ¸Ðº Ð°ÑĤ
ÑĥÑĢÐµÑĤÐ°Ð½ Ð¾Ð²ÑĭÐ¹
Ġbl f
1 15
Ð°ÑĤÑĮ ÑģÑı
ĠÐ´Ð¾Ð» Ð¶Ð½ÑĭÐ¹
ĠÐ³ ÑĨ
ĠÐ·Ð° Ð³Ð»ÑĥÑĪÐºÐ°
ĠÐ½Ðµ Ð¾Ð±
ÑĦÐ»Ð°Ð½ ÐµÑĨ
ĠÐ° Ñģ
ĠÐ¿Ð»Ð°ÑģÑĤÐ¸Ðº Ð¾Ð²ÑĭÐ¹
ÑĢÐ°Ð¶Ð´ ÐµÐ½Ð¸Ðµ
ĠÐ¼Ð°ÑĢÐº Ð¸ÑĢÐ¾Ð²Ð¾ÑĩÐ½ÑĭÐ¹
ĠÐºÑĢÐ°Ñģ Ð½ÑĭÐ¹
ĠÑĢÐ°Ð± Ð¾ÑĤÐ°
ĠÑĢÐ°Ð·Ð¼Ðµ Ñī
Ð· Ð°ÑĤÐ²Ð¾ÑĢ
Ġm an
ĠÐ¿ÐµÑĢ ÑĦ
an t
ĠÐ¾ÑĤÐ²ÐµÑĤ Ð²
Ġi s
ĠÐ¼ Ñĥ
ÐµÐ½ Ð¸ÑĤÑĮ
Ð½Ñĥ ÑĤÑĭÐ¹
ĠÑģÐ²ÑıÐ· ÑĮ
Ð°ÑĤ ÑĩÐ¸Ðº
ĠÐ± Ð¸ÑĤÑĥÐ¼
Ð¸ÑĤ ÐºÐ°
ĠÑģÑĤÐµÐºÐ»Ð¾Ð¿ Ð»Ð°ÑģÑĤÐ¸ÐºÐ¾Ð²ÑĭÐ¹
ĠÐ°ÑĢ Ð¼
Ġ7 2
ÑĨÐµÐ½ÑĤÑĢ Ð¸ÑĩÐµÑģÐºÐ¸Ð¹
ĠÐ¿Ð¾Ñģ Ð»Ðµ
ÐºÑĤÐµÑĢ Ð¸ÑģÑĤ
1 10
Ġd o
ÐºÑĤÐµÑĢÐ¸ÑģÑĤ Ð¸ÐºÐ°
ĠÐ» Ð°
ĠÐ´Ñĭ Ð¼
Ñĥ ÑĢÑĥÐ¿
ÐµÐ² ÑĭÐ¹
ĠÐ¾Ð³Ð½ ÐµÐ·Ð°ÑīÐ¸ÑĤÐ½ÑĭÐ¹
Ð¾Ð¿ÑĢÐ¾Ð²Ð¾Ð´ Ð½Ð¾ÑģÑĤÑĮ
ĠÐ° Ð·
000 1
Ġ Ñı
ĠÑĤÐµÐ¿Ð» Ð¾Ð¿ÑĢÐ¾Ð²Ð¾Ð´Ð½Ð¾ÑģÑĤÑĮ
3 4
Ð°ÑĢ Ð¼Ð°ÑĤ
Ġman ual
ÑĥÐ´ Ð°
Ð¿ Ð²
Ð¾ÑģÑĤÐ¾Ñı Ð½Ð½ÑĭÐ¹
ĠÑĢÐ° ÑģÑĤ
ĠÐ²Ñĭ Ð´Ð²Ð¸Ð¶Ð½Ð¾Ð¹
ĠÐ´Ð²ÑĥÑħÐºÐ¾Ð¼Ð¿ Ð¾Ð½ÐµÐ½ÑĤÐ½ÑĭÐ¹
Ðº Ð¾
Ð± Ð¾ÑĢ
Ġ5 8
ĠÑī ÐµÐ±ÐµÐ½ÑĮ
ĠÐ¼Ñĥ Ð»Ð»
ĠÐ¿ Ð¾ÑģÑĤÐ¾ÑıÐ½Ð½ÑĭÐ¹
ÑĢÐ° Ð¼
ĠÐ¿ÐµÑģ Ñĩ
ĠÑĤÐ¾Ðº Ð¾Ð¿ÑĢÐ¾Ð²Ð¾Ð´
ĠÐ½ Ð¸Ð¶
ĠÑģÐ½ ÑıÑĤÑĮ
Ð¾Ð¼Ðµ ÑĤÑĢ
Ġh f
000 4
ĠÐ½Ð¸Ð¶ Ð½Ð¸Ð¹
Ð´ÐµÐ» ÐºÐ°
ĠÑĤÐµÑĢÐ¼ Ð¾ÑģÑĤÐ¾Ð¹ÐºÐ¾ÑģÑĤÑĮ
ĠÑĪ ÐµÑģÑĤÐ¸
Ġd am
Ġf e
ĠÑħ Ð¸Ð¼
ĠÐ½ ÐµÐ¿
ĠÑĦ Ð¾ÑģÑĦ
Ð´ ÐµÐ½Ð¸Ðµ
Ñį Ð»ÐµÐºÑĤÑĢ
ĠÐ¿Ð½Ð°Ñį Ð³
t h
ĠÐ³ Ð¾Ð»Ð¾Ð²ÐºÐ°
ÑģÑĤÐ° ÐºÐ°Ð½
Ġbel low
ÑĥÐ² ÑģÑĤÐ²
ĠÐ¾ ÑĨÐ¸Ð½Ðº
Ġ8 8
ĠÑĤÐµÐ»Ðµ ÑĦÐ¾Ð½Ð½ÑĭÐ¹
ĠÑĤÐ¾ÐºÐ¾Ð¿ÑĢÐ¾Ð²Ð¾Ð´ ÑıÑīÐ¸Ð¹
Ġbellow s
ĠÐ³ Ð¸Ð»ÑĮÐ·Ð°
Ð± Ð¾Ð²Ð¾Ð¹
Ð° Ð±Ð°ÑĢÐ¸ÑĤÐ½ÑĭÐ¹
ĠÐ´ ÑĢÐ¾ÑģÑģÐµÐ»ÑĮÐ½ÑĭÐ¹
Ġdam per
Ð»Ð¸ Ð·
Ð¼ ÐµÐ½ÑĤ
ĠÑĪÐµÑģÑĤÐ¸ Ð³ÑĢÐ°ÑĤÑĮ
Ðº Ð²ÑĤ
ĠÐ¿ÐµÑģÑĩ Ð°Ð½ÑĭÐ¹
Ð´ Ð¾Ñģ
ĠÑĤÐ¾Ð»Ñī Ð°
ĠÐ¼Ð° Ð»Ð¾Ð³
Ð° Ð»Ñİ
o st
ĠÑĤ ÐµÐº
ĠÐ¼Ð°Ð»Ð¾Ð³ Ð°Ð±Ð°ÑĢÐ¸ÑĤÐ½ÑĭÐ¹
Ð³ÑĢÑĥ Ð½ÑĤ
ĠÐ½Ð° Ñģ
ĠÑģÐºÑĢÑĥ ÑĤÐºÐ°
r al
ĠÑĢÐµÐ·ÑĮ Ð±Ð¾Ð²Ð¾Ð¹
Ġof f
ĠÑĥÐ´Ð»Ð¸Ð½ ÐµÐ½Ð¸Ðµ
1 25
ĠÑħÐ°ÑĢÐ° ÐºÑĤÐµÑĢÐ¸ÑģÑĤÐ¸ÐºÐ°
ĠÐ²ÑģÐ¿ ÐµÐ½Ð¸ÑĤÑĮ
ĠÐ´Ð²ÑĥÑħ ÑģÐ»Ð¾Ð¹Ð½ÑĭÐ¹
p a
ĠÑĦÐ¾ÑģÑĦ Ð¾ÑĢ
Ð¾Ð» Ð°
ĠÐ° ÑģÐ¿
Ð¾Ð¶ ÐµÐ½Ð¸Ðµ
Ġ20 10
ĠÐ¼Ð½Ð¾Ð³ Ð¾Ð¿
ĠÐ»ÐµÑģÑĤÐ½ Ð¸ÑĩÐ½ÑĭÐ¹
ĠÐºÐ¾Ð¼Ð± Ð¸Ð½
le x
ÑĢÐ¾Ð² Ð¾Ð»Ð¾ÑĩÐ½ÑĭÐ¹
Ð¾Ð»ÑĮ Ð·
Ð¼ Ðº
Ñį Ð¿
ĠÐ¿Ð»Ð°ÑģÑĤ Ð¼Ð°
v er
Ð³ ÐºÐ¸Ð¹
9 1
ÑģÐ¾ÐµÐ´Ð¸Ð½ Ð¸ÑĤÐµÐ»ÑĮÐ½ÑĭÐ¹
Ġ j
ĠÐ¼Ð°ÑĢ Ð³Ð°Ð½
ĠÐ¿ÑĢÐ¸ Ð¼
Ġresist ance
Ð¾ÑĢÐ° ÑĨÐ¸Ñı
ĠÑĤ Ð¾ÑĩÐ½Ð¾ÑģÑĤÑĮ
ĠÐºÐ¾Ð¼Ð±Ð¸Ð½ Ð¸ÑĢÐ¾Ð²Ð°Ð½Ð½ÑĭÐ¹
t m
ÑĦ ÑĦ
Ð» Ð¾Ð²
ĠÐ¿ÐµÑĢÑĦ Ð¾ÑĢÐ°ÑĨÐ¸Ñı
ĠÐ½ÐµÐ¾Ð± ÑħÐ¾Ð´
Ð¾Ð¿ ÐµÑĢ
ĠÐ½Ð°Ð¿ ÑĢÐ°Ð²Ð»ÐµÐ½Ð¸Ðµ
ĠÑĤÐµÑħÐ½ Ð¸ÑĩÐµÑģÐºÐ¸Ð¹
ĠÐ± Ð°Ð»
ĠÐ¼Ð°ÑĢÐ³Ð°Ð½ ÐµÑĨ
ĠÐ²Ð¸Ð½ÑĤ Ð¾Ð²Ð¾Ð¹
Ġsh ut
Ġ27 3
Ñı ÑĢÑĥÑģÐ½ÑĭÐ¹
Ð¸Ð½Ð° ÑĨÐ¸Ñı
ĠÐ½ÐµÐ¾Ð±ÑħÐ¾Ð´ Ð¸Ð¼ÑĭÐ¹
ĠÑĤ Ð¾ÑĢ
Ġ9 1
ĠÐºÐ¾Ð¼Ð± Ð¸Ð½Ð°ÑĨÐ¸Ñı
ĠÑĢÐ°Ð· ÑĢÐ°Ð±Ð¾ÑĤÐºÐ°
5 2
Ð¾Ð´ ÐºÐ°
Ġ1 100
ĠÑī Ð¸ÑĤ
Ġopen ed
Ġg ost
Ð²Ð° Ñı
ĠÐ³Ð¸Ð´ÑĢÐ¾ Ð¸Ð·Ð¾Ð»ÑıÑĨÐ¸Ñı
10 1
Ñģ Ð²Ð°Ñı
Ð° Ð¼ÐµÑĢÐ½ÑĭÐ¹
ÐµÐ¿ ÑĢÐ¾Ð¼
Ð¾Ðº ÑĢÐ°Ñģ
ÐµÐ¿ÑĢÐ¾Ð¼ ÑĭÑĪÐ»ÐµÐ½Ð½ÑĭÐ¹
Ñį Ð¿Ð½Ð³
Ġ0 6
Ġs c
ĠÐ¾Ð´Ð½Ð¾Ðº Ð°Ð¼ÐµÑĢÐ½ÑĭÐ¹
Ð°ÑĢ ÑĮ
ĠÐ¾Ð±Ñī ÐµÐ¿ÑĢÐ¾Ð¼ÑĭÑĪÐ»ÐµÐ½Ð½ÑĭÐ¹
Ñĭ ÑĤ
Ð¾Ñģ Ð½ÑĭÐ¹
ĠÐ»Ð°Ðº Ð¾ÐºÑĢÐ°Ñģ
ĠÑģÑĤ ÑĭÐº
Ð± ÑĢÐ°
Ð¸ÑĤÐµÐ»ÑĮ Ð½Ð¾
Ð¸ÑĦ ÑĥÐ³
ĠÐ²ÑģÑĤ ÑĢÐ¾
ĠÑĨÐµÐ½ÑĤÑĢ Ð¸ÑĦÑĥÐ³
Ðµ ÑĦ
Ġs f
ĠÑĦ ÑĢÐ°
ĠÑĨÐµÐ½ÑĤÑĢÐ¸ÑĦÑĥÐ³ Ð¸ÑĢÐ¾Ð²Ð°ÑĤÑĮ
ĠÑģ Ð¸
ÑĤÑĢÑĥÐ± ÐºÐ°
ĠÐ²ÑģÑĤÑĢÐ¾ Ð¸ÑĤÑĮ
ÑĪ Ð°
2 000
ĠÑį Ð»Ð°ÑģÑĤ
ĠÐ° Ð³ÑĢ
Ġ0 20
9 8
ĠÑĥ Ð·ÐµÐ»
ĠÐºÐ¾Ð» Ð»ÐµÐºÑĤÐ¾ÑĢ
ÑĳÑĢ Ð½ÑĭÐ¹
ÑĥÑĤÐ° Ð²ÑĢ
Ġ19 90
ĠÐ²Ñĭ ÑĤ
ĠÑģÐ¿ Ð»Ð°Ð²
Ð»Ð¸Ð·Ð° ÑĨÐ¸Ð¾Ð½Ð½ÑĭÐ¹
ÑĢÑĥ Ð±
Ġ17 00
ĠÐ¿ÑĢÐ¾ÐºÐ»Ð°Ð´ Ð¾ÑĩÐ½ÑĭÐ¹
ĠÐºÐ¼ Ð´
ĠÐ¾ÑĤ Ð½Ð¾Ñģ
Ð» Ð¸ÑĩÐµÑģÐºÐ¸Ð¹
Ġ3 25
ĠÐºÑĢÐµÐ¿Ñĳ Ð¶Ð½ÑĭÐ¹
a t
ĠÐ² ÐµÑĢÑħ
Ð¸ÑĦ ÑĦ
Ð°Ð»Ñİ Ð·
ĠÐ¶ Ð°Ð»ÑİÐ·
ĠÑĨ Ð¸Ðº
Ð» ÐµÐ½ÑĤÐ°
Ð»Ð¸ ÑĢÑĥ
ĠÐºÐ°Ð½Ð° Ð»Ð¸Ð·Ð°ÑĨÐ¸Ð¾Ð½Ð½ÑĭÐ¹
ĠÐºÐ¾Ð½ Ð¸ÑĩÐ½Ð¾ÑģÑĤÑĮ
6 2
ÐµÐ¹ Ð½ÑĭÐ¹
ĠÐ¿Ð¾Ð³ ÑĢÑĥ
ÑĥÑĩ ÐµÑģÑĤÑĮ
ĠÐ¿Ð¾Ð´Ð²ÐµÑģ ÐºÐ°
7 2
a in
ĠÐ³Ð½Ñĥ ÑĤÑĭÐ¹
Ġ3 1
ĠÑĦÑĢÐ° ÐºÑĨÐ¸Ñı
ĠÐ² Ð¸Ð±
ĠÐ±Ð¸ÑĤÑĥÐ¼ Ð½ÑĭÐ¹
ĠÑģÑĤÐ° ÑĢ
ĠÑĤÐµÐº ÑĥÑĩÐµÑģÑĤÑĮ
ĠÐ¿Ð»Ð°ÑģÑĤÐ¼Ð° ÑģÑģÐ¾Ð²ÑĭÐ¹
Ð¾Ñħ ÑĢÐ°Ð½
Ñį Ð½
ÑĬÑĳÐ¼ Ð½ÑĭÐ¹
ĠÐ¿Ð¾ÑĢÐ¾ÑĪ Ðº
Ġ200 9
ĠÐºÐ¾Ð¼Ð¿ Ð»
ĠÑģÐ¾ÑĢ ÑĤ
Ġc ar
ĠÐ²ÐµÑĢÑħ Ð½Ð¸Ð¹
Ġ2 9
ĠÐ¿Ð¾ÑĤ Ð¾Ð»Ð¾ÑĩÐ½ÑĭÐ¹
ec k
ĠÐ¾Ð´Ð½ Ð¾ÑģÑĤ
ĠÑĨÐ¸Ð½Ðº Ð¾Ð½Ð°
n c
ÑıÐ¶ ÐºÐ°
ĠÑħÐ¾Ð» Ð¾Ð´Ð½ÑĭÐ¹
ÑĥÐ³ Ð¾Ð»
Ð³ÑĢÐµÐ² Ð°ÑĤÐµÐ»ÑĮ
Ð¾Ð¿Ð¾Ð» Ð½Ð¸ÑĤÐµÐ»ÑĮÐ½ÑĭÐ¹
ĠÐ¼ Ð°Ð½
6 4
Ġa l
Ð¸Ð²Ð° ÐµÐ¼Ð¾ÑģÑĤÑĮ
Ġ00 3
o p
ĠÐ¾ ÑĩÐ¸ÑģÑĤÐºÐ°
ÐµÐº ÑĤÐ¾ÑĢ
ĠÑĤÑĢÐµÑħ ÑģÐ»Ð¾Ð¹Ð½ÑĭÐ¹
Ġdm f
ĠÐ¿ Ð°ÑĤ
4 7
Ġ2 400
Ð¾Ð¿ÑĢÐ¾Ð²Ð¾Ð´ Ð½ÑĭÐ¹
ÐµÐ³Ñĥ Ð»Ð¸ÑĢÑĥ
ÑĳÐ½ ÐºÐ°
ĠÐº Ð´
Ð¸ÑĢÐ¾Ð² Ð°Ð½Ð¸Ðµ
ĠÑĩ ÐµÑĤ
Ġs i
Ġ200 8
b on
ĠÐ´ Ð¾Ð¿Ð¾Ð»Ð½Ð¸ÑĤÐµÐ»ÑĮÐ½ÑĭÐ¹
Ġpi pe
Ð¾Ð¿ÑĢ Ð¾ÑĩÐ½ÑĭÐ¹
Ð·Ð° Ð¶Ð¸Ð¼
ĠÑħÐ¸Ð¼ Ð¸ÑĩÐµÑģÐºÐ¸Ð¹
n e
Ð¾Ð½Ð° Ð³ÑĢÐµÐ²Ð°ÑĤÐµÐ»ÑĮ
Â ±
ÐµÑĤ ÑĩÐ°ÑĤÑĭÐ¹
Ð¿Ð° Ð·Ð¾Ð½
ĠÑĨ Ð¾Ðº
Ð¾Ð´ ÐµÑĨ
ĠÐ´Ð¸Ð° Ð¿Ð°Ð·Ð¾Ð½
Ġ1 35
ÐµÑĢÐ° Ð¼
ÑĨ ÐµÐ¿
ĠÐ¼ ÐµÐ»
Ð¼Ðµ ÑĤÐºÐ°
ĠÐ¿ÑĢÐ¸ ÑģÐ¾ÐµÐ´Ð¸Ð½Ð¸ÑĤÐµÐ»ÑĮÐ½ÑĭÐ¹
0 7
Ġcar bon
ĠÐ³ÐµÑĢÐ¼ÐµÑĤ Ð¸ÑĩÐ½Ð¾ÑģÑĤÑĮ
4 9
Ð» Ð¸ÑģÑĤ
Ġ1 30
ĠÐº ÑĥÐ³
ĠÐ´ Ð¸ÑģÑĤ
ac k
Ġi Ð½
ĠÐ¼ÑĥÐ»Ð» Ð¸ÑĤÐ¾Ðº
ĠÑģÐ²Ð°ÑĢ Ð¸Ð²Ð°ÐµÐ¼Ð¾ÑģÑĤÑĮ
5 1
Ðº Ð±
ÑĥÐ½Ð´ Ð°Ð¼
Ð°ÑĤ Ð¸Ð²Ð½ÑĭÐ¹
Ġa ng
ĠÑģÐ¿ Ð»
Ð² ÐµÐ½Ð½ÑĭÐ¹
ĠÑĦÐ°Ñģ Ð°Ð´
ĠÐ· Ð°ÑģÐ»Ð¾Ð½ÐºÐ°
ĠÐ¾ÑĤÐ½Ð¾Ñģ Ð¸ÑĤÐµÐ»ÑĮÐ½ÑĭÐ¹
ĠÐ²ÑĭÑĤ ÑıÐ¶Ð½Ð¾Ð¹
ĠÐº ÐµÑĢÐ°Ð¼
Ġ4 1
ÑģÐº Ð¾Ð±Ð°
ÑģÐ¾ÐµÐ´Ð¸Ð½ Ð¸ÑĤÐµÐ»ÑĮ
4 50
ÐµÐ½ Ð¸Ñı
Ġang le
ÐµÐ· ÐºÐ°
ÐºÑĤ Ð¸Ð²Ð½ÑĭÐ¹
Ð² ÐµÑĢ
ĠÐ¿Ð¾Ð» Ð½
Ð¼ Ð¾Ð´Ñĥ
ĠÐ¾ÑĤ Ð¼ÐµÑĤÐºÐ°
Ð¸ÑĢÐ¾Ð² ÐºÐ°
35 5
ĠÑĨÐ¸Ð½Ðº Ð¾Ð²ÑĭÐ¹
i ed
Ñī Ð°ÑĤÐµÐ»ÑĮ
ĠÑį Ð¼Ð°Ð»ÑĮ
Ġ20 16
Ð½Ñĥ ÑĤÑĮ
ĠÐ²ÐºÐ»ÑİÑĩ Ð°ÑĤÑĮ
ĠÐ´Ð¸Ð° Ð¼
ĠÐ°Ð»ÑİÐ¼Ð¸Ð½ Ð¸Ð¹
t s
v ation
ÐµÑĢ ÐµÐ²
7 3
ĠÑĨÐ¾Ðº Ð¾Ð»ÑĮ
ĠÑģ Ð¶
ĠÐ¾ÑĢ Ð³Ð°Ð½
ĠÐºÑĢÐ¾Ð² ÐµÐ»ÑĮÐ½ÑĭÐ¹
Ð»Ñı ÑĤÐ¾ÑĢ
Ð²Ðµ ÑīÐ°ÑĤÐµÐ»ÑĮ
ÐµÐ³ÑĥÐ»Ð¸ÑĢÑĥ ÐµÐ¼ÑĭÐ¹
ĠÑĨÐ²ÐµÑĤ Ð½Ð¾Ð¹
Ð½ Ð¶
ĠÑģÑĤÐµÐ½ Ð¾Ð²ÑĭÐ¹
ir c
k c
Ġ2 80
ÐºÐ»Ð°Ð´ ÐºÐ°
Ġch eck
Ð¾Ñģ Ð¸ÑĤÐµÐ»ÑĮ
ĠÑĢ ÐµÐ»Ðµ
ÐµÐº Ð¾ÑĢ
ĠÐ°Ð½ÑĤÐ¸ÐºÐ¾ÑĢÑĢÐ¾Ð· Ð¸Ð¹Ð½ÑĭÐ¹
Ð¼Ð¾Ð´Ñĥ Ð»ÑĮ
ĠÐ½ Ð¸Ðº
Ġpn k
ĠÑĤ Ñĭ
ĠÐ¿ÑĢÐ¾ ÑĳÐ¼
ĠÑģÐ¸Ð³Ð½Ð° Ð»Ð¸Ð·Ð°ÑĨÐ¸Ñı
if ied
Ġlo ck
ĠÑĨÐ¸Ð½ÐºÐ¾Ð½Ð° Ð¿Ð¾Ð»Ð½Ð¸ÑĤÑĮ
c s
ÑģÑĤÑĢÑĥ Ð±
ĠÐ¸Ð½ Ð´
ĠÐ¿Ð¾Ð´Ð²ÐµÑģ Ð½Ð¾Ð¹
ĠÐ´ ÐµÑĢÐµÐ²
ÐµÐ³Ð¾ÑĢ Ð¾Ð´ÐºÐ°
ĠÐºÐ¾Ð½ ÑĤÑĥÑĢ
Ð³ÑĢÑĥÐ½ÑĤ Ð¾Ð²ÐºÐ°
Ġq nc
ĠÐ±Ñĭ ÑĤÑĮ
ĠÑĪ Ð¾Ð²
Ð¿Ðº Ð²ÑĤ
ĠÐ³Ð» ÑĥÑħÐ¾Ð¹
ĠÐ² Ð»Ð°
Ð° ÑĩÐ°
Ġe x
ĠÐ· Ðº
ĠÐ¼ÐµÑģÑĤ Ð¾
ĠÐ´Ð²ÑĥÑħ ÐºÐ°
Ð¶ Ðµ
ĠÐ¿ÑĢÐµÐ´ Ð¾ÑħÑĢÐ°Ð½
ÑĦ ÑĤ
ĠÑĩ ÑĳÑĢÐ½ÑĭÐ¹
ĠÐ¿ÑĢÐ¾Ð¼ ÑĭÑĪÐ»ÐµÐ½Ð½ÑĭÐ¹
Ġhs l
ĠÐ½ ÐµÑģ
ÐºÑĢ Ð¾Ð½ÑĪÑĤÐµÐ¹Ð½
ĠÑĤÐ°Ðº Ð¶Ðµ
Ð¾Ðº Ð¾Ð²
ĠÐ´ ÐµÐºÐ¾ÑĢ
ĠÑĤ Ð·
ÑĥÐ½ ÐºÑĤ
ÐµÑĢÐ¶ Ð°ÑĤÐµÐ»ÑĮ
Ð¿ÑĢ Ð¾ÑħÐ¾Ð´
ĠÐ²Ð¾Ð·Ð´ ÐµÐ¹ÑģÑĤÐ²Ð¸Ðµ
ĠÐ¿ Ð°ÑĢ
ĠÐ½ÐµÑĢ ÐµÐ³ÑĥÐ»Ð¸ÑĢÑĥÐµÐ¼ÑĭÐ¹
Ñĳ Ð³ÐºÐ¸Ð¹
ĠÐ½Ð°ÑĢ ÐµÐ·ÐºÐ°
ÑĨ ÐµÐ½ÑĤÐ½ÑĭÐ¹
Ð¾Ð¿ Ð°Ð»
ĠÑĩÑĥÐ³ ÑĥÐ½
ÑĪ Ð¸ÑĤÑĮ
Ġc ent
ĠÐ± Ð¾ÐºÐ¾Ð²
le te
Ð»Ð¾Ð² Ð°ÑĤÐ½ÑĭÐ¹
Ð· Ð¾Ð²ÑĭÐ¹
Ġcomp lete
Ñı Ð½Ð½ÑĭÐ¹
Ð¾Ð¿Ð°Ð» ÑĥÐ±
Ð¸ ÐµÐ½ÑĤ
Ġun ified
5 7
Ð» Ð¾ÑĩÐ½ÑĭÐ¹
Ġcent ral
ĠÐºÐ¾ Ñį
Ð¿ÑĢÐ¾ÑħÐ¾Ð´ ÐºÐ°
Ð»Ñı ÑĤ
Ð°ÑĢÑĮ ÐµÑĢ
Ġ1 90
ĠÐ²Ð¾Ð´ Ð¾
ĠÑĤÐ²ÑĳÑĢÐ´ Ð¾ÑģÑĤÑĮ
ĠÐ¾Ð´Ð½Ð¾ ÑıÑĢÑĥÑģÐ½ÑĭÐ¹
ÑĢÑĥÐ± Ð¾Ðº
ÐµÑĢ Ð²
Ġ10 5
ĠÐ¼ Ð»
ĠÐ¾ ÐºÐ¾Ð½
ssur e
re ssure
ĠÐºÐ²Ð² Ð³ÑįÐ½Ð³
ĠÐ¶ÑĳÑģÑĤ ÐºÐ¾ÑģÑĤÑĮ
ĠÑĤ ÑĥÑĢ
Ġ2 001
9 3
Ġ0 15
Ñģ ÑĦÐ¾ÑĢ
ĠÐºÐ¾Ð½ ÑĨÐµÐ½ÑĤÑĢÐ¸ÑĩÐµÑģÐºÐ¸Ð¹
ĠÐ½Ð°Ð¿ Ð¾Ð»ÑĮÐ½ÑĭÐ¹
Ð¿Ð° ÑĩÐ¾Ðº
Ġc s
Ð°Ð½ Ð¸Ñı
Ġ20 14
Ð°ÑĢÐ¼Ð°ÑĤ ÑĥÑĢÐ½ÑĭÐ¹
ĠÐ³ÐµÑĢÐ¼ÐµÑĤÐ¸Ð· Ð¸ÑĢÐ¾Ð²Ð°ÑĤÑĮ
ĠÐ´ ÐµÐ¹ÑģÑĤÐ²Ð¸Ðµ
ĠÑĤ d
ĠÐ¼Ð¸Ð½ÐµÑĢÐ° Ð»Ð¾Ð²Ð°ÑĤÐ½ÑĭÐ¹
Ġ4 6
ĠÐ¼Ðµ Ð¶
ĠÐ¾Ð±Ð»Ð¸ÑĨ Ð¾Ð²ÐºÐ°
ĠÐ» ÑĳÐ³ÐºÐ¸Ð¹
ĠÑĦ Ð¾ÑĢ
ĠÐ¼Ð¸Ð½ ÑĥÑģ
ÐµÐ½ ÑĨ
Ġg al
ĠÑĢÐµ Ð¶Ð¸Ð¼
ĠÐ²ÐºÐ»ÑİÑĩ Ð¸ÑĤÐµÐ»ÑĮÐ½Ð¾
ĠÐ±ÐµÐ· Ð¾Ð¿Ð°Ñģ
ĠÑĢÐ° ÑģÑĤÑĢÑĥÐ±
Ñħ Ð°
Ñī Ð¸Ðº
g e
ĠÑĥÑģÐ¸Ð» Ð¸ÑĤÑĮ
ÑĭÐ² Ð°ÑĤÑĮ
5 3
ĠÑģ Ð°Ð»ÑĮÐ½Ð¸Ðº
Ġflang es
ĠÑģ ÐµÑĤÑĮ
Ð± Ð°Ð²ÐºÐ°
ÑĪ Ð¸ÑĢ
ĠÑĨ ÐµÐ»ÑĮ
ĠÐ²ÑĭÑģÐ¾Ðº Ð¾Ð¿ÑĢÐ¾ÑĩÐ½ÑĭÐ¹
ĠÑĢÐ°Ð· Ð²ÐµÑĤÐ²
Ð½ Ð¾ÑģÑĤ
Ġs ol
ÑĥÑħ Ð»
ĠÑįÐ»Ð°ÑģÑĤ Ð¸ÑĩÐ½ÑĭÐ¹
Ð¸ÑĨ Ð¸ÐµÐ½ÑĤ
ÑģÑĦÐ¾ÑĢ Ð¼Ð°ÑĤ
Ġ0 9
03 6
ĠÑģÑĤÐµÐºÐ» Ð¾
ĠÐ¿Ð¾Ð»Ð¾Ñģ Ð¾Ð²Ð¾Ð¹
ĠÐºÐ¾Ñį ÑĦÑĦ
Ð½ ÑĮ
ÑĥÐ¿ Ð¾Ð»ÑĮÐ½ÑĭÐ¹
ĠÑĢÐ°Ð´Ð¸ ÑĥÑģ
Ð² Ð½ÑĥÑĤÑĢ
ĠÐºÐ¾ÑįÑĦÑĦ Ð¸ÑĨÐ¸ÐµÐ½ÑĤ
Ð¾Ñĩ Ð½
8 4
v an
ĠÐ´Ð¾Ð¿ ÑĥÑģÐº
Ġc irc
ĠÐ¿ÑĢÑĥÐ¶ Ð¸Ð½Ð½ÑĭÐ¹
Ġc t
ĠÐ´Ð¾Ð¿ ÑĥÑģÑĤ
ĠÑĥÑĤ ÐµÐ¿Ð»
Ñĭ Ñĩ
ĠÐ¾ÑģÐ½Ð¾Ð² Ð½Ð¾Ð¹
ĠÐ¾Ð¿ Ð°Ñģ
ĠÐ¿ÐµÑĢ Ðµ
6 7
Ġgal van
ĠÐ¿ÑĢÐ¾Ð²Ð¾Ð´ ÐºÐ°
ĠÐºÐ¾ÑĢ Ð¾ÑĤ
Ð°ÑģÑĤ ÑĮ
ii i
ĠÑĤÑĢÐ°Ð½ ÑģÐ¿
ĠÐ¿Ð¾Ð²Ñĭ Ñģ
ĠÐ¾Ð¿Ð°Ñģ Ð½Ð¾ÑģÑĤÑĮ
ĠÐºÐ¾Ð» Ð¿Ð°ÑĩÐ¾Ðº
ĠÐ¾ÐºÐ¾Ð½ ÑĨÐµÐ²
ĠÐ¿Ð¾Ð²ÑĭÑģ Ð¸ÑĤÑĮ
ÑĥÑĪ Ð¸ÑĤÐµÐ»ÑĮ
Ġgalvan ized
ĠÐ¸Ð·Ð³ Ð¸Ð±
Ġ70 8
Ñħ Ð¾Ð¼ÑĥÑĤ
ĠÐ¾ÐºÐ¾Ð½ÑĨÐµÐ² Ð°Ð½Ð¸Ñı
Ð¾Ð² Ð°ÑĤÐµÐ»ÑĮ
Ð³ ÑĢÐ°Ð´
ĠÐ»Ñİ Ð¼Ð¸Ð½
ĠÑĤÑĢ ÐµÑī
Ġ8 7
ÑĥÐ³ Ð¾Ð»Ð¾Ðº
Ñį Ð²Ð½Ð³
ĠÑĩÐµÑĤ ÑĭÑĢ
ĠÐ´ÐµÐºÐ¾ÑĢ Ð°ÑĤÐ¸Ð²Ð½ÑĭÐ¹
Ġ2 500
ĠÐ² ÑħÐ¾Ð´
ĠÐºÐ¾Ð¼ Ð¼
ĠÐ¼Ð¾Ð¼ ÐµÐ½ÑĤ
ÐµÑģ ÑĨÐµÐ½ÑĤÐ½ÑĭÐ¹
ÐºÐ°Ð½ Ð°ÑĤ
Ġ12 50
ĠÐ´ Ð¸ÑĦÑĦ
ĠÐ¿Ð¾Ð»Ð¾Ñģ Ð°
ĠÑĢ Ð¾Ð·
Ð¼Ð° Ð·
Ġ20 15
ei ght
ĠÐ»ÐµÑģÑĤÐ½ Ð¸ÑĨÐ°
Ð¼ Ñģ
ĠÑĤÑĢÐµÑī Ð¸Ð½Ð°
0 10
ÑıÑĤÑĮ ÑģÑı
Ñī Ð¸ÑĤ
ÑĨ ÐµÐ¼ÐµÐ½ÑĤÐ½ÑĭÐ¹
ĠÐ¿Ð² Ð¿Ð½Ð³
Ġth ro
ĠÐ²ÑĢ ÐµÐ¼
ĠÐ·Ð°Ðº ÑĢÑĭÑĤÑĮ
Ġd in
Ġh eight
24 8
ÑĢ Ð°ÑĤÑĮ
16 1
Ð¿ ÑĢÐ¾Ð²
ĠÐº Ð¾Ð¿
Ġ7 50
Ð³ Ð¾ÑĤÐ¾Ð²
ĠÑĢÐµÐ· ÐµÑĢÐ²
Ġ1 14
er al
Ð¿Ð°Ð½ ÐµÐ»ÑĮ
ĠÐ´Ð¾Ð¿ÑĥÑģÑĤ Ð¸Ð¼ÑĭÐ¹
Ġ3 43
ÐµÑģÑģ Ð¸Ð²Ð½ÑĭÐ¹
Ð¿ÑĢÐ¾Ð² Ð¾Ð»Ð¾ÐºÐ°
Ġm in
Ġl en
2 65
n s
Ġ1 400
ĠÐºÐ¾ÑĢÐ¾ÑĤ ÐºÐ¸Ð¹
Ðº Ð¾ÑģÑĤ
Ð¾Ð³ Ð°Ð·
ĠÐ¿Ð¾Ð»Ð¸Ð¿ÑĢÐ¾Ð¿ Ð¸Ð»ÐµÐ½
Ġi c
ÑĢÐ°Ð´ Ð¸
ÑĢÐ°Ð½ Ð¸Ñĩ
Ð½ Ð°Ñģ
Ð¾Ð½ Ð¾ÑģÐ¸ÑĤÐµÐ»ÑĮ
ĠÐ»ÑİÐ¼Ð¸Ð½ ÐµÑģÑĨÐµÐ½ÑĤÐ½ÑĭÐ¹
Ġcool ing
ÑĤ Ð¾
ÐºÑĢ ÐµÐ¿
ĠÐ³ÑĢÐ°Ð½ Ð¸ÑĤÐ½ÑĭÐ¹
r a
ĠÑĪÑĤ Ñĥ
w o
Ð¼ Ð¿
ĠÐ´Ð² ÑĥÐ¿Ð¾Ð»ÑĮÐ½ÑĭÐ¹
Ġs e
Ġm t
Ð¾Ð¼ Ð¾Ð³
ĠÐºÐ° ÑĥÑĩ
ÑĢ ÑıÐ´
Ñı Ð³
Ġ20 13
ĠÑģÐ¼ Ð¾Ð»Ð°
ĠÐ´ Ð°ÑĤÑĩÐ¸Ðº
Ġ5 2
ÐµÑħÐ½ Ð¸ÑĩÐµÑģÐºÐ¸Ð¹
ĠÐ´Ð²ÑĥÑħÐºÐ° Ð¼ÐµÑĢÐ½ÑĭÐ¹
Ġthro tt
Ð» ÐºÐ°
ĠÐ½Ð°Ð´ Ð±Ð°Ð²ÐºÐ°
ĠÐ´ÐµÑĢÐµÐ² ÑıÐ½Ð½ÑĭÐ¹
Ð°ÑĢ Ð¸Ð¹Ð½ÑĭÐ¹
Ð¾Ñı Ð½Ð¸Ðµ
ĠÑģÐ¾Ð± ÑĢÐ°ÑĤÑĮ
ĠÐ´Ð²ÑĥÑħ Ð¿Ð¾Ð»ÑİÑģÐ½ÑĭÐ¹
Ñģ ÐµÑĤÐºÐ°
ĠÐ¿Ð» ÑĳÐ½ÐºÐ°
Ñİ Ð±ÐµÐ»ÑĮ
ĠÑĪÐ° Ñħ
Ġdo ka
ÑģÑĤ Ð¾ÑıÐ½Ð¸Ðµ
ĠÐ¾ÑĤÐ²ÐµÑĤÐ² Ð¸ÑĤÐµÐ»ÑĮÐ½ÑĭÐ¹
ĠÐº ÑĢÑĭ
Ġl i
Ġ ro
Ð¼ Ð¿Ð°
ĠÐ² Ð°
Ð¾Ð´ ÐµÑĦÐ¾ÑĢÐ¼
ĠÑĢÐ°Ñģ ÑģÑĤÐ¾ÑıÐ½Ð¸Ðµ
ĠÑħÐ¾Ð»Ð¾Ð´Ð½ Ð¾Ð´ÐµÑĦÐ¾ÑĢÐ¼
ĠÐ¿ Ð¾ÑĤÐ¾Ðº
Ð¾Ðº Ð¾Ð½
Ġb all
ÐºÐ¾Ð¼Ð¿ Ð»ÐµÐºÑĤ
ÐµÐ½Ñģ Ð°ÑĤÐ¾ÑĢ
Ð¸ÑĤÑĮ ÑģÑı
Ġ5 37
Ġf ree
ĠÑħÐ¾Ð»Ð¾Ð´Ð½Ð¾Ð´ÐµÑĦÐ¾ÑĢÐ¼ Ð¸ÑĢÐ¾Ð²Ð°Ð½Ð½ÑĭÐ¹
ÑĪ Ð²ÐµÐ»Ð»ÐµÑĢ
ĠÐ» ÐºÐ¼
9 4
ÐµÐ½ Ð½Ð¾Ð¹
ĠÑĤÐµÐ¿Ð» Ð¾Ð½Ð¾ÑģÐ¸ÑĤÐµÐ»ÑĮ
ĠÐ°Ð² Ð°ÑĢÐ¸Ð¹Ð½ÑĭÐ¹
Ð¸ÑĤÐ° Ð½
ÑĢÐ°Ð· Ð¾Ð²Ð°ÑĤÐµÐ»ÑĮ
ĠÑģÐµÑĢ Ð´
ĠÑģ Ð´
ĠÐº Ð´Ð²
Ð¾ Ð¾Ð±
ÑĨ ÐµÑĢ
Ġ9 8
ĠÐº Ð¸ÑģÐ»
ÑĪ Ð¸Ð²Ð½Ð¾Ð¹
ÑĦÐ¸Ð»ÑĮ ÑĤÑĢ
p o
ÐµÐ³ Ð¸ÑĢÐ¾Ð²Ð°Ð½Ð½ÑĭÐ¹
ĠÑĢÐ¾Ð· ÐµÑĤÐºÐ°
ĠÐºÐ¾Ð» Ð¾Ð´ÐµÑĨ
Ġs up
Ð¸ÑĢ Ð½ÑĭÐ¹
ĠÐ³Ð¸Ð´ ÑĢÐ°Ð²
ĠÐº Ð·
o s
Ġ5 50
Ġ18 5
ĠÐ³ Ð»ÑĥÐ±
ĠÐ» Ñģ
ĠÑĨ ÐµÐ¿
Ġ020 8
Ð¿ ÑĥÐ½ÐºÑĤ
Ð¾ÑģÑĤ Ð¾Ð²
Ġ6 9
Ġca ble
ĠÑĥÑĩ Ð°ÑģÑĤ
ĠÑĢÐµÐ³Ñĥ Ð»Ð¸ÑĢÐ¾Ð²
Ġc or
ĠÐ½Ðµ Ð¾Ðº
ĠÑĢÐ°ÑģÐ¿ Ð¾ÑĢÐ½ÑĭÐ¹
ĠÐ´Ð²ÐµÑĢ ÑĮ
ĠÑģÐ¾ÐµÐ´Ð¸Ð½ Ð¸ÑĤÐµÐ»ÑĮ
Ð» Ð¸ÑĤÑĮ
Ð´ Ð¼
ĠÐ¿ÑĢÐ¾Ð¼ ÐºÐ¾Ð½
Ġa me
ĠÑħÑĢÐ° Ð½Ð°
ĠÐ¶ÑĳÑģÑĤ ÐºÐ¸Ð¹
ÐµÐ½Ð° Ð¶Ð½ÑĭÐ¹
ĠÐ¿Ð°ÑĤ ÑĢÑĥÐ±Ð¾Ðº
Ġ4 180
ĠÑĨÐ¸Ðº Ð»
ĠÐºÐ°ÑĥÑĩ ÑĥÐº
ĠÐ¿ÑĢÐ¾Ð¼ÐºÐ¾Ð½ ÑĤÑĥÑĢ
t a
Ð¾Ð¼Ð¾Ð³ Ð°ÑĤÐµÐ»ÑĮÐ½ÑĭÐ¹
Ġin d
Ð² Ð¾Ð»
ÐµÑģÑĤ Ð²ÐµÐ½Ð½ÑĭÐ¹
ĠÑģÐ² Ð¸Ð²ÐºÐ°
Ġ7 4
5 6
ĠÐ¿ Ð°ÑĢÐ½ÑĭÐ¹
Ñį Ð»ÐµÐ¼ÐµÐ½ÑĤ
Ð¸Ð·Ð¾Ð»Ñı ÑĤÐ¾ÑĢ
o x
t p
ÑĢ Ð¾ÑĤ
Ð¿ Ð¾Ð´
Ġ537 69
u tion
ĠÐ¿Ð¾Ð»Ð¸ ÑĥÑĢÐµÑĤÐ°Ð½Ð¾Ð²ÑĭÐ¹
ÑĢÐ° ÑĪÐµÐ½Ð½ÑĭÐ¹
ĠÐºÐ» Ðµ
ĠÐ³Ð¸Ð´ÑĢÐ°Ð² Ð»Ð¸ÑĩÐµÑģÐºÐ¸Ð¹
ĠÐ½ÐµÐ¾Ðº ÑĢÐ°ÑĪÐµÐ½Ð½ÑĭÐ¹
ÑĢÐ°Ð´Ð¸ Ð°ÑĤÐ¾ÑĢ
ĠÐ²Ð¾Ð´ Ð¾ÑģÐ½Ð°Ð±Ð¶ÐµÐ½Ð¸Ðµ
3 9
Ð½ Ð¸ÑģÑĤÑĭÐ¹
ÐµÐ³ Ð°ÑĤ
ÑĩÑĳ ÑĤÐ½ÑĭÐ¹
Ð¾Ð½ ÐºÐ°
ĠÑĢÑĥ Ð»Ð¾Ð½Ð½ÑĭÐ¹
ĠÐ²ÑģÐ¿ Ð¾Ð¼Ð¾Ð³Ð°ÑĤÐµÐ»ÑĮÐ½ÑĭÐ¹
Ġthrott le
Ð·ÐµÐ¼ Ð½ÑĭÐ¹
ĠÐ¾Ð³ ÑĢÐ°Ð½Ð¸Ñĩ
Ð±ÑĢÐ° Ð½Ð°
ĠÑĨÐµÐ¿ ÑĮ
Ġs w
ÐµÑĩ ÑĮ
ĠÐ¾Ð±Ð»Ð¸ÑĨ Ð¾Ð²Ð¾ÑĩÐ½ÑĭÐ¹
ĠÐ¿ÑĢÐ¾ ÑĪÐ¸Ð²Ð½Ð¾Ð¹
ĠÐ¼ÐµÐ´ ÑĮ
Ð³ ÐµÑĢÐ¼ÐµÑĤ
3 000
Ð¸ÑĢ ÐºÐ°
Ġde g
ÑĢÐµÐ´ Ð°
ĠÐµ ÑĢ
0 25
ĠÐ¼ Ð°Ñģ
ĠÐ» Ðº
ĠÐ± ÐºÐ·
ĠÑģÐ²Ð°ÑĢ Ð¸ÑĤÑĮ
ĠÐ´Ð² ÑĥÑĤÐ°Ð²ÑĢ
Ð¸ÑģÑĤ Ð¸ÑĢ
ro sion
Ġconn ec
Ġdeg ree
Ð´Ð² Ð¸Ñĩ
ĠÑģÐ²ÑıÐ· Ð°ÑĤÑĮ
Ð°Ð´ ÐºÐ°
ns n
19 4
ĠÑĢ ÐµÐ´
ĠÐ¿ÑĢÐ¾ÑħÐ¾Ð´ Ð½Ð°Ñı
Ð²Ð½ÑĥÑĤÑĢ Ð¾
2 20
ĠÑĥÐ¿Ð»Ð¾ÑĤ Ð½Ð¸ÑĤÐµÐ»ÑĮÐ½ÑĭÐ¹
ĠÑģÐµÑĢ ÑĭÐ¹
Ġr a
Ð¾ÑĤÐºÐ° Ð½ÑĮ
Ð´ Ð½ÑĭÐ¹
ĠÑģÑĤ Ð²Ð¾Ð»
ĠÐ¾Ð´Ð½Ð¾ÑģÑĤ Ð¾ÑĢÐ¾Ð½Ð½Ð¸Ð¹
ĠÑĢÐ°Ñģ ÑĩÑĳÑĤÐ½ÑĭÐ¹
ma ir
ÑĨÐµÐ¿ Ð¸ÑĤÐµÐ»ÑĮ
ĠÐ° Ð¼Ð°
ĠÐ¾Ð¿ Ñģ
ĠÐ´ÑĢ ÐµÐ½Ð°Ð¶Ð½ÑĭÐ¹
st er
ÑĥÐ²ÑģÑĤÐ² Ð¸ÑĤÐµÐ»ÑĮÐ½ÑĭÐ¹
p l
Ð¾Ð» Ð¸ÑĤÑĮ
ĠÐ°Ð³ÑĢ ÐµÑģÑģÐ¸Ð²Ð½ÑĭÐ¹
ĠÐ¿ÐµÑĢ ÐµÐ´
ĠÐ¿Ð¿ Ð³Ð½Ð³
ÑįÐ½ Ð´Ð²Ð¸Ñĩ
ÑģÑĤ Ð¸ÐºÐ°
u st
Ġt er
ÑģÐ» ÑĥÐ¶
ĠÐ¾ Ð¿Ð°
Ð¾Ð½ Ð¸ÑĨÐ°
ĠÐºÐ¾Ð½ÑĤÑĢ Ð³Ð°Ð¹ÐºÐ°
ĠÐ²Ð² ÐµÑĢÑħ
4 6
ĠÐº ÑĥÐ¿
Ð¼Ð°ÑĤ ÐµÑĢÐ¸Ð°Ð»
ĠÑĢÐ°Ñģ ÑĨÐµÐ¿Ð¸ÑĤÐµÐ»ÑĮ
Ðº Ð¾Ð»ÑĮÑĨÐ¾
ro m
ÑĥÐ»ÑĮ ÑĤ
Ġsyste mair
ÑĪÐ¿ Ð¸Ð»ÑĮÐºÐ°
Ġ ÑĨÐ¸Ð½
Ð¿Ð¿ Ð°ÑĢ
ĠÐ¿Ð¾Ð»Ð½ Ð¾Ð¿ÑĢÐ¾ÑħÐ¾Ð´Ð½Ð°Ñı
ĠÐ¿ Ð¾Ð¿ÐµÑĢ
Ð¸Ð½ ÐµÐ»
i s
ĠÐºÐ»Ð° Ð´
Ð¾Ð¼ Ð¾Ð´
ĠÑĩÐ°ÑģÑĤ Ð¾ÑĤÐ°
Ġf lex
Ñĥ Ð·
Ġpipeline s
Ġlo e
Ð´ ÐµÑĢÐ¶Ð¸Ð²Ð°ÑĤÑĮ
Ð¾ÑĤ Ð¾Ð²ÑĭÐ¹
ĠÐºÐ¾Ð½ÑģÑĤÑĢÑĥ Ðº
ÑĥÐ¼ Ñĥ
Ð¼ ÐµÐ½ÑĮ
Ð°ÑĤ Ð¸ÑĩÐµÑģÐºÐ¸Ð¹
ĠÑĢ Ð¿
Ġf rom
ĠÑĢÑĥÑĩ ÐºÐ°
le ss
j a
ar d
a k
Ġb ack
ĠÐ±ÑĢ Ð¸Ð½ÐµÐ»
ĠÐ±ÑĢÐ¸Ð½ÐµÐ» Ð»Ñı
00 3
ĠÑģÑĤ Ð´
Ġw id
Ð¾Ð³ Ð½ÑĥÑĤÑĭÐ¹
Ġwid th
Ġ y
Ð» Ð¸Ð²Ð°ÑĤÑĮ
ÑĥÑģÑĤ ÑĢÐ¾Ð¹ÑģÑĤÐ²Ð¾
ÐºÑĢ Ð¸Ð»
ĠÐ³ÑĢ ÐµÑĤÑĮ
ĠÐ¿Ð¾ÑĢ ÑĤ
ĠÐ± Ñģ
26 161
en d
ĠÑģÐ¿Ð» Ð¾ÑĪ
ĠÐºÐµÑĢÐ°Ð¼ Ð¸ÑĩÐµÑģÐºÐ¸Ð¹
ĠÑģÑĤÐµÐºÐ» Ð¾ÑĤÐºÐ°Ð½ÑĮ
ĠÑĤÐ²ÑĳÑĢÐ´ ÑĭÐ¹
ÑĢÐ¾Ð· ÐµÑĤÐºÐ°
90 194
ĠÑĪÐ°ÑĢ Ð¾Ð²ÑĭÑı
ĠÐ¿ Ð¾Ð·Ð¸ÑĨÐ¸Ñı
ĠÑĦ ÑĥÐ½Ð´Ð°Ð¼
ĠÐ³ÐµÑĢÐ¼ÐµÑĤ Ð¸Ðº
Ñį Ð¼Ð°Ð»ÑĮ
ĠÐ¾Ð±ÐµÑģ Ñģ
ĠÐ¼ÐµÑĤ Ð¸Ð·
Ġr Ð²Ð½ÑĥÑĤÑĢÐ¾
ĠÐºÐ¾Ð½ÑģÑĤÑĢÑĥÐº ÑĨÐ¸Ð¾Ð½Ð½ÑĭÐ¹
Ð½Ð° Ð¿
Ð· Ð°ÑģÐ»Ð¾Ð½ÐºÐ°
Ð¸ÑĨ Ð¸Ð¾Ð½
ĠÐºÐ¿ Ñĥ
Ġp ressure
ÐµÐ´Ð¸Ð½ Ð¸ÑĤÐµÐ»ÑĮ
ĠÑĥÐ´Ð»Ð¸Ð½ Ð¸ÑĤÑĮ
ĠÑģÐ¸ Ð»Ð¸
ĠÐ¾ÑĤÐ¾Ð¿ Ð»ÐµÐ½Ð¸Ðµ
ÑĤÐ° Ð½Ð¸Ðµ
ĠÑĦ Ð°Ð»ÑĮ
Ġ343 90194
ĠÑĦ Ð»Ð¾Ðº
Ġ13 3
ĠÐ¾Ð±ÐµÑģÑģ Ð¾Ð»Ð¸ÑĤÑĮ
ÐµÐ½ Ð¾Ñĩ
Ð¾Ð²Ð¾Ð´ Ð¾Ðº
ĠÐ¿ Ð¾Ð²Ð¾Ð´Ð¾Ðº
Ð»Ð¸ ÑĦ
ĠÐ¿ÑĢÐ¸ Ð»
Ġsol ution
Ġ0 50
Ġ10 2
ĠÐ¸Ð·Ð¼ÐµÑĢ ÐµÐ½Ð¸Ðµ
12 00
ĠÑĤÐ¾ÑĢ ÑĨÐµÐ²Ð¾Ð¹
ĠÑĦÐ»Ð¾Ðº ÐµÐ½Ð¾Ñĩ
ĠÐ¾Ð± ÑģÐ»ÑĥÐ¶
0 15
Ð¾ÑĤ Ð²ÐµÑĤ
ĠÐ¾ ÑĢÐ¾
Ġr w
ÑĢÑĥ Ñģ
70 4
Ð± ÑĪ
Ð¾Ð¿ Ð»Ð°ÑģÑĤ
ĠÐ¾Ð³ÑĢÐ°Ð½Ð¸Ñĩ ÐµÐ½Ð¸Ðµ
ĠÑģ ÑĪÐ¸ÑĤÑĮ
Ð¼Ð°Ð· Ð¾ÑĩÐ½ÑĭÐ¹
Ġt g
Ġ0 10
Ġc ÑĢÐµÐ´Ð°
ĠÐ¾ÑĢÐ¾ ÑĪÐµÐ½Ð¸Ðµ
ĠÐ¼ Ð¿
ĠÐ´ÑĢ ÐµÐ²
7 6
ÑĬ ÐµÐ´Ð¸Ð½Ð¸ÑĤÐµÐ»ÑĮ
Ġma ster
Ð¸ÑĤ Ð¾Ð²ÑĭÐ¹
ĠÐ»Ð¸Ð½ ÐµÐ¹Ð½ÑĭÐ¹
ĠÑĦÐ°ÑģÐ°Ð´ Ð½ÑĭÐ¹
ĠÑĨÐµÐ»ÑĮ Ð½
ĠÑ ĳ
ĠÐ°Ðº Ðº
d er
Ð¼ Ð¾ÑĤÐºÐ°
Ð¸Ð· Ð¾Ð³Ð½ÑĥÑĤÑĭÐ¹
Ð¼Ðµ ÑģÑĤ
ĠÐºÑĢÑĥ ÑĤÐ¾
ĠÐºÑĢÑĥÑĤÐ¾ Ð¸Ð·Ð¾Ð³Ð½ÑĥÑĤÑĭÐ¹
ĠÐ´ ÐµÑĦ
ÑģÑĦÐ¾ÑĢÐ¼Ð°ÑĤ Ð¾ÑĢ
Ġflang ed
ĠÐ»Ð°ÐºÐ¾ÐºÑĢÐ°Ñģ Ð¾ÑĩÐ½
ĠÐ²Ð½ Ð¸Ð·
ĠÐ¾Ð±ÑģÐ»ÑĥÐ¶ Ð¸Ð²Ð°Ð½Ð¸Ðµ
o f
Ñĥ Ð°Ð»ÑĮÐ½ÑĭÐ¹
Ð¾ÑĤ Ð°ÑĤÑĮ
Ðº Ð¸
ĠÐ¸Ð· Ð±
ĠÑĤÑĢÑĥÐ± ÑĩÐ°ÑĤÑĭÐ¹
ĠÑĥÑĩÐ°ÑģÑĤ Ð¾Ðº
ĠÐ¿ÑĢÐ¾Ð²Ð¾Ð´ Ð½Ð¸Ðº
ĠÑĢ ÑĢ
Ð° ÑİÑīÐ¸Ð¹
Ñĭ ÑĤÐ°Ð½Ð¸Ðµ
Ð¸ÑĢ Ð°ÑĤÑĮ
ĠÑģÐ¾ÑĢ ÑĤÐ°
ÑĥÐ½Ð´ Ð¾Ð²ÑĭÐ¹
Ġt e
ÑĢÐ°Ñģ ÐºÐ°
ÑĭÑĤ Ð¾ÑĩÐ½ÑĭÐ¹
ĠÐ¸Ð·Ð± ÑĭÑĤÐ¾ÑĩÐ½ÑĭÐ¹
Ð¿ÑĢ ÐµÑģÑģ
it ch
ÐºÑĤ Ð¾ÑĢ
ĠÑģÐ¾ Ð¾ÑĤÐ²ÐµÑĤ
ĠÐ¾ÑĤÐ¾Ð¿ Ð¸ÑĤÐµÐ»ÑĮÐ½ÑĭÐ¹
Ġcor rosion
ĠÑģÐ¿Ð»Ð¾ÑĪ Ð½Ð¾Ð¹
ĠÐ´ÑĢÐµÐ² ÐµÑģ
ĠÐ²Ð¾Ð´ Ð¾Ð³Ð°Ð·
Ġ35 5
Ġd kc
ĠÐ½Ð°Ñģ Ð¾Ñģ
ain less
ĠÐ²Ð¾Ð´Ð¾Ð³Ð°Ð· Ð¾Ð¿ÑĢÐ¾Ð²Ð¾Ð´Ð½ÑĭÐ¹
ĠÑĢ ÐµÑĪ
ĠÑĢ Ð¸ÑĦ
ĠÑģÐ¾ÑĢÑĤÐ° Ð¼ÐµÐ½ÑĤ
ĠÐ¾ÑĤ Ð´ÐµÐ»ÐºÐ°
Ġst ainless
ĠÑĥÑģÐ¸Ð» Ð¸Ðµ
i al
ÐµÐ½ Ð¾
ĠÐ¸Ð·Ð¼ÐµÑĢ Ð¸ÑĤÐµÐ»ÑĮÐ½ÑĭÐ¹
ĠÑģÐ¿ÐµÑĨ Ð¸Ð°Ð»ÑĮÐ½ÑĭÐ¹
Ð² ÐµÐºÑĤÐ¾ÑĢ
Ð¾Ð³ ÑĢÐ°Ð¶Ð´ÐµÐ½Ð¸Ðµ
ÐºÐ° Ð¼ÐµÑĢÐ°
Ġ2 25
1 40
ĠÑĦ Ð°
Ġsw itch
ÑĢÑĥ ÐºÐ°Ð²
ĠÐ°Ð²ÑĤÐ¾Ð¼ Ð¾Ð±
Ð¼Ðµ ÑĤÐ°
ĠÐºÐ¾Ð¼Ð¿ Ð»ÐµÐº
ĠÐ¿Ð¾Ð³ÑĢÑĥ Ð¶ÐµÐ½Ð¸Ðµ
Ġlock ing
Ġter min
ĠÑĢÐµÑĪ ÐµÑĤÑĩÐ°ÑĤÑĭÐ¹
ĠÐ¼ Ð¾ÑģÑĤ
10 3
Ð»Ð¸Ñĩ Ð½ÑĭÐ¹
Ð¾Ð¿Ð¾Ð» ÑİÑģÐ½ÑĭÐ¹
ĠÑĪ ÑĥÑĢÑĥÐ¿
ĠÐ½Ð¾Ð¼ ÐµÑĢ
ĠÑħÐ² Ð¾ÑģÑĤÐ¾Ð²
Ð»Ð¸Ð· Ð¾Ð²Ð°ÑĤÑĮ
ĠÑħÐ²Ð¾ÑģÑĤÐ¾Ð² Ð¸Ðº
3 15
Ðº Ð°ÑĤ
Ð¸Ð· Ð½Ð°
ur po
Ġp o
ĠÐ±Ð°Ð» ÐºÐ°
urpo se
ĠÐ¾Ð± Ð¾Ð·
ĠÑĨ ÐµÐ¼ÐµÐ½ÑĤ
d m
ĠÐ¿ÑĢ Ð¾Ð½Ð¸Ðº
5 8
ĠÑģÐ¿ Ð¸
Ġ18 00
ĠÐ¾Ð´Ð½ Ð¾Ð¿Ð¾Ð»ÑİÑģÐ½ÑĭÐ¹
osi te
Ġcomp osite
ĠÐ¼ÐµÑĤ Ð¾Ð´
ĠÐ¿ÑĢ Ð¾ÑĤ
ÑĨ Ð¸Ð¾Ð½Ð½Ð¾ÑģÑĤÐ¾Ð¹ÐºÐ¸Ð¹
Ð»ÑİÑĩ Ð°ÑĤÐµÐ»ÑĮ
ĠÐ¾Ð±Ð¾Ð· Ð½Ð°ÑĩÐµÐ½Ð¸Ðµ
ĠÐ¿ Ð¾Ð¼Ðµ
Ð°Ð½ Ð¾Ð²ÐºÐ°
ĠÐ¿ÑĢÐµÐ´ Ð½Ð°
Ð¾Ðº ÑĢÑĭÑĤÐ¸Ðµ
Ġ6 4
ĠÑģÐ°Ð¼ Ð¾ÑĢ
ĠÐ°ÑĢ ÐºÑĤ
Ð¾Ð´ÐµÑĢÐ¶ Ð°ÑĤÑĮ
Ð½Ð° Ðº
ĠÐ¿ÑĢ Ð¾ÑģÑĤÑĢÐ°Ð½
Ġi tr
Ð¸ÑĤÑĮ ÐµÐ²Ð¾Ð¹
Ġr al
Ð¸ÑģÑĤÐ¸ÑĢ Ð¾Ð»
Ð¾Ð½ ÐµÐ¿ÑĢ
Ð¸Ð¿ Ð¿
ĠÐ± Ð°ÑĢÑĮÐµÑĢ
ĠÐ³Ð°Ð· Ð¾Ð²ÑĭÐ¹
Ġtermin al
Ġ6 2
Ġ100 00
ĠÐºÐ¾Ð½ÑĤÑĢ Ð¾Ð»Ð¸ÑĢÐ¾Ð²Ð°ÑĤÑĮ
ĠÐ¶Ð°Ð»ÑİÐ· Ð¸Ð¹Ð½ÑĭÐ¹
ĠÐ¿Ð¾Ð¼Ðµ ÑīÐµÐ½Ð¸Ðµ
Ġs m
an n
u b
Ð½Ð°Ñģ Ð¾Ñģ
ĠÐ´ Ð¸
ĠÂ ł
ĠÐ¿Ð»Ð¾ÑīÐ°Ð´ ÐºÐ°
er s
ĠÑĥÐ´ Ð°ÑĢÐ½ÑĭÐ¹
ĠÐ¸Ð½ ÐµÑĢ
Ð´Ð¾Ñģ ÐºÐ°
ĠÐ¾Ð¿Ð° Ð»ÑĥÐ±
ĠÑģÑĤÐ° ÐºÐ°Ð½
ÑĥÑģÑĤ Ð¾ÑĤÐ½ÑĭÐ¹
Ð¸Ð² Ð¸Ð´
ĠÐ²Ñĭ Ð¿ÑĥÑģÐº
ÐºÐ¾Ð½ ÑģÑĤÑĢÑĥ
ĠÐ° Ð´
ÐµÐ»ÑĮ Ñģ
ĠÐ¾ ÑĨ
ĠÐ·Ð° Ð´Ð²Ð¸Ð¶ÐºÐ°
ĠÐºÐ° Ð¶Ð´
Ð¾Ð± Ð»Ð¾Ðº
ĠÐºÐ°Ð¶Ð´ ÑĭÐ¹
Ð¸ Ð»Ð¸ÑĢÐ¾Ð²Ð°ÑĤÑĮ
ÐºÐ²ÑĤ Ð¿
Ð² ÑĥÐº
ÐµÑĢ ÐµÐ½ÑĨ
ĠÑĪÐ°Ñħ ÑĤÐ°
Ð¸Ð²Ð¸Ð´ ÑĥÐ°Ð»ÑĮÐ½ÑĭÐ¹
7 8
ÐºÐ° Ð½Ð¸Ðµ
ĠÐ²Ñĭ Ð²Ð¾Ð´
ÑĭÑĩ ÐºÐ°
ÐºÐ¾Ð½ÑģÑĤÑĢÑĥ ÐºÑĤÐ¸Ð²Ð½ÑĭÐ¹
Ñħ Ð¾Ð»
Ġi v
ĠÑĤÑĢÑĥÐ±Ð¾Ð¿ÑĢÐ¾Ð²Ð¾Ð´ Ð½ÑĭÐ¹
ĠÐ¾Ð´Ð½Ð¾Ð¿ ÑĢÐ¾Ð²Ð¾Ð»Ð¾ÑĩÐ½ÑĭÐ¹
ĠÐ³ÑĢÑĥÐ½ÑĤ Ð¾Ð²ÐºÐ°
ĠÐ³ Ðµ
Ġ8 5
Ð°Ð» Ð¾Ð³
ĠÐºÐ¾Ð½Ð´ ÐµÐ½Ñģ
Ð¼ Ð°Ð½
ĠÐ´ Ð¾Ð±
ĠÐºÑĢ Ð¸Ð²Ð°
Ġk v
ĠÐºÑĢÐ¸Ð²Ð° Ñı
ÐµÐ¼ ÑĭÑĩÐºÐ°
Ġn o
ĠÑĤÑĭ Ñģ
2 30
Ġacti vation
ĠÐ°Ð¼ Ð¿Ð»
Ð¾ÐºÐ¾Ð½ ÑģÑĤÑĢÑĥÐºÑĨÐ¸Ñı
ĠÐ² Ðº
Ġ4 4
ĠÐ¾Ð³Ð½ ÐµÐ·
ĠÐ° ÐºÑĢÐ¸Ð»
ĠÑģÑĤ Ð²Ð¾ÑĢ
ĠÐ°Ð¼Ð¿Ð» Ð¸ÑĤ
ĠÐ¿ Ð¾Ð·
Ñī ÐµÐ±ÐµÐ½ÑĮ
Ð°Ð´ ÐµÑĢÐ¶Ð¸Ð²Ð°ÑĤÑĮ
Ð²Ð¸ ÑĪÐ½ÑĭÐ¹
ĠÐ¿ Ð¸ÑĤÑĮÐµÐ²Ð¾Ð¹
ĠÑĤÑĢÐµÑħ Ð¿Ð¾Ð»ÑİÑģÐ½ÑĭÐ¹
Ġsyste m
ĠÑģÑĤÐ²Ð¾ÑĢ ÐºÐ°
Ð± Ð¾
ĠÐ³ Ð²
Ð¾Ð· ÐµÑĢ
ĠÐ¿Ð¾Ð´ ÑĬÑĳÐ¼
ĠÐ¿Ð¾Ð» Ð½ÑĭÐ¹
ĠÑģÐº Ð¾Ð±Ð°
Ð¿ Ð¾ÐºÑĢÑĭÑĤÐ¸Ðµ
Ġ4 26
ĠÑģÐ²Ð°ÑĢ Ð¾ÑĩÐ½ÑĭÐ¹
Ð´ Ð¸ÑĢÐ¾Ð²Ð°ÑĤÑĮ
ĠÐ°Ð¼Ð¿Ð»Ð¸ÑĤ ÑĥÐ´Ð°
ĠÐ¸ Ð³
Ġu p
ÑģÑĤÐ² Ð¾Ð²Ð°ÑĤÑĮ
ĠÐ¿Ð¾Ð»Ð¸Ñį ÑĦ
Ð¾ÑĢ ÑĥÐ½Ð´Ð¾Ð²ÑĭÐ¹
ĠÐ¼ÑĥÐ»Ð»Ð¸ÑĤÐ¾Ðº Ð¾ÑĢÑĥÐ½Ð´Ð¾Ð²ÑĭÐ¹
ĠÐ¸Ð½Ð´ Ð¸Ð²Ð¸Ð´ÑĥÐ°Ð»ÑĮÐ½ÑĭÐ¹
Ġa b
u it
16 00
ĠÑģÐµÑĢÐ´ ÐµÑĩÐ½Ð¸Ðº
Ġ2 200
Ð¾Ð»ÑĮ ÑĨÐµÐ²Ð¾Ð¹
Ġco l
ĠÐ¿ÑĢÐµÐ´Ð¾ÑħÑĢÐ°Ð½ Ð¸ÑĤÐµÐ»ÑĮÐ½ÑĭÐ¹
ĠÐ¾Ð³Ð½ÐµÐ· Ð°Ð´ÐµÑĢÐ¶Ð¸Ð²Ð°ÑĤÑĮ
ĠÐºÑĢ Ð¸Ð²
ĠÑģ Ñĥ
ĠÐ´Ð² ÑĥÑģÑĤ
ĠÐºÑĢ ÐµÑģÑĤ
Ð¸Ñģ Ðº
ĠÑģ Ð¾Ð³
Ñı Ð½Ð¾Ð¹
ĠÑįÐº ÑģÑĤÑĢÑĥ
ĠÐ°ÐºÐº ÑĥÐ¼Ñĥ
ĠÐ¼ ÐµÑħ
ÑĢÐ°Ð½ Ð½ÑĭÐ¹
ĠÐ½Ð°Ð³ÑĢÐµÐ² Ð°ÑĤÑĮ
Ġcirc uit
ĠÑįÐº ÑģÐ¿
ÑģÑĤ ÐµÑĢ
ĠÐ¿Ð°Ð½ ÐµÐ»ÑĮÐ½ÑĭÐ¹
ĠÐ¼Ð½Ð¾Ð³Ð¾Ð¿ ÑĥÑģÑĤÐ¾ÑĤÐ½ÑĭÐ¹
ĠÐ¸ Ð°
ĠÐ°Ð²ÑĤÐ¾Ð¼Ð°ÑĤ Ð¸ÐºÐ°
tr a
ĠÑĥÑĤÐµÐ¿Ð» Ð¸ÑĤÐµÐ»ÑĮ
ĠÑĪÑĤÑĥ ÑĨÐµÑĢ
Ġt on
ĠÐ¿ÑĢÐ¾Ð½Ð¸Ðº Ð°ÑĤÑĮ
ĠÐ¾Ð´Ð½ Ð¾Ð¼Ð¾Ð´
ĠÐº Ð¾Ð»ÑĮÑĨÐµÐ²Ð¾Ð¹
ÑģÑĤ Ð°Ð²ÐºÐ°
Ð¾Ð¿ÑĢÐ¾ÑħÐ¾Ð´ Ð½ÑĭÐ¹
ÐµÑĢÐµÐ½ÑĨ Ð¸Ð°Ð»ÑĮÐ½ÑĭÐ¹
Ġs et
Ġ5 30
ĠÑĤÑĢ ÐµÐ½Ð¸Ðµ
Ġ ec
ĠÐ¸ÑģÐ¿ Ð¾Ð»ÑĮÐ·
Ġ1990 3
ĠÐ²ÑĢÐµÐ¼ ÐµÐ½Ð½Ð¾Ð¹
ÑĪ ÑĥÑĢÑĥÐ¿
Ð¾Ð½ÐµÐ¿ÑĢ Ð¾Ð½Ð¸ÑĨÐ°
0 9
ĠÐ¿Ð¾Ð»Ð¸ Ð¼ÐµÑĢ
ĠÑĤÐµÑĢÐ¼ Ð¸ÑĩÐµÑģÐºÐ¸Ð¹
Ñĩ Ð½ÑĭÐ¹
ĠÑģÐ°Ð¼Ð¾ÑĢ ÐµÐ·Ð°
Ġ9 6
ĠÐ¸ÑģÐ¿ ÑĭÑĤÐ°Ð½Ð¸Ðµ
ÑĢÐ° ÑģÑĤÐ²Ð¾ÑĢ
Ð¿Ð¿Ð°ÑĢ Ð°ÑĤ
ĠÐ¿ÑĢ Ð¾Ð¿
Ġr s
ĠÑģÐ²ÐµÑĢ Ñħ
Ġind ust
Ð² ÑįÐ²Ð½Ð³
ĠÐ¿ Ñģ
Ð¾ÑĤ Ð½Ð¾
Ġdi s
Ġton ne
Ð¼ ÐºÐ¾ÑģÑĤÑĮ
ĠÐ´Ð» Ð¸Ð½Ð½ÑĭÐ¹
ĠÑĳ Ð¼ÐºÐ¾ÑģÑĤÑĮ
Ðº ÑĢÐ°ÑģÐºÐ°
ĠÑĤ ÑĤÐ°
ĠÑĢÐ°Ð²Ð½ Ð¾Ð¿ÑĢÐ¾ÑħÐ¾Ð´Ð½Ð°Ñı
Ġpnae g
ĠÑĢÐ°Ð· ÑĬÐµÐ´Ð¸Ð½Ð¸ÑĤÐµÐ»ÑĮ
Ð¾Ð³ Ð¸ÑĩÐµÑģÐºÐ¸Ð¹
Ð¿ ÑįÐ¿Ð½Ð³
Ð´Ð° ÑĩÐ°
v i
ĠÐ°ÑĢÐºÑĤ Ð¾Ñģ
ĠÐº Ñĥ
Ġt m
Ð¾Ñĩ Ð½Ð¸Ðº
ĠÐ¾Ð´Ð¸Ð½ Ð°ÑĢÐ½ÑĭÐ¹
ĠÐ´ ÑĢÑĥÐ³
ĠÐ´ÑĢÑĥÐ³ Ð¾Ð¹
Ð³ ÑĨ
16 5
Ġel b
Ġst op
ÐºÐ° Ð·
Ġa r
ĠÐ¾Ð³ ÑĢÐ°Ð¶Ð´ÐµÐ½Ð¸Ðµ
s v
ĠÐ´Ð¸ÑĦÑĦ ÐµÑĢÐµÐ½ÑĨÐ¸Ð°Ð»ÑĮÐ½ÑĭÐ¹
Ġelb ow
6 1
Ð¼ Ð½Ð¸Ðº
ĠÐ¿Ð¾Ðº Ð°Ð·
ĠÐ¾Ð¿Ð°Ð»ÑĥÐ± ÐºÐ°
ÑĨ Ð°
ÑĥÑĪ ÐµÐ½Ð¸Ðµ
Ġlen ght
ÑģÑĤ Ð°Ð½
ĠÑĢ Ðº
ĠÐ½Ð¾ÑĢÐ¼Ð° Ð»Ð¸Ð·Ð¾Ð²Ð°ÑĤÑĮ
ĠÐ¸Ð½ÐµÑĢ ÑĨÐ¸Ñı
ĠÑįÐºÑģÐ¿ Ð»Ñĥ
Ġ3 10
Ġ15 150
ĠÐ»Ð° ÐºÐ¾Ð²ÑĭÐ¹
ÑıÐ³ Ð¸Ð²Ð°ÑĤÑĮ
ĠÐ¼ÐµÑħ Ð°Ð½
Ð°Ð½ ÐµÑĢÐ°
000 2
ÐºÐ¾Ð½ Ð²ÐµÐºÑĤÐ¾ÑĢ
ĠÑĢÐ°ÑģÑĤ ÑıÐ³Ð¸Ð²Ð°ÑĤÑĮ
ĠÐ±ÐµÐ·Ð¾Ð¿Ð°Ñģ Ð½Ð¾Ñģ
Ð´ Ð¸ÑĤÐµÐ»ÑĮ
ĠÐ·Ð°Ð¿ Ð¾Ð»Ð½ÐµÐ½Ð¸Ðµ
ÐºÐ¾Ð½ ÑĤÑĢ
ĠÑĢÐ°Ð·Ð²ÐµÑĤÐ² Ð¸ÑĤÐµÐ»ÑĮÐ½ÑĭÐ¹
f l
x h
ĠÑģ Ð¾Ð½
Ġu tp
Ġco ating
ĠÐ±ÑĢ Ð¾Ð½
7 7
8 9
ĠÐºÐ¼ Ð¿
ĠÐºÐ²Ð² Ð³Ð½Ð³
ĠÐ½ Ð»
Ð¸ÑĨÐ¸Ð¾Ð½ ÐµÑĢ
ĠÑĦÐ°Ð»ÑĮ ÑĨÐµÐ²ÑĭÐ¹
Ð² ÑıÐ·
ĠÐ¾Ð± Ð¼Ð°Ð·Ð¾ÑĩÐ½ÑĭÐ¹
Ġ10 20
ĠÑģ Ð³
Ñĳ Ð¶
Ġf an
ĠÑĢÐ°Ð´Ð¸Ð° ÑĨÐ¸Ð¾Ð½Ð½Ð¾ÑģÑĤÐ¾Ð¹ÐºÐ¸Ð¹
Ð¿ÐºÐ²ÑĤ Ð½Ð³
ĠÐ¿ Ð±
Ġ200 3
Ð¾ÑĤ Ð´Ð°ÑĩÐ°
ÑĢÐ¾Ð² Ð¾Ð¹
Ġ17 70
ĠÐ½Ðµ ÑĦÑĤ
ĠÐºÐ¾Ð¼Ð¿Ð»ÐµÐºÑĤ Ð½ÑĭÐ¹
ĠÑĤ Ð¸ÑĤÐ°Ð½
ÑĦÐ»Ð°Ð½ ÑĨÐµÐ²ÑĭÐ¹
ĠÐ¿ Ð¸ÑĤ
ÑĢÐ° ÑĩÐ½ÑĭÐ¹
ĠÐ½ Ð°ÑĤ
ÐµÑģ Ð½ÑĭÐ¹
Ġi nom
10 2
Ġg ate
Ð± Ð¾ÑĢÐ½ÑĭÐ¹
Ð° Ñı
Ġg r
Ġ56 32
Ð¼ÐµÑĤÐ° Ð»Ð»
ĠÐ½Ð¸Ðº ÐµÐ»ÑĮ
Ð¼ Ð¼
Ġ8 50
Ġ14 6
Ð°Ð´ Ð¾ÑĩÐ½ÑĭÐ¹
ĠÑĪÐ° Ð³
ĠÑģÑĤÑĢÐ¾ Ð¸ÑĤÐµÐ»ÑĮ
Ð»Ð° Ñģ
Ġ0 25
Ġ9 9
se al
Ġt her
Ñĭ ÐºÐ°Ð½Ð¸Ðµ
Ð¾ÑĤ ÑĥÑĪÐµÐ½Ð¸Ðµ
ĠÐ» Ð¾Ð¿
ĠÑħÐ¾Ð»Ð¾Ð´Ð½ Ð¾ÐºÐ°ÑĤ
ĠÑģ Ð»Ñİ
ĠÐ° Ð´ÑĢ
ĠÐ¿Ð¾Ð¶Ð°ÑĢ Ð¾ÑĤÑĥÑĪÐµÐ½Ð¸Ðµ
ĠÐ´Ð¸ÑģÑĤ Ð¸Ð»
Ġma ter
ÐºÐ·Ñģ Ð±
00 10
Ġcol d
ĠÑįÐºÑģÐ¿Ð»Ñĥ Ð°ÑĤÐ°
Ġmater ial
Ð¼Ð¸Ð½ ÐµÑĢÐ°
ĠÐ¿Ð¾Ð»Ð¸Ñį ÑģÑĤÐµÑĢ
ĠÐ´ÑĢÐµÐ²ÐµÑģ Ð¸Ð½Ð°
Ð´ Ð¸ÑģÐºÐ¾Ð²ÑĭÐ¹
Ġ10 704
ĠÐ½Ð°ÑĢÑĥ ÑĪÐµÐ½Ð¸Ðµ
Ġun it
ÑĥÐ´Ð° Ð»ÐµÐ½Ð¸Ðµ
ĠÐ¿ÐµÑĢÐ¸ ÐºÐ»Ð°
ĠÑĢÐ°ÑģÑĤÑĢÑĥÐ± Ð½ÑĭÐ¹
Ð¸Ð¿Ð¿ ÐµÐ»ÑĮ
ĠÑĤÑĢÐ° Ð¿
ĠÐ·Ð°Ð·ÐµÐ¼ Ð»ÑıÑĤÑĮ
ÑĥÑģÑĤ Ð°Ð½Ð¾Ð²ÐºÐ°
0 35
ĠÑħ Ð»
ĠÐ¿Ð¾Ð´ Ð²Ð¾Ð´
7 50
d s
Ð¸ÑĦÐ¸ÐºÐ° ÑĨÐ¸Ð¾Ð½Ð½ÑĭÐ¹
Ð¾Ð·ÐµÑĢ Ð½Ð¸ÑģÑĤÑĭÐ¹
ĠÑģÐ¾ÐµÐ´Ð¸Ð½ ÑıÑĤÑĮ
ÑģÐ² Ð¾Ð±
Ġ57 3
ĠÐ² ÑıÐ·
ĠÐ± Ð»Ð¾ÑĩÐ½ÑĭÐ¹
Ġb ox
ĠÐ³Ð° Ð±Ð°ÑĢ
Ġ200 5
ĠÐ³Ð¸Ð´ ÑĢÐ¾ÑĤ
ÐµÑĢÐ¼ Ñĭ
ĠÐºÐ¾Ð½Ð´ÐµÐ½Ñģ Ð°ÑĤ
8 2
ĠÐºÐ¾ÑĢÐ¿ÑĥÑģ Ð½ÑĭÐ¹
ĠÐ·Ðº Ð´
ĠÑģÐ»Ñİ Ð´Ð¾Ñģ
ĠÐ¿ÐµÑĢÐ¸ÐºÐ»Ð° Ð·Ð¾Ð²ÑĭÐ¹
ĠÑĪ Ð»Ð¸ÑĦ
en s
ĠÐ²Ð¾Ð»Ð¾Ðº Ð¾Ð½Ð½ÑĭÐ¹
6 30
ĠÐºÐ¾Ð¼Ð¼ ÑĥÑĤÐ°
ĠÐ´ÐµÑĦ ÐµÐºÑĤ
ĠÑģÐ»ÑİÐ´Ð¾Ñģ Ð¾Ð´ÐµÑĢÐ¶Ð°ÑĤÑĮ
Ġd p
Ġ200 6
ĠÐ·Ð°Ð¼ ÑĭÐºÐ°Ð½Ð¸Ðµ
Ġbf l
ĠÐ³Ð°Ð±Ð°ÑĢ Ð¸ÑĤ
Ðº Ð½
ĠÐ¼ ÐµÐ¼
Ð¶ Ð½Ð¾ÑģÑĤÑĮ
ĠÑĤÐµÐ¿Ð»Ð¾ Ð¾ÑĤÐ´Ð°ÑĩÐ°
ģ °
ÑĤ ÐµÑĢ
Ð°ÑĢ ÑĦÐ¾ÑĢ
ĠÐ´ÑĭÐ¼Ð¾ ÑĥÐ´Ð°Ð»ÐµÐ½Ð¸Ðµ
ĠÐ½ Ð°Ð½
ĠÐ± Ð¾ÑĢÐ½ÑĭÐ¹
Ð¶ ÐµÑĤÐ°
Ġs ch
Ð¾Ð´Ñĥ ÐºÑĤ
Ġth in
ĠÐ´ Ð¾Ð»Ñı
Ð¾Ð» Ñĳ
Ġty p
ĠÐ¾ ÐºÐ¾Ð»
Ġ32 00
Ð°ÑĢÑĦÐ¾ÑĢ Ð¾Ð²ÑĭÐ¹
ĠÐ¾ÐºÐ¾Ð» Ð¾
ĠÐ¿ Ð»Ð°Ð½
Ð»ÐµÐº Ñģ
ÑĨ Ð±
Ġ200 7
ĠÑĨÐ¸Ð½ ÑįÐ¿
ĠÐºÐ»Ð°ÑģÑģ Ð¸ÑĦÐ¸ÐºÐ°ÑĨÐ¸Ð¾Ð½Ð½ÑĭÐ¹
Ð°Ð² Ð»Ð¸Ð²Ð°ÑĤÑĮ
Ġh ÑģÐ²Ð¾Ð±
Ġl c
ĠÐ¿ÑĢÐ¾ÑĦ Ð¸Ð»Ð¸ÑĢÐ¾Ð²Ð°ÑĤÑĮ
Ġindust ri
Ð²ÑıÐ· ÐºÐ°
ĠÑĢÑĥ ÐºÐ°Ð²
ĠÐ¿ÐµÐ½Ð¾Ð¿Ð¾Ð»Ð¸ ÑĥÑĢÐµÑĤÐ°Ð½Ð¾Ð²ÑĭÐ¹
ĠÐ¸ÑģÐ¿Ð¾Ð»ÑĮÐ· Ð¾Ð²Ð°Ð½Ð¸Ðµ
Ġindustri al
ĠÑĢ Ð²
ĠÐ¾ÑĤÐ² ÐµÑĢÐ¶
ĠÑģÐ°Ð¼ Ð¾Ðº
ĠÐ°Ñį Ñģ
ÐµÑģ Ð¸ÑĤÐµÐ»ÑĮ
ti l
Ð»Ð°Ð´ Ð¸ÑĤÐµÐ»ÑĮ
ĠÐ½Ð°ÑģÑĤ Ð¸Ð»
ĠÐ´Ð¾Ð¿ÑĥÑģÐº Ð°ÑĤÑĮÑģÑı
ĠÑģ ÑįÐ½Ð´Ð²Ð¸Ñĩ
ĠÑĦ Ð¸ÐºÑģ
ĠÑĨÐ¸Ð»Ð¸Ð½Ð´ÑĢ Ð¸ÑĩÐµÑģÐºÐ¸Ð¹
Ð¼Ð¸Ð½ÐµÑĢÐ° Ð»ÑĮÐ½ÑĭÐ¹
i p
Ð¾Ñģ Ð½Ð¾Ð²
ĠÑĥÑģÑĤÐ°Ð½ Ð°Ð²Ð»Ð¸Ð²Ð°ÑĤÑĮ
ĠÐ½Ð¾ÑĢ Ð¼
Ñģ ÑĢ
ĠÐ¼ÐµÐ¶ ÑĦÐ»Ð°Ð½ÑĨÐµÐ²ÑĭÐ¹
ĠÑģÐ¾Ð¾ÑĤÐ²ÐµÑĤ ÑģÑĤÐ²Ð¾Ð²Ð°ÑĤÑĮ
Ð¾Ð± Ðµ
Ð¿Ð° Ð´
ĠÐºÐ· Ð¾
ĠÑģÐ¾Ð³ Ð»Ð°Ñģ
k s
ĠÑĤ ÐµÑħ
Ñį ÑĤ
ĠÑĩ ÐµÑĢ
Ð¾ÑģÐ² Ð°ÑĢÐ½ÑĭÐ¹
Ð¾Ñģ Ð»
ĠÑģÑĤÑĢÐ¾Ð¸ÑĤÐµÐ»ÑĮ ÑģÑĤÐ²Ð¾
ĠÑĢÐ°Ð· ÑĢÑıÐ´
ĠÑī Ð¸ÑĤÐ¾Ðº
ĠÐ¼Ð½Ð¾Ð³Ð¾Ð¿ ÑĢÐ¾Ð²Ð¾Ð»Ð¾ÑĩÐ½ÑĭÐ¹
ĠÐºÑĥÐ³ Ð¿ÑįÐ¿Ð½Ð³
f o
x tra
Ð¾Ð»ÑĮ Ð¶ÐµÐ½Ð¸Ðµ
Ð¾Ð¿Ð°Ð»ÑĥÐ± ÐºÐ°
ĠÑĩÐµÑĤÑĭÑĢ ÐµÑħ
5 9
ĠÐ± ÑĢÑĥÑģ
ĠÑĢ n
ÐµÐ² ÐµÑĢÑģ
Ġde xtra
ĠÑģÐº Ð¾Ð»ÑĮÐ¶ÐµÐ½Ð¸Ðµ
ÑĢÐµÐ· ÐºÐ°
ĠÐ¼ÐµÐ» Ðº
ĠÐ¿ÑĢÐ¾ÑģÑĤÑĢÐ°Ð½ ÑģÑĤÐ²ÐµÐ½Ð½ÑĭÐ¹
ĠÐ³Ð¸Ð´ÑĢÐ¾ÑĤ ÐµÑħÐ½Ð¸ÑĩÐµÑģÐºÐ¸Ð¹
0 14
c on
ĠÐ½Ð°Ð¿ Ð¾ÑĢ
ĠÐ±Ð° Ð»Ð»
ĠÐ¿Ð¾Ð»Ð¸ÑįÑĦ Ð¸ÑĢÐ½ÑĭÐ¹
ĠÐºÑĢÐ¸Ð² Ð¸Ð·Ð½Ð°
ĠÐ¾Ð± ÐºÐ»Ð°Ð´ÐºÐ°
ÑĥÑģÐº Ð½Ð¾Ð¹
Ð¸Ð½ Ð³
ĠÑĤ Ñĥ
Ð¸Ð²Ð°ÑĤÑĮ ÑģÑı
p or
ÑĢÐ° Ð¶
ĠÐ¿ÐµÑĢ ÐµÐ³Ð¾ÑĢÐ¾Ð´ÐºÐ°
ĠÐºÐ¿ Ð¿
ÑĢ Ð½
ÑĪ Ð¸Ð½Ð°
ĠÐ´Ð¸ÑģÑĤÐ¸Ð» Ð»ÑıÑĤ
ĠÑģ ÐµÑĢÐ°
ĠÐ³ Ð¾ÑĤÐ¾Ð²ÑĭÐ¹
Ġ5 000
Ġ7 8
ĠÐ¸Ð· Ð¾Ð»Ñı
ĠÑģÑĤ Ð¾Ð»
ĠÐ¿Ð¾Ð¿ÐµÑĢ ÐµÑĩÐ½ÑĭÐ¹
ĠÑĨÐµÐ»ÑĮÐ½ Ð¾ÑģÐ²Ð°ÑĢÐ½ÑĭÐ¹
Ð»ÑĮ ÑĤ
Ð»Ñı Ð½Ð½ÑĭÐ¹
ĠÑģÐ²ÐµÑĤ Ð¾Ð²Ð¾Ð¹
ÐºÑĥ Ð»Ñı
ĠÐ´ Ð½
ĠÐ¾ Ð½
ĠÑĥÑģÑĤÐ°Ð½ Ð¾Ð²
Ð¸Ð³ ÐµÐ»ÑĮ
2 25
ĠÐº Ð¾Ð²Ð°ÑĤÑĮ
Ġ6 50
Ġ5 1
Ð¸Ð¼ Ð¾ÑģÑĤÑĮ
b c
Ġ10 50
ĠÐ¼ÐµÑĤÐ°Ð»Ð» Ð¾ÐºÐ¾Ð½ÑģÑĤÑĢÑĥÐºÑĨÐ¸Ñı
ĠÐ³Ð¸Ð± ÐºÐ¾ÑģÑĤÑĮ
ÑĩÑĳÑĤ ÑĩÐ¸Ðº
2 12
ĠÐ¸ Ð½ÑĤ
ĠÑģÐ°Ð¼ Ð¾Ð½
ÐµÐ²ÐµÑĢÑģ Ð¸Ð²Ð½ÑĭÐ¹
ĠÑĤ Ñı
ĠÐ¾Ð± Ð²ÑıÐ·ÐºÐ°
ÑĢÐ°Ð² Ð¸Ð¹
Ġ15 70
Ðº Ð¾Ð²
Ðº Ð°ÑĤÐ½ÑĭÐ¹
Ð¾Ð» Ð¾Ð³Ð¸ÑĩÐµÑģÐºÐ¸Ð¹
Ð¾Ð· Ð¸ÑĤÐ½ÑĭÐ¹
ĠÐ´ÑĭÐ¼ Ð¾Ð²Ð¾Ð¹
Â ²
Ð¸ÑĢ ÐºÑĥÐ»Ñı
ĠÑĥÐ¿Ð»Ð¾ÑĤ Ð½ÐµÐ½Ð¸Ðµ
ĠÐ°Ð´ÑĢ ÐµÑģÐ½ÑĭÐ¹
ĠÑĪ ÑĥÐ¼
Ð¾Ð»ÑĮ ÑĪ
ĠÑģÐº Ð¾Ð»ÑĮÐ·
00 2
ĠÐ· ÐµÑĢ
ĠÐºÐ½ Ð¾Ð¿
ĠÑĢÐ°Ð·Ð¼ÐµÑī ÐµÐ½Ð¸Ñı
Ġsup por
ĠÐ¿ÐµÑĢÐµ Ð¿Ð°Ð´
ÐºÐ° ÑĪÐ¸ÑĢÐ¾Ð²Ð°ÑĤÑĮ
ĠÐ½Ðµ ÐºÐ°ÑĪÐ¸ÑĢÐ¾Ð²Ð°ÑĤÑĮ
ĠÑĩ ÐµÑĢÑĤ
ÑĦÐ¾ÑĢ Ð¼Ð°
ĠÑĤÑĢÐ°Ð½ÑģÐ¿ Ð¾ÑĢÑĤ
ĠÑĩÐµÑĢÑĤ ÑĳÐ¶
ÐºÐ» ÐµÐ¼
Ġ1 15
Ð¸Ð¿ Ñģ
Ð¸Ð· Ð¾Ð»
ĠÑģÐºÐ¾Ð»ÑĮÐ· Ð¸ÑĤÑĮ
c o
ÑģÑĤ ÑĢ
ÐµÑĤ Ð½ÑĭÐ¹
Ġb end
ÑĢÐ°Ð± Ð¾ÑĩÐ¸Ð¹
ĠÐ´Ð²ÑĥÑħ Ð´Ð¸ÑģÐºÐ¾Ð²ÑĭÐ¹
ĠÐºÐ¾ÑĢÐ¾Ð± ÑĩÐ°ÑĤÑĭÐ¹
Ñĥ ÑīÐ¸Ð¹
ar t
Ð¾Ñħ Ð»Ð°Ð´Ð¸ÑĤÐµÐ»ÑĮ
ÑĪÐ° Ð¹Ð±Ð°
ĠÑĢÑĥ Ðº
ĠÑįÐ¿ ÑĢÐ°
ĠÐºÑĢÐ°Ñģ ÐºÐ°
ĠiÐ½ Ð¾Ð¼
ĠÐºÑĢÑĭ ÑĪÐ½ÑĭÐ¹
Ð¾Ð¾Ð± ÑĢÐ°Ð·Ð½ÑĭÐ¹
Ġ on
ĠÐ¸ Ñı
ĠÑĪÑĤ Ð¾Ðº
ĠÑĤÐµÑħÐ½ Ð¾Ð½Ð¸Ðº
ĠÐ¿ÐµÐ½Ð¾Ð¿Ð¾Ð»Ð¸ Ð¼ÐµÑĢ
Ð» ÑĥÑĪÐ¸ÑĤÐµÐ»ÑĮ
Ġc p
ĠÑĤÐµÑħÐ½Ð¾Ð½Ð¸Ðº Ð¾Ð»ÑĮ
ĠÐ¿ÐµÐ½Ð¾Ð¿Ð¾Ð»Ð¸Ð¼ÐµÑĢ Ð¼Ð¸Ð½ÐµÑĢÐ°Ð»ÑĮÐ½ÑĭÐ¹
Ñı ÑĤ
Ð¾ÑĢ ÑĤÐ½ÑĭÐ¹
Ġ16 8
Ġ00 6
ĠÐ±Ð»Ð¾Ðº Ð¸ÑĢÐ¾Ð²Ð¾ÑĩÐ½ÑĭÐ¹
Ð¾ÑĢÐ¾Ð¶ Ð´ÐµÐ½Ð¸Ðµ
ĠÐ¼ÐµÑģÑĤ Ð¾ÑĢÐ¾Ð¶Ð´ÐµÐ½Ð¸Ðµ
Ð´ ÐµÑĢÐ¶Ð°ÑĤÐµÐ»ÑĮ
ÑĤÑĢ ÐµÐ±
ĠÐºÐ¿ ÑįÐ¿Ð½Ð³
ĠÐº ÐºÐ±
ÐºÐ° Ð½Ð°
ĠÐ»Ð°ÑĤ ÑĥÐ½
ĠÐ²Ð»Ð° Ð¶Ð½Ð¾ÑģÑĤÑĮ
ĠÐ²Ð¾Ð´ Ð¾Ð½ÐµÐ¿ÑĢÐ¾Ð½Ð¸ÑĨÐ°
ĠÑĥÑģÑĤÐ°Ð½ Ð¾Ð²Ð¾ÑĩÐ½ÑĭÐ¹
Ġan con
ĠÐ³ÑĢÐ°Ð´ ÑĥÑģ
ĠÐ¾ÑĤÐ²ÐµÑĢÐ¶ Ð´ÐµÐ½Ð¸Ðµ
ÑĨ ÐµÐ¼ÐµÐ½ÑĤ
ĠÐ¾ÑĤ ÑħÐ¾Ð´
ÑĩÐ°ÑĤ ÐºÐ°
ĠÐ²Ð¾Ð´Ð¾ Ð¾ÑĤÐ²Ð¾Ð´
l c
ĠÑĪ ÑĤÐ°
ĠÐºÐ¼ Ð¿Ð²
ĠÐ¼Ðµ Ð¶Ð´
Ð¾ Ð¸Ð·Ð¾Ð»ÑıÑĨÐ¸Ð¾Ð½Ð½ÑĭÐ¹
Ġ4 3
Ð¸Ð· Ð²ÐµÑīÐ°ÑĤÐµÐ»ÑĮ
ĠÐ²Ð¾Ð·Ð´ÑĥÑħ Ð¾Ð½Ð°Ð³ÑĢÐµÐ²Ð°ÑĤÐµÐ»ÑĮ
Ġk a
Ġcool ant
ĠÑĤ Ð¼
ÑĢ ÐµÐ²
Ġh o
ĠÐ¾ÑĤÐ²ÐµÑĢ Ð´Ð¸ÑĤÐµÐ»ÑĮ
ĠÐ¼ÐµÐ»Ðº Ð¾Ð·ÐµÑĢÐ½Ð¸ÑģÑĤÑĭÐ¹
Ġ10 9
ÑģÑĤÐ²Ð¾ÑĢ ÑĩÐ°ÑĤÑĭÐ¹
Â º
Ð¸Ð» Ð¾Ð¹
Ð¿ÐµÑĢ ÐµÐ¼ÑĭÑĩÐºÐ°
ĠÐ¿ÑĢÐµÐ¾Ð± ÑĢÐ°Ð·Ð¾Ð²Ð°ÑĤÐµÐ»ÑĮ
ĠÐ¾Ð± Ð¼Ð¾ÑĤÐºÐ°
Ġ20 12
ĠÐ¿Ð¾Ð» Ð¾Ð¶ÐµÐ½Ð¸Ðµ
ÑĢÐ°Ð² Ð»ÑıÑĤÑĮ
ĠÐ´ÑĢ ÐµÐ½
Ġh it
Ġt z
Ġt wo
Ð¿ Ð±
ĠÐ·Ð° Ð³Ð¾ÑĤÐ¾Ð²
ĠÐ¶ Ð¸Ð»Ð¾Ð¹
ĠÐ¾ÑģÐ½Ð¾Ð² Ð½ÑĭÐ¹
ÑĢÐ° ÑĦ
ĠÐ¾ÑĤ Ð½Ð¾
ĠÑįÐºÑĢÐ°Ð½ Ð¸ÑĢÐ¾Ð²Ð°ÑĤÑĮ
ĠÐ¾ÑĤÐ½Ð¾ ÑĪÐµÐ½Ð¸Ðµ
Ð´ ÑİÐ±ÐµÐ»ÑĮ
Ð¾ÑģÑĤ Ð¾
ĠÐ± Ð¾Ð»ÑĮÑĪ
ĠÐ¾ÑĤÐº Ð¸Ð´Ð½Ð¾Ð¹
Ġ1990 4
Ġp ri
ĠÐ²Ð¸Ð± ÑĢÐ¾
Ð¾Ð±Ðµ Ð¶Ð½ÑĭÐ¹
Ð¾ÑĤ ÐµÐº
ĠÐ¼Ð°Ñģ Ð»Ð¾
Ð± Ð¸Ð²Ð½Ð¾Ð¹
ĠÐ¸Ð· Ð²ÐµÑīÐ°ÑĤÐµÐ»ÑĮ
ĠÐ¿Ð¾ ÑĤÑĢÐµÐ±
Ġb s
m it
Ð¿Ð° Ðº
Ð¿Ðº Ð²
ĠÐ½Ð°Ð´ Ð·ÐµÐ¼Ð½ÑĭÐ¹
Ð± ÑĭÐ¹
ĠÑģÐ° ÑĨÐ±
ĠÑĨÐµÐ½ÑĤÑĢ Ð¾Ð±ÐµÐ¶Ð½ÑĭÐ¹
ĠÑħÐ² Ð¾Ð¹Ð½ÑĭÐ¹
ĠÑģÐ¾Ð± Ð¸ÑĢÐ°ÑĤÑĮ
Ð²ÐµÑĤÐ² Ð¸ÑĤÐµÐ»ÑĮ
Ð½ ÐºÐ°
ĠÑĤ Ñĩ
ĠÐ¿ÑĢÐ¸ Ð±Ð¾ÑĢ
Ġ20 2
ÐºÐ·Ñģ Ð³
Ñĩ Ð¸Ð²
Ġli mit
Ð½ ÐµÐ²Ð¾Ð¹
ĠÐ» Ð¸
ĠÑģ Ð¾ÑģÑĤÐ°Ð²Ð»ÑıÑĤÑĮ
Ġ3 9
ÑĢÐ° ÑĨÐ¸Ñı
ĠÐ¸Ð· Ð²
ĠÑįÐºÑģÐ¿Ð»ÑĥÐ°ÑĤÐ° ÑĨÐ¸Ñı
Ñı ÑīÐ¸Ðº
Ð¸ÑĢ Ð¿
ĠÐ¼Ð°Ð½ Ð¾Ð¼ÐµÑĤÑĢ
ĠÑĪ Ð°Ð¼
ĠÑĢÐ°ÑģÑĤ ÑıÐ¶ÐµÐ½Ð¸Ðµ
ÑĥÐ²ÑģÑĤÐ² Ð¸ÑĤÐµÐ»ÑĮÐ½Ð¾ÑģÑĤÑĮ
ĠÐ³Ð»ÑĥÐ± Ð¸Ð½Ð°
Ð³ÐµÑĢÐ¼ÐµÑĤ Ð¸Ðº
ĠÐ»Ð¾Ð¿ Ð°ÑģÑĤÑĮ
o g
ÐµÑģÑģ Ð¾Ð²Ð°ÑĤÑĮ
ĠÐ¾ÑĨÐ¸Ð½Ðº Ð¾Ð²Ð°Ð½Ð¸Ðµ
ĠÑĩ Ð¸ÑģÑĤÑĭÐ¹
ĠÐ²Ð¾Ð´Ð¾Ð½ÐµÐ¿ÑĢÐ¾Ð½Ð¸ÑĨÐ° ÐµÐ¼Ð¾ÑģÑĤÑĮ
ĠÑĢ Ð´
ĠÑģÑĤÐµÐº Ð»ÑıÐ½Ð½ÑĭÐ¹
Ð¾Ð½ ÑĤ
Ð¸Ð² Ð½Ð¾ÑģÑĤÑĮ
Ġo ut
70 8
Ð¿ ÐµÑģ
ĠÐ°Ð² Ð²
ÐµÐ½ÑĤ Ð¸Ð»ÑĮ
Ð¾Ðº Ð¾Ð¹Ð½ÑĭÐ¹
ĠÐ½Ð° Ð»
ĠÐ´ Ð¾ÑĢ
Ġ1 300
ĠÐ· Ð²ÑĥÐº
ĠÐ¼Ð¸Ð½ Ð¸Ð¼Ð°Ð»ÑĮÐ½ÑĭÐ¹
ÑĥÑģÑĤ Ð¸ÑĩÐµÑģÐºÐ¸Ð¹
ĠÐ°Ð· Ð¾ÑĤ
ma r
ĠÐ¾Ð´Ð½Ð¾Ð¼Ð¾Ð´ Ð¾Ð²
ĠÐ» ÑĥÐ¶
v a
ĠÑģÑĤÐ°Ð½Ð´Ð°ÑĢ ÑĤ
ĠÐºÐ»Ðµ ÐµÐ²Ð¾Ð¹
ĠÐ»ÑĥÐ¶ ÑĳÐ½ÑĭÐ¹
6 60
Ðµ Ñı
ĠÐ½ ÐµÐ»
0 50
Ġ5 3
Ð¾ Ð¾ÑħÐ»Ð°Ð´Ð¸ÑĤÐµÐ»ÑĮ
Ð¾Ð³ Ð°
ĠÐ¾ÑĤÐ²ÐµÑĤ ÑģÑĤÐ²Ð¾
Ð°ÑĤ Ð¸Ðµ
ĠÑĢ ÑĤ
Ġ8 1
ĠÐ¾Ð¿ Ð»
ĠÐ°ÑĢÐ¼ Ð¾Ð±Ð»Ð¾Ðº
Ġconnec ting
Ð°Ð² ÑĤ
ĠÐ¿Ð¾Ð» Ð¾ÑĤÐ½Ð¾
ei der
Ð¿Ð» Ð¸ÑĤÐºÐ°
ÐºÑĢÐµÐ¿ Ð»ÐµÐ½Ð¸Ðµ
n eider
Ġc ÐµÑĩÐµÐ½Ð¸Ðµ
Ġel e
Ġj o
ĠÑĢÐ°Ð· Ð´ÐµÐ»
18 5
03 2
ĠÐ¿Ð»Ð°ÑģÑĤ Ð¸Ð½Ð°
ĠÐºÐ¾Ð¼Ð¼ÑĥÑĤÐ° ÑĨÐ¸Ð¾Ð½Ð½ÑĭÐ¹
ĠÐ¾Ð± ÑĬ
Ġ19 6
ĠÐ¾Ð¿Ð» ÑĳÑĤÐºÐ°
a u
Ð½ Ð¸ÑĤ
ÐµÐ¿ÑĢ Ð¾Ð´ÑĥÐºÑĤ
Ġra di
ĠÐ²Ð¾Ð´Ð¾Ð¾ÑĤÐ²Ð¾Ð´ Ð½ÑĭÐ¹
Ð¾Ð² Ð¾ÑĢÐ¾ÑĤ
Ġp en
Ġb le
ĠÐ¿ÑĢÐµÐ´ ÐµÐ»ÑĮÐ½ÑĭÐ¹
ĠÐ½Ð°Ðº Ð»Ð¾Ð½Ð½ÑĭÐ¹
Ð¾Ð² Ð¾Ð»Ð¾Ðº
Ð½Ð° ÐºÐ¾Ð½ÐµÑĩÐ½Ð¸Ðº
ĠÐ²ÐµÐ½ÑĤÐ¸Ð»Ñı ÑĨÐ¸Ñı
Ð»Ñĥ Ñĩ
ĠÐ¿ÐµÐ½Ð¾Ð¿Ð¾Ð»Ð¸ ÑĥÑĢÐµÑĤÐ°Ð½
ĠÑģÐ¶ Ð°ÑĤÐ¸Ðµ
ĠÑĦ ÑĢ
ĠÐ°Ðº ÑĥÑģÑĤÐ¸ÑĩÐµÑģÐºÐ¸Ð¹
Ð¾Ð¹ ÑĩÐ¸Ð²
Ġm Ð¿Ð°
Ġ5 900
ĠÑī ÐµÐ»
ĠÑĪÐ°Ð¼ Ð¾ÑĤÐ½ÑĭÐ¹
ĠÐ² Ð´
ĠÐ½ÐµÑĦÑĤ ÐµÐ¿ÑĢÐ¾Ð´ÑĥÐºÑĤ
Ġ9 3
ii ic
ĠÑĦÐ¾ÑĢ Ð¼
8 3
Ġt n
ĠÐºÐ¾Ð½ Ñģ
g r
ĠÑģ Ð¾ÑģÑĤÐ¾
ĠÐ³ÑĢÑĥ Ð±ÑĭÐ¹
ÑĢÐ°Ð¼ Ð»ÐµÐ½Ð¸Ðµ
ĠÑģÐ¾ÑģÑĤÐ¾ ÑıÑĤÑĮ
18 03
Ġ48 60
Ð¾ÑĤÐµÐº ÑģÑĤ
ĠÐ½ ÐµÑģÑĤÐ¸
Ġ6 000
Ġq ÑħÐ¾Ð»
Ġg l
ĠÐ»Ð°ÐºÐ¾ÐºÑĢÐ°Ñģ Ð¾ÑĩÐ½ÑĭÐ¹
ĠÐ¿ÑĢÐ¾Ð² Ð¾Ð»Ð¾ÑĩÐ½ÑĭÐ¹
ĠÐ²ÑĭÑħÐ¾Ð´ Ð½Ð¾Ð¹
ĠÐº Ð¾Ð²Ñĭ
Ġ2 10
Ġ7 20
ÑĥÐ³ Ð¾Ð»ÑĮ
ĠÐ¼ÐµÑħÐ°Ð½ Ð¸Ð·
Ñģ Ð¾ÑģÑĤÐ°Ð²
ĠÑĢÑĥ Ð±
ĠÐ²Ð¾Ð´ Ð½ÑĭÐ¹
min eral
ĠÑģÐ¾Ð³Ð»Ð°Ñģ Ð½Ð¾
Ð° ÑĪ
ĠÐ¿ÑĢ Ð¾Ð´Ñĥ
ÑıÑĩ ÑĮ
Ġde mineral
Ġdemineral ized
i k
Ð° ÑĨÐ¸Ð¾Ð½Ð½ÑĭÐ¹
ĠÑģ ÐºÐ°
Ġb ro
74 92
ĠÐ¾ÑģÑĤ ÐµÐº
Ġ5900 7492
Ġo ver
Ġg en
Ð¾Ð¼Ð¿ Ð¾Ð½ÐµÐ½ÑĤÐ½ÑĭÐ¹
Ðº Ð¾Ñģ
ĠÐ¸ Ð¿
ĠÐ¼ Ð¾ÑĢ
ÑģÑĤ ÑĥÐ¿
ĠÐ¾Ð± ÑĢÐµÐ·Ð½Ð¾Ð¹
ĠÑĩ ÑĥÐ²ÑģÑĤÐ²Ð¸ÑĤÐµÐ»ÑĮÐ½ÑĭÐ¹
08 3
ĠÐ¼ÐµÐ» ÐºÐ¸Ð¹
ĠÐ´Ð¸ÑģÑĤ Ð°Ð½
ĠÑģ ÑĤÑĢÑĥ
ĠÑĢÐ° ÑģÑģ
Ġt ta
ĠÐ¿Ð¾Ð´ Ð°ÑĩÐ°
ĠÑĨÐ¸Ð½Ðº Ð¾Ð²Ð°Ð½Ð¸Ðµ
ĠÑĤÐµÑħÐ½ Ð¾Ð»Ð¾Ð³Ð¸ÑĩÐµÑģÐºÐ¸Ð¹
Ġbro en
Ð»Ð°Ð½ Ð´
Ġ17 3
Ġmaster seal
ÑĢÐ¾Ð² ÑĭÐ¹
Ġb or
ĠÐ¿ Ðº
Ð¸ÑĤ ÑĭÐ²Ð°ÑĤÑĮ
ĠÐ¼ÐµÐ¶Ð´ Ñĥ
Ð± ÐµÐ·
Ð»Ð° Ð²Ð¸ÑĪÐ½ÑĭÐ¹
Ġ4 9
ĠÑĢ ÐµÐ»ÑĮÑģ
ĠÐ¾Ð±ÑĬ ÐµÐºÑĤ
p ac
ÑĢÐ° ÑģÐ¿
Ġ3 20
ĠÑħ ÑĢÐ°Ð½
ĠÑģÐ¸Ð³Ð½Ð° Ð»
ĠÐ¼ Ðº
ĠÐ± Ð¸
ĠÑĤÐµÐ¼Ð¿ÐµÑĢÐ°ÑĤ ÑĥÑĢÐ½ÑĭÐ¹
ÑĢ Ð½ÑĭÐ¹
ÑĢ ÐµÐ¼
Ġ2 248
ĠÑģÐº ÑĢÑĭÑĤÑĭÐ¹
ĠÐ¾Ð´Ð½Ð¾Ðº Ð»Ð°Ð²Ð¸ÑĪÐ½ÑĭÐ¹
ĠÐ¿Ð½ Ð´
ÑįÐ»ÐµÐºÑĤÑĢ Ð¾Ð´
g a
Ġl ed
Ġac id
ĠÐºÐ¾Ð½Ð´ Ð¸ÑĨÐ¸Ð¾Ð½ÐµÑĢ
1803 70
ĠÐ´ ÐµÑĢÐ¶Ð°ÑĤÐµÐ»ÑĮ
ĠÑĤ Ð½
Ð¾Ð´ Ð¾ÑĢÐ¾Ð¶Ð½ÑĭÐ¹
ÑģÐº Ð¾Ð¹
ĠÐ°ÐºÑĢÐ¸Ð» Ð¾Ð²ÑĭÐ¹
ÐºÐ¾Ð½ÑĤÑĢ Ð³Ð°Ð¹ÐºÐ°
u ja
Ð¼ ÑħÐ°
ĠÐ¿ÑĢ Ð¾ÑĩÐ¸Ð¹
Ġs l
ĠÑĢ ÑĢÐ°Ð±
ĠÑģÐ¿Ð¾ÑģÐ¾Ð± Ð½Ð¾ÑģÑĤÑĮ
300 101
ĠÐ¿ÑĢÐµÐ´Ð½Ð° Ð¿ÑĢ
ĠÐ² Ñģ
ĠÐ·Ð° Ð±Ð¸Ð²Ð½Ð¾Ð¹
ÐµÐ² Ð¾Ð·
Ð¿ÐµÑĢ ÐµÐ³Ð¾ÑĢÐ¾Ð´ÐºÐ°
ĠÐ³ÑĢÐ°Ð½ ÑĮ
ĠÑģÐ¶ Ð°ÑĤÑĮ
Ð»Ð°Ð½Ð´ ÑĨÐµÐ¼ÐµÐ½ÑĤ
ĠÐ¿ÑĢÐµÐ´Ð½Ð°Ð¿ÑĢ ÑıÑĩÑĮ
ÑĨ Ð¸Ð¾Ð½
ĠÐº Ð¾Ð´
ĠÑĤ Ðµ
ĠÑį ÐºÑģ
Ð¾Ñģ Ð°
ÑĥÐ»ÑĮ ÑĦ
Ð¿ÐºÐ² ÐºÑĤ
ĠÑģ ategory
ĠÐ¿ÐµÑĢ ÐµÑģ
ec h
Ð¸ÑĦ Ð¾Ð½
Ð¾ÑģÐ» Ð¾Ð¹Ð½ÑĭÐ¹
ÑĦ Ð°Ð»ÑĮ
ĠÐ·Ð° ÑĩÐ¸ÑģÑĤÐºÐ°
Ġg au
Ð¾Ðº Ð¸Ð¹
ĠÐ¿Ð¾ÑĤ Ð¾Ð»Ð¾Ðº
ĠÐ¿ÐµÑĢÐµÑģ ÑĩÑĳÑĤ
ĠÐ³ ÐµÑĢÐ¼
Ġ5 9
ĠÐ¾Ð´Ð½Ð¾Ðº Ð¾Ð¼Ð¿Ð¾Ð½ÐµÐ½ÑĤÐ½ÑĭÐ¹
Ġsch neider
Ð³ Ð°Ð½Ð¸ÑĩÐµÑģÐºÐ¸Ð¹
ĠÑģÑĤ Ð¾
Ġh y
Ġgau ge
om a
ĠÐ¿ÑĢÐ¾Ð± Ð°
ĠÐ¾Ñģ Ð²ÐµÑĤ
da p
Ġun o
7 9
ĠÑĢÐ° Ð¼
Ð¼Ð° ÑģÑĤÐ¸ÐºÐ°
Ġ57 180370
Ġa dap
Ġ00 5
ÐµÐ²Ð¾Ð· ÐºÐ°
Ġadap ter
ĠÐ¿ÑĢ Ð¾Ð»Ñĳ
ĠÑĪÐ°ÑĢ Ð½
Ġ374 1
ĠÐºÐ¾Ð½Ñģ Ð¾Ð»ÑĮÐ½ÑĭÐ¹
ĠÑĥÑĩ Ð¸ÑĤÑĭÐ²Ð°ÑĤÑĮ
ÐµÑĢ Ñı
ĠÐ¿ÐµÑĢ ÑĩÐ°ÑĤÐºÐ°
Ð²Ð° ÐºÑĥ
ĠÐ¿Ð¾ÑĤ ÐµÑĢÑı
ĠÑĢÐ¸ÑĦ Ð»ÐµÐ½Ð¸Ðµ
v s
8 50
ĠÐ¿ÐµÐ½ Ð¾Ð¿Ð¾Ð»
ĠÐ´Ð¸ÑģÑĤÐ°Ð½ ÑĨÐ¸Ð¾Ð½Ð½ÑĭÐ¹
4 25
Ð±Ð° Ðº
ĠÑĢÐ°Ñģ ÑĪÐ¸ÑĢ
ĠÐ¾ÑĤÐº Ð»Ð¾Ð½
ĠÑĤÐµÐ¿Ð»Ð¾ Ð¸Ð·Ð¾Ð»ÑıÑĨÐ¸Ñı
Ð¼ÐµÑģÑĤ Ð¸Ð¼Ð¾ÑģÑĤÑĮ
m er
Ðº Ð¾Ð¼
Ð± Ð¾Ð½
Ġ3 11
Ð¶ ÑĥÑĤ
Ġ8 6
Ġca t
Ð¾Ð¼Ðµ Ð¶ÑĥÑĤ
Ð¿Ð¼ Ð½Ð³
ĠÐ¾ÑĤÐºÐ»Ð¾Ð½ ÐµÐ½Ð¸Ðµ
Ġm ul
Ġ24 5
ĠÑħÑĢÐ°Ð½ ÐµÐ½Ð¸Ñı
ÑĤ Ð¾Ð½
ĠÑĥ Ð¾
ĠÑĤÐ° Ð±
ĠÐ°ÑĤÐ¼Ð¾ÑģÑĦ ÐµÑĢ
ĠÐ¾Ñģ ÐµÐ²Ð¾Ð¹
Ġswitch es
Ð»Ð°Ð½ Ñģ
Ð¾Ñı ÑĤÐºÐ°
ĠÑĢÐ°Ð²Ð½ Ð¾Ð¿ÑĢÐ¾ÑħÐ¾Ð´Ð½ÑĭÐ¹
p cs
ĠÐ¼ Ñį
ĠÐ¿ÑĢ Ð¾Ð¼ÐµÐ¶ÑĥÑĤ
x y
Ð¾Ð½ Ð¸ÑĤ
Ġ4 7
Ð¼ÐµÑĤÑĢ Ð¸ÑĩÐ½ÑĭÐ¹
ĠÐ²Ð¾Ð·Ð´ÑĥÑħ Ð¾Ð¾ÑħÐ»Ð°Ð´Ð¸ÑĤÐµÐ»ÑĮ
ĠÐºÐ¸ÑģÐ» Ð¾ÑĤÐ°
ĠÐ½ÐµÐ» ÐµÐ³Ð¸ÑĢÐ¾Ð²Ð°Ð½Ð½ÑĭÐ¹
ĠÑĢ ÐµÐ¹ÐºÐ°
Ġ12 8
Ð»Ð°Ð½ Ð³
ĠÑĥÐ´Ð»Ð¸Ð½ ÑĳÐ½Ð½ÑĭÐ¹
ĠÑĦÐ»Ð¾ÐºÐµÐ½Ð¾Ñĩ ÑĥÐ²ÑģÑĤÐ²Ð¸ÑĤÐµÐ»ÑĮÐ½Ð¾ÑģÑĤÑĮ
ĠÐ´Ð¾Ð± Ð°Ð²ÐºÐ°
Ġ7 3
ĠÐ¿ÐµÑĢÐµÐº Ð»ÑİÑĩÐ°ÑĤÐµÐ»ÑĮ
ĠÐ² Ð¼ÐµÑģÑĤÐ¸Ð¼Ð¾ÑģÑĤÑĮ
ĠÐºÐ¾Ð¼ Ð¿ÑĢÐµÑģÑģ
Ġcool ed
ĠÐ¿ÑĢÐ¾Ð¼ÐµÐ¶ÑĥÑĤ Ð¾ÑĩÐ½ÑĭÐ¹
ĠÐ± Ð°ÑĤ
Ġf x
ĠÑģÐµÐ¹ÑģÐ¼Ð¾ÑģÑĤÐ¾Ð¹ ÐºÐ¾ÑģÑĤ
ĠÑģÐ¼Ð¾ÑĤÑĢ Ð¾Ð²Ð¾Ð¹
ĠÑĤÑĢÐ°Ð½ ÑģÑĦÐ¾ÑĢÐ¼Ð°ÑĤÐ¾ÑĢ
ÑĤ Ñģ
Ðº Ð¾Ð½Ð½ÑĭÐ¹
ĠÑĢÐ°Ð·Ð¼ÐµÑĢ Ð½ÑĭÐ¹
Ġdm c
ĠÐ±Ð°Ð» ÐºÐ¾Ð½Ð½ÑĭÐ¹
q u
ĠÐ±Ð° Ð»Ð°Ð½Ñģ
Ñī Ð¸ÑĤÐ¾Ðº
ĠÐ»Ð¸ ÑĨÐµÐ²Ð¾Ð¹
ĠÑĥ Ð¿Ð°Ðº
on ent
ĠÐ¿Ð¾Ð² Ð¸Ð²Ð½Ð¾Ð¹
ĠÑģÑĤÐ¾Ð¹ Ðº
ĠÑįÐºÑĢÐ°Ð½ Ð¸ÑĢÐ¾Ð²ÐºÐ°
Ġcomp onent
ĠÑĢÑĥÐº Ð¾ÑıÑĤÐºÐ°
ÑĢÐµÐ¼ Ð½ÐµÐ·
Ð°Ð½ Ð´
Ġ0 12
ĠÑģÑĤÑĭÐº Ð¾Ð²Ð¾Ð¹
ĠÑģÐ²ÐµÑĢÑħ Ñĥ
ĠÐ° ÑģÐº
ÐµÐ¼ Ð¸ÑģÑĤÑĭÐ¹
ÐºÐ°Ð±ÐµÐ»ÑĮ Ð½ÑĭÐ¹
Ð¾ÑĢÐ° Ð·
Ð½Ð¾ÑģÑĤ Ð¸
ĠÑģÐ¿Ð¸ ÑĢÐ°Ð»ÑĮÐ½ÑĭÐ¹
ĠÐºÑĢÐµÑģÑĤ Ð¾Ð¾Ð±ÑĢÐ°Ð·Ð½ÑĭÐ¹
ĠÐ¾ÑĤÐ²ÐµÑĤ Ð½
ĠÐ»Ð°ÑĤÑĥÐ½ Ð½
ÑĥÐ³Ð¾Ð»ÑĮ Ð½Ð¸Ðº
ĠÐ± Ñĥ
Ġ8 20
ĠÐ¿Ð» Ð¸ÑĤÐºÐ°
Ð¿ÑĥÑģÐº Ð°ÑĤÐµÐ»ÑĮ
ĠÑħÐ¾Ð»Ð¾Ð´Ð½Ð¾ÐºÐ°ÑĤ Ð°Ð½ÑĭÐ¹
ĠÑĤÐµÐ¿Ð» Ð¾ÑģÐ½Ð°Ð±Ð¶ÐµÐ½Ð¸Ðµ
Ð³ÑĢ ÐµÐ³Ð°ÑĤ
b o
ĠÐ° Ð¿Ð¿Ð°ÑĢÐ°ÑĤ
ĠÐ³ÑĢÑĥ Ð¿Ð¿
ĠÐ¼Ðµ ÑĤÑĢ
a a
ĠÐ± Ð¸ÑĢ
Ġd an
ĠÐ³ÐµÑĢÐ¼ÐµÑĤ Ð¸ÑĩÐµÑģÐºÐ¸Ð¹
Ġhe ating
ÐºÐ°Ð· Ð°ÑĤÐµÐ»ÑĮ
ĠÐ¼ÐµÐ¼ Ð±ÑĢÐ°Ð½Ð°
Ġmul ti
ÐµÐ½ Ð´
ĠÐ½ Ð¸Ð¿Ð¿ÐµÐ»ÑĮ
ĠÑį Ð²Ð°ÐºÑĥ
ĠÐ½Ð¸Ð· ÐºÐ¾
ĠÐ³Ð°Ð· Ð¾
ÑĢÐµÐ¼Ð½ÐµÐ· ÐµÐ¼Ð¸ÑģÑĤÑĭÐ¹
ĠÐ¿ Ð¸
Ð´ Ð°ÑĤÑĩÐ¸Ðº
ĠÐ¸ÑģÐ¿ ÑĭÑĤ
ÑĢÐ°Ð± Ð¾ÑĤÐ°ÑĤÑĮ
ĠÐºÐ»Ð°Ð´ Ð¾ÑĩÐ½ÑĭÐ¹
Ð· ÑģÐ´
Ð¾Ð· Ð¾Ð½
ĠÐ¿Ð¾Ð´ Ð´ÐµÑĢÐ¶Ð¸Ð²Ð°ÑĤÑĮ
ĠÐ¼ÑĥÐ»Ð»Ð¸ÑĤÐ¾Ðº ÑĢÐµÐ¼Ð½ÐµÐ·ÐµÐ¼Ð¸ÑģÑĤÑĭÐ¹
ĠÑĦÐ¾ÑĢÐ¼ Ð¾Ð²Ð°Ð½Ð¸Ðµ
e x
ÑĤ Ð¿
ĠÐ² Ð¸Ð»
Ð¾Ð· ÑĢÐ°ÑĩÐ½ÑĭÐ¹
Ġ200 4
ĠÐ´Ð¾ÑĢ Ð¾Ð³Ð°
a tor
Ð½ Ð¾Ð´Ð¾ÑĢÐ¾Ð¶Ð½ÑĭÐ¹
Ð³ Ð¿Ñģ
Ġa m
ĠÐ±ÐµÐ· Ð¾Ð¿Ð°Ð»ÑĥÐ±
Ð±Ð° Ð»ÐºÐ°
ĠÐ¶ÐµÐ»ÐµÐ· Ð½Ð¾Ð´Ð¾ÑĢÐ¾Ð¶Ð½ÑĭÐ¹
ĠÐ²ÑħÐ¾Ð´ Ð½Ð¾Ð¹
ĠÐ±ÐµÐ·Ð¾Ð¿Ð°Ð»ÑĥÐ± Ð¾ÑĩÐ½ÑĭÐ¹
Ġ17 37
Ð²Ð¸Ð¶ Ð½Ð¾Ð¹
Ð¾ÑĤÐµÐºÑģÑĤ Ð¸Ð»ÑĮ
ĠÑģ ÑĥÐ»ÑĮÑĦ
ĠÑĥ Ð¼
ĠÑģÑĤÐ° Ð»Ðµ
re ss
ĠÐ´Ð¸ ÑģÐ¿
ĠÑģÐµÐ¹ÑģÐ¼Ð¾ÑģÑĤÐ¾Ð¹ÐºÐ¾ÑģÑĤ Ð¸
ĠÐ³ÑĢÑĥÐ¿Ð¿ Ð¾Ð²Ð¾Ð¹
ÑĢÐ° Ð¸Ð²Ð°ÑĤÑĮ
ĠÐºÐ¾Ð¼Ð¿ Ð¾Ð·Ð¸ÑĤÐ½ÑĭÐ¹
Ġ00 2
ÑĢÐ°Ñģ ÑĪÐ¸ÑĢ
Ð¸Ð¼ Ð¼ÐµÑĤÑĢÐ¸ÑĩÐ½ÑĭÐ¹
ĠÐºÐ°Ð½Ð° Ð»Ð¸Ð·Ð°ÑĨÐ¸Ñı
ĠÐ²ÑıÐ· ÐºÐ¾ÑģÑĤÑĮ
ĠÐ¸ÑģÐ¿ÑĭÑĤ Ð°ÑĤÐµÐ»ÑĮÐ½ÑĭÐ¹
ti ve
ĠÐ¶ Ð°ÑĢ
Ġr p
ÑĥÐ³ Ð»ÐµÑĢÐ¾Ð´
Ġis o
ĠÐ²Ð»Ð° Ð³
â ģ°
Ñĥ ÐºÑĤÐ¾ÑĢ
ĠÑĥ Ð·
ow er
ĠÑģ Ð¸ÑĦÐ¾Ð½
ĠÐ» Ð¸ÑĤÐ°
Ġ7 10
ÑĦÐ°Ð»ÑĮ ÑĤ
20 1
ĠÐ¾Ð¿ ÑĢ
Ð± Ð¸ÑĢÐºÐ°
Ð¾Ð½ Ð°Ñģ
Ġc u
ann el
ĠÑģÐ°Ð¼Ð¾Ðº Ð»Ðµ
Ð° Ð³
ÐµÐ¿ Ñģ
Ġpp r
ĠÑĦÐ¾ÑĢ Ð¼Ð°
ĠÐ´Ð²ÑĥÑģÑĤ Ð¾ÑĢÐ¾Ð½Ð½Ð¸Ð¹
gr and
Ð³ Ð¸Ð±
Ġ2 90
Ġ200 2
un d
Ġle grand
v c
Ġ2 100
ÑĨ Ð¾Ð²ÑĭÐ¹
ĠÑĤÐµÑĢÐ¼Ð¾ Ð¾Ð±
ÑĥÐ³Ð»ÐµÑĢÐ¾Ð´ Ð¸ÑģÑĤÑĭÐ¹
ĠÐ¾Ð± ÑĪ
Ġ8 4
ĠÐ¿Ð¾Ð» Ð¸Ð°
Ġst and
Ġfr ls
ĠÐ²Ð¸Ð± ÑĢÐ°ÑĨÐ¸Ñı
Ð¼Ð°Ð½ Ð¶ÐµÑĤÐ°
ĠÐ¾ÑĤÑħÐ¾Ð´ Ð¸ÑĤÑĮ
Ġ ÑħÐ¾Ð´
Ġ et
Ġl p
ĠÑįÐºÑģÑĤÑĢÑĥ Ð´Ð¸ÑĢÐ¾Ð²Ð°ÑĤÑĮ
ĠÐ±Ð°Ð»Ð°Ð½Ñģ Ð¸ÑĢÐ¾Ð²Ð¾ÑĩÐ½ÑĭÐ¹
ÐµÐ¿Ñģ ÐµÐ»ÑĮÐ½ÑĭÐ¹
8 1
l ate
Ð°ÑĪ Ð½Ð¾Ð¹
ĠÐ¼ Ð¸Ðº
ĠÐ° ÑĥÑģÑĤ
ĠÐ¼Ð° Ð³
Ġ32 4
ac bc
ĠÐ¾Ð± ÑĢÐ°Ð¼Ð»ÐµÐ½Ð¸Ðµ
ĠÑĪ ÑĢ
ĠÑĪÑĤ ÐµÐ¿ÑģÐµÐ»ÑĮÐ½ÑĭÐ¹
ĠÑĢÐ°ÑģÐ¿ Ð°ÑĪÐ½Ð¾Ð¹
ĠÑĤÑĥÑĢ ÐµÑĨ
ĠÑģÑĤ Ð°ÑĤÐ¸ÑĩÐµÑģÐºÐ¸Ð¹
Ġ20 11
Ġv i
ĠÐºÐ¾Ð¼ Ð¿Ð°
Ġdis til
Ġdistil late
k m
ÐµÑĤ ÐµÐ²Ð¾Ð¹
ĠÑį Ð»
e m
ĠÑĢÐµÐ³ÑĥÐ»Ð¸ÑĢÐ¾Ð² Ð°Ð½Ð¸Ðµ
ĠÐ¾ÑģÐ²ÐµÑĤ Ð¸ÑĤÐµÐ»ÑĮÐ½ÑĭÐ¹
Ð¾Ð·Ð´ ÑĮ
ĠÑģÐ¿ Ð¾
ÐºÐ°ÑĤ ÐµÐ³Ð¾ÑĢÐ¸Ñı
ĠÐ½Ð¸Ð·ÐºÐ¾ ÑĥÐ³Ð»ÐµÑĢÐ¾Ð´Ð¸ÑģÑĤÑĭÐ¹
a d
ĠÐ²Ð¾Ð´ Ð¾ÑģÑĤ
ĠÐ½Ð°Ð¿ ÑĢÐ°Ð²Ð»ÑıÑĤÑĮ
ĠÐ¶Ð°Ð»ÑİÐ· Ñı
ĠÑĢÐµÐ³ÑĥÐ»Ð¸ÑĢÐ¾Ð² ÐºÐ°
ĠÐ±ÐµÐ·Ð¾Ð¿Ð°ÑģÐ½Ð¾Ñģ Ð½Ð¾ÑģÑĤÐ¸
Ñĩ Ð°ÑģÑĤÑĮ
ĠÐ³ Ð¾Ð´
ĠÐ· ÑĤ
Ġt i
Ġp cs
Ġp urpose
Ġb p
ĠÐ¾Ñħ ÑĢÐ°Ð½Ð½ÑĭÐ¹
ÐºÐ¾Ð¼Ð¿ ÐµÐ½ÑģÐ°ÑĤÐ¾ÑĢ
Ð¾Ð´Ð²Ð¸ Ð¶Ð½ÑĭÐ¹
ĠÐ°ÑĥÑģÑĤ ÐµÐ½
ĠÐ±ÐµÐ· Ð½Ð°Ð¿
ĠÐ°Ð¼ Ð½Ð°
ĠÐ±ÐµÐ·Ð½Ð°Ð¿ Ð¾ÑĢÐ½ÑĭÐ¹
ÑĤ ÑĢÐ°Ð½
Ð»Ð° Ð¶
Ñĳ Ð»ÐºÐ°
as e
0 12
Ġg m
ĠÐ¾Ð±ÑĬÑĳÐ¼ Ð½ÑĭÐ¹
ĠÑģÐ¸ Ð»Ð°
ĠÐ¿Ð¾Ð»Ð¸Ð¼ÐµÑĢ ÑĨÐµÐ¼ÐµÐ½ÑĤÐ½ÑĭÐ¹
ĠÐ³ÐµÑĢÐ¼ Ð¾Ð·Ð¾Ð½
ĠÐ´ ÑģÐ¿
ĠÐ² Ð°Ð»
Ð°Ð· Ð½ÑĭÐ¹
Ñĥ ÑĢÐ¾Ð²
ĠÐ¼ Ð¾Ð»
ĠÐ¶ Ð¸Ð´
Ð¾Ð¿ÐµÑĢ ÐµÐ´
ĠÐº Ð°ÑĢ
ĠÐ¾ Ð²
ĠÑĥ ÑĢÐ¾Ð²
18 3
ÑĭÐ² Ð°Ð»ÑĮÐ½Ð¸Ðº
ĠÐ½ÐµÐ¿ Ð¾Ð´Ð²Ð¸Ð¶Ð½ÑĭÐ¹
ĠÑĢÐ°Ð·Ð´ÐµÐ» Ð¸ÑĤÐµÐ»ÑĮÐ½ÑĭÐ¹
ĠÐ¼ÐµÑħÐ°Ð½Ð¸Ð· Ð¼
ĠÐ¿ÑĢ Ð¾Ð³
Ð¾Ð¼ ÐµÑĢ
ĠÑĢ Ð½
ĠÐ¼Ð°ÑĢ ÑĪ
i x
ĠÐ½ ÐµÐ¹
ĠÑģÑĤÐ°ÑĢ ÑĤ
ĠÑĦÑĥÐ½Ð´Ð°Ð¼ ÐµÐ½ÑĤ
ĠÐ±Ð¾Ð»ÑĮÑĪ Ð¸Ð¹
ĠÑĤÑĥÑĢÐµÑĨ ÐºÐ¸Ð¹
ĠÐ¼ ÐºÑģ
ĠÑĢ Ð¾
Ġch annel
8 6
ĠÐ¼ Ð¾Ð´
ÐµÐ³Ñĥ Ð»ÑıÑĤÐ¾ÑĢ
ĠÑĤÐµÑĢÐ¼ Ð¾ÑģÑĤÐ¾Ð¹ÐºÐ¸Ð¹
ĠÐ¼Ð°Ð³ Ð¸ÑģÑĤ
Ð² Ð²Ð¾Ð´
Ġ100 25
ĠÐºÑĢ Ð¾Ð¼
ĠÐ½ÐµÑģ Ðº
ÑĤ Ð¸Ð¿
Ġv Ð¿Ð¾Ð»
ĠÐ°Ñģ ÑĦÐ°Ð»ÑĮÑĤ
ĠÐ¶Ñĳ Ð»
Ð±ÑĪ Ð²Ð°
l et
Ð½ ÐµÐ²ÑĭÐ¹
Ð² Ð¾Ð·
ĠÐ´ Ð¸Ð·
ĠÑĤ ÐµÐ»
ĠÐ½Ð°Ð¿ Ð»Ð°Ð²
Ġgen eral
ĠÐ´ Ð¿
Ð°ÑĤ Ð¾ÑĢÐ½ÑĭÐ¹
Ġo c
ĠÐ¿ÐµÑĢÐµÐ´ Ð²Ð¸Ð¶Ð½Ð¾Ð¹
Ð³ Ð°Ð»Ð¾Ð³
ĠÑĦ ÑĥÑĢ
ĠÐ½Ð°Ð¿ Ð¾Ð»Ð½Ð¸ÑĤÐµÐ»ÑĮ
ĠÑĢÐµÐ·ÐµÑĢÐ² Ð½ÑĭÐ¹
Ð¾ ÑĨ
Ð¸ÑĤ Ð°ÑĤÑĮ
Ġ3 60
ĠÐ±ÐµÐ· Ð³Ð°Ð»Ð¾Ð³
ĠÑĪ Ð»Ð°Ð½Ð³
Ð»Ñİ Ðº
ĠÐ°Ð³ÑĢ ÐµÐ³Ð°ÑĤ
ÑĨÐ¸Ð¾Ð½ Ð°ÑĢÐ½ÑĭÐ¹
4 40
ĠÐºÐ° Ð¼ÐµÑĢÐ°
Ġ20 22
Ġcl os
ĠÐ²Ð¸Ð±ÑĢÐ¾ Ð¸Ð·Ð¾Ð»ÑıÑĤÐ¾ÑĢ
Ð¾Ð¹ÑĩÐ¸Ð² ÑĭÐ¹
ĠÐ°ÑĤÐ¼Ð¾ÑģÑĦÐµÑĢ Ñĭ
ĠÐºÑĢÐ¾Ð¼ ÐºÐ°
n o
Ð² ÐºÐ°
Ð¾ÑĤ Ð¾ÑĢ
Ġ9 2
Ġ50 8
11 1
fo ss
Ġdan foss
ĠÐ²Ð¾Ð´Ð¾ÑģÑĤ Ð¾ÑĩÐ½ÑĭÐ¹
ĠÐ´ Ð¼
Ð³ Ðµ
te n
ĠÑģÑĥ Ð¿ÐµÑĢ
Ð° ÑīÐ¸Ð¹
ĠÑģ ÐµÑĤÑĩÐ°ÑĤÑĭÐ¹
Ġ3 30
Ð¼Ðµ ÑĤÑĮ
ĠÐ¿ÐµÑĢ Ð²
ĠÑĦ Ð°Ð½ÐµÑĢÐ°
Ð¾Ð»ÑĮ ÐºÐ¾
ĠÐ¿Ð¾Ð´ Ð²Ð¸
Ð¼ÐµÑĤÐ°Ð»Ð» Ð¸ÑĩÐµÑģÐºÐ¸Ð¹
Ð¸ÑĢÐºÑĥÐ»Ñı ÑĨÐ¸Ð¾Ð½Ð½ÑĭÐ¹
ĠÑĢÐ°Ð¼ ÐºÐ°
ĠÐ½ÐµÑģÐº Ð¾Ð»ÑĮÐºÐ¾
ĠÐ¿Ð¾Ð´Ð²Ð¸ Ð¶Ð½ÑĭÐ¹
Ð½ Ñģ
ĠÐ´ ÑĥÑĪ
ÐºÐ° Ð¼ÐµÐ½ÑĮ
Ġ6 6
Ð¸Ð· Ð¸ÑĢÐ¾Ð²Ð°ÑĤÑĮ
ĠÐ¿Ð¾Ð²ÐµÑĢÑħ Ð½Ð¾ÑģÑĤ
ĠÑģÐ¸Ð»Ð¸ ÐºÐ¾Ð½
ĠÐ¿ÑĢ ÐµÑģÑģÐ¾Ð²Ð°ÑĤÑĮ
ĠÑĢÐ°Ñģ Ðº
Ð°ÑģÑĤ Ð¾ÑĤÐ½ÑĭÐ¹
ĠÐ²ÑģÑĤ ÑĭÐº
m s
p s
ĠÐ¸ Ð¼ÐµÑĤÑĮ
ur e
ĠÐ¾ÑĤÐ²ÐµÑĤ ÑģÑĤÐ²ÐµÐ½Ð½ÑĭÐ¹
ĠÑĤÑĢÐ°Ð½ÑģÐ¿ Ð¾ÑĢÑĤÐ½ÑĭÐ¹
Ñħ ÐµÐ¼Ð°
Ġ11 165
Ð²Ð° Ð¶
17 8
28 5
1 500
Ð¾Ð² ÐµÑī
ĠÐ² Ð½Ñĥ
ĠÑĢ Ð·
10 8
ĠÐ¿ÑĢÐ¸Ð» Ð¾Ð¶ÐµÐ½Ð¸Ðµ
Ð½Ð¸ÑĤ ÑĥÑĢÐ°
Ð¾Ð¿ÐµÑĢÐµÐ´ Ð°ÑĩÐ°
Ð´ ÐµÑĢÐ¶
Ð¼Ðµ Ð´Ð½ÑĭÐ¹
ÐµÑģÑĤ Ð²Ð°
ĠÑģÐ¿ Ð¾ÐºÐ¾Ð¹Ð½ÑĭÐ¹
ĠÐºÐ°Ñĩ ÐµÑģÑĤÐ²Ð°
ĠÑģÐ°Ð¼Ð¾Ð½ Ð°ÑĢ
Ñĭ Ð»
Ð¿ ÐºÐ°
ĠÐ¿Ð¾Ð´ ÐºÐ°ÑĤÐµÐ³Ð¾ÑĢÐ¸Ñı
ĠÐ°Ð· Ðµ
ÐºÐ° Ð»
ĠÐ· Ð½Ð°Ðº
ĠÐºÐ¾Ð½ ÑĨ
13 4
ĠÑı ÑīÐ¸Ðº
ĠÑįÐ²Ð°ÐºÑĥ Ð°ÑĨÐ¸Ð¾Ð½Ð½ÑĭÐ¹
n a
ÑĤ ÐµÐ¿Ð»
ĠÐ¿ Ð¼
ĠÐ³ ÑĢÐ°Ð²Ð¸Ð¹
Ð½Ð³ Ð°
Ð¾ÐºÐ»Ð°Ð´ ÐºÐ°
ĠÐ·ÐµÑĢ Ð½Ð¾
Ġ Ã
Ðµ Ð¶
Ġp ower
ÐµÐ» Ð»Ð°Ð¶
ĠÑĢ ÐµÐ±
Ġcon d
Ġ13 1
ĠÐ¿Ð°ÑĢÐ° Ð¼ÐµÑĤÑĢ
ĠÑĦÑĥÑĢ Ð½Ð¸ÑĤÑĥÑĢÐ°
ĠÑģÐ°Ð¼Ð¾Ð½Ð°ÑĢ ÐµÐ·Ð°
Ġ2 60
Ñį Ð²ÑįÐ²Ð½Ð³
ÐµÑĢÐ° Ð·
ĠÑģÑĤÐ° ÑĨÐ¸Ð¾Ð½Ð°ÑĢÐ½ÑĭÐ¹
Ġhe ated
Ġele vation
Ġbor ic
ĠÑģÐ°Ð¼Ð¾Ð½Ð°ÑĢÐµÐ·Ð° ÑİÑīÐ¸Ð¹
ĠÐ² ÑĢÐ°
Ð¶ Ð½Ð¾Ð¹
Ð¿ÑĢ Ð¾ÐºÐ»Ð°Ð´ÐºÐ°
ĠÐ¸Ð½ ÑĦÐ¾ÑĢÐ¼Ð°
ĠÑģÑĥÐ»ÑĮÑĦ Ð°ÑĤ
z h
ĠÑĥ ÑĦ
Ġd r
Ġg as
Ð°ÑĢÐ¼Ð°ÑĤ ÑĥÑĢÐ°
ĠÑĦÑĥÐ½Ð´Ð°Ð¼ ÐµÐ½ÑĤÐ½ÑĭÐ¹
ĠÐ°Ð²ÑĤÐ¾Ð¼Ð¾Ð± Ð¸Ð»ÑĮÐ½ÑĭÐ¹
Ð¼Ð½Ð¸Ðº Ð½ÑĥÑĤÑĮ
o or
ĠÐº ÑģÑģ
ĠÑĤ Ð¾Ð¿
Ġ16 5
01 20
Ð´Ð² ÑĥÑĤÐ°Ð²ÑĢ
Ð¿ÐµÑģ Ð¾Ðº
ĠÑĥÑĢÐ¾Ð² ÐµÐ½ÑĮ
ĠÐ²ÑĭÑģÐ¾Ðº Ð¾
ĠÐ½ÐµÐ¿ ÐµÑĢ
ĠÑįÐºÑģ ÑĨÐµÐ½ÑĤÑĢÐ¸ÑĩÐµÑģÐºÐ¸Ð¹
2 10
Ð» Ð¾Ð¼
Ġ4 10
or k
ÐµÐ» ÐµÐ²ÑĭÐ¹
en um
ÐºÑģ Ð¸Ð°Ð»ÑĮÐ½ÑĭÐ¹
Ġpl enum
ÑĤÐ¾Ð½ ÐºÐ¸Ð¹
b e
Ðº Ð²
Ð¼Ðµ Ð¼
Ġa p
Ġac ting
ĠÑģÑĥÐ¿ÐµÑĢ ÑĤÐ¾Ð½ÐºÐ¸Ð¹
ĠÐ¿ÐµÑĢÐ² Ð¸ÑĩÐ½ÑĭÐ¹
8 7
ĠÑģ ÐµÑĤÐµÐ²Ð¾Ð¹
ĠÐ¸ Ð¼Ð¿
ÑĢÐ° Ð¶Ð½ÑĭÐ¹
ÑĦ Ð°Ð·Ð½ÑĭÐ¹
ĠÐ²ÑģÑĤ ÑĢÐ°Ð¸Ð²Ð°ÑĤÑĮ
ĠÑĢÐµÐ´ ÑĥÐºÑĤÐ¾ÑĢ
ÐµÐ½ Ð¾ÑģÐ½ÑĭÐ¹
ÐµÐº Ñģ
Ġr ed
ĠÐ¼Ð°Ð½ Ñģ
Ð¾Ð²ÐµÑī Ð°ÑĤÐµÐ»ÑĮ
Ð´ÐµÑĢÐ¶ ÐºÐ°
3 20
ĠÐ¾ Ð½Ð°
ĠÐ¿ÑĢ Ð¾Ð·ÑĢÐ°ÑĩÐ½ÑĭÐ¹
ÐµÐ² Ð¸Ð·
Ð¿ÑĢ Ð¸ÑĤÐ¾ÑĩÐ½ÑĭÐ¹
ĠÐ°Ð²Ð² Ð³Ð½Ð³
ÐºÐ· ÑģÐ²
ĠÑģÐ°Ð¼ Ð¾ÑģÐ²
Ð°Ð²ÑĤ Ð¾Ð¼
ĠÑĤÑĢ Ð¾Ñģ
ic al
ĠÐ³Ð» Ð´Ð¼
Ð¼ÐµÐ¼ Ð±ÑĢÐ°Ð½Ð°
Ðµ ÑĤÑĢ
ĠÑģ Ð¸Ð¼Ð¼ÐµÑĤÑĢÐ¸ÑĩÐ½ÑĭÐ¹
ĠÐ²Ñĭ ÑģÑĤÑĥÐ¿
Ġ37 7
ĠÐ¼Ñį Ð¾
ĠÑģÑĤÐ°Ð»Ðµ Ð¼ÐµÐ´Ð½ÑĭÐ¹
Ñĩ Ð°Ð½Ð¸Ðµ
ĠÐ»Ñİ ÑĩÐ¾Ðº
ĠÐºÐ¿Ð¿ Ð³ÑįÐ½Ð³
ÐµÐ¿ Ð°ÑĢ
ĠÃ ¸
ĠÐ¿ ÐµÑĩÑĮ
ĠÐ¿ÑĢÐ¸ ÑĢ
Ġr j
Ġca pac
ĠÑĥÑģ Ð°Ð´ÐºÐ°
Ð»ÑıÑĤ Ð¾ÑĢÐ½ÑĭÐ¹
Ð¿ Ð°ÑĤ
ĠÐ± Ð¸ÑĢÐºÐ°
Ð¾Ð¼ Ð±
Ñİ Ñģ
Ġv r
ÑĥÐ³ Ð¾Ð²Ð¾Ð¹
ĠÐ°Ñį ÑĢ
ĠÑĤÑĥÑĢ ÑĨÐ¸Ñı
ÑĥÐ· Ð¾ÑĢ
ĠÑĢÐµÐ· Ð¸Ð½Ð°
ĠÐ¾Ðº Ð½Ð¾
ĠÑģÑĤÐ°ÑĢ ÐµÐ½Ð¸Ðµ
ĠÐ¿Ð¾Ð²ÐµÑĢÑħÐ½Ð¾ÑģÑĤ Ð½ÑĭÐ¹
ĠÑģÐ¸Ð»Ð¸ÐºÐ¾Ð½ Ð¾Ð²ÑĭÐ¹
ĠÐ¿ÑĢÐ¸ÑĢ Ð¾Ð´Ð½ÑĭÐ¹
5 30
6 50
00 4
Ñį Ð»Ð°ÑģÑĤ
Ġflang e
ĠÐ´ÑĢÐµÐ½ Ð°Ð¶
ĠÐ°ÑĥÑģÑĤÐµÐ½ Ð¸ÑĤÐ½ÑĭÐ¹
c a
ĠÐºÐ° Ð¼ÐµÐ½ÑĮ
Ġ10 4
ĠÐ¿Ð¾Ð» Ð¸ÑĢÐ¾Ð²Ð°ÑĤÑĮ
ĠÐ´ÑĭÐ¼ Ð¾Ð²ÑĭÐ´ÐµÐ»ÐµÐ½Ð¸Ðµ
ĠÐºÐ»Ð°Ð´ ÐºÐ°
ĠÐ·Ð°Ð³Ð¾ÑĤÐ¾Ð² ÐºÐ°
Ġclos ed
ĠÐ¼ Ð³
Ġp um
ĠÑģÐ» ÑĥÐ¶
ĠÐ¼Ð°Ð³Ð¸ÑģÑĤ ÑĢÐ°Ð»ÑĮÐ½ÑĭÐ¹
ĠÑģÑĥÐ»ÑĮÑĦÐ°ÑĤ Ð¾ÑģÑĤÐ¾Ð¹ÐºÐ¸Ð¹
ÐµÐ¿Ð°ÑĢ Ð°ÑĤÐ¾ÑĢ
Ð½ Ð°ÑĢ
ĠÐ±ÐºÐ· Ðº
Ð¸Ð·Ð¾Ð» Ð¸ÑĢÐ¾Ð²Ð°Ð½Ð½ÑĭÐ¹
t b
ĠÑĢ Ð¾Ð¼Ð±
Ġf d
ĠÐ±Ñĭ ÑģÑĤÑĢ
Ð¸ÑĢÐ¿ Ð¸Ñĩ
4 10
Ð¾Ñĩ Ð°ÑģÑĤÐ¾ÑĤÐ½ÑĭÐ¹
ĠÐ½Ðµ Ð¾ÑĨÐ¸Ð½ÐºÐ¾Ð²Ð°ÑĤÑĮ
ĠÐ¿Ð¾Ð² Ð¸ÑĤÑĮ
ĠÑĥÑģÑĤÐ°Ð½Ð¾Ð² ÐºÐ¸
ĠÐ»Ñİ Ðº
ĠÐ±Ð° Ðº
ĠÐ¾Ð½ Ð¸
Ġf as
ĠÐ¿Ð¾Ð» ÑİÑģ
ĠÐ°ÑĢÐ¼ Ð¸ÑĢÐ¾Ð²Ð°Ð½Ð½ÑĭÐ¹
ĠÐ¿Ð»Ð°Ð½ Ðº
ĠÐ¿Ð¾Ð»Ð¸Ð° Ð¼
f f
ÑĪ Ð½ÑĥÑĢ
Ġt Ð°
ĠÑĦ Ð°ÑĢÑĦÐ¾ÑĢÐ¾Ð²ÑĭÐ¹
Ġ17 9
ÐµÑĢÑģ Ð¸Ð¾Ð½Ð½ÑĭÐ¹
9 20
Ġ1 70
ÐµÐº ÑĨÐ¸Ð¾Ð½Ð½ÑĭÐ¹
ĠÑįÐ»ÐµÐºÑĤÑĢ Ð¾Ð¸Ð·Ð¾Ð»ÑıÑĨÐ¸Ð¾Ð½Ð½ÑĭÐ¹
Ð¾Ð³ ÑĢÐµÐ²
ĠÑĤ Ð¿Ð¿
Ñĳ Ñħ
ĠÑģÐ² Ð¸Ð½
ĠÐ¿ÐµÑĢ ÐµÐ½Ð¾ÑģÐ½ÑĭÐ¹
ĠÑĢ Ð¸ÑģÐº
ĠÐ½Ð°ÐºÐ»Ð°Ð´ ÐºÐ°
ÐºÑĢ ÐµÑģÑĤ
Ð·Ð¾Ð½ ÑĤ
Ġ173 75
ĠÑģ Ð°Ð½
ĠÐ½ Ð¸ÑĤÑĮ
ĠÑĤ Ð´
Ð¾Ð³ Ð»ÑĥÑĪÐ¸ÑĤÐµÐ»ÑĮ
ĠÐ¼Ð°ÑĤ Ð¾Ð²ÑĭÐ¹
ÑĤÑĢÑĥÐ± Ð½ÑĭÐ¹
ĠÐ½Ð°Ð½ Ð¾Ñģ
Ġsuppor ts
r ation
ÑĤ ÐµÑĢÐ¼
ĠÐ´ ÑİÐ±ÐµÐ»ÑĮ
ĠÑįÐ»ÐµÐºÑĤÑĢ Ð¾Ð¿ÐµÑĢÐµÐ´Ð°ÑĩÐ°
b er
Ð¾ Ð¾
Ñģ Ð°
Ġf il
ĠÐ²Ð¾Ð´ ÑıÐ½Ð¾Ð¹
ĠÐ·Ð°Ñī ÑĳÐ»ÐºÐ°
Ð²ÑĤ ÑĥÐ»ÐºÐ°
Ð¸Ð½ Ð¸
Ġ5 10
ĠÐ¿ÑĢÐ¸ Ð¼Ðµ
Ð¾Ð´ÐµÑĢÐ¶ Ð°ÑīÐ¸Ð¹
ĠÐ±ÑĥÑĢ ÐµÐ½Ð¸Ðµ
ÐºÐ»ÐµÐ¼ Ð¼Ð½Ð¸ÐºÐ½ÑĥÑĤÑĮ
ĠÑĤÐ¸Ð¿ Ð¾Ð²Ð¾Ð¹
ĠÐ²Ñĭ Ð´ÐµÑĢÐ¶Ð¸Ð²Ð°ÑĤÑĮ
ĠÐ¿Ð» Ð¸Ð½ÑĤ
Ð¿ÑĥÑģÐº Ð½Ð¾Ð¹
ĠÐ¾ÑĤÐ²ÐµÑĤÐ² Ð»ÐµÐ½Ð¸Ðµ
ĠÐ¿ÑĢÐ¸Ð¼Ðµ ÑĩÐ°Ð½Ð¸Ðµ
ĠÑĥÐ¿ ÑĢÑĥÐ³
Ñĥ Ð°ÑĢ
ĠÑĥ Ð»Ð¸ÑĩÐ½ÑĭÐ¹
ĠÐ¾ÑĤ Ð¿ÑĥÑģÐºÐ½Ð¾Ð¹
ĠÐ» Ð¼
Ġe ae
ĠÑģÑĢ Ð¾Ðº
ĠÐ³Ð² Ð¾Ð·Ð´ÑĮ
ÐµÑĢ Ð³
Ġ13 6
ĠÑģÑĤÐµÐºÐ» Ð¾Ð²Ð¾Ð»Ð¾Ðº
Ð¾Ñı ÑĢÑĥÑģÐ½ÑĭÐ¹
Ġfl u
ĠÐ¿ÑĢÐ¾Ð¸Ð·Ð²Ð¾Ð´ Ð¸ÑĤÑĮÑģÑı
ÐµÑģÑĤÐ½ Ñı
ĠÐ¼Ð½Ð¾Ð³ Ð¾ÑıÑĢÑĥÑģÐ½ÑĭÐ¹
ĠÐ¸Ð·Ð² ÐµÑģÑĤÐ½Ñı
ĠÑģÐ»ÑĥÐ¶ Ð±Ð°
Ð² Ð¿
ĠÐ¾ Ð¼
Ġd s
Ġ5 40
ÑĥÑģ Ð½ÑĭÐ¹
ĠÐ²ÑĤ Ð¾ÑĢ
Ġro ck
ĠÐ°Ð²ÑĤÐ¾Ð¼Ð¾Ð± Ð¸Ð»ÑĮ
ĠÐ¿ ÑĢÐ°Ð²
ĠÐ² Ð¾Ð·
Ð¼ÐµÐ½ Ð½ÑĭÐ¹
ÑĢÐ°Ð· Ð²ÐµÑĤÐ²Ð¸ÑĤÐµÐ»ÑĮ
d w
h i
Ð» ÑĳÐ½ÑĭÐ¹
ĠÐ¿ ÐµÑĤ
ĠÐ¿ÐµÐ½Ð¾Ð¿Ð¾Ð» Ð¸ÑģÑĤÐ¸ÑĢÐ¾Ð»
Â ·
Ð¼ Ð¾Ðº
Ġ3 40
Ġo me
ĠÑģÐµÐ¹ÑģÐ¼ Ð¸ÑĩÐ½Ð¾ÑģÑĤÑĮ
ĠÐ½Ðµ Ð¸Ð·Ð¾Ð»Ð¸ÑĢÐ¾Ð²Ð°Ð½Ð½ÑĭÐ¹
ĠÐ¾Ð±Ñī ÐµÑģÑĤÐ²ÐµÐ½Ð½ÑĭÐ¹
ĠÐ²Ð»Ð°Ð³ Ð¾ÑģÑĤÐ¾Ð¹ÐºÐ¸Ð¹
ĠÐ½Ð°Ð½Ð¾Ñģ Ð¸ÑĤÑĮÑģÑı
Ġ4 40
Ġ4 200
ĠÑĥ Ð»ÑĮÑĤ
ÑħÐ¾Ð´ Ð¾Ð²Ð¾Ð¹
ĠÑįÐ»ÐµÐºÑĤÑĢ Ð¾Ð´
ĠÑĪÑĤ ÑĭÑĢ
Ġse al
Ð¾ÑģÐ½Ð¾Ð² Ð°
ĠÐ¾ Ð¾Ð¾
Ð¿ÑĢ Ð¸
Ġ30 5
Ġ324 15
ĠÐ² ÑĨ
ĠÑĢ ÐµÐ¼
ÑĢÑĥÐ³ Ð»ÑĭÐ¹
9 7
ÑĤ ÑĢÐ°
ÑĤ Ð¸ÑĤÑĮ
ĠÑģ Ð¾ÑģÐ½Ð°
Ð² ÑģÑĤÐ°Ð²ÐºÐ°
Ñħ Ð¼Ð°
Ġp vc
Ð¸Ð· Ð°ÑĨÐ¸Ñı
ĠÑģÐ¾ Ñħ
ĠÐ´ÑĢ Ð¾Ð±
Ġ4 178
ĠÑĤÐµÑĢÐ¼Ð¾ ÑĢÐ°ÑģÑĪÐ¸ÑĢ
u el
â Ģ
ĠÑĤ ÐµÑĩÐµÐ½Ð¸Ðµ
Ð¸Ð² Ð°ÑĤÐµÐ»ÑĮ
Ġa i
ĠÐ¿Ð¾Ð» ÑĥÐº
Ġh p
ĠÐºÑĢÐ¾Ð² Ð»Ñı
Ð¾ÑĤÐ¾ÑĢ ÑĭÐ¹
Ġpum p
ĠÐº Ð¾ÑĤÐ¾ÑĢÑĭÐ¹
Ð»Ð° Ð¼Ð¿Ð°
ĠÐ± Ð¾ÑĢÑĤ
ÑĦ Ð¾Ð±
Ġ8 2
Ġre mo
wo ol
ĠÐ°ÐºÐºÑĥÐ¼Ñĥ Ð»ÑıÑĤÐ¾ÑĢ
ĠÐ¾Ð² Ð°Ð»ÑĮÐ½ÑĭÐ¹
ĠÑĢÐ°Ð· Ð´ÐµÐ»ÐºÐ°
Ġh i
Ġ7 7
in t
ĠÐ¿Ð»Ð¾ÑĤ Ð½ÑĭÐ¹
ĠÑģÐ¸Ð»Ð¸ ÐºÐ°ÑĤÐ½ÑĭÐ¹
vi ce
Ð° Ð±
ĠÑģ ÐµÐ¿Ð°ÑĢÐ°ÑĤÐ¾ÑĢ
Ġ1 75
Ġ2 15
ÐµÑĤÐºÐ° Ð½ÑĭÐ¹
ĠÐ¶Ð°ÑĢ Ð¾ÑģÑĤÐ¾Ð¹ÐºÐ¸Ð¹
ĠÑģÐ²Ð¸Ð½ ÑĨÐ¾Ð²ÑĭÐ¹
Ð¾Ð½ Ð½Ð°
Ġt r
ÐµÑĤ Ð¾Ð²ÑĭÐ¹
ĠÑį Ð½
ÐµÐ¼Ð¿ÐµÑĢÐ°ÑĤ ÑĥÑĢÐ½ÑĭÐ¹
Ġresist ant
ĠÐ°Ñģ Ð±
Ġcapac ity
Ġome ga
Ñĥ ÐºÐ°Ð²
Ð¾ÑĢ ÐºÐ°
Ð¾ÑĢ ÑĥÐºÐ°Ð²
Ð¾Ð½ ÐµÑģ
Ð¾Ð± ÐµÐ·
Ġ10 1
ĠÑģÐ¿ ÑĢÐ°Ð²
Ġsi ka
Ð² ÑĢÐ¾Ð²ÑĭÐ¹
Ð¾Ð» Ð»ÐµÑĢ
ĠÐ² Ð¼
ĠÐ¿Ð¾ÑĢ Ð¸ÑģÑĤÑĭÐ¹
Ġrock wool
f lex
i ble
Ð¾Ñĩ Ð½ÐµÐ½Ð¸Ðµ
Ð¾Ð¿Ð°Ñģ Ð½ÑĭÐ¹
Ġz in
5 50
p ut
Ð¾ ÑģÐ¿
te c
ĠÂ ±
ĠÐ¿Ð¾Ð´ Ð¾ÑģÐ½Ð¾Ð²Ð°
14 5
ĠÐºÐ» Ð¸Ð½
Ġmo un
ĠÐ°Ð½Ð°Ð»Ð¾Ð³ Ð¾Ð²ÑĭÐ¹
d ing
Ð± Ð¿
ĠÐ° Ð»
ĠÑĢÐ°Ð· Ð»Ð¸ÑĩÐ½ÑĭÐ¹
Ð»Ð¸Ð² Ð¾
ĠÐºÐ¾ Ð°
Ġ185 99
Ñĳ ÑĤ
ĠÐ¼ÐµÑģÑĤ Ð½ÑĭÐ¹
ĠÐ°ÐºÐºÑĥÐ¼Ñĥ Ð»ÑıÑĤÐ¾ÑĢÐ½ÑĭÐ¹
Ġzin c
ĠÐ¿ ÑĥÐ»ÑĮÑĤ
ÐºÐ° Ð´Ð°
Ð°Ð½ Ð°Ð»ÑĮÐ½ÑĭÐ¹
Ð¶Ð¸Ð¼ Ð½ÑĭÐ¹
ĠÑĤÑĢÐµÑħ ÑħÐ¾Ð´Ð¾Ð²Ð¾Ð¹
ÑģÑĤÐ° ÐºÐ°Ð´Ð°
ĠÐ¿Ð¾ÐºÐ°Ð· Ð°ÑĤÐµÐ»ÑĮ
Ðµ Ð¸Ð²Ð°ÑĤÐµÐ»ÑĮ
ĠÐ»Ð° Ð¼Ð¸Ð½
ÑģÑĤÐ°Ð½ ÑĨÐ¸Ñı
ĠÐ±Ð¸ Ð¼ÐµÑĤÐ°Ð»Ð»Ð¸ÑĩÐµÑģÐºÐ¸Ð¹
r on
Ð¾ÑĤ ÐµÐ»ÑĭÐ¹
ÑĢÐ°Ð² Ð½
ĠÑģÐ±Ð¾ÑĢ Ð½Ð°Ñı
oma x
ĠÐ½ÐµÑĢ ÐµÐ²ÐµÑĢÑģÐ¸Ð²Ð½ÑĭÐ¹
ÑĤ Ð¾Ðº
Ġm od
ĠÑĦ ÑĥÑĤ
ĠÑĤÐµÑĢÐ¼Ð¾ ÑįÐ»ÐµÐ¼ÐµÐ½ÑĤ
ĠÐ¿ÑĢÐ¾Ð¸Ð·Ð²Ð¾Ð´ ÑģÑĤÐ²ÐµÐ½Ð½ÑĭÐ¹
08 9
ĠÐ¿Ð¾ÑĢÑĤ Ð»Ð°Ð½Ð´ÑĨÐµÐ¼ÐµÐ½ÑĤ
ĠÐºÐ¾Ð° ÐºÑģÐ¸Ð°Ð»ÑĮÐ½ÑĭÐ¹
s d
ĠÐ² Ð¾Ð»
ĠÐ¸Ð· Ð»ÑĥÑĩ
ÑĦ ÑĥÐ½Ð´Ð°Ð¼
Ð¾ÑĤ ÐµÐ¼Ð¿ÐµÑĢÐ°ÑĤÑĥÑĢÐ½ÑĭÐ¹
ĠÑħ ÑĢÑĥÐ¿
Ġe it
ĠÐ¿Ð»Ð°ÑģÑĤ Ð¸Ð½
ĠÐ¼Ð¾Ð» Ð½Ð¸Ðµ
ĠÑĤÐ¾Ð¿ Ð»Ð¸Ð²Ð¾
ÑĦÑĥÐ½Ð´Ð°Ð¼ ÐµÐ½ÑĤ
Ġs r
10 5
ĠÐ¿Ð»Ð¾Ñģ ÐºÐ¾ÑģÑĤÑĮ
ÐºÐ°Ð½Ð° Ð»ÑĮÐ½ÑĭÐ¹
Ñį Ð¼
ÐµÐ² Ð°Ñı
Ġ12 1
ĠÐºÐ¾ÑĢ Ð½ÐµÐ²Ð¾Ð¹
Ġpen et
ĠÐ¿Ð»Ð°ÑģÑĤÐ¸Ð½ ÑĩÐ°ÑĤÑĭÐ¹
ĠÐ½ Ð´
ĠÑĦ Ð¸Ð±
Ñį ÐºÑģ
Ġas tm
ĠÐ¿Ð¾Ð³ÑĢÑĥ Ð¶Ð½Ð¾Ð¹
ĠÑĢÐ°ÑģÑģ ÐµÐ¸Ð²Ð°ÑĤÐµÐ»ÑĮ
Ġcond ens
ĠÑħÑĢÑĥÐ¿ ÐºÐ¾ÑģÑĤÑĮ
ĠÐ¿ ÑĢÐ°
ÑģÐ» Ð¾Ð¹
Ġu ja
ĠÐ³Ð°Ð»Ð¾Ð³ÐµÐ½ Ð¾Ð½ÐµÑģ
Ġpenet ration
ĠÐ³Ð°Ð»Ð¾Ð³ÐµÐ½Ð¾Ð½ÐµÑģ Ð¾Ð´ÐµÑĢÐ¶Ð°ÑīÐ¸Ð¹
Ñģ Ð¸ÑģÑĤÐµÐ¼Ð°
ĠÐ¼ Ð³ÑĢ
ĠÐ½ ÐµÑĢÐ°Ð·
ĠÑħ ÑĢ
ĠÐ´ÑĥÑĪ ÐµÐ²Ð°Ñı
Ñģ ÐµÐ¹ÑģÐ¼
Ð»Ð° Ð·
Ġa u
Ġ6 7
ĠÐ²Ñĭ Ð´ÐµÑĢÐ¶ÐºÐ°
Ð¿ÑĢÐ¾Ð²Ð¾Ð´ Ð½Ð¾Ð¹
ĠÑĨÐ¸Ðº Ð»Ð¸ÑĩÐµÑģÐºÐ¸Ð¹
f s
Ġ8 3
20 3
ĠÑģÐ¿Ð» Ð¸ÑĤ
ĠÐ½Ð¸Ðº ÐµÐ»ÐµÐ²ÑĭÐ¹
1 30
ĠÐ¿ ÑĥÑģÐº
ĠÐ¼Ð° ÑģÑĤÐ¸ÐºÐ°
ĠÐ¾ÑĤÐ´ÐµÐ»ÑĮ Ð½ÑĭÐ¹
ĠÑģÐº Ð²Ð¾Ð·
ĠÑĦÐ»Ð¾ÐºÐµÐ½Ð¾Ñĩ ÑĥÐ²ÑģÑĤÐ²Ð¸ÑĤÐµÐ»ÑĮÐ½ÑĭÐ¹
ĠÐ¿Ð¾ÑĤÑĢÐµÐ± Ð¸ÑĤÐµÐ»ÑĮ
Ð´ Ð¾Ð½
ĠÐ· Ð°ÑĤ
ĠÐºÐ°ÑĤ ÐºÐ¾Ð²ÑĭÐ¹
Ġ65 7
ne ss
ĠÑĥÐ¿Ð°Ðº Ð¾Ð²ÐºÐ°
ÑĤÐ° Ð¶Ð½ÑĭÐ¹
Ð°ÑĢ ÐµÑı
ic k
ĠÑĤÐµÑħ Ð½Ð¾
ĠÐ½Ð°Ð¿Ð»Ð°Ð² Ð»ÑıÑĤÑĮ
ĠÑĤÐµÑĢÐ¼Ð¾ÑĢÐ°ÑģÑĪÐ¸ÑĢ ÑıÑĤÑĮÑģÑı
o per
ĠÐ¼ ÐºÑĢ
Ð°ÑĢ Ð´Ð½ÑĭÐ¹
ĠÐ³ Ð¸Ð¿Ñģ
ĠÑį ÑģÑĤÐ°ÐºÐ°Ð´Ð°
ĠÐºÐ³ Ð½
ĠÐºÐ¾Ð½ Ð¸ÑĩÐµÑģÐºÐ¸Ð¹
Ġb r
ĠÑįÐ»ÐµÐºÑĤÑĢ Ð¾ÑĤ
ĠÐ¼Ð°Ð½Ñģ Ð°ÑĢÐ´Ð½ÑĭÐ¹
ĠÑĢÐ¾Ð¼Ð± Ð¸ÑĩÐµÑģÐºÐ¸Ð¹
ÑģÑĤ ÐµÐ»Ð»Ð°Ð¶
ĠÐ´ Ð¾Ð¼
ĠÐ° Ð¸ÑĢ
Ġm i
ĠÑģÐ² Ð¾Ð¹ÑģÑĤÐ²Ð¾
10 6
Ð· Ð½Ð°Ðº
ĠÐ¿ÑĢ Ð¸Ð½
Ġd b
ÑĥÑģÑĤ Ð¾Ð¹ÑĩÐ¸Ð²ÑĭÐ¹
Ð¾Ð½Ð°Ñģ Ð¾ÑģÐ½ÑĭÐ¹
Ð³Ð° Ð±
ĠÐ¿ÐµÐ½ Ð°
ĠÐºÐ½Ð¾Ð¿ ÐºÐ°
ĠÐ² ÐµÐ½ÑĤÐ¸
001 2
ĠÐ·Ð°Ð¿Ð°Ñģ Ð½ÑĭÐ¹
Ð²Ð°Ð¶ Ð¸Ð½Ð°
ĠÐ¸Ð½ÑĦÐ¾ÑĢÐ¼Ð° ÑĨÐ¸Ð¾Ð½Ð½ÑĭÐ¹
Ġfas ten
ĠÐ´Ð½ Ð¸Ñī
3 45
b iiic
p urpose
00 6
ĠÐ¿Ð» ÐµÐ½Ð°
ĠÑģÐº Ð»Ð¾Ð½Ð½ÑĭÐ¹
Ġ0 80
ÑģÐ¿ Ð»
Ġ80 84
Ġe p
Ð¿ÐºÐ²ÑĤ Ð¿Ð½Ð³
ub n
Ġa d
ĠÐ´Ð² Ð¸Ð³
ĠÐ¾Ð´Ð½Ð¾Ðº Ð°Ð½Ð°Ð»ÑĮÐ½ÑĭÐ¹
Ð»Ð°Ð² Ð½ÑĭÐ¹
ĠÐ³Ð»ÑĥÐ± Ð¾ÐºÐ¸Ð¹
Ð³ÐµÑĢÐ¼ÐµÑĤ Ð¸ÑĩÐ½ÑĭÐ¹
ĠÑĤÑı Ð½ÑĥÑĤÑĭÐ¹
ĠÐ¾Ð¿ÑĢ ÐµÑģÑģ
ĠÑĤÐ¿Ð¿ ÑįÐ¿
Ġ4 80
ÐµÐ´ ÐµÐ½Ð¸Ðµ
Ġo il
ĠÐ¿Ð¾Ð´ Ð·ÐµÐ¼Ð½ÑĭÐ¹
ĠÑģÐ¾Ð± ÑģÑĤ
us y
Ð°Ð³ ÐµÐ½ÑĤ
ĠÑģ ÐºÐ»Ð°Ð´
Ñĥ Ð»Ð°
100 00
Ð¾Ð±ÐµÑĤ Ð¾Ð½
ĠÐ¾Ð´Ð½Ð¾Ðº ÑĢÐ°ÑĤÐ½ÑĭÐ¹
ĠÑħÑĢÐ¾Ð¼ Ð¾Ð²ÑĭÐ¹
Ġmulti purpose
Ð¾Ð±ÐµÐ· Ð¾Ð¿Ð°ÑģÐ½ÑĭÐ¹
Ð½ Ð¾Ð¼
ĠÑģ Ñģ
ĠÐ¿ Ð³
Ġm h
ĠÐ²Ñĭ Ð¿Ð¾Ð»Ð½Ð¸ÑĤÑĮ
ĠÑģÐ¼ ÐµÑģÐ¸ÑĤÐµÐ»ÑĮ
en c
Ð»Ð¸Ð² Ð°Ð½Ð¸Ðµ
ÑĥÐ»ÑĮ Ñģ
ĠÑĥÑĤ Ð¾ÑĩÐ½ÐµÐ½Ð¸Ðµ
ĠÐºÑĥ Ð»Ð°
ĠÑĥÐ¿ÑĢÑĥÐ³ Ð¾ÑģÑĤÑĮ
0 20
l o
m m
Ð½ Ð¸ÑĨÐ°
Ðº Ð¾Ð³
Ġ20 6
Ġb ar
ÑĥÑĤ Ð°ÑĤÐ¾ÑĢ
Ġin s
ĠÐ¸Ð·Ð»ÑĥÑĩ ÐµÐ½Ð¸Ðµ
Ĺ ¦
Ð½ Ð¾ÑĢ
Ġw ork
ĠÐ¿Ð¾Ð´ ÑģÐ»Ð¾Ð¹
Ġâ Ĺ¦
Ġover all
ĠÐ´Ð¸ÑģÐ¿ ÐµÑĢÑģÐ¸Ð¾Ð½Ð½ÑĭÐ¹
Ð°ÑĤ ÐµÑĢÐ¼Ñĭ
Ġ00 4
91 30
Ð¾Ð¿ Ð¾
ĠÑĥÐ´ ÐµÑĢÐ¶Ð¸Ð²Ð°ÑĤÑĮ
Ġ374 3
ÑĢ ÐµÐ¼ÐµÐ½Ð½ÑĭÐ¹
Ð¿ Ð¾Ð²Ð¾ÑĢÐ¾ÑĤ
Ġc r
Ġm e
ĠÑįÐ»ÐµÐºÑĤÑĢ Ð¾Ð½Ð½ÑĭÐ¹
Ð·Ð° ÐºÐ»Ð°Ð´
ĠÑĥÐ´ Ð°
ÐµÐ¾Ð± ÑĢÐ°Ð·Ð¾Ð²Ð°ÑĤÐµÐ»ÑĮ
ĠÐ¸Ð½ÑĤ ÐµÐ½Ñģ
ĠÐ¿Ð¾Ð»ÑĥÐº ÑĢÑĥÐ³Ð»ÑĭÐ¹
u ble
Ġ Î
ÐµÐ½ ÐµÑĢ
Ð¾Ð» Ð¸ÑĤÐ½ÑĭÐ¹
Ġ6 1
Ð¾Ñģ Ðº
ĠÑģÐ²ÐµÑĤ Ð¾
Ġ311 73
ÑĦÑĦ ÐµÐºÑĤ
ĠÐ²Ð¸Ð» Ð°ÑĤÐµÑĢÐ¼Ñĭ
ÑĢ Ð°ÑĤ
ĠÑĢÐ°Ð± Ð¾ÑĤÐ°ÑĤÑĮ
ĠÐ´Ð½Ð¸Ñī Ðµ
Ð» ÐµÐ¹
Ð¾ÑĤ Ð¾
ĠÐ· ÐµÐ»
ĠÑģÐ²Ð°ÑĢ Ð¸Ð²Ð°ÑĤÑĮ
ĠÐ½ÐµÐ¿ÐµÑĢ ÑĦÐ¾ÑĢÐ¸ÑĢÐ¾Ð²Ð°Ð½Ð½ÑĭÐ¹
ĠÑģÐ°Ð¼Ð¾ÑģÐ² Ð°Ð»
Ð¾Ð² Ð¾ÑĢ
ÑģÑģ ÐµÐ¹Ð½
ÑĦ ÑĢÐ°
10 4
Ġ50 9
ĠÐ°Ð»Ñİ Ð¼
Ġflex ible
Ð·Ð°ÐºÐ»Ð°Ð´ Ð½Ð°Ñı
ĠÑĤ ÑĢÐ°Ð²
Ġq Ð¾Ñħ
ĠÐ±Ð° ÑģÑģÐµÐ¹Ð½
Ġdo uble
ĠÑĪÐ»Ð¸ÑĦ Ð¾Ð²Ð°ÑĤÑĮ
ĠÑĪÑĤÐ° Ð½Ð³Ð°
2 60
ĠÐ» Ð¿
ĠÐ¾Ð± ÑĢÐµÐ·
ĠÐ¼ÐµÑĤÐ°Ð»Ð» Ð¾ÑĢÑĥÐºÐ°Ð²
ÑĢÐµÐ´ÐµÐ» Ð¸ÑĤÐµÐ»ÑĮÐ½ÑĭÐ¹
ĠÑĢÐ°ÑģÑĤÐ²Ð¾ÑĢ Ð¸ÑĤÐµÐ»ÑĮ
ÑĤÑĢÐ°Ð½ ÑģÑĦÐ¾ÑĢÐ¼Ð°ÑĤÐ¾ÑĢ
Ġmoun ting
Ñĥ ÑĤÐ½ÑĭÐ¹
Ð² Ð°Ð½
Ġ9 20
Ð¾Ð³ ÐµÐ½Ð½ÑĭÐ¹
ÑĥÑģ ÐµÐ½
Ġco ck
ĠÐ³Ð¸Ð´ÑĢÐ¾ ÑĦÐ¾Ð±
Ġelec tro
ĠÑĢÐ°ÑģÐº Ð¸ÑģÐ»
ĠÑģ ÑħÐµÐ¼Ð°
ĠÐº Ð¿Ð°
ĠÐº Ð·Ð°
Ð¾Ðº Ð°
ĠÐ´Ð² Ñĥ
ĠÐ¾Ð¿ÑĢÐµÑģÑģ Ð¾Ð²ÐºÐ°
1 32
3 10
Ð½ Ð¸ÑĤÐµÐ»ÑĮ
Ð¿ ÑĢÑĥ
Ð¾Ð½ ÐµÐ½ÑĤ
ĠÐ· Ð¾Ð½ÑĤ
Ġp art
Ð¾ÑģÑĤÐ°Ð² ÐºÐ°
ÐºÐ» ÐµÐ¹
ĠÐºÑĥÐ¿ Ð¿Ð¼Ð½Ð³
3 30
Ġ6 8
Ð¾Ð²Ð¾Ð´ ÑĩÐ¸Ðº
ÐºÐ» ÐµÐ¹ÐºÐ°
ĠÐ½ÐµÑģ ÑĥÑīÐ¸Ð¹
ĠÐ·ÐµÐ» ÑĳÐ½ÑĭÐ¹
ĠÑĢÐ°ÑģÐºÐ¸ÑģÐ» ÐµÐ½Ð½ÑĭÐ¹
2 248
5 60
l er
Ð² Ð¸Ð½ÑĤ
ĠÐ¼ Ñģ
Ġ2 70
Ġm n
ĠÑģÑĤ ÑıÐ¶ÐºÐ°
Ð¸ÑĩÐµÑģ ÐºÐ¸
ĠÐ¿Ð° ÑģÑģ
ÑĢÑıÐ´ Ð½ÑĭÐ¹
l ing
ĠÐ² ÑĢÐµÐ·ÐºÐ°
Ġ3 500
Ġ10 3
ĠÐ¿Ð¾Ð»Ð¸ ÐºÐ°ÑĢ
ac t
Ġradi al
Ġ 000
Ð³ Ð¼Ð°
ĠÐ² Ð¸ÑĤÐ°
Ġ75 245
ÑĥÐº Ð°ÑĤ
Ġtz ÑĤÐ¸Ð¿
mar y
Ġ75245 920
ĠÐ¼ Ð²
ĠÐ´ ÐµÑĦÐ¾ÑĢ
ĠÐ¾ ÑĩÐ¸ÑģÑĤ
Ð¸ÑĤ Ð¸Ð½Ð³
Ð¾ÑĤ Ðº
ĠÑĢ ÐµÐ²Ð¸Ð·
al og
12 1
Ġpl us
ĠÑĥÑĤÐµÐ¿Ð» Ð¸ÑĤÑĮ
ĠÐ»Ð°Ð¼Ð¸Ð½ Ð¸ÑĢÐ¾Ð²Ð°ÑĤÑĮ
ĠÐ¿Ð¾Ð»Ð¸ÐºÐ°ÑĢ Ð±Ð¾Ð½
ÑĢ Ð¸Ð³ÐµÐ»ÑĮ
ĠÐ¿ Ð¸Ð»
Ġâ ī
ĠÐ½Ð¾ÑĢÐ¼ Ð¸ÑĢÐ¾Ð²Ð°ÑĤÑĮ
ĠÐ¸Ð·Ð¾Ð»Ñı ÑĤÐ¾ÑĢ
Ġwork ing
Ġ6 40
ĠÑĦ ÐµÑĢ
Ġ8 40
el i
ĠÐ²Ð¾Ð´Ð¾ Ð¾ÑĤ
Ð½Ð°Ð¿ Ð¾ÑĢ
Ġcondens ate
Ñĭ Ð½ÐºÐ°
ĠÐº Ð°ÑĢÑĮÐµÑĢ
Ġiii ÑĤÑĮ
ĠÑįÐ¿ Ð´Ð¼
Ġs ing
Ð¾Ñģ Ð¼
ĠÑĨ Ð¸ÑĦ
ĠÑĢÐµ Ð°
ĠÑĤÐ¾ÑĢ ÐµÑĨ
ĠÑĩÐµÑĤÑĭÑĢÐµÑħ Ð¿Ð¾Ð»ÑİÑģÐ½ÑĭÐ¹
Ġc c
Ð¸Ð¿ Ð°
ĠÐºÐ¾Ð¼Ð¿ Ð¾Ð½ÐµÐ½ÑĤ
Ġe aa
Ġhe a
Ð»Ð¸Ð· Ð°ÑĤÐ¾ÑĢ
ĠÐºÐ¼Ð¿ ÑįÐ²ÑįÐ²Ð½Ð³
ĠÑĤÐµÑĢÐ¼Ð¾Ð¾Ð± ÑĢÐ°Ð±Ð¾ÑĤÐ°ÑĤÑĮ
Ġd t
Ð²Ð¾Ð´ Ð°
ĠÐ²Ð· Ð»Ð¾Ð¼
ĠÐ³Ðµ Ð¾ÑĤÐµÐºÑģÑĤÐ¸Ð»ÑĮ
Ġelectro m
Ñģ Ð½
Ð· Ð½Ð°Ñĩ
ĠÐ¸ ÑģÑĤ
ĠÐ² Ð¾ÑĢ
Ð¾ÑĤ Ð¸Ð»
Ð¸Ð· Ð¾ÑĤÐ¸Ð»
si ng
Ġin ter
ÑĥÐº ÑĨÐ¸Ð¾Ð½Ð½ÑĭÐ¹
ĠÐ½Ð°ÑĤ ÑıÐ¶Ð½Ð¾Ð¹
ĠÐ¸Ð·Ð¾Ð»Ñı ÑĨÐ¸Ð¾Ð½Ð½ÑĭÐ¹
Ġsing le
ĠÐ± ÑĥÑĤ
Ð¸Ðº ÑĥÐ»
ce ss
ÑĥÐ½ Ð¸ÐºÐ°
u kc
ÑĤ Ð¾ÑĢÐ½ÑĭÐ¹
Ð¸Ð½ ÐºÐ°
Ġt ra
Ġ5 35
ĠÑĢ ÐµÑĨ
ĠÑĤÐ¾Ðº Ð¾Ð¿Ð¾
Ġ91 30
ĠÑģÐ¿Ð¸ ÑĢÐ°
ĠÐ¿ÑĢÐ°Ð² ÑĭÐ¹
ĠÑĤÐ¾ÐºÐ¾Ð¿Ð¾ Ð¸ÑģÐºÐ¾Ð²ÑĭÐ¹
a p
g th
Ð½ f
Ġp r
Ġp t
ĠÐºÐ² Ð°
Ġr t
ĠÑĢÐ°ÑģÐ¿ Ð¾Ð»
Ð¿ÐµÑĢ ÐµÐº
ĠÑħÑĢÐ¾Ð¼ Ð¾Ð½Ð¸Ðº
ÑĳÑħ ÑģÐ»Ð¾Ð¹Ð½ÑĭÐ¹
ĠÑįÐ½ ÐµÑĢÐ³
ĠÐ± Ð¾ÑĢ
ÐµÐ½ÑĤ Ð¾ÑĩÐ½ÑĭÐ¹
Ð¿ÐµÑĢ ÐµÐ²Ð¾Ð·ÐºÐ°
Ġ18 425
Ġth ick
ÑĪÐ¿ Ð¾Ð½ÐºÐ°
Ġ18425 183
l p
Ð¿ ÑĤÐµÑĢ
ĠÑį ÑģÐº
ĠÑį ÑĦÑĦÐµÐºÑĤ
Ġpri mary
ĠÐ¼Ð¾ÑĢ ÑģÐºÐ¾Ð¹
ĠÐ¸Ð½ÑĤÐµÐ½Ñģ Ð¸Ð²Ð½Ð¾ÑģÑĤÑĮ
ĠÐº ÑĤ
Ð¾ÑĢ Ð³Ð°Ð½Ð¸ÑĩÐµÑģÐºÐ¸Ð¹
ÐµÐ· Ð½ÑĭÐ¹
ĠÐ¿Ð¸ÑĤ Ð°ÑĤÐµÐ»ÑĮÐ½ÑĭÐ¹
Ð² ÐµÐ½ÑĤÐ¸Ð»ÑĮ
ÑģÑĤ ÐµÐ½Ð´
Ð¾Ð½ Ð¾Ð¼Ð½ÑĭÐ¹
Ð½Ð° ÑģÑĤ
ĠÐ¿Ð² Ð¿
Ð²Ð¾ÑĢ Ð¾Ð½ÐºÐ°
Ġsp r
ĠÑĢÐ°ÑģÑĪÐ¸ÑĢ ÐµÐ½Ð¸Ðµ
Ð°Ð½Ð´ Ð°Ð¶
ĠÐ´Ð¸Ð· ÐµÐ»ÑĮÐ½ÑĭÐ¹
1 100
ĠÐºÐ° ÑģÑģ
ĠÑĢ Ð¸Ð³ÐµÐ»ÑĮ
ĠÐºÐ¾Ð¼Ð¿ ÐµÐ½ÑģÐ°ÑĤÐ¾ÑĢ
Ġlo g
ĠÑĪÐ°ÑĢÐ½ Ð¸ÑĢÐ½ÑĭÐ¹
5 285
Ð· Ð¸Ð¾Ð½Ð½ÑĭÐ¹
ĠÐ» ÐµÐ½ÑĤÐ¾ÑĩÐ½ÑĭÐ¹
Ð½Ð° Ð¿Ð¾Ð»Ð½Ð¸ÑĤÑĮ
ĠÐ³Ð°Ð· Ð¾Ð¿ÑĢÐ¾Ð²Ð¾Ð´Ð½ÑĭÐ¹
Ġin st
ĠÐ¿Ð¿ Ñĥ
Ġis w
Ð¿ÐºÐ²ÐºÑĤ ÑįÐ½Ð³
ĠÐ°ÑģÑĦÐ°Ð»ÑĮÑĤ Ð¾Ð±ÐµÑĤÐ¾Ð½Ð½ÑĭÐ¹
1 12
3 80
ĠÐ¾ÑĤ ÑĢÐ°Ð¶
Ġq nom
ĠÐ¾Ð´Ð½ Ð¾ÑģÐ»Ð¾Ð¹Ð½ÑĭÐ¹
ĠÐ¸ÑĤ Ð¾Ð³
Ġflu id
Ġai si
a b
ĠÐ¿ Ñı
Ñİ Ñī
ÐºÐ¾Ð¼Ð¿ Ð»ÐµÐºÑģ
ĠÐ½Ð°Ð» Ð¸Ð²Ð½Ð¾Ð¹
Ð¾ÑĢÐ°Ð· Ð¼ÐµÑĢ
Ġ2 74
ĠÐ¿ÑĢ ÑĥÑĤ
Ġs er
Ð±ÑĪ Ð²Ð½Ð³
2 70
3 25
Ñĥ Ð°ÑĢÐ½ÑĭÐ¹
ĠÐ¿ÑĢ Ð¾Ñģ
Ġr xy
ĠÑĤÐµÑĢÐ¼ Ð¾Ð¿Ð»Ð°ÑģÑĤ
ĠÑĨÐ¸Ð½Ðº Ð½Ð°Ð¿Ð¾Ð»Ð½Ð¸ÑĤÑĮ
Ġhs a
Ġdr ain
ĠÐ¿ÐµÑĤ Ð»Ð¸ÑĤÑĮ
ĠÑħÑĢ Ð¸Ð·Ð¾ÑĤÐ¸Ð»
ÐºÐ¾Ð³ Ð¾Ð²Ð¾ÑĢ
Ġrxy q
Ð¼Ðµ ÐºÑģ
ĠÑĤÐ¸Ð¿ Ð¾ÑĢÐ°Ð·Ð¼ÐµÑĢ
Ġn a
Ġf t
18 00
Ð°Ð¶ Ð¸Ð²Ð°ÑĤÑĮÑģÑı
Ġste am
ĠÑĥÑģ Ð°Ð¶Ð¸Ð²Ð°ÑĤÑĮÑģÑı
Ġthick ness
Ġlog ic
ĠÐ¾ Ð¶
ĠÐ» Ð±Ð¾
Ġf uel
ĠÐ¿Ð¾Ð» Ñĥ
Ð¾Ð¶ Ð½Ð¾ÑģÑĤÑĮ
ĠÑģÐ» Ð¸Ð²Ð½Ð¾Ð¹
ĠÐ¾ÑĤÐº ÑĢÑĭÐ²
ĠÐ°ÑĢÑĤ Ð¸ÐºÑĥÐ»
Ð¿ÐµÑĢÐµÐº Ð»ÑİÑĩÐ°ÑĤÐµÐ»ÑĮ
ĠÐ¼ Ñı
ĠÐ´ Ð¾Ð²Ð¾Ð´ÑĩÐ¸Ðº
Ñĩ ÐºÐ¾Ð²ÑĭÐ¹
ĠÑį Ð¼Ð¿
ĠÑĪ Ð²
Ð¿Ñģ ÑĥÐ»Ð°
ĠÐ°Ð²ÑĤ Ð¾Ð½Ð¾Ð¼Ð½ÑĭÐ¹
ĠÑģÑĤÐ°ÑĢ Ð¼ÐµÐºÑģ
ĠÐºÑĥÐ»Ð° ÑĩÐºÐ¾Ð²ÑĭÐ¹
Ñģ ÑĩÑĳÑĤÑĩÐ¸Ðº
Ð¾Ð½ Ð¸ÑĤÑĮ
ĠÐ¿Ð¾Ð» ÑĥÑĦ
ĠÑĨ Ð°
Ð½Ð¸Ðº Ð¾Ð²ÑĭÐ¹
ĠÐ¼Ð¾Ð½ Ð¾Ð»Ð¸ÑĤÐ½ÑĭÐ¹
Ġlen gth
ÑĢÐ°ÑģÐ¿ ÑĢÐµÐ´ÐµÐ»Ð¸ÑĤÐµÐ»ÑĮÐ½ÑĭÐ¹
Ġ xl
00 25
Ġ6 70
Ġp ol
ĠÐºÐ°Ñĩ ÐµÑģÑĤÐ²ÐµÐ½Ð½ÑĭÐ¹
12 50
ĠÐ³ÑĢÑĥÐ½ÑĤ Ð¾Ð²Ð¾ÑĩÐ½ÑĭÐ¹
Ġconnec tor
ĠÑĤÑĢ Ð¾ÑĤ
ĠÐ°Ð½ÑĤ Ð¸Ð¿
Ġ48 63
ĠÐ½Ð°ÑĤ ÑĢ
enc y
ĠÐ¿Ñı ÑĤÑĭÐ¹
c m
Ġ4 22
ĠÑĥ ÑĩÑĳÑĤ
Ġi x
ĠÐ¿ÑĢÐ¾ÐºÐ°ÑĤ Ð½ÑĭÐ¹
ĠÑģÐ» ÐµÐ´
ĠÐ½Ð°ÑģÑĤ ÑĢ
ĠÑīÐµÐ» ÐµÐ²Ð¾Ð¹
ĠÑĢÐµÐ± ÑĢÐ¾
hi te
Ð¿ÑĢÑĥ ÑĤÐ¾Ðº
ĠÐ½ ÐµÐ³
36 2
ĠÐ°Ð· Ð´
Ġfe ed
iii ÑĤÑĮ
ĠÑĤÑĢÐ°Ð½ÑģÐ¿Ð¾ÑĢÑĤ Ð¸ÑĢÐ¾Ð²ÐºÐ°
c iii
Ð¿ Ð¾ÑĢÐ½ÑĭÐ¹
Ð¿ Ð»Ð°ÑģÑĤ
ÐµÐ³ Ð¼ÐµÐ½ÑĤ
ĠÐºÑĢ Ð¾Ð¼Ðµ
Ð²Ð¾ÑĢ ÑĩÐ°ÑĤÑĭÐ¹
ĠÐ²ÑĢÐµÐ¼ Ñı
Ġther m
. -
ĠÐ½ ÐµÐ¿ÑĢ
Ġw hite
ĠÐ´ÐµÑĦÐ¾ÑĢ Ð¼Ð°
2 19
Ð° Ð³ÑĢÐµÐ³Ð°ÑĤ
ĠÑģ ÑĩÑĳÑĤÑĩÐ¸Ðº
ĠÐ´ Ð¸Ð½Ð°
ĠÑĤ Ð¿
Ġ2 18
Ġ2 35
Ð°ÑĢ ÑĤ
Ġ10 6
Ð¾Ð»ÑĮ ÑĤÐ½ÑĭÐ¹
ĠÐºÑĢ Ð¸
ĠÐ±Ð¾Ð» ÑĤÐ¾Ð²ÑĭÐ¹
Ð±Ð¾Ð¹ Ð½ÑĭÐ¹
ÑĤ Ð¸ÑĩÐµÑģÐºÐ¸Ð¹
ĠÑģ ÐµÐ±
Ð³ Ð¸Ð´
Ġi d
ÐµÐ² Ð°ÑĤÑĮÑģÑı
ĠÐ¾Ð´ ÐµÐ²Ð°ÑĤÑĮÑģÑı
15 9
ĠÑĢÐ°ÑģÐ¿ÑĢÐµÐ´ÐµÐ» Ð¸ÑĤÑĮ
Ð¾Ð·Ð°Ñī Ð¸ÑĤÐ½ÑĭÐ¹
ĠÐ¸Ð·Ð³Ð¸Ð± Ð½ÑĭÐ¹
ĠÑįÑģÐº Ð½
ĠÐ¼Ñı Ð³ÐºÐ¸Ð¹
ĠÑģÐµÐ± Ñı
Ð» ÐµÐ´
ÑģÑĤ ÑıÐ¶ÐºÐ°
ĠÑĢÐ°Ð· Ð±Ð¾ÑĢÐ½ÑĭÐ¹
Ġw b
ĠÐ½Ð¸Ð· ÐºÐ¾Ð»
Ġma in
ĠÐ¶ÐµÐ»ÐµÐ· Ð½ÑĭÐ¹
ÐºÐ» Ñĳ
ĠÐ¾ÑģÑĤÐµÐº Ð»ÐµÐ½Ð¸Ðµ
ÐºÐ¾Ñģ ÑĭÐ½ÐºÐ°
ĠÑĥÐ¼ ÑĭÐ²Ð°Ð»ÑĮÐ½Ð¸Ðº
l y
ÑĢ ÐµÐ³ÑĥÐ»ÑıÑĤÐ¾ÑĢ
Ġd k
Ġ9 4
Ġp s
Ð°Ð² Ð½
ĠÐºÐ¾Ð» Ð¾Ð½Ð½Ð°
ĠÐºÐ¾Ð¼Ð¿ÑĢÐµÑģÑģ Ð¸Ð¾Ð½Ð½ÑĭÐ¹
Ġspr ing
m f
Ð° Ð¹
Ð¸ÑģÑĤ Ð¾ÑģÑĤÑĮ
ĠÐ¾Ñģ ÑĮ
Ġcomp ress
ĠÑĢÐ¸ÑĦ Ð»ÑĳÐ½ÑĭÐ¹
ĠÐ¸Ð·Ð²ÐµÑģÑĤÐ½Ñı ÐºÐ¾Ð²ÑĭÐ¹
ĠÐ½Ð¸Ð·ÐºÐ¾Ð» ÐµÐ³Ð¸ÑĢÐ¾Ð²Ð°Ð½Ð½ÑĭÐ¹
ĠÐ± Ð°Ð½Ð´Ð°Ð¶
Ð°Ð² Ð½Ð¾Ð¹
Ġ20 18
Ġb et
ĠÐ¿Ð» ÐµÑĤ
ĠÑĤÑĢ Ð¸
ÐºÐ¾Ð» ÐµÐ½Ð¾
Ġ19 00
ar y
ĠÑĦÐ¸ÐºÑģ Ð°ÑĤÐ¾ÑĢ
ĠÑħÑĢÐ¸Ð·Ð¾ÑĤÐ¸Ð» ÑĨÐµÐ¼ÐµÐ½ÑĤÐ½ÑĭÐ¹
v r
ĠÐ½ Ñĥ
Ġ0 32
Ð½Ð° ÐºÐ»ÐµÐ¹ÐºÐ°
ĠÐ¿Ð¾Ð» Ð¸ÑģÑĤÐ¸ÑĢÐ¾Ð»
ÐµÐ² Ð°ÑĤÑĮ
Ġr et
Ġde vice
ĠÐ´Ñĥ Ð±
ĠÐ·Ð°Ðº Ð°ÑĤ
7 72
Ð¶ ÐºÐ°
ĠÐ» ÐµÐ²ÑĭÐ¹
ÐºÐ¾Ð¼Ð¿ Ð¾Ð·Ð¸ÑĨÐ¸Ñı
ĠÑģÐ°Ð¼ Ð¾Ð·
ĠÑģÐºÑĢÑĥ ÑĤÐ¸ÑĤÑĮ
ÑĭÑĩ Ð½ÑĭÐ¹
ĠÐ²ÑĭÐ²Ð¾Ð´ Ð¸ÑĤÑĮ
ĠÐ´Ð²Ð¸Ð³ Ð°ÑĤÐµÐ»ÑĮ
ĠÐ¿ Ð»Ð°
Ġi te
ĠÐ¾Ð± ÑĭÑĩÐ½ÑĭÐ¹
Ġ12 20
Ð¿ÑĢ Ð¾ÑĩÐ¸Ð¹
Ġr ec
ÑĬ ÑıÑĢÑĥÑģÐ½ÑĭÐ¹
ur n
ÑĢ Ð¾Ð¿ÑĢ
Ġl ine
ÐºÐ¾Ð» Ð¾Ð´ÐµÑĨ
Ġ05 2
Ġca a
Ġfr s
ĠÑĤÑı Ð³Ð°
Ð± Ðº
ÑĨ Ð¸
Ġ3 70
Ġl t
ĠÑĪÑĤ ÑĥÐºÐ°ÑĤ
ĠÑĤÐµÑĢÐ¼ Ð¾ÑģÑĤ
ĠÐ½ÐµÑĢ Ð°Ð²Ð½
ÑıÐ´ Ð½ÑĭÐ¹
ĠÑįÐºÑģÑĤÑĢÑĥ Ð·Ð¸Ð¾Ð½Ð½ÑĭÐ¹
ĠÐ¿Ð¾Ð»Ð¸ÐºÐ°ÑĢÐ±Ð¾Ð½ Ð°ÑĤ
Ġ4 25
Ð¸Ð· Ð¾Ð»Ð¸ÑĢÐ¾Ð²Ð°ÑĤÑĮ
ĠÐ³Ð² Ñģ
ĠÑĪÑĥÐ¼ Ð¾Ð³Ð»ÑĥÑĪÐ¸ÑĤÐµÐ»ÑĮ
v al
ÑĢ Ð¾Ð½
ĠÐ´ Ð±Ð¾
ĠÑĤ Ðº
ĠÑį Ð¼Ð°
Ġp ar
ĠÑħ Ð»Ð°Ð´
Ġh d
ĠÐ½Ðµ Ð²Ñĭ
Ð¾Ð¶ Ð¸ÑĤÑĮ
ĠÐ³Ð¾ÑĢ Ð½ÑĭÐ¹
ĠÐºÐ» ÐµÐ²Ð°ÑĤÑĮ
ĠÐ²ÑĭÑģÐ¾Ðº Ð¾ÑĤÐµÐ¼Ð¿ÐµÑĢÐ°ÑĤÑĥÑĢÐ½ÑĭÐ¹
Ð¸ÑĤÐ°Ð½ Ð¾Ð²ÑĭÐ¹
ĠÐºÐ¾Ð¼Ð¿Ð»ÐµÐº ÑģÐ½ÑĭÐ¹
ĠÐ¿Ð¾ÐºÐ°Ð· ÑĭÐ²Ð°ÑĤÑĮ
Ð¼ ÑĮ
Ġ7 9
Ġw s
ĠÐ¿Ð¾Ñģ Ð»ÐµÐ´
Ð»Ð¸Ð· Ð¸ÑĢÐ¾Ð²Ð°ÑĤÑĮ
ĠÑħÑĢÐ¾Ð¼Ð¾Ð½Ð¸Ðº ÐµÐ»
Ð» Ð²
ĠÐ¿ ÑĥÑĤÑĮ
ĠÐ¿ ÐºÑĥ
ĠÐ¿ Ð¾ÑģÑĤÐ°Ð²ÐºÐ°
Ð¾Ð¼ Ð¼
Ð°Ð´ Ð½ÑĭÐ¹
ĠÐ¿ÐµÑĢÐµÑħÐ¾Ð´ Ð½Ð¸Ðº
Ð¾ÑīÐ°Ð´ ÐºÐ°
ĠÑģÐµÐº ÑĨÐ¸Ð¾Ð½Ð½ÑĭÐ¹
ĠÐ¼ÑĥÐ»Ð» Ð¸ÑĤÐ¾Ð²ÑĭÐ¹
Ġseal ed
ÐºÐ¾Ð³Ð¾Ð²Ð¾ÑĢ Ð¸ÑĤÐµÐ»ÑĮ
Ð¿ Ð¾ÑĢ
ĠÐº Ðº
ĠÐ´ ÑĥÐ³Ð¾Ð²Ð¾Ð¹
ÑħÐ¾Ð´ Ð½ÑĭÐ¹
Ġ7 1
Ð²ÐµÑĤ Ð½ÑĭÐ¹
ÑĥÐ¿ Ð»Ð¾ÑĤ
ĠÐ°Ð½ÑĤ Ð¸Ð²
ĠÐ¿ÐµÐ½Ð¾Ð¿Ð¾Ð»Ð¸ ÑįÑĤ
ech an
0 16
ĠÐ½ Ð¾Ð¶
ÑĦ Ð°Ð½ÐµÑĢÐ°
ÐµÑĤ Ð¸ÑĤÐ°Ð½Ð¾Ð²ÑĭÐ¹
ĠÑĢ ÐµÐº
Ġb a
Ð¾Ð³ Ð½
ĠÐ¼Ð° ÑģÑģÐ¾Ð²ÑĭÐ¹
ĠÐ¿Ð½ ÐµÐ²
ÑĳÐ½ Ð¾ÑĩÐ½ÑĭÐ¹
is co
ĠÑĦÐ° Ð·Ð°
ĠÐ¿ÑĢÐµÐ´Ð½Ð° Ð·Ð½Ð°Ñĩ
ĠÐºÐ½Ð¾Ð¿ Ð¾ÑĩÐ½ÑĭÐ¹
ĠÐºÐºÐ± Ñģ
ĠÑĪÑĤÑĭÑĢ ÐµÐ²Ð¾Ð¹
ĠÐ¿ÑĢÑĥÑĤ Ð¾Ðº
ĠÑħÑĢÐ¾Ð¼Ð¾Ð½Ð¸ÐºÐµÐ» ÐµÑĤÐ¸ÑĤÐ°Ð½Ð¾Ð²ÑĭÐ¹
1 14
ĠÐ¿ Ñĥ
ĠÐºÐ° Ð¿
ĠÑĪÐ¸ÑĢ Ð¾ÑĤÐ°
ĠÐ±ÑĢÐ¾Ð½ Ð¸ÑĢÐ¾Ð²Ð°ÑĤÑĮ
ĠÐ¿ Ð´
Ð¾Ð½ Ð¾Ð²ÑĭÐ¹
ĠÑĥ ÐºÑģ
ĠÐ½Ð° ÐºÐ°
ÐµÑĩ ÐºÐ°
ĠÐ¿ÑĢÐ¸ ÑĳÐ¼Ð½ÑĭÐ¹
ĠÑĢ ÑĪ
Ġ7 30
Ð¸Ð± Ð¾ÑĢ
ĠÑģÐºÐ° Ð»ÑĮÐ½ÑĭÐ¹
Ð² Ð²
Ð²Ð¸ Ð³
11 7
xl a
Ġco un
74 1
45 41
Ġ76 2
ĠÐ½ÐµÐ¹ Ð»Ð¾Ð½
ĠÐ²Ð¾Ð· Ð¼
Ð¸ Ð»Ð¸
Ð¼ Ð¾Ð½
Ġas me
Ð¾Ð¿Ð¾Ð»Ð¸ Ð¼ÐµÑĢÐ½ÑĭÐ¹
Ġhe at
ÑģÐ¿Ð» Ð¸ÑĤ
ĠÐºÑĢÐ¸ Ð¾Ð³ÐµÐ½Ð½ÑĭÐ¹
ĠÐ½Ð°ÐºÐ° Ð»Ð¸Ð²Ð°Ð½Ð¸Ðµ
c r
ĠÐ¸ Ð¼
on e
Ġ9 50
Ġp Ð½Ð°Ð¿Ð¾ÑĢ
20 2
Ġf a
Ð¼Ð° Ð¶Ð½ÑĭÐ¹
Ġcomp act
Ġ04 71
ĠÑĢÐ°Ð´Ð¸ Ð¾ÑĩÐ°ÑģÑĤÐ¾ÑĤÐ½ÑĭÐ¹
ĠÐ°ÑĢÐ¼ Ð¸ÑĢÐ¾Ð²Ð°ÑĤÑĮ
Ġcoun ter
ĠÐ²Ð¾Ð·Ð¼ Ð¾Ð¶Ð½Ð¾ÑģÑĤÑĮ
Ð¾Ð² Ð¾Ð·Ð²
ĠÐ² ÐµÐ½ÑĤÐ¸Ð»ÑĮ
ĠÐ·Ð° Ð´
ĠÐ·Ð° Ð´ÐµÐ»ÐºÐ°
ĠÑħ Ð¾Ð¼
Ð¾Ð¿ÑĢ ÐµÐ¾Ð±ÑĢÐ°Ð·Ð¾Ð²Ð°ÑĤÐµÐ»ÑĮ
et er
40 38
Ð¸ÑĤÐ° Ð·
Ð²Ð¾ÑĢ Ð¾ÑĤÐ°
ĠÑĪÐ¿ Ð¾Ð½
ĠÐºÐ¸ÑģÐ» Ð¾ÑĤÐ½ÑĭÐ¹
ĠÐ°ÑįÑĢ Ð¾Ð´
Ġme as
ĠÐ¿Ð¾Ð»ÑĥÑĦ Ð°ÑĢÑĦÐ¾ÑĢÐ¾Ð²ÑĭÐ¹
ĠÐ¿ÑĢÐµÐ´Ð½Ð°Ð·Ð½Ð°Ñĩ Ð¸ÑĤÑĮ
Ġ0471 4038
ĠÐ½ ÐµÑĤÐºÐ°Ð½ÑĭÐ¹
Ġp c
Ġf c
Ġ7 63
Ð¿ÑĢ Ð¸Ð±Ð¾ÑĢ
ÑĤÑĢÐ° Ð¿
ĠÐ¿Ð°ÑģÑģ Ð¸Ð²Ð½ÑĭÐ¹
ĠÐ¸ÑģÑĤ Ð¾ÑĩÐ½Ð¸Ðº
ĠÑĢÐ°ÑģÐ¿Ð¾Ð» Ð¾Ð¶ÐµÐ½Ð¸Ðµ
p Ð°
ĠÐº Ð±
ĠÐº Ð»ÑİÑĩ
ÑĦ ÐµÑĢ
ĠÐ½Ð° Ð²
Ġr d
Ġk z
ĠÐ·Ð°Ð¼ ÐºÐ¾Ð²ÑĭÐ¹
Ð¿ÐµÑĢÐµÑħÐ¾Ð´ Ð½Ð¸Ðº
ĠÐºÐ¾Ð¼Ð¿Ð° ÐºÑĤ
ÐµÐ½ Ð¾Ð²ÑĭÐ¹
ÑĢÐ° Ñī
Ġo st
Ġh us
ÐºÐ¾Ð½ Ð´
Ġpl ant
Ð¿Ð» Ð¾ÑīÐ°Ð´ÐºÐ°
ĠÐ½ÐµÑĢÐ°Ð· ÑĬÑĳÐ¼Ð½ÑĭÐ¹
ĠÐ¾ÑĤÑĢÐ°Ð¶ Ð°ÑĤÐµÐ»ÑĮ
ĠÑįÐ¼Ð° Ð»Ð¸ÑĢÐ¾Ð²Ð°ÑĤÑĮ
s a
Ðº Ð¸ÑĢÐ¿Ð¸Ñĩ
ĠÑģ ÐºÐ¾ÑĢ
ĠÐ¼ pÐ°
ÐµÐ½ Ð½Ð°
ĠÐ² Ð¾Ñģ
Ġ3 90
Ġm l
Ġt an
Ñĳ Ð»
ĠÑĦ Ðº
Ġma r
dr a
ĠÑįÐ¿Ð¾ÐºÑģ Ð¸Ð´
ĠÐ¾ÑĨÐ¸Ð½Ðº Ð¾Ð²
ÐµÑĢ ÑĭÐ²
Ð¾Ð¿ ÑĥÑģÐºÐ½Ð¾Ð¹
ĠÑĦ Ð¸ÑĤÐ¸Ð½Ð³
Ð²Ð¾ Ð¸ÑĤÑĮ
ĠÑģÐ¿ ÑĥÑģÐºÐ½Ð¾Ð¹
Ð¾Ð³ ÑĢÐ°Ð¼
Ġr m
ĠÐ¾Ð´Ð½ Ð¾ÑĢ
Ð¿Ð¾Ð» Ð¾ÑģÐ°
ĠÐ´ÑĭÐ¼ ÑĭÐ¹
Ġec o
ĠÑģÑĤÑĢÑĥ ÐºÑĤ
ĠÐ·Ð°ÑĤ ÑıÐ¶ÐºÐ°
Ġite ms
echan ical
ÑĢ Ð¾Ð¼Ð½ÑĭÐ¹
Ñĥ ÑĤÐ¾Ð²ÑĭÐ¹
ĠÐ½ Ð½
am e
ĠÑģÐ´ Ð²Ð¸Ð³
ĠÐ±Ð¸ÑĢ ÑģÑģ
Ġfasten ers
ĠÑĢÐµÐ²Ð¸Ð· Ð¸Ñı
ĠÐ½ÐµÐ¿ÑĢ ÐµÑĢÑĭÐ²
m ann
ĠÐºÐ° Ð»
ÐµÐ¼ Ñı
ĠÑĢ ÐµÐ²ÐµÑĢÑģÐ¸Ð²Ð½ÑĭÐ¹
Ġh l
ĠÐºÐ¾Ð½ÑĤÑĢ Ð¾Ð»Ð»ÐµÑĢ
ĠÐ¿ÐµÐ½ Ð¾Ð¿
Ð¼Ð°Ð½ Ð¾Ð¼ÐµÑĤÑĢ
ĠÑĤÐµ Ð¾ÑĢ
ĠÐ±Ð°ÑĤ Ð°ÑĢÐµÑı
Ġfil ter
2 80
Ð¸Ð² Ð¾ÑĩÐ½ÑĭÐ¹
Ð¾Ð½Ð° Ð»ÑĮÐ½ÑĭÐ¹
ÑĥÐ¼ Ð±Ð°
ĠÐºÐ¼Ð¿ Ð²Ð½Ð³
ĠÐ½ÐµÐ¿ÑĢÐµÑĢÑĭÐ² Ð½ÑĭÐ¹
Ñĥ ÐºÐ°Ð·Ð°ÑĤÐµÐ»ÑĮ
ĠÐ¿ÑĢ Ð¾ÑģÑĤÐ¾Ð¹
ĠÐ·Ð° Ð³Ð¸Ð±
ĠÐ¾ÑĤ Ñģ
Ġ5 200
ĠÑĦ Ð¸Ð½Ð¸
ÑģÐ¼ ÐµÑģÐ¸ÑĤÐµÐ»ÑĮ
Ð¿ÐµÑĢ Ðµ
Ġan alog
Ġjo t
ĠÑĨÐ¸ÑĦ ÑĢÐ¾Ð²Ð¾Ð¹
1 400
ĠÑĤ ÑģÐ¿
Ġ6 10
ĠÐ·Ð°Ð¼ Ðº
Ð»Ð°Ð¶Ð´ ÐµÐ½Ð¸Ðµ
Ġte m
ĠÑīÐµÐ» Ð¾Ñĩ
530 85
ĠÑģÐºÐ¾ÑĢ Ð¾ÑģÑĤÑĮ
Ð¾ ÑĥÑģÑĤÐ¾Ð¹ÑĩÐ¸Ð²ÑĭÐ¹
ĠÐ² ÐµÑī
ĠÑĢÐ°Ð· Ð½Ð¾ÑĢ
ÐµÐ¿ Ð¸ÑĨÐ°
Ð¿Ð»Ð°ÑģÑĤ Ð¸Ð½Ð°
Ġcompress ed
ĠÑĢÐ°Ð·Ð½Ð¾ÑĢ Ð¾Ð´Ð½ÑĭÐ¹
Ð² Ð¾ÑĩÐ½ÑĭÐ¹
ĠÐ¿ ÑģÐ¿
Ð°Ð½ Ð¸Ð½Ð°
Ġs re
Ġther ma
ĠÑĢÐ² Ð°Ð½Ð¸Ð½Ð°
ĠÐ¿ÑĢÐ¾Ð»Ñĳ ÑĤ
ĠÐ¿ÑĢÐ¾Ð»Ñĳ ÑĤÐ½ÑĭÐ¹
ĠÑĤÑĢÐ¾ÑĤ ÑĥÐ°ÑĢÐ½ÑĭÐ¹
ĠÐ°ÑįÑĢÐ¾Ð´ ÑĢÐ¾Ð¼Ð½ÑĭÐ¹
ĠÐ½Ð°Ð² Ð¸Ð²Ð½Ð¾Ð¹
ĠÑĦÐ¸Ð½Ð¸ ÑĪÐ½ÑĭÐ¹
Ð´ Ð¸ÑĦÑĦ
Ð¾Ð¼ ÐµÑĤ
Ġd c
ĠÑĢÐ°Ð· Ð½Ð¾ÑģÑĤÑĮ
Ġo bo
ĠÑĤÐ¾Ð½ Ð½
ĠÑģÐ²ÐµÑĤÐ¾Ð´Ð¸ Ð¾Ð´
ĠÐ´Ð²ÑĥÑħÐºÐ¾Ð¼Ð¿ Ð¾Ð½
Ġis ol
Ġup c
ĠÐ±Ð°Ð»Ð» Ð¾Ð½
Ð»Ð°Ð· ÑĥÑĢÐ¾Ð²
ĠÐ³Ð¸Ð¿Ñģ Ð¾Ð²ÑĭÐ¹
o h
Ð¾Ð² Ð¸Ð½Ð°
ĠÐ´ ÐµÑĤ
Ġm sv
ĠÑģÑĤ ÑıÐ¶Ð½Ð¾Ð¹
ĠÑĪ ÐµÑģÑĤÑĮ
Ġp h
Ġh nom
ĠÐ²Ñĭ Ð¿
ĠÐ¿Ð¾Ð´ ÑģÑĤÐ°Ð²ÐºÐ°
ĠÐ»Ð¸ÑģÑĤ Ð²ÐµÐ½Ð½ÑĭÐ¹
ĠÐºÐ´ Ð¶
ĠÐ¼Ð¾ÑģÑĤ Ð¾Ð²ÑĭÐ¹
Ġ1737 8
ĠÐ¶ÑĳÐ» ÑĤÑĭÐ¹
ĠÐ½Ð°ÑģÑĤÑĢ Ð¾Ð¹ÐºÐ°
ĠÐ¿ ÑĥÑģÑĤ
Ġ2 16
Ð¾Ð¿ Ð¾Ð³
Ð¾Ð¿ Ð¸ÑĤÐµÐ»ÑĮÐ½ÑĭÐ¹
Ð¾ÑĤ ÐºÐ¾Ð²ÑĭÐ¹
Ð¾Ñģ ÐºÐ°
st ral
Ġco ated
ĠÐ¾ÐºÑĢÐ°Ñģ ÐºÐ°
ĠÑģÐ´ Ð²Ð¾Ð¸ÑĤÑĮ
ĠÐ¿Ð¸ÑĤ Ð¾Ð¼ÐµÑĤ
ĠqÐ¾Ñħ Ð»Ð°Ð¶Ð´ÐµÐ½Ð¸Ðµ
ĠÐ´Ð²Ñĥ ÑģÑĤÐ²Ð¾ÑĢÑĩÐ°ÑĤÑĭÐ¹
ĠÑħÐ¾Ð¼ ÑĥÑĤÐ¾Ð²ÑĭÐ¹
ĠÑĤÐµÐ¾ÑĢ ÐµÑĤÐ¸ÑĩÐµÑģÐºÐ¸Ð¹
ĠÐ¿Ð¸ÑĤÐ¾Ð¼ÐµÑĤ ÑĢÐ°Ð¶Ð½ÑĭÐ¹
ÑĤ ÐµÐ»Ðµ
Ġc isco
Ġs g
Ġh as
ĠÐ¿Ð¾ Ñı
ĠÐ´Ð²ÑĥÑħ ÑģÑĤ
ĠÑī ÐµÐ±
Ð³Ð¾ÑĤÐ¾Ð² Ð»ÐµÐ½Ð¸Ðµ
Ġred uc
ĠÐ²ÑĤÐ¾ÑĢ Ð¾Ð¹
Ġret urn
b r
p ressure
ÑĢ ÐµÑĪ
Ġs ub
ĠÐ» Ð¾ÑĤÐºÐ¾Ð²ÑĭÐ¹
Ġh t
Ġv ol
ĠÑģÑĢÐµÐ´ Ð½
ter mann
ĠÑģÐ²ÐµÑĤ Ð¾Ð²Ð¾Ð·Ð²
Ġ27 772
ĠÐ¾ÑģÑĤÐµÐº Ð»Ð¸ÑĤÑĮ
ĠÑģÐºÐ²Ð¾Ð· Ð½Ð¾Ð¹
Ð¿ Ñĥ
ĠÐ° Ð»ÑĮÑĤ
Ġp an
ĠÑĢ ÑıÐ´
44 3
Ð¾ÑģÐ¼ ÐµÑģÑĮ
ĠÐ²Ð¾ÑĢ Ð¾ÑĤÐ°
ÑİÑī Ð¸
ĠÑįÐ¿Ð¾ÐºÑģÐ¸Ð´ Ð½Ð°
ĠÐ² Ð¸ÑĤ
Ġ3 35
Ġl if
ÑĥÑģ Ð°Ð´Ð¾ÑĩÐ½ÑĭÐ¹
ĠÐ±ÐµÑģ Ð¿ÐµÑĢÐµ
ÑįÐ»ÐµÐºÑĤÑĢ Ð¸ÑĩÐµÑģÐºÐ¸Ð¹
ĠÐ¿ÑĢÐµÐ´Ð¾ÑħÑĢÐ°Ð½ Ð¸ÑĤÐµÐ»ÑĮ
ĠÑĤÑĢÐ°Ð¿ Ð½Ð¾Ð¹
ĠÐ±ÐµÑģÐ¿ÐµÑĢÐµ Ð±Ð¾Ð¹Ð½ÑĭÐ¹
0 80
k d
Ð°ÑĢ Ð¼
ĠÐ· Ð½Ð°ÑĩÐµÐ½Ð¸Ðµ
Ġ6 20
ĠÐºÐ¾Ð½ ÑĤ
ĠÐ³Ð½Ñĥ ÑĤ
28 1
ĠÑĤÑĢÐµÑħ ÑĦÐ°Ð·Ð½ÑĭÐ¹
Ġpipe s
ĠÑĥÐ· Ð¾
ÑĢÐ°Ñī Ð°ÑİÑīÐ¸Ð¹
ĠÑģÐ²ÐµÑĤÐ¾Ð²Ð¾Ð·Ð² ÑĢÐ°ÑīÐ°ÑİÑīÐ¸Ð¹
e f
Ð¼ Ð¾ÑģÑĤ
ĠÐ´ ÑģÐ²
Ð°ÑĢ Ð¾ÑĩÐ½ÑĭÐ¹
ĠÐ¿ÐµÑĢ Ð²ÑĭÐ¹
Ġma ting
Ġremo te
ÑĥÐ½Ð¸ÐºÐ° ÑĨÐ¸Ð¾Ð½Ð½ÑĭÐ¹
ĠÐ¾ÑĤÐºÑĢÑĭÐ² Ð°Ð½Ð¸Ðµ
ĠÐ½ÐµÐ²Ñĭ Ð´Ð²Ð¸Ð¶Ð½Ð¾Ð¹
ĠÑīÐµÐ»Ð¾Ñĩ Ð½Ð¾Ð¹
ĠÐ²ÐµÑī ÐµÑģÑĤÐ²Ð¾
Ð¾Ð² Ð°Ð»ÑĮÐ½ÑĭÐ¹
ÑĦ Ð¾Ð½
Ġ12 7
Ð¼ÐµÐ½ Ð½Ð¸Ðº
30 4
ĠÐ¿Ð¾ÑģÑĤÐ°Ð²Ð»ÑıÑĤÑĮ ÑģÑı
Ð¸ÑĤÐ° ÑĨÐ¸Ñı
ĠÑģÑĤÐ¾Ð» Ð±
Ġmi stral
ÑĦÑĢÐ° Ð³Ð¼Ð°
ĠÐ¸Ð¼ Ð¸ÑĤÐ°ÑĨÐ¸Ñı
Ġtan k
6 20
Ð° Ð¿Ð¿Ð°ÑĢÐ°ÑĤ
ĠÐµ ÑģÑĤ
ĠÐºÑĢÐµÐ¼Ð½Ð¸Ð¹ Ð¾ÑĢÐ³Ð°Ð½Ð¸ÑĩÐµÑģÐºÐ¸Ð¹
ĠÐºÐ¾Ð¼Ð¿Ð»ÐµÐº ÑĤÐ°ÑĨÐ¸Ñı
ĠÑģÐ°Ð¼Ð¾ÐºÐ»Ðµ ÑİÑīÐ¸
ĠÑĦÑĥÑĤ ÐµÑĢ
ĠÑĤÐµÑħÐ½Ð¾ ÑįÐ»Ð°ÑģÑĤ
ĠÐ¾ÑĩÐ¸ÑģÑĤ Ð½ÑĭÐ¹
h a
p n
Ð¿ Ð¾ÑĢÑĤ
ĠÑĤ ÐºÐ°Ð½
Ð¸ÑĦ ÐµÑĢ
0 40
Ñģ ÑįÐ½Ð´Ð²Ð¸Ñĩ
Ð¾Ð² Ð¸Ð´Ð½ÑĭÐ¹
Ġt l
ĠÑģÑĤ ÑĥÐ¿
Ġ20 5
Ð¾Ð²Ð°ÑĤÑĮ ÑģÑı
Ð¼Ð° ÑĪÐ¸Ð½Ð°
ĠÐ¿Ð»Ð¾Ñģ ÐºÐ¾ÑģÑĤ
ĠÑĢÐµÐ³Ñĥ Ð»ÑıÑĤÐ¾ÑĢ
ĠÐ¿ÑĢÐ¾Ð¸Ð·Ð²Ð¾Ð´ ÑģÑĤÐ²Ð¾
ĠÐ¿Ð°ÑĢ Ð¾Ð½Ð¸ÑĤ
ÑģÑĦÐ¾ÑĢÐ¼Ð°ÑĤ Ð¾ÑĢÐ½ÑĭÐ¹
Ġsup pl
ÑģÑĤÐ°Ð½ Ð¾Ðº
ĠÎ »
ĠÐ¿Ð»Ð¾ÑģÐºÐ¾ÑģÑĤ Ð½Ð¾ÑģÑĤÑĮ
9 70
Ġ0 40
Ð¾Ð¼ ÐµÑĢÐ½ÑĭÐ¹
ĠÐ» Ð°Ð·
ÐµÑĩ Ð¸Ð½Ð°
Ġn e
ĠÐ¿Ð¾Ðº ÑĢÐ¾Ð²
ĠÐµÐ´ ÐºÐ¸Ð¹
ĠÑĩÐµÑĢ ÐµÐ·
ĠÐ¾Ð±ÑĪ Ð¸Ð²Ð¾ÑĩÐ½ÑĭÐ¹
Ġelectrom echanical
Ġinst all
i m
ĠÐºÐ° Ð¿ÑģÑĥÐ»Ð°
Ġb b
ĠÐ³Ð¾ÑĢ ÑİÑĩ
Ð¾Ð¿ÑĢ Ð¾
25 5
ÑĥÑĩ Ð¾Ðº
ÑĭÐ² Ð°Ð½Ð¸Ðµ
ĠÐ·Ð°Ðº ÑĢÑĭÑĤÑĭÐ¹
ĠÐ¾Ð´Ð½Ð¾ÑģÑĤ Ð²Ð¾ÑĢÑĩÐ°ÑĤÑĭÐ¹
ĠÑĢÐ°Ð·Ð²ÐµÑĤÐ² Ð»ÐµÐ½Ð¸Ðµ
Ġterminal s
ĠÐ´ ÐµÐ¼
ÑĤÐ° Ðº
Ġa ut
Ġp g
Ġb y
ÑĢÐ°Ñģ ÑĩÐ°
ĠÑģÐº Ð²Ð°Ð¶Ð¸Ð½Ð°
ĠÐ½Ð°Ðº Ð¾Ð¿Ð¸ÑĤÐµÐ»ÑĮÐ½ÑĭÐ¹
Ġ22 7
Ð¿Ðº Ð¾Ð²ÑĭÑı
ĠÐ¿Ð¾Ð¿ÐµÑĢ ÐµÑĩÐ¸Ð½Ð°
ĠÐ³Ð¾ÑĢÑİÑĩ ÐµÑģÑĤÑĮ
6 000
ĠÐ¿ ÑĥÑĩÐ¾Ðº
Ð¾ÑĤ Ð¾ÑĩÐ½ÑĭÐ¹
ed ge
ÐºÐ¾ÑĢ Ð¿ÑĥÑģ
Ġin let
Ð±Ð¾ÑĢ Ð°ÑĤÐ¾ÑĢÐ½ÑĭÐ¹
ĠÑģÐ¿ Ð¸Ð½ÐºÐ°
ĠÐ¼Ð° Ð»ÑĭÐ¹
ĠÐ½Ð¸Ð· ÐºÐ¾Ð²
Ġ11 3
Ġ19 5
ÑĨÐµÐ¿ Ð½Ð¾Ð¹
ĠÐ·Ð²ÑĥÐº Ð¾Ð²Ð¾Ð¹
ĠÐ¿Ð¾Ñı Ñģ
b in
Ñĥ ÑĪÐºÐ°
ĠÐº ÑĪ
ĠÐ² Ð¿
Ġc w
Ġ8 23
ĠÑĤÐ¾Ð½ ÐºÐ¸Ð¹
22 1
Ġac c
Ð¿Ð» ÑĳÐ½ÐºÐ°
Ð¾ÑģÑĤÐ¾Ñı Ð½Ð¸Ðµ
Ġtyp dm
ĠÑĢÑĤ ÑĤ
b ase
Ð° ÐºÑĤÐ¸Ð²Ð½ÑĭÐ¹
Ðµ ÑĥÐ¼
ĠÑģ Ð¼Ðµ
Ñı Ð½ÑĥÑĤÑĭÐ¹
ÐµÑĢ ÑĦ
ĠÐ³Ð° Ð»ÑĮ
Ġv e
per at
ĠÑıÑĩ Ðµ
Ġns x
ĠÐ¿Ð¸Ð» ÑĳÐ½ÑĭÐ¹
ĠÐ¿Ð»ÐµÑĤ ÑĳÐ½ÑĭÐ¹
h ing
Ðº ÑĪ
Ð² ÐµÐ½Ð¾
Ð¾Ð» ÐµÑĥÐ¼
ĠÐ¾ ÐºÐ°Ð»
ĠÐ± ÑĥÑĩ
Ð°ÑĢ Ð´Ð¸ÑĢÐ¾Ð²Ð°ÑĤÑĮ
ĠÐºÐ¾Ð½ ÑĥÑģÐ½ÑĭÐ¹
ĠÑģÑĤÐ° Ð»Ð¸
Ġ01 1
ĠÑĤÐµÐ¿Ð»Ð¾ Ð¸Ð·Ð¾Ð»Ð¸ÑĢÐ¾Ð²Ð°ÑĤÑĮ
ĠÐ¿ÑĢÐ¾Ð²Ð¾Ð´ Ð½Ð¾Ð¹
Ġfl ag
ÑĥÐ»ÑĮ ÑģÐ½ÑĭÐ¹
Ð¾ÑģÑĤÐ¾Ñı ÑīÐ¸Ð¹
ĠÐ¿Ð¾Ð»Ð¸Ð°Ð¼ Ð¸Ð´
ĠÐ¿ÐµÐ½Ð¾Ð¿Ð¾Ð»Ð¸ÑįÑĤ Ð¸Ð»ÐµÐ½Ð¾Ð²ÑĭÐ¹
Ð´Ð¸ÑĦÑĦ ÑĥÐ·Ð¾ÑĢ
ĠÐ¾ÐºÐ°Ð» Ð¸Ð½Ð°
ĠÐ±ÑĥÑĩ Ð°ÑĢÐ´Ð¸ÑĢÐ¾Ð²Ð°ÑĤÑĮ
4 65
Ð»Ð° Ðº
ĠÐ° Ð±
Ġ4 20
ĠÑĢÐ°Ð· ÑĬÑĳÐ¼
ĠÐ¿ÑĢÐ¸ Ð³Ð¾ÑĤÐ¾Ð²Ð»ÐµÐ½Ð¸Ðµ
Ġv s
100 25
Ġ37 00
Ġball omax
ĠÑģÑĤÐ°Ð½Ð´Ð°ÑĢÑĤ Ð½
1 75
d n
ĠÑģ Ð¾ÑģÑĤÐ¾ÑıÐ½Ð¸Ðµ
ÐµÑĢ ÑĮ
ĠÐ¾ÑĤ Ð¼
Ġ5 800
000 6
ĠÑĪÐ¿ ÑĥÐ½
ĠÑĤÐµÑĢÐ¼ Ð¾ÑĢ
ĠÐºÐ¿ Ð»Ð²
ĠÑĢÐµÐ´ ÑĥÐºÑĨÐ¸Ð¾Ð½Ð½ÑĭÐ¹
ĠÑĤÐ¼ Ð»
ĠÐ´Ð¾Ð¼ ÐµÐ½Ð½ÑĭÐ¹
ĠÐ½ÐµÐ¹Ð»Ð¾Ð½ Ð¾Ð²ÑĭÐ¹
perat ure
ĠÑģÑĤÐ°Ð½Ð´Ð°ÑĢÑĤÐ½ Ð¾Ð¿ÑĢÐ¾ÑħÐ¾Ð´Ð½ÑĭÐ¹
r m
ĠÐ¿ ÑĥÑĤ
ĠÑĤ Ð¸
ĠÐ½Ð° Ð¼Ð¾ÑĤÐºÐ°
Ð¸ÑģÑĤ Ð¾ÑĩÐ½Ð¸Ðº
ĠÐ¿ÐµÑĢ ÐµÐ³
15 3
ĠÐºÑĥÐ¿ Ð¿Ð½Ð³
ĠÐ±ÐµÐ·Ð³Ð°Ð»Ð¾Ð³ ÐµÐ½Ð½ÑĭÐ¹
ÐºÐ»Ñĳ Ð¿ÐºÐ°
Ð¾Ð¿ÑĢÐ¾ Ð¸Ð·Ð²Ð¾Ð´
9 43
Ð¸ Ð¶ÐµÐ½Ð¸Ðµ
ÑĮ Ñİ
ĠÐ¾Ð± Ð¾Ð³ÑĢÐµÐ²
Ð»Ð» Ð¸ÑĩÐµÑģÐºÐ¸Ð¹
Ġw edge
ĠÐ¾Ð´Ð¸Ð½ Ð¾ÑĩÐ½ÑĭÐ¹
ĠÐ´Ð²ÑĥÑħ ÑĬÑıÑĢÑĥÑģÐ½ÑĭÐ¹
ĠÑģÐ± Ð²
ĠÐ¼Ð½Ð¾Ð³ Ð¾Ðº
ĠÑĪÑĤÑĥ ÐºÐ°
ĠÐ¿ÑĢÐ¾Ð¿ Ð¸ÑĤÐ°ÑĤÑĮ
Ñģ Ð°Ð´Ð½ÑĭÐ¹
00 8
ÑĢÐ° ÑĨÐ¸Ð¾Ð½Ð½ÑĭÐ¹
ĠÐ¿ÑĢ Ð¸ÑģÑĤ
ĠÐ¾Ð± ÑģÐ°Ð´Ð½ÑĭÐ¹
10 7
Ð³ÑĢ ÑıÐ·
Ð²ÐµÑĢ Ð½ÑĥÑĤÑĮ
ĠÑīÐµÐ± ÑĳÐ½Ð¾ÑĩÐ½ÑĭÐ¹
l ed
Ð½ Ð¾ÑģÑĤÐ¾ÑıÑīÐ¸Ð¹
Ð¸Ðµ Ð²
ĠÐ½ Ñģ
ĠÐ° Ð´Ð°
Ġ8 443
Ġ7 200
Ð¾Ð¶ Ð¸Ð»ÑĮÐ½ÑĭÐ¹
ag le
Ġe agle
ang e
Ġls zh
ĠÐ¾Ð±Ð¾ÑĢÑĥÐ´ Ð°
Ġ850 9
ĠÑĥÑģÑĤÐ°Ð½Ð¾Ð² Ð¸ÑĤÑĮ
ĠÐ²ÐµÐ½ÑĤÐ¸ Ð»Ð¸ÑĢÐ¾Ð²Ð°ÑĤÑĮ
ĠÐ¾Ð±ÑĢÐµÐ· Ð°ÑĤÑĮ
ĠÐ±ÑĥÑĤ Ñĭ
Ġsuppl y
c t
ÑĤ Ð¸
Ð¸ Ð¾Ð»
Ð² ÐµÐ´ÐµÐ½Ð¸Ðµ
ĠÐ° Ð¸Ð¼
Ð¸Ðº Ð¾
20 20
ĠÑĤÐ° Ð²ÑĢÐ¾Ð²ÑĭÐ¹
Ġr i
ĠÐ¿ÑĢÐ¾Ð± ÐºÐ°
ĠÑįÑĦÑĦÐµÐºÑĤ Ð¸Ð²Ð½Ð¾ÑģÑĤÑĮ
d z
k e
t u
Ð½ Ñĭ
ĠÐ¿ Ð¾ÑģÑĤ
ÑĢÐ° ÐºÑģ
ÐºÐ»Ð° Ð²Ð¸ÑĪÐ½ÑĭÐ¹
ÑĢÐ°Ð² ÐºÐ°
Ġ25 5
Ð°ÑģÑĤ Ð½ÑĭÐ¹
ĠÐºÑĢÑĥÐ¿ Ð½ÑĭÐ¹
ĠÐ¾Ð³ ÑĢÐ°ÐºÑģ
Ð¹ Ð½ÑĭÐ¹
ĠÐ¿ ÑĤ
ĠÐ´ Ð³
ĠÐ± ÑģÐ»
ĠÑĥ ÐºÐ°Ð·Ð°ÑĤÐµÐ»ÑĮ
Ġm s
ÑĪ Ð°ÑĢ
Ð½Ð° ÐºÐ»Ð°Ð´ÐºÐ°
ĠÐ²Ñĭ Ð¿Ð¾Ð»Ð½
ĠÐºÐ² Ð°ÑĢ
Ġr eli
ĠÐ´Ð²ÑĥÑħ Ð»Ð°
ĠÐ±Ð° Ð·Ð¾Ð²ÑĭÐ¹
Ġex it
ĠÐ¾Ð±ÑĪ Ð¸Ð²ÐºÐ°
ĠÑĢÐµÑĨ Ð¸ÑĢÐºÑĥÐ»ÑıÑĨÐ¸Ð¾Ð½Ð½ÑĭÐ¹
Ġtem perature
Ġreli ef
1 70
Ð² ÐµÐ½
ĠÐº ÑĨ
Ġf i
Ġ7 80
ĠÐ¿ÑĢÐ¾Ð³ Ð¸Ð±
Ð¾ÑĢ Ð¸ÑĦÐµÑĢ
Ġ7 23
Ġe s
ĠÑģÐ±Ð¾ÑĢ ÐºÐ°
ĠÐºÐ°Ð½Ð°Ð» Ð¾Ð²
ÐºÐ° Ñĩ
ĠÐ± ÐµÑĢ
Ġc fs
30 2
ĠÐ¸Ð³ Ð»Ð°
t al
Ð½ Ð»
Ð½ Ð´
Ð¾Ð» Ð¾Ð²
Ġd vs
ĠÐ±ÐµÐ· ÑĥÑģÐ°Ð´Ð¾ÑĩÐ½ÑĭÐ¹
Ġ9 60
ĠÑĢÐ°Ð· Ð¼
Ġ12 3
ÐµÐ¼Ñı Ð½ÐºÐ°
0 11
n i
ĠÐ´ Ð¾ÑģÐºÐ°
Ð»Ñı Ð½ÑĭÐ¹
Ġ15 6
ĠÑĤÐµÐ¿Ð» Ð¾ÑģÑĤÐ¾Ð¹ÐºÐ¾ÑģÑĤÑĮ
Ð²ÐµÑĢ Ð´
ĠÐ±ÑĢÐ¾Ð½ Ñı
Ð¾Ð²Ð¾ÑĢÐ¾ÑĤ Ð½ÑĭÐ¹
ĠÐ²ÑĭÐ¿Ð¾Ð»Ð½ ÑıÑĤÑĮÑģÑı
g u
Ð» Ð¾Ð¿ÑĢ
ĠÐ³ Ð»Ð°Ð²Ð½ÑĭÐ¹
Ġt ech
Ġ6 100
ĠÑĤÑĢÑĥ Ð´
ĠÐ¼Ð°ÑĢÐº ÐµÑĢÐ½ÑĭÐ¹
ĠÐ¿Ð¾Ð» Ð¾ÑģÑĤÑĮ
Ġh el
Ġl n
ĠÐ·Ð°Ð¿ Ð¸ÑĢÐ°ÑĤÑĮ
ĠÐ¿Ð² Ð²Ð½Ð³
Ġst ar
ĠÐ»Ð° Ð±Ð¾ÑĢÐ°ÑĤÐ¾ÑĢÐ½ÑĭÐ¹
ĠÐºÐ»Ðµ ÑĳÐ½ÑĭÐ¹
Ġtr an
ĠÐ²Ð¾Ð´Ð¾Ð¾ÑĤ Ð²ÐµÐ´ÐµÐ½Ð¸Ðµ
ĠÐ·Ð°Ð´ Ð½Ð¸Ð¹
ĠÐ³Ð½ÑĥÑĤ Ð¾ÑģÐ²Ð°ÑĢÐ½Ð¾Ð¹
2 500
7 10
c l
Ð¾ ÐµÑĩÐ½ÑĭÐ¹
ĠÐ¿ Ð¸Ðº
Ð³ Ð¾Ð»Ð¾Ð²ÐºÐ°
ÐµÑģ ÐµÐ½Ð¸Ðµ
Ġ5 20
ĠÐ¿ÐµÑĢ ÑĦÐ¾ÑĢ
ĠÑĢÐ°Ð· ÑĬÑĳÐ¼Ð½ÑĭÐ¹
ÑĨÐµÐ² Ð¸Ð½Ð°
29 6
Ġ52 134
Ġgr und
ĠÐ½Ð°Ð½ ÐµÑģÐµÐ½Ð¸Ðµ
ĠÑģÐ¾Ñħ ÑĢÐ°Ð½
lo y
ÐµÐ½ÐµÑĢ Ð°ÑĤÐ¾ÑĢ
ĠÐ±ÑĥÑĤÑĭ Ð»Ð¾ÑĩÐ½ÑĭÐ¹
ÑĢ Ð¿
Ð¿ ÐµÐ½Ð°
ĠÐ¼ ÐºÐ±
ĠÐ½ ÑĥÐ»
Ġ4 60
Ġc Âº
ÑĦ Ð»ÐµÐºÑĤÐ¾ÑĢ
Ġm c
ÑĪ Ð½
000 3
12 30
ÑĢÐ¾Ð· ÑĢÐ°ÑĩÐ½ÑĭÐ¹
Ġe qu
ĠÐ½ÐµÐ¿ ÑĢÐ¾Ð·ÑĢÐ°ÑĩÐ½ÑĭÐ¹
ĠÐºÑĢÑĭ ÑĪÐ°
ĠÑģÐµÑĢÐ´ ÑĨÐµÐ²Ð¸Ð½Ð°
ĠÑĤÑĢÐ°Ð¿ ÐµÑĨ
ĠÐ½ÑĥÐ» ÐµÐ²Ð¾Ð¹
Ð» ÐµÑģÑĤÐ½
Ð¾ÑĤ ÑıÐ½ÑĥÑĤÑĭÐ¹
Ġ20 19
ÑĢÐµÐ´ Ðµ
ĠÐ¾Ð¿ Ð¾Ð²ÐµÑīÐ°ÑĤÐµÐ»ÑĮ
ĠÐµ Ñģ
Ð´Ð°ÑĢ ÑĤÐ½ÑĭÐ¹
ÑıÑĤ Ð¸Ð½Ð°
Ġstand art
ĠÐ²Ð¼ ÑıÑĤÐ¸Ð½Ð°
Ð¾Ð¿ÑĢÐ¾Ð¸Ð·Ð²Ð¾Ð´ Ð¸ÑĤÐµÐ»ÑĮÐ½Ð¾ÑģÑĤÑĮ
8 42
Ð¿ Ð¾Ð³
ĠÐ¿ÑĢ Ð¸ÑĤ
ĠÐ³ Ð»Ð¸Ð½
ĠÑĢ Ñģ
Ð»Ñİ Ñģ
Ð¾Ð³ ÑĢÐ°Ð½
ri er
ch or
Ð¾Ð¼ÐµÑĤÑĢ Ð¸ÑĩÐµÑģÐºÐ¸Ð¹
f os
ĠÐº ÑĥÐ½
ĠÐ¿ z
Ð± Ð½
ĠÐ½ ÐµÐ·
ÑģÑģ Ð¸Ð²
ÐµÑģÑĤ Ð°Ð½
ĠÑĤÐ° ÑĢ
14 4
Ġmet al
37 1
ĠÐ½Ð°Ñģ Ð°Ð´ÐºÐ°
265 24
a h
t op
Ðº ÐµÑĤ
ĠÐº ÑĥÐ²
Ð· Ðº
Ð³ Ð»ÑĥÑĪÐ¸ÑĤÐµÐ»ÑĮ
ÐºÐ° Ð»ÑĮÐ½ÑĭÐ¹
Ñħ Ð²
Ð»Ð° Ð¼Ð½ÑĭÐ¹
ĠÐ± Ð°ÑĢ
ÐµÐº Ð»Ð¾
ĠÑĢ ÐµÑģ
Ð¿ÑĢ Ð¾ÑĦ
Ð¾Ð²Ð¾Ð´ Ð¾Ð½Ð°Ð³ÑĢÐµÐ²Ð°ÑĤÐµÐ»ÑĮ
Ġw p
ĠÐ¿Ð¾Ð´ ÑĬÑĳÐ¼Ð½ÑĭÐ¹
ĠÑĨ ÐºÐ±
Ġfr hf
Ġx ps
ĠÑħÐ¾Ð»Ð¾Ð´Ð½ Ð¾ÑĤÑıÐ½ÑĥÑĤÑĭÐ¹
ĠvÐ¿Ð¾Ð» ÐµÐ·Ð½ÑĭÐ¹
ĠÐ²ÑĢÐ° ÑīÐµÐ½Ð¸Ðµ
ĠÑĢÐµÐº Ð»Ð°Ð¼Ð½ÑĭÐ¹
ĠÐ´Ð²ÑĥÑħÑģÑĤ Ð¾ÑĢÐ¾Ð½Ð½Ð¸Ð¹
u le
ĠÐ½ Ñį
Ġ3 600
ÐµÐ¿ ÑĢÐ¾Ð²Ð¾Ð´
Ð¾Ð³ Ð¸Ñı
ĠÐºÑĢ Ð¾
Ġg ra
ĠÐ¿ÑĢÐ¸Ð¼ÐµÐ½ Ð¸ÑĤÐµÐ»ÑĮÐ½Ð¾
ĠÐ²Ð¾Ð´ Ð¾Ð¿ÑĢ
ĠÐ´Ð²ÑĥÑħ ÑĢÑıÐ´Ð½ÑĭÐ¹
ĠÑĥÐ¿Ð»Ð¾ÑĤ Ð½Ð¸ÑĤÐµÐ»ÑĮ
ÐºÑĢÐµÐ¿ Ð»ÑıÑĤÑĮ
ÑĢÐ°ÑĦ Ð¸Ð¾Ð»
ĠÑĥÐ»ÑĮÑĤ ÑĢÐ°ÑĦÐ¸Ð¾Ð»
ĠÑįÐ»ÐµÐºÑĤÑĢÐ¾ÑĤ ÐµÑħÐ½Ð¸ÑĩÐµÑģÐºÐ¸Ð¹
Ð²ÐµÐ½ Ð½Ð¸ÑĨÐ°
m an
Ð¿ÑĢ Ð¾ÑģÑĤÑĢÐ°Ð½ÑıÑĤÑĮ
Ġ15 2
Ġan chor
ĠÑĦÐ¸Ð»ÑĮÑĤÑĢ Ð¾Ð²Ð°ÑĤÑĮ
ĠÑģÐ¿ÑĢÐ°Ð² Ð¾ÑĩÐ½Ð¸Ðº
ĠÐµÑģÑĤ ÐµÑģÑĤÐ²ÐµÐ½Ð½ÑĭÐ¹
ĠÐ¿ ÑĦ
Ġd lp
Ð¸Ð´ ÐµÐ½Ð¸Ðµ
ĠÐ¼Ð° ÑģÑģÐ¸Ð²
Ð¾Ð·Ð¸ ÑĨÐ¸Ð¾Ð½Ð½ÑĭÐ¹
ĠÐ¿Ð¾Ð½ Ð¸Ð¶
ĠÐ½ÐµÑĢ Ð°Ñģ
Ġal loy
ĠÑĦÐ¸ÐºÑģ Ð°ÑĨÐ¸Ñı
ĠÐ¿ÑĢÐ¾Ð´Ñĥ Ð²Ð¾ÑĩÐ½ÑĭÐ¹
Ð±ÐµÐ· Ð¾Ð¿Ð°ÑģÐ½Ð¾ÑģÑĤÑĮ
ĠÐ¸Ð¼Ð¿ ÑĥÐ»ÑĮÑģÐ½ÑĭÐ¹
ÑĥÑģÐµÐ½ Ð¸ÑĩÐ½ÑĭÐ¹
ĠÑģÐ°Ð¼Ð¾Ð· Ð°ÑĤ
ĠÑıÑĩÐµ Ð¸ÑģÑĤÑĭÐ¹
ĠÑģ ÐµÑĩ
ĠÑĤ ÑĢÐ°Ð±
Ġm u
Ġn i
20 10
ĠÐ¼Ð° Ð³Ð½Ð¸ÑĤÐ½ÑĭÐ¹
ĠÐ¾Ð´Ð½ Ð¾Ñģ
ÑĪÑĤ Ñĥ
Ġ23 50
ĠÑĦÐ¾Ð»ÑĮ Ð³
ĠÑĦÑĢ Ðµ
ĠÐ±Ð°ÑĤ ÑĤÑģ
Ġbar rier
ĠÐ¾ÑĨÐ¸Ð½ÐºÐ¾Ð² Ð°Ð½ÑĭÐ¹
Ġgrund fos
Ðº ÑĢÑĥÐ³
Ġi pe
Ð¾Ð± Ð¾
ÑĥÑħ Ð°ÑİÑīÐ¸Ð¹
Ġh no
Ġv en
ĠÑĥÐ¿ ÑĢÐ°Ð²
16 6
ĠÐºÐ°ÑĢÐºÐ° ÑģÐ½ÑĭÐ¹
ĠÑĤÑĢÐµÑħ ÑģÑĤÐ²Ð¾ÑĢÑĩÐ°ÑĤÑĭÐ¹
ĠÐ¸Ð½ Ð²
ÑıÑīÐ¸Ð¹ ÑģÑı
ĠÑı Ð²
ĠÑĪÐ°Ñħ ÑĤÐ½ÑĭÐ¹
ÐºÐ»ÐµÐ¼ Ð¼Ð°
Ð¸ÐµÐ² Ð¸Ð´Ð½ÑĭÐ¹
ĠÑģÐ°Ð¼Ð¾Ð·Ð°ÑĤ ÑĥÑħÐ°ÑİÑīÐ¸Ð¹
1 90
p k
Ð² Ð°Ð»
ĠÐ¸ ÑģÐº
ÑĢÐ° Ð¹
ĠÐ³ ÑĥÑģÐµÐ½Ð¸ÑĩÐ½ÑĭÐ¹
ĠÐ±ÐµÐ· Ð¾Ð¿
Ġ16 28
ĠÐ±ÐµÑĤ Ð¾Ð½Ð°
Ð¸ÑĢ Ð¼Ð°
ĠÐ¿Ð°ÑĢÐ° Ð¿
ĠÐ¾ÑĢ Ð³Ð°Ð½Ð¸ÑĩÐµÑģÐºÐ¸Ð¹
mar t
Ġna oh
ĠÑģÑĢÐµÐ´Ð½ ÐµÐ¿
Ð» Ñĳ
ĠÐ½ ÐµÑģÑĤÐ°Ð½
Ð°ÑĢ Ð¸ÑĤÐµÐ»ÑĮÐ½ÑĭÐ¹
ĠÑį ÑĤÐ°
Ġ100 29
Ġb u
Ġr ange
ĠÐ²Ð½ÑĥÑĤÑĢ Ð¸
Ġe m
Ġdi am
ĠÐ¾Ð¿ÑĤ Ð¸ÐºÐ¾
ĠÐ³ÑĢÑĥÐ½ÑĤ Ð¾Ð²Ð°ÑĤÑĮ
ĠÐ¿ÐµÑģ Ð¾Ðº
ĠÐ¿Ð¾Ð³ ÑĢÐµÑĪ
Ġex p
ĠÑĩÐµÑĤÑĭÑĢ ÑĳÑħÑģÐ»Ð¾Ð¹Ð½ÑĭÐ¹
Ġ1737 6
be g
âĢ ¢
ĠÐ¼Ð½Ð¾Ð³Ð¾Ðº ÑĢÐ°ÑĤÐ½ÑĭÐ¹
Ġhel mer
ĠÐ½ÐµÑĢÐ°Ñģ Ð¿ÑĢÐ¾ÑģÑĤÑĢÐ°Ð½ÑıÑĤÑĮ
ĠÑģÑĢÐµÐ´Ð½ÐµÐ¿ Ð¾Ð²Ð¾ÑĢÐ¾ÑĤÐ½ÑĭÐ¹
ĠÐ¿Ð¾Ð³ÑĢÐµÑĪ Ð½Ð¾ÑģÑĤÑĮ
6 14
g i
ĠÐ² Ð¾ÑģÐ¿
Ð»Ñı ÑĢÐ½ÑĭÐ¹
Ġ20 4
Ġ25 90
Ġ32 3
osi ng
ĠÐ»Ð¸ÑģÑĤ Ð²ÐµÐ½Ð½Ð¸ÑĨÐ°
ĠÑģÑĤÑĢÐ¾ ÐµÐ½Ð¸Ðµ
Ġun i
ul ation
ĠÐ¿ÑĢÐ¾Ð´Ñĥ Ð²ÐºÐ°
ĠÑĪÐ°ÑĢÐ½ Ð¸ÑĢ
Ġconnector s
ĠÑģÑĤÑĥÐ¿ ÐµÐ½ÑĮ
ĠÑģÐ¾ÑħÑĢÐ°Ð½ ÑıÑĤÑĮÑģÑı
ĠÐ½ÐµÑģÑĤÐ°Ð½ Ð´Ð°ÑĢÑĤÐ½ÑĭÐ¹
2 24
ĠÑģ ÑĥÐ±
ĠÐ¿ ÐµÐºÑģ
Ð± ÑĥÑĢ
ĠÐ² ÐµÑĢ
Ð¾Ð½ ÑĤÐ½ÑĭÐ¹
Ġ4 96
40 7
Ġu l
Ġ27 00
tr on
ĠÑĤÑĢÐ°Ð½ ÑģÑĦÐ¾ÑĢÐ¼Ð°ÑĤÐ¾ÑĢÐ½ÑĭÐ¹
ĠÐ¼Ð¾ÑĢ Ð¾Ð·
Ð¾Ð³ÑĢÐ°Ð¼ Ð¼Ð°
ĠÑĤÑĢÐ°Ð¿ÐµÑĨ Ð¸ÐµÐ²Ð¸Ð´Ð½ÑĭÐ¹
ĠÐ²Ð½ÑĥÑĤÑĢÐ¸ ÑĤÑĢÑĥÐ±Ð½ÑĭÐ¹
Ð¿ Ð¾
ĠÐ¿ ÑĥÐ³
ĠÐ² Ð¾Ð»Ð½
Ð¾Ð¼ ÐµÑĤÐ°
ĠÐºÐ° Ð»Ð¸
ĠÐºÐ° Ð¼ÐµÐ½Ð½ÑĭÐ¹
ĠÑĪ Ñĥ
ĠÐ°Ð½ Ð¾Ð´
ĠÑĤÑĢ Ðµ
ÐºÐ¾Ð½ ÑĤÐ°ÐºÑĤ
Ġ22 68
ĠÑģÑĤÑĢ ÐµÐ¼ÑıÐ½ÐºÐ°
51 12
ÑĢÐ°ÑģÑĤÐ²Ð¾ÑĢ Ð¸ÑĤÐµÐ»ÑĮ
ĠÑģÐ°Ð¼Ð¾ÐºÐ»Ðµ ÑıÑīÐ¸Ð¹ÑģÑı
Ð³Ð¸Ð± ÐºÐ¸Ð¹
ron ex
Ð¾Ð¼ÐµÑĤÐ° Ð»Ð»Ð¸ÑĩÐµÑģÐºÐ¸Ð¹
Ġ2 75
ÐµÑģ ÑĥÑīÐ¸Ð¹
Ġ4 30
Ð¶ Ð¸Ð»ÑĮÐ½ÑĭÐ¹
Ð¾ÑĤ Ð²Ð¾
ti al
ĠÑĦ Ð¸ÑĢÐ¼Ð°
Ġ20 21
20 15
ĠÐ¸ÑģÐ¿ Ð¾Ð»Ð½
Ġw ei
Ġ40 25
01 38
Ġin put
Ð¿Ð¾Ð´ Ð²ÐµÑģ
ĠÐ¼Ð°Ñģ Ð»ÑıÐ½ÑĭÐ¹
ĠÑĢÐµÐ´ Ð°
Ġsuppor t
ĠÑĪÑĤÑĥÐºÐ°ÑĤ ÑĥÑĢÐ½ÑĭÐ¹
ĠÐºÐ¾Ð¼Ð¿Ð°ÐºÑĤ Ð½ÑĭÐ¹
Ġdiam eter
Ðº v
ĠÐ³ ÑĢÐ°ÑĦ
Ð¾Ñĩ Ð¸ÑģÑĤ
ĠÐ¿ÐµÑĢ ÐµÐ²Ð¾Ð·ÐºÐ°
Ġr c
18 2
Ġ14 5
Ġ30 970
Ġpro ma
ĠÑģÑĤÑĢ ÐµÐ»
ĠÐ¸Ð³ ÑĢÐ¾Ð²Ð¾Ð¹
ĠÐ´Ð²ÑĥÑģÑĤ ÐµÐ½Ð½Ð¾Ð¹
Ð°Ð²ÑĤÐ¾Ð¼ Ð°ÑĤÐ¸ÑĩÐµÑģÐºÐ¸Ð¹
ber g
gu ard
Ġwei dm
Ð¾Ð» ÑģÑĤ
ĠÑĤ Ñģ
Ġp ÑĢ
Ġn y
Ġe ma
ĠâĢ ķ
ĠÐºÐµÑĢÐ°Ð¼ Ð¾Ð³ÑĢÐ°Ð½
ĠÐ²Ñģ Ð°Ñģ
ĠÑģ ÑĪ
Ð¿ a
Ð¿ ÐµÐ½
Ð¾Ð² Ð°ÑĤÐµÐ»ÑĮÐ½ÑĭÐ¹
Ð°ÑĤ v
Ð¾Ð» Ð¸Ð½
Ð¾Ð¿ Ð¾Ð²ÐµÑīÐ°ÑĤÐµÐ»ÑĮ
Ġfl ow
Ġlo ca
ĠÐ¸Ð·Ð¼ÐµÑĢ ÑıÑĤÑĮ
ĠÐ¼Ð°Ð½ Ð¶ÐµÑĤÐ°
ĠÑĤÐ°Ð± Ð»
Ġtherm al
Ð¼Ð¾Ð½ ÑĤÐ°Ð¶Ð½ÑĭÐ¹
Ðµ Ð¶Ð´
ĠÐ¼ ÑĢÐ°Ð¼
ĠÐ¸Ð· Ð½Ð¾Ñģ
Ð¾ÑĤ ÐµÑĢÐ¼Ñĭ
ÐµÐ´ Ð¾Ð²Ð°Ð½Ð¸Ðµ
Ð¾Ñģ ÐµÐ²Ð¾Ð¹
Ġo r
ĠÑģÑĤÑĢ ÐµÐ¶
Ġ04 9
ĠÐ¿ÑĢÐ¾ÑĤ ÑıÐ¶ÐºÐ°
Ġmar g
ĠÑĤÐºÐ°Ð½ ÑĮ
ĠÐ°Ð´Ð° Ð¿ÑĤÐµÑĢ
ĠÑģÑĤÑĢÐµÐ¶ ÐµÐ½ÑĮ
ÑĤ Ð¾Ð³ÑĢÐ°Ð¼Ð¼Ð°
Ð½ Ð¸Ð¿Ð¿ÐµÐ»ÑĮ
Ð¸ ÑĢÑĥ
ĠÑģ ÑĥÐ¼
00 29
Ð³ ÑĢÐ°Ð²Ð¸Ð¹
Ġ1 16
Ġ1 12
Ġ1 32
Ð± Ð¸Ð½Ð°
ĠÐ² Ð¾ÑĢÐ¾ÑĤ
Ð°Ð½ ÑĤ
Ð¾ÑĤ ÐµÐ½ÑĨ
Ġi y
ro l
ĠÐºÐ¾Ð¼Ð¿ ÑĮÑİ
ĠÑģÐº ÑĢ
ÑĢÑĭÐ² Ð½Ð¾Ð¹
Ġfr ame
ĠÐ¿Ð°ÑĢ ÑĥÑģ
ĠÐ²Ð¾Ð» Ð½Ð°
Ġau ma
ÑĤÐµÐ»Ðµ Ð¶ÐºÐ°
ĠÑĢÐµÐ´Ð° ÐºÑĨÐ¸Ñı
Ð² ÑħÐ°
ĠÐ¿ Ð»Ð°Ð²
ĠÐ¸ Ðº
Ð± ÑĪÐ¿
Ð¾ÑĤ Ð²ÐµÑĤÐ²Ð¸ÑĤÐµÐ»ÑĮ
Ġn b
Ð¼Ð° Ð·ÐºÐ°
Ġcl osing
ĠÐ²Ð¾Ð·Ð´ÑĥÑħ Ð¾Ð¿ÑĢÐ¾Ð²Ð¾Ð´
25 9
ĠÐ¼Ð° Ð³Ð½
ĠÐ¼Ð° ÑĪÐ¸Ð½Ð°
ĠÐºÐ¾Ð» ÐµÐ½Ð¾
22 2
ĠÐ´Ñĥ ÑĤÑĮÑĳ
ĠÐ²ÑĭÑģÐ¾Ðº Ð¾Ð»
Ð¾ÑĢÑĥÐ´ Ð¾Ð²Ð°Ð½Ð¸Ðµ
ĠÑĢÐ°Ð´Ð¸ Ð¾
ĠÐ±Ñĭ ÑģÑĤ
ĠÐ¿Ð¾Ð»Ð½ Ð¾ÑĤÐµÐ»ÑĭÐ¹
ĠÑĩÐµÑĢ ÐµÐ´Ð¾Ð²Ð°Ð½Ð¸Ðµ
ĠÐºÐ¾Ð¼Ð¿Ð° ÑĥÐ½Ð´
ÑĪÑĤÑĥ ÑĨÐµÑĢ
0 101
1 300
f t
ĠÐ³ Ð»Ð°Ð·ÑĥÑĢÐ¾Ð²
Ġt beg
Ġb ol
ÐµÑĢÐ¼ÐµÑĤ Ð¸ÑĩÐ½ÑĭÐ¹
Ð¾Ð¿Ð¾Ð»Ð¸ Ð¼ÐµÑĢ
ÑįÐ»ÐµÐºÑĤÑĢ Ð¾Ð½Ð°ÑģÐ¾ÑģÐ½ÑĭÐ¹
ĠÑĨÐ¸Ð½ Ð¾Ð»
Ð¿Ð°ÑĤ Ñĩ
ĠÑĦÐ¸Ð± ÑĢÐ¾
ĠÐ¾Ð´Ð½Ð¾ÑĢ ÑıÐ´Ð½ÑĭÐ¹
Ġlif ting
Ð°ÑĢÐ¼ Ð¸ÑĢÐ¾Ð²Ð°Ð½Ð½ÑĭÐ¹
Ð²ÐµÑĢÐ´ ÐµÑİÑīÐ¸Ð¹
ĠÐ²Ð¾ÑĢÐ¾ÑĤ Ð½Ð¸ÐºÐ¾Ð²ÑĭÐ¹
9 41
ÑĤ Ð¼
Ñģ ÐµÐ³Ð¼ÐµÐ½ÑĤ
ĠÑģ Ð¸Ð´ÐµÐ½Ð¸Ðµ
ĠÐ¿ ÑĭÐ»
ÐºÐ° Ð½ÑĭÐ¹
ĠÑĤ ÐºÐ°Ð½ÑĭÐ¹
Ġ2 300
Ð¾Ð¿ Ð°ÑģÑĤÐ½ÑĭÐ¹
ĠÑĪ Ñģ
ĠÑĢÐ°Ð· Ð²ÐµÑĢÐ½ÑĥÑĤÑĮ
ĠÐ²Ñĭ ÑĢÑĭÑĤÑĮ
Ġco up
ÐµÐ½ÑĤÐ° Ð³ÑĢÐµÐ³Ð°ÑĤ
Ġpa a
ĠÐ±Ñĭ ÑĤ
ĠÐºÐ¾Ð½Ð´ ÐµÐ½ÑģÐ°ÑĤÐ¾ÑĢ
ĠÑĩÐµÑĤ Ð²ÐµÑĢ
Ġvi b
ĠÑĥÐ»ÑĮÑĤÑĢÐ°ÑĦÐ¸Ð¾Ð» ÐµÑĤÐ¾Ð²ÑĭÐ¹
ĠÑĩÐµÑĤÐ²ÐµÑĢ ÑĤÑĮ
c Ð¸Ñĩ
ĠÐ´ ÑĤ
Ġm Ð¿a
Ġn u
ĠÑĤÐ° Ð½Ñģ
Ġb t
30 1
100 9
ĠÐ·Ð°Ñī Ð¸ÑĤ
ĠÑĢÐ°Ñģ ÑĩÑĳÑĤ
Ġâ ģ°
Ġco ver
ÑĥÐ¼ ÐµÐ½ÑĤ
ĠÐ¼Ð¸Ð½ÑĥÑģ Ð¾Ð²ÑĭÐ¹
Ð²ÑĥÐº Ð¾Ð²Ð¾Ð¹
ĠÑĤÐµ Ð»ÐµÐº
Ġ290 12
ĠÐ¿Ð¾ÑģÐ»ÐµÐ´ Ð¾Ð²Ð°ÑĤÐµÐ»ÑĮÐ½ÑĭÐ¹
Ġinstall ation
ĠÐ¿Ð°ÑĢÑĥÑģ Ð¸Ð½Ð°
ĠÐº Ð¸Ð¿
Ñı Ð³Ð°
ĠÐ² ÐµÑĤÑĢ
Ġ3 100
Ð¾Ð± Ð¸Ð²Ð½Ð¾Ð¹
Ð±Ð° Ð·Ð°
ĠÐ½Ðµ Ð°ÑĢÐ¼Ð¸ÑĢÐ¾Ð²Ð°Ð½Ð½ÑĭÐ¹
40 3
01 35
ĠÑģÐ¾Ð± ÑģÑĤÐ²ÐµÐ½Ð½ÑĭÐ¹
ĠÑĤÐµÑĢÐ¼Ð¾ÑģÑĤ Ð°ÑĤ
Ġjot un
ĠÐ¿ÑĢÐ¸ÑĤ Ð²Ð¾ÑĢ
1 35
k w
ĠÑģ ÑĬÑĳÐ¼Ð½ÑĭÐ¹
Ð¿ ÑĤ
ĠÐ³ Ð¾
ĠÐºÐ°ÑĤ Ð°Ð»Ð¾Ð³
ÐµÑĩ ÐµÐ²
Ġf k
Ġb re
Ġ32 1
Ð¸ÑĦ ÑĤ
13 6
49 30
Ġ87 32
ĠÐ²ÑħÐ¾Ð´ Ð¸ÑĤÑĮ
ĠÐ¿Ð¾Ð´Ð²Ð¾Ð´ Ð°
ĠÑĢÐµÐ¼ Ð¾Ð½ÑĤÐ½ÑĭÐ¹
ĠÑģÐ¿Ð¸ÑĢÐ° Ð»ÑĮÐ½Ð¾
ĠÐ¿Ð²Ð¿ Ð³Ð½Ð³
ĠÐ½ÐµÑĢÐ°Ð²Ð½ Ð¾Ð¿Ð¾Ð»Ð¾ÑĩÐ½ÑĭÐ¹
Ð¼ÑĮ Ñı
Ġba si
Ġost berg
ĠÑĤÐµÑħÐ½Ð¾ÑįÐ»Ð°ÑģÑĤ Ð¼Ð¾ÑģÑĤ
Ð»Ð¾Ð¿ÑĢ Ð¾Ð±Ð¸Ð²Ð½Ð¾Ð¹
c g
ÑĮ Ð¼
Ð± ÐµÑĤ
Ð± Ð³Ð°
ĠÑħ Ð¾Ð·
ĠÑĩ ÐµÑĩÐµÐ²
03 8
Ð´Ðµ ÑĦÐ»ÐµÐºÑĤÐ¾ÑĢ
Ġpro of
ĠÐ¿ÐµÑĢÐµ Ð¼Ðµ
ĠÐ¸Ð³ Ð»Ð¾Ð¿ÑĢÐ¾Ð±Ð¸Ð²Ð½Ð¾Ð¹
ĠÐ¶ÑĳÐ» Ð¾Ð±
ĠÐ°ÑģÐ± ÐµÑģÑĤ
ĠÑģÐºÐ»Ð°Ð´ ÑģÐºÐ¾Ð¹
Ð¾Ð¼Ð¼ ÑĥÐ½Ð¸ÐºÐ°ÑĨÐ¸Ð¾Ð½Ð½ÑĭÐ¹
2 400
k t
Ġ2 800
Ġ3 800
el l
ĠÑģÐ²ÐµÑĤ Ð»ÑĭÐ¹
ĠÐ´Ð¾Ðº ÑĥÐ¼ÐµÐ½ÑĤ
ĠÑı ÑĤÐ¿
Ġsf p
Ġsub or
ĠÐ³Ð»Ð°Ð·ÑĥÑĢÐ¾Ð² Ð°ÑĤÑĮ
Ð» ÑįÐºÑģ
Ñı Ð¹
ÑĢÐ° Ð²Ð¾
Ġ4 500
Ġc m
Ġd ec
Ġp u
Ð½Ð° Ð»ÑĮÐ½ÑĭÐ¹
Ġca dw
ĠÐ²ÐºÐ»ÑİÑĩ Ð°Ñı
ĠÐ»Ð°Ðº Ð¸ÑĢÐ¾Ð²Ð°Ð½Ð½ÑĭÐ¹
Ġno va
ĠÐ½Ð¾ÑĢÐ¼ Ð¸ÑĢÐ¾Ð²Ð°Ð½Ð¸Ðµ
Ġjo int
ĠÐ¶Ð¸Ð´ ÐºÐ¾ÑģÑĤÑĮ
ĠÐ¿ÐµÐ½Ð¾Ð¿ Ð»ÑįÐºÑģ
ĠÐ±ÐµÑĢ Ñĳ
Ġven til
ĠÐ°Ð½Ð¾Ð´ Ð¸ÑĢÐ¾Ð²Ð°ÑĤÑĮ
ĠÐ²ÑĭÑģÐ¾ÐºÐ¾Ð» ÐµÐ³Ð¸ÑĢÐ¾Ð²Ð°Ð½Ð½ÑĭÐ¹
Ġbre ak
Ġcadw eld
m ate
ĠÐ± Ð¾ÐºÑģ
Ġp osition
Ġh ang
ĠÐµ Ð»ÑĮ
ĠÑģÑĤÐµÐºÐ» Ð¾Ð½Ð¸ÑĤÑĮ
ÑıÐ³ Ð¾Ð²ÑĭÐ¹
Ð¸Ð»Ð¸ ÐºÐ°ÑĤÐ½ÑĭÐ¹
ĠÐºÑĨ ÐºÐ¿
ĠÐ¿Ð¾Ð½Ð¸Ð¶ Ð°ÑĤÑĮ
Ġventil ation
Ð± ÑĢÐ°Ð½Ð½ÑĭÐ¹
ÑĢÐ° Ð½ÐµÐ½Ð¸Ðµ
ĠÐ° ÐºÑĤÐ¸Ð²Ð½ÑĭÐ¹
Ġ3 96
Ġ5 70
Ġ5 95
ÐµÐ¿ Ð»ÐµÐ½Ð¸Ðµ
Ġh da
Ġl m
en tial
Ġ00 7
ĠÑģÑĤÐµÑĢÐ¶ Ð½ÐµÐ²Ð¾Ð¹
Ġsp l
ĠÐ½Ð°ÑģÑĤ Ð¾Ð»ÑĮÐ½ÑĭÐ¹
29 4930
Ð´Ð² ÐµÑĢÑĮ
Ġ56 294930
ĠÐ´Ð¾Ð¿ÑĥÑģÐº Ð°ÑĤÑĮ
Ġtyp rm
ÑįÐ¼ ÑĥÐ»ÑĮÑģ
ĠÑĥÐ´Ð° Ð»ÑıÑĤÑĮ
Ġxl pe
ÐµÑĢÑĦ ÐµÐ¹
ĠÑħÐ¾Ð· ÑıÐ¹
Ġ2 96
ĠÐ·Ð° Ð³ÑĢÑıÐ·
Ġl an
ÑĢÐ°Ð· Ð²ÑĥÐºÐ¾Ð²Ð¾Ð¹
ĠÑģÐ°Ð¼Ð¾Ðº Ð»
Ġout let
ĠÐ±Ñĥ Ð¼Ð°Ð¶Ð½ÑĭÐ¹
ĠÐ½Ð¸Ð·ÐºÐ¾Ð² Ð¾Ð»ÑĮÑĤÐ½ÑĭÐ¹
u y
Ð³ ÐµÐ·
ĠÐ³ Ð¸Ð¿
Ġn et
Ð¸Ðº Ð°ÑĤÐ¾ÑĢ
ro of
Ð¸Ð¼ Ð°ÑĤÑĮÑģÑı
Ð¾ÑĢÐ° ÑģÐ¿
ÑĢÐ°Ð· Ð¸Ð½
ĠÑģÐ¿ÐµÑĨ ÐºÐ°Ð½Ð°
Ġns y
ÑįÐ»ÐµÐºÑĤÑĢ Ð¾Ð²Ð¾Ð´Ð¾Ð½Ð°Ð³ÑĢÐµÐ²Ð°ÑĤÐµÐ»ÑĮ
ĠÑģÐ°Ð¼Ð¾Ð½ ÐµÑģÑĥÑīÐ¸Ð¹
Ġpar ts
bin et
ĠÑĤÐµÐ»ÐµÐº Ð¾Ð¼Ð¼ÑĥÐ½Ð¸ÐºÐ°ÑĨÐ¸Ð¾Ð½Ð½ÑĭÐ¹
ĠÑģÐ¿Ð¸ÑĢÐ°Ð»ÑĮÐ½Ð¾ ÑĪÐ¾Ð²Ð½ÑĭÐ¹
ĠÑģÐ¿ÐµÑĨÐºÐ°Ð½Ð° Ð»Ð¸Ð·Ð°ÑĨÐ¸Ñı
ĠÑģ Ð¸ÑĤ
Ġ2 600
ĠÐºÐ»Ð° ÑģÐ°
ĠÑį Ð¼
Ġcon t
Ġ14 20
ĠÐºÐ» ÐµÐ¹
Ġca binet
Ġ33 32
ĠÐ¼ÐµÐ¼ Ð±ÑĢÐ°Ð½Ð½ÑĭÐ¹
ÑĤÐµÐ¿Ð» Ð¾Ð¾Ð±
ÐµÑĤÑĢ Ð¾Ð½
ĠÑģÐ°Ð½ Ð°ÑĨÐ¸Ñı
Ġâī ¥
Ġlt d
ĠÐ¼Ð¾ÑĢÐ¾Ð· Ð¾ÑģÑĤÐ¾Ð¹ÐºÐ¾ÑģÑĤÑĮ
ĠÑĢÐ°Ð´Ð¸Ð¾ Ð°ÐºÑĤÐ¸Ð²Ð½ÑĭÐ¹
s g
ÐµÐ½ Ð·
ĠÐ´ Ð±
Ġc tion
Ġ5 80
ÐµÐ² Ð¾
ĠÐ½Ð°ÑĢÑĥ Ð¶
ĠÐ¿Ð¾Ðº ÑĢÑĭÑĤÑĮ
13 3
ĠÐ¿ÐµÐ½ ÐµÑĤÑĢÐ¾Ð½
ĠÐ¸Ð½ÑĤ ÐµÑĢÑĦÐµÐ¹
ĠÐ·Ð°Ð³Ð¾ÑĤÐ¾Ð² Ð¸ÑĤÐµÐ»ÑĮÐ½ÑĭÐ¹
Ġrp m
Ġppr c
ĠÑĢÐµÐ° ÐºÑĤÐ¾ÑĢ
ĠÐ¿ÐµÑĢÑĦÐ¾ÑĢ Ð¸ÑĢÐ¾Ð²Ð°ÑĤÑĮ
ĠÐ¼ ÑĥÐ»ÑĮÑĤ
ÑĨ ÐµÑĤ
Ð°ÑĢ ÑıÐ´
Ġi e
Ġd x
Ġo u
15 93
ĠÐ²Ð² Ð³
19 00
ĠÑģÐº ÑĢÑĭÑĤÑĮ
Ġca sing
ĠÐ¾ÑĤÐ²ÐµÑĤÐ² Ð¸ÑĤÐµÐ»ÑĮ
ĠÐ½Ð°Ñģ Ð¾ÑģÐ½ÑĭÐ¹
ĠÐ¿ÐµÑĢÐµÐ´ Ð°ÑĩÐ°
Ġ146 37
ĠÐ¼Ð¾Ð´ Ð¸ÑĦÐ¸ÑĨÐ¸ÑĢÐ¾Ð²Ð°ÑĤÑĮ
ĠÐ±ÐµÐ·Ð³Ð°Ð»Ð¾Ð³ ÐµÐ½Ð¾Ð²ÑĭÐ¹
Ġ29012 225
ÑĤÐµÐ¿Ð»Ð¾Ð¾Ð± Ð¼ÐµÐ½Ð½Ð¸Ðº
m p
ĠÐ² ÑĢÑĥ
ĠÐ½ ÑĥÐ¶
ĠÐ³ Ð¾ÑĤÐ²Ð¾
Ð¾Ðº Ð¾Ð½Ð½ÑĭÐ¹
Ġi ÑĢ
ĠÐ¾ÑĤ ÐºÐ»ÑİÑĩÐµÐ½Ð¸Ðµ
ÐµÐ¼ Ð½ÑĭÐ¹
ĠÑĦ Ð»
Ġf o
30 5
ĠÐ½Ð¸Ð· Ðº
Ġ14 2
ĠÐ¿ÑĢÐ¸Ð² ÐµÑģÑĤÐ¸
ĠÐºÐ°Ð½ Ð°ÑĤÐ½ÑĭÐ¹
ĠÐ¿Ð¾ÑĤÑĢÐµÐ± Ð»ÑıÑĤÑĮ
Ġradi o
Ġvr v
ĠÑģÑĤÐµÐºÐ»Ð¾Ð²Ð¾Ð»Ð¾Ðº Ð½Ð¾
Ġmod ule
ĠÐ¾Ð´Ð½Ð¾Ñģ ÐµÐºÑĨÐ¸Ð¾Ð½Ð½ÑĭÐ¹
ĠÐ¸Ð·Ð½Ð¾Ñģ Ð¾ÑģÑĤÐ¾Ð¹ÐºÐ¸Ð¹
ĠÐ½ÑĥÐ¶ Ð´Ð°
Ġ er
Ð½ ÑĳÐ½Ð½ÑĭÐ¹
Ð³ Ð¸Ð»ÑĮÐ·Ð°
ĠÐ¸Ð· Ð¼ÐµÐ½
Ġa ss
Ð¾Ñģ ÑĢÐµÐ´
ĠÐ¿ÐµÑĢ ÐµÑģÑĤ
Ġb at
ĠÐ¿ÑĢÐµÐ´ Ð²
ĠÐ³Ð¸Ð´ ÑĢÐ°Ð·Ð¸Ð½
ĠÐ¿Ð¾Ð»Ð¸Ð²Ð¸Ð½Ð¸Ð»ÑħÐ»Ð¾ÑĢ Ð¸Ð´
Ġconn e
ÐµÐ·Ð°Ñī Ð¸ÑĤÐ°
ul l
Ð»ÐµÐ¹ ÑĦ
ĠÐ¿ÐµÑĢÐµÑģÑĤ Ð°Ð²Ð½Ð¾Ð¹
Ð¾ Ð¾ÑĤÐ²Ð¾Ð´
ÑĢ Ð¸Ð½
ÐµÑĢ ÐµÐ¿Ð¸ÑĨÐ°
Ð¿ÑĢ Ð¸Ð²Ð¾Ð´
ĠÐ¿Ð¾Ð´ Ð´Ð¾Ð½
ĠÐºÑĢ Ð°ÑĤ
ĠÐ¾Ð³Ð½ ÐµÐ·Ð°ÑīÐ¸ÑĤÐ°
Ð¼Ð¸Ð½ Ð½ÑĭÐ¹
ĠÐ´Ð²ÑĥÑħ ÐºÐ»Ð°Ð²Ð¸ÑĪÐ½ÑĭÐ¹
ĠÐ´ÑĢÐµÐ½ Ñĩ
ÐºÐ¾Ð¼ Ð¼
ĠÑĤÐµÐ» Ð¾
Ġvr f
Ġ8084 1593
ĠÑĢÑıÐ´ Ð¾Ð²Ð¾Ð¹
Ð½ Ð¸ÑĤÑĮ
ĠÐ¿ Ð»ÑİÑģ
ĠÐ² Ð±ÑĪÐ²Ð½Ð³
ÐµÐ´ ÑĢ
Ð·Ð° Ð¼Ð¾Ðº
Ð¸Ð¼ Ð°ÑĤÑĮ
ĠÐ¼ÐµÐ¶ Ð¾ÑģÐµÐ²Ð¾Ð¹
ĠÐºÐ¼Ð¿Ð² ÑįÐ½Ð³
ĠÐºÐµÑĢÐ°Ð¼Ð¾Ð³ÑĢÐ°Ð½ Ð¸ÑĤÐ½ÑĭÐ¹
k b
Ð· Ð¾ÑĩÐ½ÑĭÐ¹
ĠÐ² ÐµÐ½ÑĤÐ°Ð³ÑĢÐµÐ³Ð°ÑĤ
Ġ2 12
ĠÐ° Ð¿Ð²
ĠÐ± ÑĥÐº
Ġp Ñĥ
Ð¾Ð¶ ÐµÐºÑĤÐ¾ÑĢ
ĠÐ¿Ð¾Ð´ ÐºÐ¾Ñģ
40 1
ÐµÐºÑĤ Ð¸ÑĢÐ¾Ð²Ð°Ð½Ð¸Ðµ
ĠÐ³ÑĢ Ð°ÑĤ
ĠÑģÐ°Ð»ÑĮÐ½Ð¸Ðº Ð¾Ð²ÑĭÐ¹
ĠÐ½ÐµÐ³ ÐµÑĢÐ¼ÐµÑĤÐ¸ÑĩÐ½ÑĭÐ¹
ĠÑĩÐµÑĩÐµÐ² Ð¸ÑĩÐ½ÑĭÐ¹
Ġhang ers
m k
y a
ĠÐ¿ ÑĥÐ½ÐºÑĤ
ÐµÑģ Ðº
ĠÑĥ ÐºÐ»Ð°Ð´ÐºÐ°
Ġt end
Ġ6 12
Ġf s
ĠÐºÐ¾ÑĢ Ð¾Ð·
Ġ14 8
Ġe ff
19 70
Ġdi es
Ġac tu
us tic
ĠÐ´ÑĭÐ¼ Ð¾Ð³Ð°Ð·
Ð²ÐµÑĢ Ðº
ĠÑĢÐµÐ¼ Ð¾Ð½ÑĤ
Ð°Ð± Ð¸
Ð»ÐµÑģÑĤÐ½ Ð¸ÑĨÐ°
Ġdies el
u d
Ñģ Ð±
ÑĢ ÐµÐ»Ðµ
ĠÐ¿ ÑģÑĤ
Ñı Ð·Ð°
Ð¾Ð² Ð¸ÑĤÐµÐ»ÑĮ
ĠÐ² Ð»
ĠÐ± Ð´
Ð°Ð½ Ð¾Ð²ÑĭÐ¹
ĠÐ·Ð° Ð²Ð¾Ð´
ĠÑĢ ÐµÐ³
Ġh v
Ð¼Ð° Ñį
Ġl a
16 2
90 4
ĠÑĪÐ¿ Ðº
Ð»Ð¸Ð½ Ð¾Ð»ÐµÑĥÐ¼
ĠÐºÐ¾Ð¼Ð¼ ÑĥÑĤÐ°ÑĤÐ¾ÑĢ
ĠÐ¿ÑĢÐ¾Ð¿ Ð¸ÑĤÐºÐ°
ĠÑĢÑĤ ÑĥÑĤÐ½ÑĭÐ¹
ĠÐ¿ÑĥÑĤ ÐµÐ²Ð¾Ð¹
l a
z z
ÑĤ ÑĢÐ°Ð²
ĠÐ´ Ð¸ÑģÐº
ÐµÑģ ÑĥÑĪÐ¸ÑĤÐµÐ»ÑĮ
Ġ4 90
Ġ9 90
Ġ25 8
Ġg e
ÐµÑİÑīÐ¸Ð¹ ÑģÑı
Ġe f
Ġe v
ĠÑī Ð¾
08 2
Ġfr z
ator s
ĠÐ°Ð» Ð¼Ð°Ð·
ĠÐºÐ°ÑģÑģ ÐµÑĤÐ½ÑĭÐ¹
Ġisol ating
ÑĢÐµÐ´Ðµ Ð»ÐµÐ½Ð¸Ðµ
ĠÐ²Ð¾ÑģÐ¿ ÑĢÐ¸Ð½
Ð¾ÑĤÐµÐ½ÑĨ ÐµÑģÑĥÑĪÐ¸ÑĤÐµÐ»ÑĮ
ĠÑģÐ°Ð¼Ð¾ÐºÐ» ÐµÑİÑīÐ¸Ð¹ÑģÑı
ĠÐ²Ð¾ÑģÐ¿ÑĢÐ¸Ð½ Ð¸Ð¼Ð°ÑĤÑĮ
c iiic
ĠÐ¿ Ð°Ð»
Ð³ Ð¾Ð²
50 1
ĠÐ¿ÐµÑĢ ÐµÐ¼ÑĭÑĩÐºÐ°
ÑĢÐ°Ð² Ð¸ÑĤÑĮ
ĠÑģÑĢÐµÐ´ ÑģÑĤÐ²Ð¾
14 9
ĠÐºÐ· Ð½Ñģ
Ð¸ÑĢÐºÑĥÐ»Ñı ÑĨÐ¸Ñı
Ġppr s
ĠÐ´ÐµÑĦÐ¾ÑĢÐ¼Ð° ÑĨÐ¸Ð¾Ð½Ð½ÑĭÐ¹
ĠÐºÐ°Ð¿ Ð¸Ð»
ÐºÐ¾Ð½Ð´ Ð¸ÑĨÐ¸Ð¾Ð½ÐµÑĢ
Ġtherma flex
ĠÐ¿Ð¸Ðº ÑĤÐ¾Ð³ÑĢÐ°Ð¼Ð¼Ð°
zz le
3 60
Ñĥ Ð±Ð°
Ð°Ð² Ð»ÑıÑĤÑĮ
ĠÐ¿ÐµÑĢ ÐµÑĤ
Ġq max
ÑĥÐ» Ð¾Ð²Ð¸ÑĤÐµÐ»ÑĮ
ĠÐ¾Ðº Ð»
Ð¿Ð¾Ð» Ð¾ÑĤÐµÐ½ÑĨÐµÑģÑĥÑĪÐ¸ÑĤÐµÐ»ÑĮ
de sign
Ġflag man
ĠÐ¿ÐµÑĢÐµÐ¼Ðµ ÑīÐµÐ½Ð¸Ðµ
u g
Ð¿ ÑĢÐµÐ´
ĠÐº Ð¸ÑĢÐ¿
Ð»Ñı ÐµÐ¼ÑĭÐ¹
Ð¸Ð¿ ÑĤÐ¸ÑĩÐµÑģÐºÐ¸Ð¹
Ġn uc
Ġ20 20
Ġ8 000
Ġh r
ĠÐ¿Ð° Ð¹ÐºÐ°
Ð°Ð½ÐºÐµÑĢ Ð½ÑĭÐ¹
96 7
Ġbf n
ĠÐ´Ð¾Ð» Ð³Ð¾Ð²
ĠÐ¿Ð°ÑĤ Ñĩ
ĠÐ±ÑĢÑĥÑģ ÐºÐ¾Ð²ÑĭÐ¹
ĠÐ°Ð»Ð¼Ð°Ð· Ð½ÑĭÐ¹
ĠÐºÐ°Ð¿Ð¸Ð» Ð»ÑıÑĢÐ½ÑĭÐ¹
ĠÐºÐ¸ÑĢÐ¿ Ð¸ÑĩÐ½ÑĭÐ¹
i es
ĠÐº Ð¸Ð´
ÐµÐ½ ÑĩÐ°ÑĤÑĭÐ¹
Ð³ Ñģ
Ð¾Ð¿ Ð»Ð°ÑģÑĤÐ¸ÐºÐ¾Ð²ÑĭÐ¹
Ð¼Ðµ Ñħ
ĠÐ· ÐµÑĤÐ¾Ð²ÑĭÐ¹
Ġ5 25
ÐµÑģÑĤ ÐºÐ¾Ð²ÑĭÐ¹
Ð»Ð» Ð¸Ð¿ÑĤÐ¸ÑĩÐµÑģÐºÐ¸Ð¹
60 35
14 8
19 6
ĠÐ´Ð¸ÑĦÑĦ ÑĥÐ·Ð¾ÑĢ
ĠÑĤÐ¾Ð½Ð½ ÐµÐ»ÑĮ
ĠÐ´ÐµÑĤ ÐµÐºÑĤÐ¸ÑĢÐ¾Ð²Ð°Ð½Ð¸Ðµ
ĠÐ¸ÑģÐ¿Ð¾Ð»Ð½ Ð¸ÑĤÐµÐ»ÑĮÐ½ÑĭÐ¹
Ð¼ Ð°ÑĢÐ½ÑĭÐ¹
ĠÐ´Ð¸Ð° Ð³
Ġs o
Ġ6 1970
Ð¾Ð± Ð¾ÑĢÑĥÐ´Ð¾Ð²Ð°Ð½Ð¸Ðµ
ĠÐ¿Ð¾Ð» Ð¾ÑĩÐºÐ°
ĠÐºÐ² ÑĢ
Ġg s
Ð¸ÑĢ ÐµÐ½
24 1
ĠÐ½ÐµÑģ ÑĬÑĳÐ¼Ð½ÑĭÐ¹
ĠÑĦÐ° Ñħ
ĠÑģÑĥÐ¼ Ð¼Ð°ÑĢÐ½ÑĭÐ¹
ĠÐ·Ð°ÑīÐ¸ÑĤ Ð¸ÑĤÑĮ
ĠÐ±ÐµÑĢÑĳ Ð·Ð°
ÑıÐ·Ð° Ð»ÑĮÐ½ÑĭÐ¹
Ġ61970 296
b ar
ĠÐº Ð¾Ð·
ĠÐ´Ð¸Ð° ÑĦÑĢÐ°Ð³Ð¼Ð°
ĠÐ¿ÑĢÐ¸ Ð¶Ð¸Ð¼Ð½ÑĭÐ¹
Ġ100 1
Ð¸Ð» ÐºÐ°
ĠÐºÐ»Ð°Ð¿Ð°Ð½ Ð½ÑĭÐ¹
ĠÐ¾Ð´Ð½ Ð¾Ð´
13 1
pa a
Ġup n
ĠÐºÐ¿Ð¿ Ð³Ð½Ð³
ĠÐ·Ð°Ð¼Ðº Ð½ÑĥÑĤÑĮ
ĠÐ±ÑĭÑĤ Ð¾Ð²Ð¾Ð¹
6035 88
Ñģ ÐºÐ°
Ð¼ Ð¸ÑĩÐµÑģÐºÐ¸Ð¹
Ñĥ Ð¶Ð½ÑĭÐ¹
ĠÐ¸ Ð½Ð¾Ð¹
ĠÐ³ ÑĢÐ¾Ð¼
ÑĪ Ð¸Ð½
Ġa e
ĠÑį Ð»Ð»Ð¸Ð¿ÑĤÐ¸ÑĩÐµÑģÐºÐ¸Ð¹
Ġl ow
ĠÐ¾Ðº Ñģ
Ġ62 603588
ĠÑĢÐµÐ»ÑĮÑģ Ð¾Ð²ÑĭÐ¹
ĠÑģÑĤÐµÐºÐ»Ð¾Ð²Ð¾Ð»Ð¾Ðº Ð¾Ð½Ð½ÑĭÐ¹
ĠÐ°Ð½ÑĤÐ¸Ð¿ Ð¸ÑĢÐµÐ½
ĠÐ¿ÑĥÑģÑĤ Ð¾ÑĤÐµÐ»ÑĭÐ¹
ĠÑĥÐ¿ÑĢÐ°Ð² Ð»ÑıÐµÐ¼ÑĭÐ¹
Ġbreak ers
ĠÐ´Ð¾Ð»Ð³Ð¾Ð² ÑĢÐµÐ¼ÐµÐ½Ð½ÑĭÐ¹
0 74
ĠÐ¾Ð± ÑĪÐ¸ÑĤÑĮ
Ġn c
ĠÑįÐ»ÐµÐºÑĤÑĢ Ð¾Ð¿Ð»Ð°ÑģÑĤ
ĠÐ¼ÐµÑĤÐ°Ð»Ð» Ð¾Ð¿Ð¾Ð»Ð¸Ð¼ÐµÑĢÐ½ÑĭÐ¹
Ġu ks
14 69
ĠÐ¸Ð½ ÑģÑĤÑĢÑĥ
27 3
ĠÐºÑģ Ð°
ĠÐ±ÐµÐ·Ð¾Ð¿Ð°Ñģ Ð½Ð°
cr ni
ĠÐ¿ÑĭÐ» ÐµÐ²
ÑĤÑĢÐ°Ð² ÐµÑĢÑģ
ĠÑĦÐ°Ñħ Ð²ÐµÑĢÐº
ĠÑģ Ð¼Ð°Ð·ÐºÐ°
ĠÐº ÑĪÑĤ
Ġ1 11
ĠÐ» ÑĤ
Ġg b
Ġbl ow
ĠÑĢÐ°Ð·ÑĢÑĭÐ² Ð½ÑĭÐ¹
ĠÐ´ÐµÑĦÐµÐºÑĤ Ð¾ÑģÐº
ĠÑģÑĪ ÑĨ
ÐµÐ½ ÐºÐ°
Ñı Ð±
Ð´ Ð¾
ĠÐ´ Ð¾Ð·
Ñĩ Ð¸Ð²Ð°Ð½Ð¸Ðµ
Ġc ur
Ġ0 31
Ġs d
ĠÑĢÐ°Ð· Ð²
Ñį ÐºÑĢÐ°Ð½
ĠÑĪÐ¸ÑĢ Ð¾ÐºÐ¸Ð¹
ÑĢÑĭÐ² Ð¸ÑģÑĤÐ¾ÑģÑĤÑĮ
ÑĥÐ¼ ÑĭÐ²Ð°Ð»ÑĮÐ½Ð¸Ðº
ĠÐ²Ð¸Ð´ Ðµ
Ġ54 10
ĠÑĥÐº ÑĢÑĭÐ²Ð¸ÑģÑĤÐ¾ÑģÑĤÑĮ
ĠÑģÐ°Ð¼Ð¾ ÑħÐ¾Ð´Ð½ÑĭÐ¹
ÐºÐ°Ð² Ð°ÑĤÐ¾ÑĢ
ĠÐ¿ÐµÑģ ÐºÐ¾
Ð¿Ð² ÑħÐ°
ĠÐ¿ÐµÑĢÐµ Ð¾Ð´Ð¸ÑĩÐµÑģÐºÐ¸Ð¹
ĠÑĤÐµÐ» ÐµÑģÐº
Ð³Ðµ Ð¾ÑĤÐµÐºÑģÑĤÐ¸Ð»ÑĮ
ĠÐ¿Ð¾Ð»Ð¸Ð°Ð¼ Ð¸Ð´Ð½ÑĭÐ¹
âĢ ĵ
Ġ8084 1469
ĠÐºÐ²Ð°ÑĢ ÑĨÐµÐ²ÑĭÐ¹
ĠÐ¿Ð°Ð» ÑĥÐ±Ð°
f c
ÑĢ ÐµÐ»ÑĮÑģ
ĠÐ¼ ÑĢÐ°
ĠÐ´ ÑģÐ½
ĠÐ¸ ÐºÐ±
ĠÐ» ÑĥÐ´
ĠÑħ Ð¿Ð²ÑħÐ°
Ñį ÑĦ
Ġv k
Ġ25 4
ĠÐ¼Ð½Ð¾Ð³ Ð¾ÑģÐ»Ð¾Ð¹Ð½ÑĭÐ¹
Ġmanual ly
ĠÐ¼Ð¾Ð´ ÐµÐ»ÑĮ
Ġap c
Ð¿Ð°ÑĤ ÑĢÑĥÐ±Ð¾Ðº
ĠÐ³Ð¸Ð´ÑĢÐ¾ÑĦÐ¾Ð± Ð¸Ð·Ð¸ÑĢÐ¾Ð²Ð°ÑĤÑĮ
ĠÐ±Ð¾ÑĢ ÑĤÐ¾Ð²ÑĭÐ¹
ĠÐ¿ÑĢÐµÐ´Ð² Ð°ÑĢÐ¸ÑĤÐµÐ»ÑĮÐ½ÑĭÐ¹
ĠÐ»ÑĥÐ´ Ð¸ÑĤÑĮ
Ñĭ Ð¿ÐºÐ°
ĠÐ¸Ð· Ð¼
Ġ3 16
Ġ7 000
ĠÑĨ Ð¸ÑĢÐºÑĥÐ»ÑıÑĨÐ¸Ð¾Ð½Ð½ÑĭÐ¹
Ġk x
Ġ30 4
01 7
ĠÐ³Ð°Ð· Ð¾Ð½
ÑıÐ· ÑĮ
Ġpro mate
ĠÐ¾ÑģÑĤ Ð°ÑĤ
Ġup s
ciii b
Ġbet termann
ÐºÐ¾Ð¼Ð¼ ÑĥÑĤÐ°ÑĤÐ¾ÑĢ
Ð¼ÐµÑħ Ð°Ð½Ð¸ÑĩÐµÑģÐºÐ¸Ð¹
Ġpromate ct
a ble
Ðµ Ð»Ð¸ÑĢÐ¾Ð²
Ñħ l
Ġ2 92
ĠÑĥ ÑĢ
ÑģÑģ ÑĨÐ°
Ð¾ÑĤ ÑĳÐ»
Ġm b
ĠÑĪ Ð»ÐµÐ¹ÑĦ
Ð¾Ñģ ÑĬÑĳÐ¼Ð½ÑĭÐ¹
Ġ5 90
ĠÑĥÐ´ Ð°ÑĢ
ĠÐ´Ð¸ ÑįÐ»ÐµÐºÑĤÑĢÐ¸ÑĩÐµÑģÐºÐ¸Ð¹
ĠÐ±Ñĥ ÑĢÐ¾Ð²Ð¾Ð¹
ĠÐºÐ»Ð¸Ð½ Ð¾Ð²Ð¸Ð´Ð½ÑĭÐ¹
xla paa
crni ti
ĠÑĤÐµÐ»ÐµÑģÐº Ð¾Ð¿Ð¸ÑĩÐµÑģÐºÐ¸Ð¹
Ð¾ Ñĥ
Ð¸ ÑĳÐ¼Ð½ÑĭÐ¹
ĠÑģ Ð¸Ð¿
Ð² Ð»Ð¸Ð²Ð°ÑĤÑĮ
Ð³ Ð¿
Ġs u
Ġi z
ĠÑĦ ÑģÑģÑĨÐ°
ĠÑĢ ÑıÐ±
ĠÐ¸Ð·Ð³ Ð¾ÑĤÐ°
ĠÐ¿Ð¾Ð»Ð¸ Ð¾Ð»
11 3
ÑĥÐ¼ Ð½ÑĭÐ¹
ĠÑıÑĩ ÐµÐ¹
ÑĢÐ¾ÑĤ Ð²ÐµÑĢÐ´ÐµÑİÑīÐ¸Ð¹
fl ang
ĠÑĢÐ¾ ÑģÑģ
ĠÑģÐ¾Ñħ ÑĢÐ°Ð½ÐµÐ½Ð¸Ðµ
ĠÐ²Ð·Ð»Ð¾Ð¼ Ð¾ÑĥÑģÑĤÐ¾Ð¹ÑĩÐ¸Ð²ÑĭÐ¹
Ð¸ÑĢÑĥ ÑİÑīÐ¸Ð¹
ĠÐ´ÑĢÐµÐ½Ñĩ ÑĳÑĢÐ½ÑĭÐ¹
ĠÑĢÑıÐ± Ð¸Ð·Ð½Ð°
ĠÐ¸Ð·Ð³Ð¾ÑĤÐ° Ð²Ð»Ð¸Ð²Ð°ÑĤÑĮ
4 12
d p
n al
Ð» Ð¸ÑĤÐµÐ»ÑĮ
Ġ1 180
ĠÐ² ÐºÑĢ
ĠÐ² ÑıÐ·Ð°Ð»ÑĮÐ½ÑĭÐ¹
Ġ7 90
Ġk p
14 6
11 9
Ġout put
ĠÑĢÑĥÐ± Ð¸Ð»ÑĮÐ½Ð¸Ðº
Ġvib ro
u x
Ðº Ð¾Ð¹
ĠÐ¿ Ð¾Ð¼
Ð± Ð½Ð³
Ð¾ÑĢ ÐµÐ·
ĠÑĥ Ð¿ÑĢ
Ġn l
Ġ20 1
Ġq min
ĠÑģÑĤÐµÐ½ Ð´
ĠÑģÐº Ð°ÑĤ
ÑģÑĤÐ°Ð»ÑĮ Ð½Ð¾Ð¹
Ġca ustic
26 362
Ġpl an
gh ting
ÐµÐ½Ð° Ð¿ÑĢ
Ð¿Ð¿Ð°ÑĢ Ð°ÑĤÐ½ÑĭÐ¹
ĠÐ°Ð²Ð² Ð³
Ġpen guard
ĠÐ¿ÑĢÐ¸Ð½ Ð¸Ð¼Ð°ÑĤÑĮÑģÑı
ĠÑĤÑĢÐµ ÑĥÐ³Ð¾Ð»ÑĮÐ½ÑĭÐ¹
ĠÑģÑĤÑĢÐµÐ» Ð¾ÑĩÐ½ÑĭÐ¹
Ð°ÑĤv ÑĤ
o ver
Ñĭ ÑĪÐºÐ°
Ð´ Ð¾Ð»
ÑĨ Ð²ÐµÑĤÐ½ÑĭÐ¹
Ġm on
ĠÐ» Ð¸Ð¿Ð°
ÑģÐ¿ Ð¾ÑģÐ¾Ð±
Ñį Ñģ
ĠÐ°Ðº Ð²
ÐµÑĦ ÑĤ
ĠÑĢÐµÐ·ÐµÑĢÐ² ÑĥÐ°ÑĢ
ĠÐ²ÑıÐ· Ð°ÑĤÑĮ
ÑĢÐµÐ² Ð¸Ð·
ĠÑĥÐ»ÑĮÑĤ ÑĢÐ°Ð·Ð²ÑĥÐºÐ¾Ð²Ð¾Ð¹
Ġtra p
Ð½Ð°ÑģÑĤ Ð¸Ð»
Ð¾Ð»Ð¸Ð½ ÐµÐ¹Ð½ÑĭÐ¹
ĠÐ³Ð°Ð·Ð¾Ð½ ÐµÑĦÑĤ
2 15
d in
h r
Ð½ Ð¸Ð·
ĠÐ¼ Ð±
Ð³ ÑĢÐ°
ĠÐ² Ñħ
ĠÐ² Ð°Ðº
Ð¾ÑĢ ÐµÑĪÑĳÑĤÐºÐ°
Ñħ Ð³
ĠÐ° Ð¿
ÑĢÑĥ ÑģÐ¾Ðº
Ð¸Ð² ÐµÑĢ
Ġd v
14 2
ĠÐºÐ¾Ð» ÐµÑı
36 7
ĠÑĤÑĢÐµÑħ ÐºÐ°Ð½Ð°Ð»ÑĮÐ½ÑĭÐ¹
ĠÑĩÐµÑĤÑĭÑĢ Ðµ
ak s
Ð¸ÑĨÐ¸Ð¾Ð½ Ð¸ÑĢÐ¾Ð²Ð°Ð½Ð¸Ðµ
ks h
ĠÐ¸ÑģÐº ÑĥÑģ
ĠÐ¿Ð°ÑĢÐ°Ð¿ ÐµÑĤÐ½ÑĭÐ¹
ĠÐ±ÑĭÑģÑĤ ÑĢÐ¾ÑĤÐ²ÐµÑĢÐ´ÐµÑİÑīÐ¸Ð¹
ĠÐ¾ÑģÑĤÐ°ÑĤ Ð¾Ðº
flang ed
8 70
ÑĢ Ð°ÑĤÐ¾ÑĢ
ĠÐ¼ Ð¾Ð¹ÐºÐ°
Ð¾Ð¿ Ñģ
Ġ20 17
ĠÐ¶ Ðµ
Ġ15 7
ĠÑĢÐµÐ· Ð¸Ð½
ĠÐºÑĢÑĥ ÑĩÑĳ
11 750
ĠÐ½Ð°Ð¿ ÑĢÐ°Ð²Ð¾
ÑĳÑĢ ÑĤÐºÐ°
ĠÑĩÐ°ÑģÑĤ Ð¸ÑĨÐ°
29 99
Ġlo c
ÑģÐµÐº ÑĨÐ¸Ð¾Ð½Ð½ÑĭÐ¹
ĠÐºÐ¾Ð½Ð´ Ð¸ÑĨÐ¸Ð¾Ð½Ð¸ÑĢÐ¾Ð²Ð°Ð½Ð¸Ðµ
ÑįÐ¿ Ð²Ð½Ð³
ak u
ĠÐ°Ð´ Ð³ÐµÐ·
ĠÐ³Ðµ Ð¾
ĠÐ´Ð¸Ð½Ð° Ð¼Ð¸ÑĩÐµÑģÐºÐ¸Ð¹
Ġ730 11750
ĠÐ¸Ð½Ð² ÐµÐ½ÑĤÐ°
ĠÐºÑĢÑĥÑĩÑĳ Ð½ÑĭÐ¹
d oor
ÑĢ Ð¸ÑģÑĤÑĭÐ¹
ĠÐ² Ð±ÑĪÐ²Ð°
ĠÐ½ Ð¼
ĠÐ·Ð° Ð»
Ġt un
Ð¾Ñĩ Ð¸ÑĤÑĮ
ÑĥÑĢ Ð¸ÑĢÐ¾Ð²Ð°ÑĤÑĮ
Ġ12 6
14 7
ĠÐ²ÐµÐ½ÑĤÐ¸Ð»Ñı ÑĤÐ¾ÑĢÐ½ÑĭÐ¹
ĠÐ²Ð² Ð³ÑįÐ½Ð³
ÑĦÐ¸ÐºÑģ Ð°ÑĤÐ¾ÑĢ
ÐµÑĦ Ð¸Ð½
Ġal t
Ð²Ð½ÑĥÑĤÑĢ ÐµÐ½Ð½Ð¸Ð¹
Ġout door
Ð¿Ð¾Ð³ ÑĢÑĥ
Ð¾ÑĩÐ¸ÑģÑĤ ÐºÐ°
2 200
3 44
s c
ÑĤ ÐµÑĢÐ½ÑĭÐ¹
Ð¾Ð½ Ð³
ĠÐ± Ð¿
on ic
Ġ5 88
ĠÐ°ÑĢ Ñħ
Ð¿Ð° Ð»Ð°
Ġf tp
Ð¾Ð³ ÐµÐ½ÐµÑĢÐ°ÑĤÐ¾ÑĢ
gn g
01 30
ĠÐ¿ÑĢÐ¾Ð¼ ÑĭÐ²
ÐºÐ¾Ð² ÑĢÐµÐ¼ÐµÐ½Ð½ÑĭÐ¹
ĠÐ½Ð°Ð» ÐµÐ²Ð¾
ĠÐ´ÑĢÐ¾Ð± Ð»ÐµÐ½Ð¸Ðµ
ÑĨÐ¸ Ð¾Ð½Ð°Ð»ÑĮÐ½ÑĭÐ¹
ĠÐµÑģ Ð»Ð¸
ĠÐºÑĢÐ°ÑĤ ÐºÐ¾Ð²ÑĢÐµÐ¼ÐµÐ½Ð½ÑĭÐ¹
ĠÑıÑĩÐµÐ¹ ÐºÐ¾Ð²ÑĭÐ¹
ĠÐ¸Ð·Ð³Ð¾ÑĤÐ°Ð²Ð»Ð¸Ð²Ð°ÑĤÑĮ ÑģÑı
ĠÐ¸ÑģÐºÑĥÑģ ÑģÑĤÐ²ÐµÐ½Ð½ÑĭÐ¹
f i
Ë ļ
Ð¹ Ð½
Ð± Ð¸
ĠÐ½ ÑģÐ¿
Ð»Ð° Ð¼
ĠÐ° Ð¿Ð¿Ð°ÑĢÐ°ÑĤÐ½ÑĭÐ¹
ĠÐ» Ð¸Ð¿
Ġn it
Ġ7 60
Ġb o
Ġ11 40
ĠÑī ÑĢÐ½
Ġin cl
ĠÐºÑĢÑĥÐ¿ Ð½Ð¾
ĠÐ¶Ð¸Ð´ ÐºÐ¸Ð¹
Ġinter flanged
ĠÑıÐ² Ð·
ĠÐ¿Ð¾Ð»Ð¸Ð¾Ð» ÐµÑĦÐ¸Ð½
ÑģÐ¿Ð¾ÑģÐ¾Ð± Ð»ÐµÐ½Ð¸Ðµ
ĠÐ³Ð°Ð·Ð¾Ð½ÐµÑĦÑĤ ÐµÐ¿ÑĢÐ¾Ð²Ð¾Ð´
Ð° Ð°
ĠÐ¿ Ð¿ÑĢ
Ð¸Ð½ ÑģÐºÐ¸Ð¹
Ð¶ Ð°ÑĤÑĮ
Ð¾Ð¼ ÐºÐ¾Ð³Ð¾Ð²Ð¾ÑĢÐ¸ÑĤÐµÐ»ÑĮ
ĠÐ» ÑģÐ¿
Ġ6 25
Ġk l
Ð³ÑĢ Ð¾Ð¼ÐºÐ¾Ð³Ð¾Ð²Ð¾ÑĢÐ¸ÑĤÐµÐ»ÑĮ
ÑģÐ² ÐµÑĢ
Ġsh ap
ÐµÑģÑģ Ð¾ÑĢÐ½ÑĭÐ¹
ĠÐ²ÑĢ Ð°ÑĤÑĮ
ĠÐ´ÐµÑĢÐµÐ² Ð¾
ĠÐ´Ð²ÑĥÑħÐºÐ° Ð½Ð°Ð»ÑĮÐ½ÑĭÐ¹
Ġno zzle
ĠÐºÐ¼Ð¿Ð² ÑįÐ²Ð½Ð³
ĠÐºÐ¾Ð¼Ð¿ÑĢÐµÑģÑģ Ð¾ÑĢÐ½ÑĭÐ¹
Ġlogic base
ĠÐºÐº Ð¿Ñģ
Ġreduc er
ĠÑģÐºÑĢ ÐµÐ¿Ð»ÐµÐ½Ð¸Ðµ
Ġshap ed
Ð°ÑĤ ÑĭÐ²Ð°Ð½Ð¸Ðµ
Ð± ÐµÑĢ
ĠÐ¾ ÑĦ
ĠÑĤ Ð¾Ñĩ
Ġm q
Ġi ec
Ġ16 20
ĠÑĥÐ¿ Ð¾ÑĢ
Ġ15 600
12 8
Ġe u
900 7
ĠÐ²Ð¸ÑĤ ÑĢÐ°Ð¶Ð½ÑĭÐ¹
ĠÑĤÐµÑĢÐ¼Ð¾ÑĢ ÐµÐ³ÑĥÐ»ÑıÑĤÐ¾ÑĢ
ĠÑĦÐ¾Ð»ÑĮÐ³ Ð¸ÑĢÐ¾Ð²Ð°ÑĤÑĮ
ĠÑħÐ¾Ð·ÑıÐ¹ ÑģÑĤÐ²Ð¾
ĠÐ³Ð¸Ð¿ ÑģÐ¾Ðº
5 14
Ð´ ÑĢÐ¾ÑģÑģÐµÐ»ÑĮÐ½ÑĭÐ¹
ĠÐ´ Ð¿Ð²
ĠÐ² ÐµÐ½ÑĤ
ĠÐ° Ð¼Ð¸Ð½Ð½ÑĭÐ¹
Ð¸ÑģÑĤ ÐµÐ¼Ð½ÑĭÐ¹
Ð¾Ñģ Ð¸Ð»Ð¸ÐºÐ°ÑĤÐ½ÑĭÐ¹
Ð¾ÑģÑĤÐ¾Ð¹ ÐºÐ°
te d
ĠÐ½Ðµ Ð°
ĠÐ³Ð° Ð±
ĠÑĢÐ°ÑģÐ¿ Ð¾ÑĢÐºÐ°
ic ation
ĠÐ¾Ð´Ð½ Ð¾Ð»Ð°
ĠÐºÐ¿Ñģ Ð²
Ð¿Ð² ÑįÐ¿Ð²Ð½Ð³
ĠÐºÐ»Ðµ Ð¸ÑĤÑĮ
ĠÐ¿Ð¾Ð´Ð²Ð¾Ð´ Ð½ÑĭÐ¹
ÑĤÐµÑĢ ÐµÑĤÑĮ
ĠÐ¼Ð¸Ðº ÑĢÐ¾
2999 407
ÑģÐ²ÐµÑĢ Ð»Ð¾
7 60
f low
Ð¸ ÑģÐ¿
Ġa x
Ġ9 80
Ġb aks
Ð¿ÑĢ Ð¸Ðµ
ĠÐ¼Ð° Ð°
ĠÐ¼Ð° Ñĩ
ĠÑĢÑĥ Ð¿Ð¾ÑĢÐ½ÑĭÐ¹
ĠÐ²ÑĤ ÑĥÐ»
ic i
Ð¿Ð¾Ð» Ð¾ÑĤÐ½Ð¾
ĠÐ³ÑĢÐ°Ð½ Ð¸ÑĤ
ĠÐ±Ð¸ÑĤÑĥÐ¼ Ð½Ð¾
Ġsf x
Ð¼ÐµÑģÑĤ Ð½ÑĭÐ¹
ĠÑģÐ¾Ð¾ÑĤÐ²ÐµÑĤ ÑģÑĤÐ²Ð¸Ðµ
ĠÑĨÐµÐ¼ÐµÐ½ÑĤ Ð½Ð¾
oma tic
ÐºÐ¾Ð¼ Ð¿ÑĢÐµÑģÑģ
Ġvi gi
ĠÐ¸Ð¼Ð¿ Ð¾ÑĢÑĤÐ½ÑĭÐ¹
ĠÐ¼Ð¾Ð»Ð½Ð¸Ðµ Ð¿ÑĢÐ¸Ðµ
ĠÐ·Ð°Ð³ÑĢÑıÐ· Ð½ÐµÐ½Ð¸Ðµ
ĠÐ²ÑĤÑĥÐ» Ð¾ÑĩÐ½ÑĭÐ¹
ĠÑģ Ð¿Ð°
Ð² Ð°ÑĤÐ°
ĠÐ½ ÐµÐ¼
Ð¶ Ð¸ÑĢ
ĠÐ· ÐµÐ¼
Ġt p
ĠÑĪ ÑĤÑĢ
on g
ĠÑĦ ÑĥÐ½
20 5
ÐµÐ² Ð¾Ð´
ĠÐ¿Ð¾Ðº ÑĢÑĭÐ²Ð½Ð¾Ð¹
Ġu pe
16 8
ĠÐºÐ»ÐµÐ¼ Ð¼Ð½Ð¸Ðº
Ð»Ð¾Ð² Ð¸Ð½Ð°
Ð¸Ð·Ð¾Ð» Ð¸ÑĢÑĥÑİÑīÐ¸Ð¹
Ġaut omatic
Ġequ i
Ġeff ici
Ġeffici ency
Ðµ Ñĥ
Ð» Ð¾Ð²ÑĭÐ¹
ĠÐ¿ Ð¸Ð³
Ð¾Ð² Ð·
ĠÐ¸ Ñģ
ĠÐ½ f
ĠÐ± Ð¿ÑĢ
Ð¾Ðº Ð°Ð»
Ġ3 300
Ġs mart
ÑĪ Ð°ÑĤÑĮ
Ġa g
ĠÐ» Ð¾Ðº
ĠÐ» Ð¸ÑĦÑĤ
ĠÐ¿ÑĢÐ¾ÐºÐ°ÑĤ ÐºÐ°
ÑĥÐ³ Ð°
Ġ18 8
ĠÑĥÐ½ Ð¸ÑĤÐ°Ð·
ĠÐ¿Ð° Ð·
ĠÑģÐ± Ð¿Ð±
ÑģÐ² ÑıÐ·ÑĮ
ĠÑįÐ»Ð°ÑģÑĤ Ð¾Ð¼ÐµÑĢÐ½ÑĭÐ¹
ĠÐ´ÐµÑĦ Ð»ÐµÐºÑĤÐ¾ÑĢ
im um
Ð¾Ð»Ð¾Ð² Ð¾Ðº
0 43
8 281
j mk
ĠÐ² ÐµÑĤ
Ġc an
Ġo k
Ġ20 3
10 9
Ġb ut
ĠÐ³Ð¾ÑĢ Ð»Ð¾Ð²Ð¸Ð½Ð°
ĠÐ´Ð² ÑĥÑĤÐ°
il i
ÑĥÑĤ Ð¸ÑĢÐ¾Ð²Ð°ÑĤÑĮ
Ð¸Ñģ ÑĮ
Ġsh ang
ĠÐ¼Ð½Ð¾Ð³ Ð¾Ð¼Ð¾Ð´
23 4
08 5
Ð²ÐµÑĤÐ² Ð¸ÑĤÐµÐ»ÑĮÐ½ÑĭÐ¹
Ð°ÑĢÑĮ ÐµÑĢÐ½ÑĭÐ¹
ÑīÐ¸ÑĤ Ð¾Ð²ÑĭÐ¹
Ð³Ð¾ÑĤÐ¾Ð² ÐºÐ°
Ġte e
ĠÐ¼Ð¾ÑģÑĤ Ð¸Ðº
ĠÐ¿Ð»Ð°Ð½ ÑĤÐµÑĢÐµÑĤÑĮ
ĠÐ·ÐµÑĢ ÐºÐ°Ð»ÑĮÐ½ÑĭÐ¹
ĠÐºÐ°Ð» Ð¸ÑĤÐºÐ°
ha i
ĠÐºÑĢÑĥÐ¿Ð½Ð¾ ÑīÐ¸ÑĤÐ¾Ð²ÑĭÐ¹
Ġshang hai
ÑĤ Ðº
Ð³ Ð»
ĠÐ± Ðº
ÐµÑĤ ÑĥÑĪÐ¸ÑĤÐµÐ»ÑĮ
Ð¾Ð± ÑĭÑĪÐºÐ°
ĠÑįÐ»ÐµÐºÑĤÑĢ Ð¾Ð½Ð°ÑģÐ¾ÑģÐ½ÑĭÐ¹
ĠÐ³Ð¾ÑĢ ÑİÑĩÐ¸Ð¹
ĠÐ½Ð¿ Ð²ÑħÐ°
Ġmeth o
Ġdi ff
ĠÐ·Ð°Ð·ÐµÐ¼ Ð»Ð¸ÑĤÐµÐ»ÑĮ
48 5
ĠÐ¿ÑĢÐ¾ÑģÑĤÑĢÐ°Ð½ ÑģÑĤÐ²Ð¾
ĠÐ°Ð¿Ð¿Ð°ÑĢÐ°ÑĤ ÑĥÑĢÐ°
ĠÐ½Ð¾Ð¶ ÐºÐ°
ĠÐºÐ¾Ð¼Ð¿ÑĮÑİ ÑĤÐµÑĢÐ½ÑĭÐ¹
Ġtun e
6 11
r y
v ed
Ð¸ ÑģÐ½ÑĭÐ¹
Ñģ iiiÑĤÑĮ
ÑģÑĤ ÐµÑĢÐ¶
ĠÐ° Ð°Ð±
ĠÐ¿ÐµÑĢ ÐµÐ¿Ð»
Ñį Ðº
ĠÐ¿Ð¾Ð» Ð¾Ð³Ð¸Ñı
Ġb ec
Ġb ase
ÑĢÐ°Ð´ Ð¸Ð°
Ð¾ÑģÐ² Ð°ÑĢÐ¾ÑĩÐ½ÑĭÐ¹
ÑĢÐ°Ð· Ð²ÐµÑĤÐ²Ð¸ÑĤÐµÐ»ÑĮÐ½ÑĭÐ¹
ĠÑĤÐµÑĢÐ¼ Ð¾Ð¿ÑĢÐµÐ¾Ð±ÑĢÐ°Ð·Ð¾Ð²Ð°ÑĤÐµÐ»ÑĮ
Ġ03 4
ĠÐ¿ÑĢÐµÐ´Ð¾ÑħÑĢÐ°Ð½ ÑıÑĤÑĮ
ĠÐ½Ð¾ÑĢÐ¼ Ð¸ÑĢÐ¾Ð²Ð°ÑĤÑĮÑģÑı
ĠvÐ¿Ð¾Ð» Ð½ÑĭÐ¹
ĠÐ¼Ð¾Ð»Ð½Ð¸Ðµ Ð¿ÑĢÐ¸
Ġlogic roof
ĠÑĪÐ¿ÑĥÐ½ ÑĤ
ÐºÐ¾Ð½ÑĤÐ°ÐºÑĤ Ð¾ÑĢ
Ġcont ain
ĠÐ´Ð²ÑĥÑĤÐ° Ð²ÑĢÐ¾Ð²ÑĭÐ¹
ÑģÑĤÐµÑĢÐ¶ ÐµÐ½ÑĮ
k z
Ġ ed
Ð¸ Ð³ÑĢÐ°ÑĤÑĮ
Ð² ii
Ð² iiiÑĤÑĮ
ĠÐ´ Ð¶
Ð± ÑĢÑĥÑģÐ¾Ðº
ĠÐ° Ð¸
ÐµÐ»ÑĮ Ð½Ð¸Ðº
Ġs mo
Ġi t
Ġd a
ĠÐ» Ð³
ĠÐ» ÐµÑĩÑĮ
Ġii Ð²
20 21
Ġ12 4
ĠÑĩ Ð°
Ð¾Ð½Ð° Ð»ÑĮ
Ġak ronex
ac tive
Ð¾ÑĢÑĤ Ð¸Ð·Ð°ÑĨÐ¸Ñı
ĠÐ²Ð¸Ð± ÑĢÐ¾Ð¿ÑĢ
ĠÑĥÐ´Ð° Ð»ÐµÐ½Ð¸Ðµ
ĠÑģÑĤÑĢÑĥÐºÑĤ ÑĥÑĢÐ¸ÑĢÐ¾Ð²Ð°ÑĤÑĮ
Ð¿Ð¾ÑĢÑĤ Ð»Ð°Ð½Ð´ÑĨÐµÐ¼ÐµÐ½ÑĤ
Ġradio active
ĠÐ´Ð¸Ð°Ð³ Ð¾Ð½Ð°Ð»ÑĮ
Ð²ii ÑĤÑĮ
ĠÐ²Ð¸Ð±ÑĢÐ¾Ð¿ÑĢ ÐµÑģÑģÐ¾Ð²Ð°ÑĤÑĮ
Ð¸ÑĤ ÑĭÐ¹
ÑģÐ¿ Ð¾ÐºÐ¾Ð¹Ð½ÑĭÐ¹
Ġf ull
ĠÐ¿ÑĢÐ¾ ÐµÐºÑĤ
ĠÐ¶ Ð¸Ð»ÑĮÐ½ÑĭÐ¹
Ð¾Ð¶ Ð´ÐµÐ½Ð¸Ðµ
Ð³Ð½ Ð¾ÑģÑĤ
ĠÐ¿Ð» Ð°ÑĤÐ°
ĠÐ¿Ð¾Ð´ Ð¾ÐºÐ¾Ð½Ð½ÑĭÐ¹
25 4
ma s
ÑĳÐ¼ ÐºÐ¾ÑģÑĤÑĮ
ĠÐ±ÐµÑģ ÐºÐ°Ð½Ð°Ð»ÑĮÐ½ÑĭÐ¹
Ġse a
Ð¼ÐµÑĤÐ°Ð»Ð» Ð¾ÐºÐ¾Ð½ÑģÑĤÑĢÑĥÐºÑĨÐ¸Ñı
Ð³Ð°Ð± Ð¸Ð¾Ð½
Ð¾ÑĤÐº ÑĢÐ°
ĠÐ¿Ð¾Ð»Ñĥ ÑģÐ¿Ð¾ÐºÐ¾Ð¹Ð½ÑĭÐ¹
ĠÐ²Ð¾Ñģ ÑĮÐ¼
4 60
Ġ1 18
ÑĪ ÑĤÐ°
ÐµÐ» Ð¸ÑĤÐµÐ»ÑĮ
ĠÐ¶ Ð¸Ð²
ĠÑįÐ»ÐµÐºÑĤÑĢ Ð¾
30 7
Ġ300 âģ°
Ð´ÐµÐ» Ð¸ÑĤÐµÐ»ÑĮ
ĠÐ¾ÐºÑĢÐ°Ñģ Ð¾ÑĩÐ½ÑĭÐ¹
Ð¾ÑĪ ÐµÑĩÐ½ÑĭÐ¹
Ġ23 166
ĠÐ´Ð¸ÑĦÑĦ ÑĥÐ·
ĠÐ¿ÑĢÐ¾ÑĤ Ð¸Ð²Ð¾Ð´
ĠÐ¿ÑĢÐ¾Ñģ ÐµÑĩÐ½ÑĭÐ¹
Ġplan ter
k et
Ġ jr
ÑģÑĤ ÑĮ
ĠÐ¾ Ñī
ĠÐ± Ð°ÑĢÑĮÐµÑĢÐ½ÑĭÐ¹
ĠÐ³ Ð¿Ð°
ĠÑĪ ÐµÑģÑĤ
ĠÐºÐ¾Ð½ ÑĨÐµÐ½ÑĤÑĢ
Ñį Ð·
Ġg max
ĠÐ²Ð¾Ð´ Ð¾Ð¿ÑĢÐ¾Ð²Ð¾Ð´
ĠÐ²Ð¾Ð´ Ð¾Ð½Ð°Ð³ÑĢÐµÐ²Ð°ÑĤÐµÐ»ÑĮ
Ġ00 9
ÑĭÐº Ð°ÑĤÑĮ
ÑĥÑĩ Ð¸Ð¹
as onic
Ġal ter
Ð½Ð°ÑĢ ÑĥÐ¶Ð½ÑĭÐ¹
Ġactu ator
Ð¿ÑĢÐµÐ´ Ð¾ÑħÑĢÐ°Ð½
Ġincl u
o c
o o
p f
Ð° Ñį
ÑĤ ÑĥÐ¼Ð±Ð°
ĠÐº Ð¸ÑĢÐ¿Ð¸Ñĩ
ĠÐ¿ Ð¿Ðº
ÑģÑĤ ÑĢÐ°
Ð· Ð´
ĠÑĤ ÑĥÑĤ
ĠÐ° Ð»ÑĮ
Ð¶ ÐµÑĩÐ½ÑĭÐ¹
Ð¾ÑĤ Ð²ÐµÑĤÐ²
Ð¾ÑĤ ÑĢÐ°Ð¶
Ġa w
ĠÑĪ Ð¾Ð²Ð½ÑĭÐ¹
ĠÑĢÐ°Ð· Ð´ÐµÐ»ÑĮÐ½ÑĭÐ¹
ĠÑĢ Ñĭ
Ð¾Ð¶ Ð½ÑĭÐ¹
Ġl r
Ġr ated
ÑİÑīÐ¸Ð¹ ÑģÑı
um e
ÑĢÐ°Ñģ ÑħÐ¾Ð´
ĠÑģÐ± Ð·
ĠÐ¿ÑĢÐµÐ´ ÑģÑĤ
ĠÑģÑĤÐµÐºÐ» Ð¾Ñħ
02 3
ĠÐ³ÑĢÐ°Ð´ Ñģ
ĠÐºÑĢÑĭ Ð»ÑĮ
ÐºÐ¾Ð¼Ð¿Ð»ÐµÐºÑĤ Ð½ÑĭÐ¹
ĠÐ·Ð²ÑĥÐº Ð¾
ĠÐ°ÑįÑĢ Ð°ÑĤÐ¾ÑĢ
Ġau x
ĠÐ³Ð»Ð¸Ð½ Ð¸ÑģÑĤÑĭÐ¹
Ġmarg in
ĠÑĪÐ¿ÑĥÐ½ÑĤ Ð¾Ð²Ð°ÑĤÑĮ
Ġalter na
Ð¾ÑĤÐ²ÐµÑĤÐ² Ð»ÐµÐ½Ð¸Ðµ
ĠÑģÑĤÐµÐºÐ»Ð¾Ñħ Ð¾Ð»ÑģÑĤ
2 37
9 50
Ðº ÐµÑĤÐ½ÑĭÐ¹
ĠÑģ Ð¸ÑģÑĤÐµÐ¼Ð½ÑĭÐ¹
Ð°ÑĤ Ð»Ñĳ
Ð³ Ð¾ÑģÑĤ
ĠÐ´Ð¸Ð° Ð³Ð½Ð¾ÑģÑĤ
Ġw ag
ĠÐºÐ¾ÑĢ Ð´
Ġ40 6
Ð¸Ð± ÑĢÐ°ÑĨÐ¸Ð¾Ð½Ð½ÑĭÐ¹
19 2
ĠÐºÑĥÐ³ Ð¿Ð²ÑįÐ¿Ð²Ð½Ð³
is ol
ure ment
ĠÐ¿Ð¼ Ð±
dw r
Ġmeas urement
ĠÐ²Ð¾Ð´Ð¾Ð¿ÑĢ Ð¾Ð¿ÑĥÑģÐºÐ½Ð¾Ð¹
ĠÐºÐ¾ÑĢÐ¾Ð· Ð¸Ð¾Ð½Ð½Ð¾ÑģÑĤÐ¾Ð¹ÐºÐ¸Ð¹
Ġsmo ke
Ð°ÑĤÐ»Ñĳ Ð²ÐºÐ°
ÑĢ ÑĭÐ¹
ĠÑģ Ð¾Ð»
ĠÐ´ ÐºÑģ
ĠÐ² Ð¾
Ð¾ÑģÑĤ Ð°Ð±Ð¸
ĠÑĥ Ð»
Ġm v
Ð¾Ð¼ Ð°ÑĤ
ĠÑģÑĤ Ð¾Ðº
Ġn m
Ġ12 2
Ð¾Ð³ ÑĢÐ°ÑĦ
Ð·Ð° ÐºÐ»ÑĳÐ¿ÐºÐ°
ĠÐºÐ¾Ð» ÐµÑĢ
Ġ350 âģ°
ĠÑĥÐº ÑĢÑĥÐ¿
ĠÐ¿ÑĢÐ¾ÑĤ ÐµÑĩÐºÐ°
fo am
ĠÐ°Ð½ÑĤÐ¸Ð² Ð¸Ð±ÑĢÐ°ÑĨÐ¸Ð¾Ð½Ð½ÑĭÐ¹
Ġgra de
ĠÐ¼Ð¾Ð»Ð½Ð¸ÐµÐ¿ÑĢÐ¸Ðµ Ð¼Ð½Ð¸Ðº
Ñģ Ð³
ĠÑģ Ð¾Ð²
Ð¿ ÑįÐ½Ð³
Ð´ Ð¸ÑģÐº
Ñĩ ÐµÑģ
Ð± Ð¾ÐºÑģ
Ð¼Ðµ Ð¹ÐºÐ°
Ġd w
ĠÑĢ Ð¾Ð»
Ġ8 2999407
Ñį Ð²
Ġv a
15 5
Ġ14 500
ĠÑĤÐµÐ¿Ð»Ð¾ Ð¾Ð±
ĠÐ°Ð² Ð²Ð°
ĠÐ¿Ð°ÑĤ ÑĢÐ¾Ð½
Ġon e
ÑıÑĤ Ð¸Ðµ
Ġover pressure
Ð°Ð½Ð´ Ð°Ð»ÑĮÐ½ÑĭÐ¹
Ð³Ðµ Ð¾ÑĢÐµÑĪÑĳÑĤÐºÐ°
ÑĢÐ¾Ð¿ÑĢ Ð¾ÑĨ
Ð±ÐµÑĤ Ð¾Ð½Ð½ÑĭÐ¹
Ġalterna tive
ÑĤ ÐµÑĢÐ¼Ñĭ
Ð¼ Ñı
ĠÐ² ÐµÐ»
Ġ4 70
ĠÐ· ÐºÐ»
ĠÑįÐ»ÐµÐºÑĤÑĢ Ð¾Ð½Ð°Ð³ÑĢÐµÐ²Ð°ÑĤÐµÐ»ÑĮ
Ġw all
Ġg y
ĠÑĢÑĥ Ð»Ð¾Ð½
ĠÐ¾ÑĤÐ´ÐµÐ»ÑĮ Ð½Ð¾ÑģÑĤÐ¾ÑıÑīÐ¸Ð¹
Ð¸Ð± ÑĢ
14 98
Ġma t
Ð°Ð» ÐºÐ°
Ġ04 6
ĠÐ¾Ð´Ð½Ð¾ ÑĦÐ°Ð·Ð½ÑĭÐ¹
Ð¿Ð¾Ð´ Ð´Ð¾Ð½
ard o
Ġno ah
ĠÑħÐ¾Ð»Ð¾Ð´Ð½Ð¾ÐºÐ°ÑĤ Ð°ÑĤÑĮ
ĠÐ±Ð¾Ð»ÑĮÑĪ Ð¾Ð¹
ĠÐ¼Ð¸Ðº ÑĢÐ¾Ð¿ÑĢÐ¾ÑĨ
ĠÐ½Ð°ÑĤÑĢ Ð¸ÐµÐ²ÑĭÐ¹
Ġvol ume
Ġproma foam
Ġloc ation
ĠÑĩÐ° ÑĪÐ°
ĠÐ± ÑģÐ¼
Ð¸ÑĤ Ð¾ÑĢ
Ð»Ñı ÑĢ
Ġs pe
Ġs ds
ĠÐ·Ð° Ð¼ÐµÑĢ
Ġa f
on ardo
Ġ9 40
Ġ9 120
ĠÐ¿Ð¾Ð» ÑĭÐ¹
Ġr g
ĠÐ¿Ð¾Ð»Ð¸ ÑĥÑĢÐµÑĤÐ°Ð½
Ð·Ð° Ñī
Ð¿Ð¾Ð» Ð¸
Ð¾Ð·Ð¸ Ð¼ÐµÑĤÑĢ
ĠÑĤÐµÑĢÐ¼Ð¾ ÑĢÐ°Ð´Ð¸Ð°
ÑĢÑĭÐ² Ð°ÑĤÑĮ
ĠÐºÐ¿Ñģ Ð²ÑįÐ²Ð½Ð³
Ġpip ing
55 61
Ġle onardo
ĠÐ°Ð½Ð°Ð»Ð¾Ð³ Ð¸ÑĩÐ½ÑĭÐ¹
Ġex pl
ÑĤÐµÑĢÐ¼ Ð¾Ð¼ÐµÑĤÑĢ
Ġâī ¤
Ġbb Ð³Ð½Ð³
Ð·Ðº Ð´
ĠÐ¶Ð¸Ð² Ð¾Ð¹
Ð¿ÑĢÐµÐ´Ð¾ÑħÑĢÐ°Ð½ Ð¸ÑĤÐµÐ»ÑĮ
ÑĩÐµÑģ ÐºÐ¸Ð¹
5561 32
f e
Ð´ Ð¸Ð°
Ð¸ÑĤ ÐµÐºÑĤ
Ġ0 28
ĠÐ½Ð° Ð±Ð¾ÑĢ
Ġm ic
Ġd y
ĠÑĩ Ð¸ÑģÑĤ
in k
ĠÐ¿ÑĢÐ¾ÑĤÐ¸Ð² Ð¾Ð²Ð·
ĠÐ¾Ð´Ð½ Ð¾Ð¶Ð¸Ð»ÑĮÐ½ÑĭÐ¹
ĠÑī Ñģ
ĠÐ¿Ð°ÑĢ Ð¾Ð³ÐµÐ½ÐµÑĢÐ°ÑĤÐ¾ÑĢ
ĠÑĨÐµÐ»ÑĮÐ½ Ð¾Ð¼ÐµÑĤÐ°Ð»Ð»Ð¸ÑĩÐµÑģÐºÐ¸Ð¹
Ġhy dra
Ġpan asonic
Ð¾Ð¾ÑĤÐ²Ð¾Ð´ ÑĩÐ¸Ðº
ĠÐ°ÑĢÑħ Ð¸ÑĤÐµÐºÑĤ
Ġaux ili
Ġwag o
ĠÐ²ÐµÐ» Ð¸Ñĩ
ĠÐ´ ÐºÐ½
Ġ1 150
ĠÐ¾ ÑĤÑĢ
ĠÐ² Ð¸
ĠÐ½ Ð·
ÐµÐ»ÑĮ ÑĩÐ°ÑĤÑĭÐ¹
ĠÑĥ Ð²ÐµÐ»
ĠÑĢÐ° Ð¼Ð½ÑĭÐ¹
ÑĦ ÑĢ
Ġi ÑĤÐµÑĢÐ¼Ñĭ
Ġ6 98
ĠÐ¿ÑĢÐ¸ ÑģÐ¿Ð¾ÑģÐ¾Ð±Ð»ÐµÐ½Ð¸Ðµ
ĠÑĢ Ð±
Ð¸Ð´ Ðµ
Ġ25 2
Ġr b
ĠÐ¾Ñģ Ð¸Ð½Ð°
Ð¸ÐºÐ° ÑĨÐ¸Ñı
Ġ17 8
Ġ19 91
ĠÐ»Ñģ Ñį
Ġab b
vi sion
Ġ99 41
ĠÑħÐ» Ð¾ÑĢ
Ġdp min
ĠÑĢÐ°ÑģÑĪÐ¸ÑĢ Ð¸ÑĤÐµÐ»ÑĮÐ½ÑĭÐ¹
ĠÑĦÑĥÑĤÐµÑĢ Ð¾Ð²Ð¾ÑĩÐ½ÑĭÐ¹
ĠÑĤÐ°ÑĢ ÐµÐ»ÑĮÑĩÐ°ÑĤÑĭÐ¹
Ġexp ress
Ġ2268 9
ĠÐ¸Ðº ÑģÐ»
ĠÐ·ÐµÐ¼ Ð»Ñı
Ġinclu ding
ĠÐ¿ÑĢÐµÐ´ÑģÑĤ Ð°Ð²Ð»ÑıÑĤÑĮ
ĠÑĥÐ²ÐµÐ» Ð¸Ñĩ
0 30
k o
Ñģ Ð¾Ð²ÑĭÐ¹
Ð» Ð¾Ñī
Ð· Ð²ÐµÐ½Ð¾
ĠÐ° Ðµ
ĠÐ¾Ð± ÑĢÐ°Ð±Ð¾ÑĤÐ°ÑĤÑĮ
Ġ8 240
ĠÐ¿Ð» Ð°ÑĤ
ĠÐ´Ð²ÑĥÑħ ÑģÑĤÐ²Ð¾ÑĢÑĩÐ°ÑĤÑĭÐ¹
ĠÐ¶ÐµÐ»ÐµÐ· Ð¾Ð±ÐµÑĤÐ¾Ð½
17 00
Ġch em
ĠÐ°Ñį ÑĢÐ¾Ð·
ĠÐ°Ð· Ð¾ÑĤÐ½ÑĭÐ¹
pl us
ĠÑĪÐ»Ð¸ÑĦ Ð¾Ð²Ð°Ð½Ð¸Ðµ
ĠÐ±ÑĭÑģÑĤÑĢ ÑĭÐ¹
Ð¾ÐºÐ° Ð¼ÐµÑĢÐ°
Ð¾Ð³Ð½ ÐµÐ·Ð°ÑīÐ¸ÑĤÐ½ÑĭÐ¹
Ġvibro isol
ĠÐ¾Ñī Ð²
ĠÐ°ÑĢÑħÐ¸ÑĤÐµÐºÑĤ ÑĥÑĢÐ½ÑĭÐ¹
ĠÐ²ÐµÐ»Ð¸Ñĩ Ð¸Ð½Ð°
Ġvibroisol ators
Ð» ÐµÐ³
Ð¿ ÑĦÐµÑĢ
Ġ4 75
ĠÑĥ Ð²
Ñī Ð¸Ð²Ð°Ð½Ð¸Ðµ
Ñī ÐµÐ»ÑĮÐ½Ð¸Ðº
Ġ0 65
ÐµÐ´ ÐºÐ°
Ġi k
Ð¾Ñĩ ÑĮ
ti le
Ñį ÑĪ
ĠÐ½Ðµ Ð¾ÑĤÐº
ĠÐ¾Ð¿ ÐµÑĢ
ĠÑĪÑĤ Ð¾ÑĢÐºÐ°
ĠÐ¾Ñģ Ð¾Ð±Ð¾
Ġ60 5
Ð½Ð°Ñĩ Ð¸ÑĤÐµÐ»ÑĮÐ½ÑĭÐ¹
le e
Ġ13 50
Ġ140 7
ĠÑģÐ½ ÑıÑĤÐ¸Ðµ
ĠÐ°ÑĢÐ¼ Ð¸ÑĢÐ¾Ð²Ð°Ð½Ð¸Ðµ
ĠÑĢÐ°Ð·Ð²ÐµÑĤÐ² Ð¸ÑĤÐµÐ»ÑĮ
ĠÑĥÑĩÐ°ÑģÑĤ ÐºÐ¾Ð²ÑĭÐ¹
Ð±Ð¾ Ð¸Ð½Ð°
ĠÐ¿Ð± Ñģ
ĠÐ²ÑĤÐ¾ÑĢ Ð¸ÑĩÐ½ÑĭÐ¹
ĠÐ³Ð¸Ð´ÑĢÐ¾ÑĦÐ¾Ð± Ð½ÑĭÐ¹
Ð³Ð¸Ð´ ÑĢÐ¾
ĠÐ°Ð½ÑĤÐ¸Ð² Ð°Ð½Ð´Ð°Ð»ÑĮÐ½ÑĭÐ¹
ÐºÐ¾ÑĢÐ¿ÑĥÑģ Ð½ÑĭÐ¹
ĠÐ½ÐµÐ· Ð½Ð°ÑĩÐ¸ÑĤÐµÐ»ÑĮÐ½ÑĭÐ¹
Ð´Ð¾Ð» Ð¾ÑĤÐ¾
344 4
ĠÐ²Ð¾ÑģÑĮÐ¼ Ð¸Ð³ÑĢÐ°ÑĤÑĮ
Ġauxili ary
ÑĢ Ð¾Ñģ
ĠÐº Ð¾ÑģÐ°
Ð± ÑĢÑĥÑģ
ĠÐ¾ Ð°Ðº
Ġ2 36
ĠÐ¿ÑĢ Ð¾ÑĢÐµÐ·
ÐµÐº ÑĤÑĢ
ĠÑĦ ÑĤÐ¾ÑĢ
Ġ15 5
Ġu k
Ġk s
01 9
ÑħÐ» Ð¾Ð¿
ĠÑĤÐµÐº ÑģÑĤ
Ġther mo
ĠÐºÐ°ÑģÑģ ÐµÑĤÐ°
Ġmeas ur
ĠÐ¾ÑĤÑģ ÐµÑģÑĤÑĮ
Ġstar ter
ĠÐºÑĢÐ¾ ÑģÑģ
ĠÐ¿ÑĭÐ»ÐµÐ² Ð¸Ð´Ð½ÑĭÐ¹
ĠÐ·Ð°Ð» Ð¾Ð¶ÐµÐ½Ð¸Ðµ
ĠÐºÑĢÑĭÐ»ÑĮ ÑĩÐ°ÑĤÑĭÐ¹
ĠÑĥÐºÑĢÑĥÐ¿ Ð½ÑĳÐ½Ð½ÑĭÐ¹
ĠÐ¼Ð¸ÐºÑĢÐ¾Ð¿ÑĢÐ¾ÑĨ ÐµÑģÑģÐ¾ÑĢÐ½ÑĭÐ¹
Ð¼ Ð¸ÑĤÑĮ
Ð¼ Ð¼Ð°
Ð¼ Ð¾Ð±ÐµÐ·Ð¾Ð¿Ð°ÑģÐ½ÑĭÐ¹
Ñı Ð½ÑĭÐ¹
00 93
ĠÐ² ÐµÐ·
Ġc ÐµÐ¹ÑģÐ¼
ĠÐ·Ð° Ð±Ð¾Ð¸Ð½Ð°
Ġ6 90
ĠÐ¼Ð°ÑĢÐº Ð¸ÑĢÐ¾Ð²ÐºÐ°
Ġb c
Ġk it
Ġoper ation
ÑĤÐºÐ° Ð½ÑĮ
Ð¸ÑĦÐ¸ÑĨ Ð¸ÑĢÐ¾Ð²Ð°Ð½Ð½ÑĭÐ¹
ĠÐ°Ð²ÑĤÐ¾Ð¼Ð°ÑĤ Ð¸Ð·Ð°ÑĨÐ¸Ñı
Ġ33 259
Ġro om
ĠÑģÐ´ ÑĥÐ²
Ð¾ÑģÐ½Ð¾Ð² Ð°Ð½Ð¸Ðµ
ÐºÑĢÐµÑģÑĤ Ð¾Ð²Ð¸Ð½Ð°
ĠÑĤÑĢÐ°Ð² Ð¼Ð¾Ð±ÐµÐ·Ð¾Ð¿Ð°ÑģÐ½ÑĭÐ¹
ciii a
ĠÐ²ÑģÐ°Ñģ ÑĭÐ²Ð°ÑĤÑĮ
ĠÑĦÐ¸Ð±ÑĢÐ¾ ÑĨÐµÐ¼ÐµÐ½ÑĤÐ½ÑĭÐ¹
ĠÐ·Ð°Ð²Ð¾Ð´ ÑģÐºÐ¸Ð¹
ĠÐ¿ÑĢÐ¾Ð¼ÑĭÐ² ÐºÐ°
tile ver
e p
ĠÑģ ÐµÐ´
ĠÑģ Ð¼Ð°Ð·Ð¾ÑĩÐ½ÑĭÐ¹
ĠÑģ Ð¾ÑģÑĢÐµÐ´
Ð¿ ÐµÐ»ÑĮÐ½ÑĭÐ¹
ĠÑĤ m
Ġ4 15
Ġc b
Ð¾ÑĤ ÑĭÐ¹
Ð¾ÑĤ Ð¾ÑĩÐ¸ÑĤÑĮ
Ġh ard
ĠÐºÐ¾Ð¼Ð¿ ÐµÐ½Ñģ
Ġ58 6
ĠÐ¼Ð» ÑģÑĤ
Ġro t
ĠÐ¸Ð·Ð² ÐµÑģÑĤÐºÐ¾Ð²ÑĭÐ¹
ĠÐ¼Ðº ÑģÑĤ
Ġrp r
Ġ218 80
val ent
ĠÐ¼ÐºÐ± ÑģÑĤ
ĠÐ¸Ð½Ð²ÐµÐ½ÑĤÐ° ÑĢÐ½ÑĭÐ¹
Ġequi valent
ĠÐ·Ð°Ð¼ÐµÑĢ ÐµÑĤÑĮ
ĠÑģÐ¾ÑģÑĢÐµÐ´ Ð¾ÑĤÐ¾ÑĩÐ¸ÑĤÑĮ
a q
Ð¿ Ð¾ÑģÑĤ
Ð¿ ÑĥÐ»ÑĮÑĤ
Ð¾Ð² Ð°
Ð± ÐµÑģ
ĠÐ½ ÑĢ
Ð¸Ð² Ð½ÐµÐ²ÑĭÐ¹
Ġs lee
ĠÐ» Ð¸Ð²Ð½ÐµÐ²ÑĭÐ¹
ĠÐºÐ° Ð±Ð¸Ð½Ð°
Ñĳ Ðº
Ð½Ð° Ð´
ĠÐ¿ÑĢÐ¸ ÑĳÐ¼
Ġb k
ĠÐ¼Ð° ÑģÑĤ
32 3
ĠÐ³Ð°Ð· Ð¾Ð¿ÑĢÐ¾Ð²Ð¾Ð´
Ġhand oper
Ġ020 5
ĠÐ¸Ð½Ð´ Ð¸ÐºÐ°ÑĤÐ¾ÑĢ
Ġli h
Ð¸ÑģÑĤÐ¸ÑĢ Ð¾Ð»ÑĮÐ½ÑĭÐ¹
og ic
ĠÐ²Ð°Ðº Ñĥ
Ġslee ve
Ġhandoper ated
3 90
Ð³ Ð°ÑĢ
ĠÐ² Ð¾ÑĢÐ¾Ð½
ĠÐ° Ð¾
ĠÐºÐ»Ð° Ð²Ð¸
ĠÑĪ Ð¸Ð½Ð½ÑĭÐ¹
Ġp k
Ð¼Ð° ÐºÑģ
ĠÐ¿Ð¾Ð´ ÑĢÐµÐ·ÐºÐ°
ĠÐ¼Ð° Ð»
19 96
ĠÐ±ÑĥÑĢ Ð¾
Ð»Ð¾ ÑīÐµÐ½Ð¸Ðµ
Ġsi em
ĠÐ±ÐµÐ·Ð¾Ð¿Ð°Ñģ Ð½ÑĭÐ¹
ÐºÑĢÐµÐ¿ Ð¸ÑĤÑĮ
Ġab s
ĠÐ¿ÑĢÐ¾Ð´Ñĥ ÐºÑĨÐ¸Ñı
Ġfd b
Ð¾Ð³ÑĢÐµÐ² Ð°ÑĤÐµÐ»ÑĮ
ĠÐ¿Ð»Ð¸Ð½ÑĤ ÑĥÑģ
Ð¾Ð¿Ð¾Ð³ Ð»Ð¾ÑīÐµÐ½Ð¸Ðµ
5 10
s al
Ðµ Ð»Ð¸
Ðº Ð¾ÑĤÑĳÐ»
Ñĭ Ð¿
ÐµÐ½ Ð½Ð¾ÑģÑĤÑĮ
ĠÑĢÐ°Ð· ÑĢÑĥ
Ġo m
ĠÑĢ ds
ĠÐ³Ð¾ÑĢ ÐºÐ°
000 9
ÑĢÐ°Ð½ ÑĤ
Ġl d
ĠÑĨ ÐµÐ¼
Ġg ri
ĠÐ°Ð½ÐºÐµÑĢ Ð¾Ð²ÐºÐ°
65 4
ĠÐ±ÐµÑģ ÐºÐ¾ÑĢÐ¿ÑĥÑģÐ½ÑĭÐ¹
Ð¾Ð¼Ð¿ Ð¾Ð·Ð¸ÑĤÐ½ÑĭÐ¹
ĠÐ¾Ð´Ð½Ð¾Ð¿ ÑĥÑĤÐ½ÑĭÐ¹
ul ler
ÑĥÑĢÐ¾Ð² Ð½ÐµÐ²ÑĭÐ¹
Ð°Ð²ÑĤÐ¾Ð¼ Ð°ÑĤ
ĠÑĤÑĢÐ°Ð² ÐµÑĢÑģ
Ġweidm uller
ÑįÐ¼ÑĥÐ»ÑĮÑģ Ð¸Ð¾Ð½Ð½ÑĭÐ¹
ĠÑĢÐ°Ð·Ð² ÑĳÑĢÑĤÐºÐ°
Ð¾ÑĤÑĢÐ°Ð¶ Ð°ÑİÑīÐ¸Ð¹
ĠÐºÐ¾Ð»ÐµÑĢ Ð¾Ð²Ð°ÑĤÑĮ
ĠÐ±ÑĥÑĢÐ¾ Ð¾Ð¿ÑĥÑģÐºÐ½Ð¾Ð¹
Ġsiem ens
ĠÑĢds g
Ñĥ Ð·Ð°
Ð´ Ð¸Ð½
Ð¾Ð² Ð°Ð½Ð½ÑĭÐ¹
ÑĤÐ° Ð»
Ð¾Ð» ÐµÑĤ
ĠÐ¿ÑĢ ÐµÑģÑģ
ĠÑģÑĤ Ð¾Ð¿
Ġn um
000 5
Ð¿ÑĢ Ð¾Ð¶ÐµÐºÑĤÐ¾ÑĢ
40 6
ĠÑĢÐ°ÑģÐ¿ ÑĢÐµÐ´ÐµÐ»ÐµÐ½Ð¸Ðµ
ĠÐºÐ» ÑĤÑĢ
ĠÐºÐ¾ÑĢÑĢÐ¾Ð· Ð¸Ñı
ĠÐºÐµÑĢÐ°Ð¼ Ð·
014 2
Ð¸Ð¿Ñģ Ð°
Ġfx aq
ĠÑįÐ¼Ð¿ ÑĢÐ°
ĠÑħÐ»Ð°Ð´ Ð°Ð³ÐµÐ½ÑĤ
ĠÐ´Ð²ÑĥÑħÐ»Ð° Ð¿ÐºÐ¾Ð²ÑĭÑı
Ġie k
ĠÐ³ÑĢÐ¾Ð¼ ÐºÐ¾Ð³Ð¾Ð²Ð¾ÑĢÐ¸ÑĤÐµÐ»ÑĮ
ĠcÐµÐ¹ÑģÐ¼ Ð¾ÑģÑĤ
Ðµ ÑīÐµÐ½Ð¸Ðµ
ĠÐ² Ð±
Ð¾Ð¿ ÑįÐ½Ð³
ĠÐ» Ð²
Ġ10 7
Ġb m
Ð»Ñİ ÑīÐ¸Ð²Ð°Ð½Ð¸Ðµ
Ð¼Ð° Ðº
ĠÑģÐ¿ Ð»ÑİÑīÐ¸Ð²Ð°Ð½Ð¸Ðµ
40 8
18 1
ĠÑĤÐµÐ¿Ð» Ð¾Ñģ
Ġ11 20
ĠÐºÐ¿ ÑįÑĤ
ĠÐºÐ¿ Ð¾Ð¿ÑįÐ½Ð³
ĠÐºÐ²Ð°Ð´ ÑĢÐ°ÑĤ
96 9
ĠÑĥÑĩ ÐµÑģÑĤÑĮ
Ð¾Ð½ÐµÐ¿ÑĢÐ¾Ð½Ð¸ÑĨÐ° ÐµÐ¼ÑĭÐ¹
ĠÐºÐ¾Ð½Ð´ÐµÐ½ÑģÐ°ÑĤ Ð¾ÑĢÐ½ÑĭÐ¹
ĠÑĪÑĤÐ° Ð¿ÐµÐ»ÑĮÐ½ÑĭÐ¹
ĠÑįÐ»ÐµÐºÑĤÑĢÐ¾Ð´ ÑĥÐ³Ð¾Ð²Ð¾Ð¹
ĠÐ¿Ð»Ð° Ð¼Ñı
ĠÐ²Ñħ ÑĪ
ĠÐ´Ð¸Ð°Ð³Ð½Ð¾ÑģÑĤ Ð¸ÑĢÐ¾Ð²Ð°Ð½Ð¸Ðµ
1498 90
ĠÐºÐ¿ÑįÑĤ Ð¸Ð½Ð³
0 24
Ð² ÑĢÐµÐ·ÐºÐ°
Ð· ÐµÑĢ
Ð¾Ð½ Ð´
ÑĪ ÑĥÐ¼
ÑĪ ÐµÑĩÐ½ÑĭÐ¹
Ġt c
Ġ5 500
Ġh a
Ġh m
Ġ50 1
Ġprote c
ĠÑģÐ¾ÑģÑĤÐ°Ð² Ð½Ð¾Ð¹
ĠÐ¼Ð½Ð¾Ð³ Ð¾ÑĨ
ĠÐ¿Ð¾Ñģ ÑĭÐ¿ÐºÐ°
ĠÑħÐ¸Ð¼ Ð¸ÑĩÐµÑģÐºÐ¸
ĠÐ¿Ð»Ð°ÑģÑĤÐ¼Ð° ÑģÑģÐ°
248 6
ĠÐ³Ðµ Ð¾Ñģ
ĠÐºÑĢÐµÑģÑĤ Ð¾Ð²Ð¸Ð½Ð°
ds an
ik omax
ÑĤÐµÑĢÐ¼ Ð¾Ð¿ÑĢÐµÐ¾Ð±ÑĢÐ°Ð·Ð¾Ð²Ð°ÑĤÐµÐ»ÑĮ
Ð²Ð°Ð½ Ð½Ð°
Ð¿ÐµÐ½ Ð¾Ð¿Ð¾Ð»
ĠÐ½Ð°ÑĢÑĥÐ¶ Ñĥ
ĠÐ¸Ð·Ð¼ÐµÐ½ ÑıÑĤÑĮ
ĠÑĦÑĤÐ¾ÑĢ Ð¾Ð¿Ð»Ð°ÑģÑĤ
ĠÐ²Ð¾ÑĢÐ¾Ð½ ÐºÐ°
k tron
ĠÐ¾ Ñĩ
ĠÑĤ ÑĥÐ¼Ð±Ð°
ĠÐ° ÐºÑģ
Ð¾Ðº Ð¾ÑĢÐ°
Ġs il
ÐµÐ¹ ÑģÑĤÐ²
Ġ20 70
Ġ8 25
ĠÐºÐ» ÑĳÐ½
ÑĥÐ½ Ð¸ÑĤÐ°Ð·
ÐºÐ¾ÑĢ Ð¾Ð½ÐºÐ°
ĠÐ²ÑĭÑģÐ¾Ðº Ð¾ÑĩÐ°ÑģÑĤÐ¾ÑĤÐ½ÑĭÐ¹
26 2486
29 5
ĠÐ¾Ð» Ð¾Ð²
ĠÐ¿ÐµÑĢÑĦ Ð¾ÐºÐ¾ÑĢÐ°
Ġra dsan
ÑįÐºÑģ ÐºÐ°Ð²Ð°ÑĤÐ¾ÑĢ
ĠÐ¿Ð³ Ð»
ĠÑĤÐµÑĢÐ¼Ð¾Ð¿Ð»Ð°ÑģÑĤ Ð¸ÑĩÐ½ÑĭÐ¹
ĠÐ´Ð¸Ð½Ð° ÑģÐ¾Ð²ÑĭÐ¹
ĠÐ¼ÑĢÐ° g
Ġspe ktron
b a
h e
y st
Ñģ ÑĦ
Ñģ Ð°Ð»ÑĮÐ½Ð¸Ðº
Ñĥ Ð¿ÑĢ
Ð¾Ð´ ÐµÐ¹ÑģÑĤÐ²
Ġ3 48
ĠÑĥ ÐºÐ°Ð·
Ġ0 18
Ġp re
Ġf v
Ġf dm
Ñį Ð»
ĠÐ¾Ð¿ Ð¾Ð²
Ð²Ð¾Ð´ ÐºÐ°
ĠÐ±ÐµÑģ ÑĨÐ²ÐµÑĤÐ½ÑĭÐ¹
Ġ70 262486
ĠÑĢÐµ Ð°Ð³ÐµÐ½ÑĤ
Ð°Ð»Ñİ Ð¼Ð¸Ð½
ĠÐ¿Ð°ÑĢ Ð¾Ð¿ÑĢ
ĠÐ²Ð¾Ð´Ð¾ ÑįÐ¼ÑĥÐ»ÑĮÑģÐ¸Ð¾Ð½Ð½ÑĭÐ¹
Ġ87 34
ĠÐ¿ÐµÑĢÐµÐ´ Ð½Ð¸Ð¹
ĠÐºÑĢÐµÑģÑĤ Ð¾Ð²ÑĭÐ¹
Ð°ÑĢÑĤ Ð¾Ð½Ð½ÑĭÐ¹
ĠÐ½ÐµÐ¼ ÐµÑĢÐ½ÑĭÐ¹
Ġdiff er
ĠÐ¼Ð°ÑģÑĤ Ð¸ÑĩÐ½ÑĭÐ¹
z ine
Ð¼ Ð¾Ð½Ð¸ÑĤ
ĠÐ¼ Ð´
Ð³ Ð°Ñģ
Ð± Ð¾Ð»ÑĮÐ½ÑĭÐ¹
ĠÐ² ÑĢÐ°Ð½
Ð¶ ÐµÑĩÑĮ
Ġc ei
ÑĪ Ð¼Ð°Ðº
Ð¾Ð± Ð¸Ð»ÑĮÐ½ÑĭÐ¹
ÑĢÑĭ Ð·
Ġ12 000
25 2
Ġg c
12 2
ĠÐ³Ð¸Ð´ ÑĢÐ°ÑĤ
ĠÐ³Ð¸Ð´ÑĢÐ¾ ÑĪÐ¿Ð¾Ð½ÐºÐ°
Ġ26 362
Ġbl o
ĠÑħÐ¾Ð»Ð¾Ð´ Ð¾ÑģÐ½Ð°Ð±Ð¶ÐµÐ½Ð¸Ðµ
ĠÑįÑĤÐ° Ð¶
ĠÐ²Ð¾Ð»Ð½ Ð¸ÑģÑĤÑĭÐ¹
Ġ990 10
ĠÐ¼Ð¾Ð»Ð½Ð¸ÐµÐ¿ÑĢÐ¸ ÑĳÐ¼Ð½ÑĭÐ¹
ĠÐ²Ð°ÐºÑĥ ÑĥÐ¼Ð½ÑĭÐ¹
Ð¿ÐµÐ½Ð¾Ð¿Ð¾Ð» Ð¸ÑģÑĤÐ¸ÑĢÐ¾Ð»
Ð¾Ð´ÐµÐ¹ÑģÑĤÐ² ÑĥÑİÑīÐ¸Ð¹
3 31
c ent
m t
s ma
Ġ ÑıÐ´
Ñģ ÐµÐ´
ÑĮ ÐµÑĢ
ĠÑģ ÑĢÐ°Ð²Ð½
Ð¿ ÐºÐ¾Ð²ÑĭÐ¹
ĠÐ± ÐµÐ¶
ĠÐ³ ÑĢÐ°Ð²
ĠÑģÑĤ Ð¾ÑĩÐ½ÑĭÐ¹
Ġa re
ĠÐ¾Ð± Ð¶Ð¸Ð¼Ð½ÑĭÐ¹
Ġo d
ÑĥÑĢ ÐºÐ°
000 8
ĠÐ¿Ð¾Ð´ ÑģÑĤÐ°Ð½ÑĨÐ¸Ñı
ĠÑĤÐµÐ¿Ð» Ð¾Ð¿ÑĢÐ¾Ð¸Ð·Ð²Ð¾Ð´Ð¸ÑĤÐµÐ»ÑĮÐ½Ð¾ÑģÑĤÑĮ
14 1
Ġ05 8
ÑĢÐ°Ð´ Ð°
ÑĥÐ´ Ð¸ÑĤÐµÐ»ÑĮÐ½ÑĭÐ¹
ÑĢÐµÐ´ÐµÐ» Ð¸ÑĤÐµÐ»ÑĮ
ÐµÑģÑģ Ð¾Ð²Ð¾ÑĩÐ½ÑĭÐ¹
Ġweld ing
Ġ29 4
ack et
Ġpo per
ĠÐ½ÐµÑĦÑĤ ÑıÐ½Ð¾Ð¹
mer g
ĠÐ»Ð°Ð· ÐµÑĢÐ½ÑĭÐ¹
Ġtech n
ĠÑĦÑĢÐµ Ð¾Ð½Ð¾Ð²ÑĭÐ¹
ÐµÐ¶Ð´ Ð°
Ġnb t
Ġev o
ĠÐ¾Ð´Ð½Ð¾Ð´ Ð¸ÑģÐºÐ¾Ð²ÑĭÐ¹
ĠÐ´ÐµÑĦÐµÐºÑĤÐ¾ÑģÐº Ð¾Ð¿
ÑĪÑĥÐ¼ Ð¾Ð³Ð»ÑĥÑĪÐ¸ÑĤÐµÐ»ÑĮ
ĠÑģÑĢÐ°Ð²Ð½ Ð¸ÑĤÑĮ
g en
r ent
z sd
Ñģ ÐºÐ¾ÑĢ
Ð¼ ÑĤ
Ð² ÐµÑĪ
Ð¿ Ð¸
ÑģÑĤ ÐµÐºÐ»Ð¾
ĠÐ° ÑĢÐ°Ð¼
ÐµÑģ Ð¾
Ġ4 74
Ð°Ð½ Ð¸ÐºÐ°
ÑĪ Ð¸Ð±
ĠÐ·Ð° ÑĥÑģÐµÐ½
ĠÐ» Ð¸ÑĤ
ĠÐ¿Ð¾Ð´ ÑģÐ²ÐµÑĤ
ĠÑĨ ÐµÐ»ÑĮÐ½ÑĭÐ¹
ĠÐ¾Ð±ÐµÑģÐ¿ ÐµÑĩ
Ġ15 8
ĠÐ·Ð°Ð¿ ÑĢÐ°Ð²ÐºÐ°
ĠÑģÐ± Ð¿
ĠÑģÑĤÐ°Ð½ ÑĨÐ¸Ð¾Ð½Ð½ÑĭÐ¹
ĠÑĤÐµÑĢÐ¼ Ð¾Ð¼ÐµÑĤÑĢÐ¸ÑĩÐµÑģÐºÐ¸Ð¹
Ġto p
ĠÐ¿ÐµÐ½ Ð¾Ð¿Ð»Ð°ÑģÑĤ
ver sal
ĠÐ¿Ð¾Ð»Ð¸ÑįÑĦ Ð¸ÑĢ
ĠÐ¿Ð± Ð·
ĠÐ²ÑĢÐ° Ð½Ð°
Ġbr acket
ĠÐ¿ÑĢÐ¸Ð½ ÑĥÐ´Ð¸ÑĤÐµÐ»ÑĮÐ½ÑĭÐ¹
ĠÐ´ÐµÑĦÐ¾ÑĢÐ¼Ð° ÑĨÐ¸Ñı
ĠÐ¿Ð»Ð° ÑĪÐµÑĩÐ½ÑĭÐ¹
ĠÐ¼ÑĢÐ°Ð¼ Ð¾ÑĢ
ĠÐ³Ð¸Ð¿ÑģÐ¾Ðº Ð°ÑĢÑĤÐ¾Ð½Ð½ÑĭÐ¹
ĠÐ¿Ð°ÑĢÐ¾Ð¿ÑĢ Ð¾Ð½Ð¸ÑĨÐ°
ĠÐ·Ð°ÑĥÑģÐµÐ½ ÐµÑĨ
x s
Ðµ Ð¸Ð½
Ġc ÑĤ
ÑĦ Ð°Ñģ
Ġi Ðº
Ġa qu
ĠÐ¾Ð± ÑĤ
ĠÑĦ Ð±
ÑĢÐ°Ð½ Ð¸Ðµ
ĠÐ½Ð°Ð¿ÑĢ ÐµÑģÑģÐ¾Ð²Ð¾ÑĩÐ½ÑĭÐ¹
03 7
Ġth re
Ð¿Ðº Ð¾Ð²Ð¾Ð¹
ĠÐ³ÑĢÑĥÐ· Ð¾Ð²Ð¾Ð¹
Ð¾Ð´Ð¸ Ð¾Ð´Ð½ÑĭÐ¹
ĠÑĨÐ¸Ð½ÐºÐ¾Ð½Ð° Ð¿Ð¾Ð»Ð½
Ġsi gn
ĠÑĢÐ¿ Ñĥ
ik in
ĠÐºÐ°ÑĢ Ð½Ð¸Ð·
Ð¸Ð½Ð¸ Ð»Ð°
ĠÑįÐ»ÐµÐºÑĤÑĢÐ¾ÑĤ ÑıÐ³Ð¾Ð²ÑĭÐ¹
ĠÑĨÐ° Ð¿ÐºÐ¾Ð²Ð¾Ð¹
ĠÐ°Ð½ÑĤÐ¸Ð¿ Ð°Ð½Ð¸ÐºÐ°
ĠÐ¿ÑĥÐ³ ÑĤÑĮ
Ġcur rent
ÑįÑĦ Ð¿Ð¼Ð½Ð³
Ġda ikin
Ġprotec tive
ĠÐ¾Ð¿Ð¾Ð² ÐµÑīÐµÐ½Ð¸Ðµ
ÑĪÐ¸Ð± ÐµÑĢ
ÐµÐ¸Ð½ Ñı
o t
o Ð¿ÑįÐ½Ð³
ÑĤ Ð¾ÑĩÐ½ÑĭÐ¹
Ð½ ÐµÐºÑĤÐ¾ÑĢ
ĠÐ¸ Ð¿ÑĢ
Ð± Ð»Ð¾ÑĩÐ½ÑĭÐ¹
ĠÐ° ÐºÑĤÐ¸Ð²
Ð°ÑĢ Ð¸ÑĤÑĮ
ĠÑį ÑĨ
ĠÐºÐ³ ÑĢÑĥ
ĠÑĦ Ð¾Ð½
ĠÑĦ Ð»ÐµÐºÑģ
ĠÑħ Ð°ÑĢ
ĠÑĨ Ð¸ÑĢÐºÑĥÐ»ÑıÑĨÐ¸Ñı
Ġr int
ĠÑģÐ¼ Ð´
Ð±Ð°ÑĢ ÑĮÐµÑĢ
Ġ17 6
Ġ19 3
ĠÑģÐº Ð¾Ð±
ĠÐ¿ÑĢÑıÐ¼ Ð¾ÑĤÐ¾ÑĩÐ½ÑĭÐ¹
ÐºÐ· Ð¾
ĠÐ°Ðº Ð±
ĠÐ½Ð°Ð» Ð¾Ð¶Ð¸ÑĤÑĮ
Ð±Ð¾Ð½ ÐµÐ½ÑĤ
ĠÑģÐ¿Ð¸ÑĢÐ° Ð»ÑĮ
Ġrec irc
Ġline ar
ÑĥÐ¿Ð»Ð¾ÑĤ Ð½
ÑĪÐ°ÑĢ Ð¾ÑĪÐµÑĩÐ½ÑĭÐ¹
Ġuni versal
ĠÐ¿Ð¾Ð´ÑģÐ²ÐµÑĤ ÐºÐ°
0 41
c c
d u
u ma
ÑĢ Ð²
Ð¼ Ð»
Ð² Ð½ÑĭÐ¹
ĠÐ¼ Ð¾Ðº
ĠÑĤ a
Ġn mf
ĠÑģÐµÐ¹ÑģÐ¼ Ð¾ÑģÑĤ
Ġq Ð½Ð°
Ġu b
ÐºÐ¾Ð» Ð¾Ð´ÐºÐ°
Ð°Ð´ Ð°
ĠÐ¾Ð´Ð½ Ð¾Ð±
01 3
Ġ17 50
ĠÑģÐ²ÐµÑĤ Ð¾ÑģÑĤÐ°Ð±Ð¸
Ð³Ð° Ð·
ĠÑĤÐµÑĢÐ¼Ð¾ÑĥÑģ Ð°Ð´Ð¾ÑĩÐ½ÑĭÐ¹
ĠÑĤÑĢÐµÑħ ÑĪÐ°ÑĢÐ¾ÑĪÐµÑĩÐ½ÑĭÐ¹
as h
ĠÐ¾Ð³ Ð¾Ð»Ð¾Ð²Ð¾Ðº
ĠÐ½ÐµÐ¾Ð± ÑĢÐµÐ·Ð½Ð¾Ð¹
49 44
Ð½Ð°Ñģ Ð°Ð´ÐºÐ°
Ð¾Ð¹ÑĩÐ¸Ð² Ð¾ÑģÑĤÑĮ
ĠÑģÐºÐ° Ð¼ÐµÐ¹ÐºÐ°
Ġ49 149890
ĠÐ±ÑĭÑģÑĤÑĢ Ð¾Ð´ÐµÐ¹ÑģÑĤÐ²ÑĥÑİÑīÐ¸Ð¹
ĠÐ²ÑħÑĪ ÑħÐ³
ĠÐ¼Ð½Ð¾Ð³Ð¾ÑĨ Ð²ÐµÑĤÐ½ÑĭÐ¹
ĠÑģÐ²ÐµÑĤÐ¾ÑģÑĤÐ°Ð±Ð¸ Ð»Ð¸Ð·Ð¸ÑĢÐ¾Ð²Ð°ÑĤÑĮ
h dz
Ð¾ ÑĦÐ¾ÑĢ
ÑĤ ÑıÐ³Ð°
Ð» ÐµÑĤ
00 95
Ð°ÑĤ ÑĭÐ¹
Ġd z
ĠÑĢ oper
12 3
ter fl
ĠÑģÐ°Ð¼Ð¾ ÑĥÐ¿Ð»Ð¾ÑĤÐ½
Ð¾ÑĢÑĤ Ð¸Ð²Ð½ÑĭÐ¹
Ġdo or
Ġsol ar
ÐºÐ¾ÑģÑĤ Ð½ÑĭÐ¹
ĠÑĢÐ¿ ÑĪ
Ð¾Ð½Ð°Ñģ Ð¾Ñģ
ÐºÐ°Ñĩ ÐºÐ°
ÑģÐºÐ° Ð¼ÑĮÑı
ĠÑĢÐ¾ÑģÑģ Ð¸Ñı
ÑĢÐµÐ²Ð¸Ð· Ð¸Ñı
ĠÐ¾ÑĦ Ð¸ÑģÐ½ÑĭÐ¹
Ġbut terfl
ĠÑģÐ´ÑĥÐ² ÐºÐ°
Ġdiffer ential
ĠÐ±ÐµÐ¶ ÐµÐ²ÑĭÐ¹
Ġbutterfl y
0 18
3 74
5 12
g ard
p v
Ð¸ Ð°Ð½
ĠÐº ÑģÐ¿
ĠÑĤ oper
Ð¾Ð½ ÑĩÐ°ÑĤÑĭÐ¹
ĠÑĢÐ° Ð²Ð½ÑĭÐ¹
Ġn g
ĠÑĢ ÑĢÐ°ÑģÑĩÐ°
Ñį Ð¾Ð½Ð³
ĠÐ²Ñĭ Ð½Ð¾Ñģ
Ġk r
ĠÐ´Ð²ÑĥÑħ ÑģÐµÐºÑĨÐ¸Ð¾Ð½Ð½ÑĭÐ¹
Ð³ÑĢ ÐµÑģÑģÐ¸Ð²Ð½ÑĭÐ¹
ĠÐºÐ¾Ð» ÐµÑģÐ¾
ĠÐ¾ÑĤÐº ÑĢÑĭÑĤÐ¸Ðµ
ĠÑĤÐµÑĢÐ¼Ð¾ÑĥÑģÐ°Ð¶ Ð¸Ð²Ð°Ð½Ð¸Ðµ
ĠÐºÐ¿ oÐ¿ÑįÐ½Ð³
ĠÑħÑĢÐ¾Ð¼ Ð¸ÑĢÐ¾Ð²Ð°Ð½Ð½ÑĭÐ¹
ĠÐ°Ð¼ ÑĢÐ°
ĠÐºÐ¾Ð¿ Ð°
Ġgas ket
ĠÐ½ÐµÐ° Ð³ÑĢÐµÑģÑģÐ¸Ð²Ð½ÑĭÐ¹
ĠÑĪÑĤÑĢ Ð¸Ð¿Ñģ
ÑĢÑĭÐ· Ð³
2 300
b ii
Ð½ ÑĢ
Ð» ÐµÑģ
Ð¼ Ð¸Ð°
Ð¼ Ð°Ð½Ð½ÑĭÐ¹
ĠÑģ Ð¿ÑĢ
ĠÐº ÐµÐ´ÑĢ
ĠÐ¿ Ð¾Ð¿
Ð´ Ð¾Ð±
ĠÑĤ ÑĥÐ¿
ĠÐ¿ÑĢ Ð¾Ð´ÑĥÐºÑĤ
ÑĦ Ð°
Ġs ens
Ð¾Ð· Ð¸ÑĤ
ĠÐ¾Ð± Ð»Ð°Ð´
ĠÑĢ ÐµÐ»
500 0
Ġ7 45
Ð¾Ð¶ Ð´
si t
Ġw ir
ĠÑĨ Ð¿
ĠÐ¼Ð° Ñħ
ĠÐºÐ»Ð¸ Ð¼Ð°ÑĤ
Ġk m
ĠÐ²Ð¾Ð´ Ð¾Ð¿ÑĢÐ¾Ð²Ð¾Ð´Ð½ÑĭÐ¹
ĠÐ¾Ð´Ð½ Ð¾Ð¼
ÐºÑĢÐ°Ð½ Ð¾Ð²ÑĭÐ¹
Ġmet er
ĠÐ¿Ð¾ÑĢ Ð¸ÑģÑĤÐ¾ÑģÑĤÑĮ
ĠÑģÑĤÐ°Ð½ Ð¾Ðº
ĠÑģÐº Ñĥ
Ð»Ñĥ Ð¿Ð°
ÑĢÐ°Ð· ÑĬÐµÐ´Ð¸Ð½Ð¸ÑĤÐµÐ»ÑĮ
ĠÐºÐ¿ Ð´
38 8
Ġdm Ñģ
Ġex cess
Ð¿Ð¾Ð´ ÑģÑĤÐ°Ð½ÑĨÐ¸Ñı
ĠÐ»Ð°ÑĤÑĥÐ½ ÑĮ
ĠÐºÐ°ÑĢ Ð¼Ð°Ð½Ð½ÑĭÐ¹
Ġacc or
Ġbol ts
ĠÑĢÐ¾Ð» Ð¸ÐºÐ¾Ð²ÑĭÐ¹
ĠÐ°ÑĢÐ°Ð¼ Ð¸Ð´Ð½ÑĭÐ¹
ĠÐ¼Ð¾Ðº ÑĢÑĭÐ¹
ĠÐ¾Ð±Ð»Ð°Ð´ Ð°ÑĤÑĮ
l i
Ð² Ð³
Ð· Ñģ
ĠÐ½ Ð¸Ð¿Ð¿
ĠÐ° Ð±Ð¾Ð½ÐµÐ½ÑĤ
ĠÐ³ Ð½ÐµÐ·
Ġc er
ĠÐ½Ð° Ð±Ð¾ÑĢÐ½ÑĭÐ¹
ĠÐ½Ð° ÑīÐµÐ»ÑĮÐ½Ð¸Ðº
Ġ5 74
Ġii ÑģÐµÐ¹ÑģÐ¼
ĠÑĦ ÑĢÐ°Ð¼
Ġh c
Ġ30 1
Ġ13 8
Ġca p
Ð¸Ð¶ Ð¸Ð»ÑĮÐ½ÑĭÐ¹
ĠÐ¾ÑģÑĤ ÑĢ
ĠÐºÐ´ Ð¼
ĠÐ¼Ð» Ñģ
ĠÐ¿Ð¸ÑĤ Ð°ÑĤÑĮ
ĠÐºÐ¼Ð¿Ð² ÑįÐ²ÑįÐ²Ð½Ð³
Ġhy dr
Ġkz o
ĠÑģÑĤÑĢÑĥÐºÑĤ ÑĥÑĢÐ°
Ġpan el
Ġcan tilever
k n
Ð½ ÐµÑĤÐºÐ°Ð½ÑĭÐ¹
ĠÑģ Ð¾Ð¼
ĠÐº Ð½Ð°
00 75
Ñĩ Ð¸ÑĤÑĮ
Ð± Ð¸ÑĤÑĥÐ¼
Ġ0 90
ÑĪ Ð»Ð¸ÑĦ
ĠÑĢÐ°Ð· Ð½ÑĭÐ¹
Ġ8 80
ĠÐ¿Ð¾Ð» ÑĮ
ĠÐ³Ð¾ÑĢ Ð¾Ð´
ÑĥÑĦ Ð°
ÑıÑĩ ÐµÐ¹ÐºÐ°
ĠÑģÐ¿ Ð¾ÑĢÑĤÐ¸Ð²Ð½ÑĭÐ¹
ĠÐ²Ð¾Ð´ Ð¾ÑģÑĤÐ¾Ð¹ÐºÐ¸Ð¹
200 6
70 6
ĠÐ±Ð° Ð¿
Ġ35 7
ÑĥÑģÑĤ Ð°
ĠÐ°Ð½ÑĤÐ¸ÐºÐ¾ÑĢÑĢÐ¾Ð· Ð°
ĠÑģÐ±Ð¾ÑĢ Ð¾ÑģÐ²Ð°ÑĢÐ¾ÑĩÐ½ÑĭÐ¹
05 1
ul ar
34 6
ÐºÐ¾Ð½ÑĤÑĢ Ð¾Ð»Ð»ÐµÑĢ
ĠÐ¿Ð¾Ð´Ð²Ð¾Ð´ Ð¸ÑĤÑĮ
ĠÑĦÐ¸ÐºÑģ Ð¸ÑĢÐ¾Ð²Ð°ÑĤÑĮ
Ġpri sma
ĠÐ¿ÑĢÐ¾Ð³ ÑĢÐ°Ð¼
sd uc
Ġvol t
465 969
Ġtran sduc
Ð¿ÑĢÐ¾ÑĦ Ð¸Ð»Ð¸ÑĢÐ¾Ð²Ð°ÑĤÑĮ
Ġbu il
Ġhv u
Ġhard top
ĠÐºÐ³ÑĢÑĥ Ð½Ð³
Ġsens or
ĠÐºÐ½Ð° ÑĥÑĦÐ°
o sion
u e
Ð½ Ð¸
Ðº ÑĢÐ°
Ð² Ð¸Ð´Ðµ
Ñı Ð¶Ð½ÑĭÐ¹
Ġ2 32
Ġ2 65
Ð¾Ð½ ÑĮ
Ġt Ð¼
Ġ6 45
ÐµÐ¿ ÑĤ
ĠÐ²Ñĭ ÑħÐ»Ð¾Ð¿
Ġ16 9
Ð»Ð¸Ñĩ ÐºÐ°
Ġ14 4
Ġma xl
ĠÐµ Ð°
ĠÑģÑĤÐµÐº Ð»Ð¾Ðº
Ġe merg
Ð¸Ð½ÑĤ ÐµÑĢ
ĠÐºÐ¿Ñģ ÑįÐ½Ð³
ĠÑĤÐµÑĢÐ¼ Ð¾Ñģ
Ġ57 62
Ġelectric al
Ġst ra
ÑģÐº Ð²Ð°Ð¶Ð¸Ð½Ð°
ĠÑĤÐ² ÐµÑĢ
as tic
ĠÐ¾Ð³ ÑĢÐ°Ð´Ð°
Ð¿Ð» Ð¾Ñģ
ĠÐ½ÐµÐ¿ Ð»Ð°ÑģÑĤ
Ð¾ÐºÐ¾Ð½ ÐµÑĩÐ½ÑĭÐ¹
ak t
Ġy Ð½
ĠÐ´Ð¾Ð± Ð¾ÑĢÐ½ÑĭÐ¹
Ð²Ð²Ð¾Ð´ Ð½ÑĭÐ¹
ĠÑĪÑĤÑĭÑĢ ÑĮ
ĠÑģÐ²ÐµÑĤÐ¾ ÑĦÐ¾ÑĢ
260 50
Ġkz a
ĠÐ³Ð°Ð»ÑĮ Ð²Ð°Ð½
Ð¾Ð¼Ð°ÑĤ ÐµÑĢÐ¸Ð°Ð»
Ġexpl osion
Ġrot ary
Ð°Ð´Ð° Ð¿ÑĤÐµÑĢ
ĠÑģÐ°Ð¼Ð¾ÑĥÐ¿Ð»Ð¾ÑĤÐ½ ÑıÑĤÑĮÑģÑı
ĠÐ½Ð¸Ð¿Ð¿ ÐµÐ»ÑĮÐ½ÑĭÐ¹
Ġemerg ency
h z
x i
ĠÑģ ÐµÐ½Ð´
Ð¿ Ð»Ð°Ð½
ÐµÐ½ Ð¾Ð²
ĠÐ´ Ñİ
ĠÐ± Ð°Ð½
ĠÑĥ Ð´ÐµÐ»ÑĮÐ½ÑĭÐ¹
ĠÐ· Ð¸Ð¿
Ġd Ñĥ
Ð¾Ñģ ÐµÑĤÐºÐ°
Ġn ÑĥÑģÑĤÐ°
001 1
Ġ16 50
Ð¾Ð³ Ð°Ð»Ð¾Ð³
Ġ14 7
19 7
Ġ13 40
37 74
ĠÑģÐ¾Ð¿ÑĢ ÑıÐ¶ÐµÐ½Ð¸Ðµ
ĠÐ¿Ð¾ÑĤ ÐµÐ½ÑĨ
ĠÐ³ÑĢ ÑıÐ·
ĠÑįÐº ÑģÑĤÑĢÐ°
Ð½Ð°Ñģ Ð¾ÑģÐ½ÑĭÐ¹
ĠÐ¿Ð¾Ð»Ð¸Ð¼ÐµÑĢ Ð±ÐµÑĤÐ¾Ð½Ð½ÑĭÐ¹
Ġdis k
ĠÐ±ÐµÐ·Ð¾Ð¿Ð°ÑģÐ½Ð¾Ñģ Ð¸ÑĤÑĮ
ĠÑģÑĤÐ¾ ÐµÑĩÐ½ÑĭÐ¹
ĠÑĦÐµÑĢ Ð¼Ð°
Ġspl it
ĠÐ¸Ð½ÑĤÐµÑĢÑĦÐµÐ¹ Ñģ
ĠÐ´Ð¾Ð· Ð°ÑĤÐ¾ÑĢ
plus f
ĠÐ³ÐµÐ¾Ñģ Ð¾ÑĤÐ¾Ð²ÑĭÐ¹
ĠÑĨÐ¸Ð½ÐºÐ¾Ð½Ð°Ð¿Ð¾Ð»Ð½ ÐµÐ½Ð½Ð°
Ġsign al
Ð¸Ð½Ð¸Ð»Ð° ÑĨÐµÑĤ
ĠÐ½ÐµÐ¿Ð»Ð°ÑģÑĤ Ð¸ÑĦÐ¸ÑĨÐ¸ÑĢÐ¾Ð²Ð°Ð½Ð½ÑĭÐ¹
ĠÑģÐµÐ½Ð´ Ð·
Ð¾Ð³Ð°Ð»Ð¾Ð³ ÐµÐ½Ð½ÑĭÐ¹
m pa
r j
ÑĢ Ð¸ÑĤÐ½ÑĭÐ¹
ĠÐ¿ ÑıÑĤ
Ð¾ÑĢ Ð¾ÑģÐ¸ÑĤÐµÐ»ÑĮ
ĠÑĤ ÑĢÐ°ÑģÑĩÐ°
Ñħ ÑĤÐ°
ĠÐ± ÑĥÑħ
ĠÐ³ Ð¿
Ġc ÑħÐµÐ¼Ð°
ĠÐ½Ð° Ñĩ
Ġm w
Ġ9 9007
Ð½Ð° Ð±
Ð¸Ð· Ð¸ÑĢÐ¾Ð²Ð°Ð½Ð½ÑĭÐ¹
ĠÑĢ f
ĠÐ²Ñĭ ÐºÐ°ÑĤ
Ġ50 5
25 7
Ġty pl
od y
ĠÐ¿Ð° ÐºÐµÑĤÐ½ÑĭÐ¹
ĠÐ±Ð° ÑĪÐµÐ½Ð½ÑĭÐ¹
ar ge
ĠÐ±Ð°Ð·Ð°Ð»ÑĮ ÑĤ
Ð¿Ð¾Ð´ ÑĬÑĳÐ¼
ĠÐºÑĥÐ¿ Ð»ÑĭÐ¹
ĠÐ¿ÑĢÐ¾ÑĤ ÑıÐ¶Ð½ÑĭÐ¹
ĠÐ°ÐºÑĢÐ¸Ð» Ð°ÑĤÐ½ÑĭÐ¹
Ġrs k
ĠÐ¼ÐºÑĢ Ñģ
Ġmain s
ĠÐ¿ÑĢÐ¾ÑĤÐ¸Ð²Ð¾Ð´ Ð°Ð²Ð»ÐµÐ½Ð¸Ðµ
ÑĢÐ°ÑģÑħÐ¾Ð´ Ð¾Ð¼ÐµÑĢ
ĠÑĤÐµÐ¿Ð»Ð¾Ñģ ÐµÑĤÑĮ
Ġgc v
Ġthre ad
Ġrecirc ulation
ĠÐ¿Ð¾Ð»ÑĮ Ð·
Ġbuil ding
ĠÐ²ÑĭÐºÐ°ÑĤ Ð½Ð¾Ð¹
d ed
h u
ĠÑģ Ð¸Ð½
Ñĥ ÐºÐ¾Ð²ÑĭÐ¹
ĠÐ´ Ð¾Ð¶Ð´
ĠÐ² ÑĢÐµÐ·Ð½Ð¾Ð¹
Ð¾ÑĢ ÑĥÑĦ
ĠÐ¸Ð· Ð¾Ð»
Ġ0 1009
ĠÐ· Ð¾Ð½Ð´
Ġt Ð¼Ð°ÐºÑģ
ĠÐ¾Ð± Ð»ÐµÐ³
Ð¼Ð°ÑĤ ÑĢ
Ð¾Ñģ Ð¾Ð´ÐµÑĢÐ¶Ð°ÑĤÑĮ
ĠÐ¾Ð¿ Ð¿
Ġw x
Ġl g
15 8
Ð¸Ð¼ Ð¸ÑĢ
Ġ11 90
ĠÐ±Ð° ÑĪÐ¼Ð°Ðº
Ġmax imum
Ġbe ar
ĠÐ¸Ð½ ÑĬ
Ġwater bar
ÑĳÐ½ Ð½Ð¾ÑģÑĤÑĮ
ĠÐºÐ¾Ð¼Ð¼ÑĥÑĤÐ° ÑĨÐ¸Ñı
Ġgl o
Ġstand ard
ĠÐ¿ÑĢÐ° Ð¹
ĠÐ²ÐµÑĢ Ð¾ÑģÐ°
ĠÐºÐ¾Ð½ÑĨÐµÐ½ÑĤÑĢ Ð°ÑĤ
ĠÑĤÐµÐºÑģÑĤ Ð¸Ð»ÑĮÐ½ÑĭÐ¹
Ð±ÐµÑģ ÐµÐ´ÐºÐ°
Ġnum ber
ĠÐºÐ°ÑĢÐ½Ð¸Ð· Ð½ÑĭÐ¹
ĠÑģÐµÐ½Ð´Ð· Ð¸Ð¼Ð¸ÑĢ
ĠÐ±ÑĥÑħ ÑĤÐ°
ĠÐ¾Ð±Ð»ÐµÐ³ ÑĩÐ¸ÑĤÑĮ
1 16
g o
s f
Ð² Ðº
Ð°ÑĤ ÐºÐ°
Ġ1 160
Ð¾Ð½ Ð¸ÑĤÐ¾Ð²ÑĭÐ¹
Ġ4 182
ĠÐ· Ð²ÐµÐ½Ð¾
Ġi ÑĥÑĤ
Ġb ody
ĠÑįÐ»ÐµÐºÑĤÑĢ Ð¾Ð¿
ĠÐ¾Ð¿ Ð±
si ya
it or
Ġ90 âģ°
ĠÐ´Ð²ÑĥÑħ Ð»
ĠÐºÐ¾Ð» Ð¾Ð´ÐºÐ°
Ġ19 2
Ġ19 7
ĠÑĤÐµÑĢÐ¼ Ð¸ÑĤÐ½ÑĭÐ¹
Ġfl at
ÑĥÑĩ Ð½ÑĭÐ¹
ÐµÐ¹Ð½ ÐµÑĢ
ÑģÐ²ÐµÑĤ Ð¾ÑĦÐ¾ÑĢ
ĠÑģÐ²Ð¾Ð± Ð¾Ð´
Ð¿Ð» Ð¸Ð½ÑĤ
Ð¼ÐµÑģÑĤ Ð¸ÑĤÑĮ
ĠÐºÐ¾Ð¼Ð¿Ð»ÐµÐº Ñģ
Ġiv b
Ġgr ating
Ð¿ÐºÐ²ÐºÑĤ Ð½Ð³
Ġred akt
Ġ340 28
ĠÑģÐºÐ²Ð¾Ð· ÑĮ
Ġfi ghting
Ġcoup ling
ĠÐºÐ¾Ð· ÑĭÑĢ
Ġmon itor
ĠÐ¾Ð»Ð¾Ð² ÑıÐ½Ð½ÑĭÐ¹
Ġwir ed
Ġvolt age
Ġredakt siya
d v
ĠÑģ ÑĢÐ¾
Ð¿ Ð³
Ð¿ ÑĢÐ°Ð¹
ĠÐº ÐºÑģ
ĠÐ´ Ð°Ð½
Ð± Ð°ÑĤ
Ð°Ð½ ÑĨÐ¸Ñı
Ð¾Ñĩ ÐµÑĢÐµÐ¿Ð¸ÑĨÐ°
Ġp design
ĠÐ¼ÐµÑĤÐ°Ð»Ð» Ð¾Ð³Ð°Ð»Ð¾Ð³ÐµÐ½Ð½ÑĭÐ¹
ĠÐ¿Ð¾Ð´ Ð¿
ĠÐ¿Ð¾Ð´ ÐºÑĢÐ°Ð½Ð¾Ð²ÑĭÐ¹
Ð¾Ð³ ÑĢ
Ġu s
12 6
ĠÑĤÑĢ Ð¾Ð»
ĠÑĤÑĢ ÑĳÑħÑģÐ»Ð¾Ð¹Ð½ÑĭÐ¹
Ġma ch
Ġre s
22 8
ĠÑįÐ¿ Ð¿
Ġac bc
21 20
ĠÐºÐ¾Ð½ÑĤÐ°ÐºÑĤ Ð¾ÑĢ
ĠÐºÐ¾Ð² ÐºÐ¸Ð¹
ĠÐ¾ÑĢ Ð³
ĠÐ°Ð¼ Ð³
Ð²ÐµÑĢ Ð´Ð¸ÑĤÐµÐ»ÑĮ
Ġpo t
ĠÑĪÐ»Ð¸ÑĦ Ð¾Ð²Ð°Ð»ÑĮÐ½ÑĭÐ¹
ÑģÑĤÑĥÐ¿ ÐµÐ½ÑĮ
ÐºÐ°Ð» Ð¾ÑĢÐ¸ÑĦÐµÑĢ
ĠÐ¸Ð·Ð²ÐµÑģÑĤÐ½Ñı Ðº
ĠÐ±Ð¾ÑĢ Ð¾ÑģÐ¾Ð´ÐµÑĢÐ¶Ð°ÑĤÑĮ
ĠÑĢÐµÑģ Ð¿
ĠÑĥÐ¿ÑĢ Ð¾ÑĩÐ½
ĠÐ³ÐµÐ¾ ÑıÑĩÐµÐ¹ÐºÐ°
ĠÐ¿Ð¾ÑĤÐµÐ½ÑĨ Ð¸Ð°Ð»
0 65
f b
x x
Ñĩ Ð¸ÑĤÐ°ÑĤÑĮ
Ð°ÑĤ ÑĢ
Ð¾ÑĢ Ð¾Ð´
Ð¾ÑģÑĤ Ð½ÑĭÐ¹
ĠÐ³ ÐºÐ»
Ġ0 60
Ġs y
Ġs ec
ÐµÐ³ Ð°ÑİÑīÐ¸Ð¹
ĠÐ·Ð° ÐºÑĢ
ĠÐºÐ°ÑĤ ÑĥÑĪÐºÐ°
Ġ9 000
Ġf ix
Ð»ÐµÑĢ Ð°
ĠÑģÐµÐ¹ÑģÐ¼Ð¾ÑģÑĤÐ¾Ð¹ ÐºÐ¾Ð¹
000 7
Ġw i
Ġw y
ĠÐ´Ð² Ð¸Ð¶ÐµÐ½Ð¸Ðµ
ĠÑĨ ÐµÐ½Ð°
in er
30 27
um da
ĠÑĢÐ°Ñģ ÑħÐ¾Ð»
ĠÑĤÐ¾Ð½ Ð½Ð°
Ð°Ð» Ð¸ÑĤÑĮ
Ġ13 9
Ġak umda
Ð°Ð¶ Ð¸Ð²Ð°Ð½Ð¸Ðµ
Ġpro f
ĠÐºÐ¿ Ð³
Ġwa s
38 3
Ġz h
Ġ55 8
Ġshut ter
Ġsi de
Ġ87 33
265 26
ĠÐ¾Ð¿Ð° Ð»Ð¾Ð²ÑĭÐ¹
ĠÐ¿ÑĢÐ¾Ð¿ ÑĥÑģÐºÐ½Ð¾Ð¹
Ġam n
Ġpol ar
Ð°Ð¹ Ð·ÐµÑĢ
Ġbasi k
Ð±ÐµÑĢ ÐµÐ³Ð°ÑİÑīÐ¸Ð¹
Ð¾Ð³ÑĢÐ°ÑĦ Ð¸ÑĩÐµÑģÐºÐ¸Ð¹
ĠÐ°ÑįÑĢÐ¾Ð· Ð¾Ð»ÑĮÐ½ÑĭÐ¹
ĠÐ³ÑĢÐ°Ð² Ð¸Ð¹Ð½ÑĭÐ¹
Ð¿ÑĢÐ°Ð¹ Ð¼ÐµÑĢÐ°
ĠÑģÐµÐ¹ÑģÐ¼Ð¾ÑģÑĤÐ¾Ð¹ÐºÐ¾Ð¹ ÑģÑĤÑĮ
ĠÑĢÐ°ÑģÑħÐ¾Ð» Ð°Ð¶Ð¸Ð²Ð°Ð½Ð¸Ðµ
6 80
ÑĤ ÑĢÐ°Ð»ÑĮÐ½ÑĭÐ¹
Ð´ Ð¸ÑĤÑĮ
00 9
Ġ1 117
Ð¾ÑģÑĤ Ð°Ð½ÑĨÐ¸Ñı
Ð¸Ñı Ð¼Ð¾Ðº
Ġc Ñħl
Ð¾ÑĤ Ð²ÐµÑĢÐ´Ð¸ÑĤÐµÐ»ÑĮ
ĠÐ¾Ð± ÐµÐ·
Ð»Ð¸ ÐºÐ°
te x
ĠÐ¿Ð¾Ð» ÑĥÑģ
in der
100 29
Ġk b
ĠÐ·Ð°Ð¿ ÑĢÐ°Ð²Ð¸ÑĤÑĮ
ĠÑĪÐ²ÐµÐ»Ð»ÐµÑĢ Ð½ÑĭÐ¹
Ð¸Ð²Ð° ÑİÑīÐ¸Ð¹
Ġmo sa
Ð¾ÑĦ Ð¸Ð»ÑĮÐ½ÑĭÐ¹
ĠÐ°Ð¼ Ð¾ÑĢÑĤÐ¸Ð·Ð°ÑĨÐ¸Ñı
ÑĥÐ± Ð»Ð¸ÐºÐ°
ĠÐ²ÑĭÑĤ ÑıÐ¶ÐºÐ°
Ġic u
ĠÑģÐ²ÐµÑĢÑħ Ð³Ð¸Ð±ÐºÐ¸Ð¹
ĠÑįÐºÑģÐ¿Ð»ÑĥÐ°ÑĤÐ° ÑĨÐ¸Ð¾Ð½Ð½ÑĭÐ¹
ÑĢÐ°Ð²Ð½ Ð¸Ð²Ð°Ð½Ð¸Ðµ
ĠÐ°Ð± ÑĢÐ°Ð·
ĠÐ¼Ð°Ñĩ ÑĤÐ°
ÑģÐºÐ¾ÑĢ Ð»ÑĥÐ¿Ð°
Ð¿Ð»Ð°Ð½ Ðº
ĠÑĢÐµÑģÐ¿ ÑĥÐ±Ð»Ð¸ÐºÐ°
4 80
6 10
Ñģ ÐµÑĥ
Ð¿ Ð¾Ð´Ñĥ
ĠÐº Ð²Ð¾
ĠÐ² ÐºÐ¿
ĠÑĤ Ð¾
ĠÑĤ Ñį
Ð¾ÑģÑĤ Ð½Ð¾Ð¹
ĠÐ¿ÑĢ Ð¸ÑıÐ¼Ð¾Ðº
ĠÐ· ÑĢ
Ġm r
ĠÐ¾ÑĤ Ð±Ð¾ÑĢ
ĠÐ½Ðµ Ð±
ĠÐ²Ñĭ Ð»ÐµÑĤ
ĠÐ¾Ð´ ÐµÐ¶Ð´Ð°
18 6
15 6
Ġop ti
Ġk e
ĠÑĥÑģÑĤ Ð¾Ð¹ÑĩÐ¸Ð²Ð¾ÑģÑĤÑĮ
Ð¸ÑĤÐ° ÑĢÐ½ÑĭÐ¹
ĠÑģÐ» Ð¸Ð²
Ġ13 20
ĠÐºÐ°Ð½ Ð°ÑĤ
Ġind ic
ĠÑĦÐ°Ð»ÑĮ ÑĪ
Ġmaster flow
ĠÑĦÐ° ÐºÑĤ
ÐºÐ¾Ð² Ð¸Ð½Ð°
Ġhd pe
ÑĥÐ¿Ð»Ð¾ÑĤ Ð½Ð¸ÑĤÐµÐ»ÑĮ
Ġanchor s
ĠÐ¿ÐµÑĢÐµÑĤ Ð¾ÑĩÐ½ÑĭÐ¹
Ð¿Ð¾Ð»Ð¸ Ð¼ÐµÑĢÐ½ÑĭÐ¹
Ð¸Ð½Ð¸Ð»Ð°ÑĨÐµÑĤ Ð°ÑĤÐ½ÑĭÐ¹
ĠÐ¿Ð¾Ð»ÑĮÐ· Ð¾Ð²Ð°Ð½Ð¸Ðµ
ĠÐ¸Ð½ÑĬ ÐµÐºÑĨÐ¸Ð¾Ð½Ð½ÑĭÐ¹
Ġmonitor ing
Ġpot ash
Ð¿Ð¾Ð´Ñĥ ÑĪÐºÐ°
6 12
d ow
ÑĤ ÐµÑħ
Ðº ÑĨÐ¸Ð¾Ð½Ð°Ð»ÑĮÐ½ÑĭÐ¹
ĠÐ¼ ÑĤ
ĠÐ¼ Ð¾ÑģÑĤÐ¾Ð²
ĠÐ² ÑģÐº
ĠÑĤ Ð»
ĠÐ¿ÑĢ Ð¾ÑĩÐ¸ÑģÑĤÐºÐ°
Ð¾Ð¿ Ð°
Ġ4 12
Ġ0 30
Ð½Ð¾ÑģÑĤÑĮ Ñİ
Ġi Ð´Ð¸Ð½
Ġt it
Ð½Ð° Ð±Ð¾ÑĢ
or rosion
ĠÐ¿Ð¾Ð» Ð½Ð¾ÑģÑĤÑĮÑİ
Ġq u
Ġ7 73
Ġ12 25
Ġ16 3
ĠÐ³ÑĢÑĥ Ð½
ĠÐ´Ð» Ð¸Ð½
ĠÐ°Ð½ Ð³Ð°ÑĢ
Ġ14 1
Ġmp Ð°
13 25
Ġch ar
27 9
Ġ001 6
ĠÐ¾Ð³ Ð¾Ð½ÑĮ
ĠÐºÐ²Ð² Ð³
ĠÑįÐº Ð²
Ġj ng
ta ble
Ġ102 19
ĠÐ¿Ð¾Ð´Ð²Ð¾Ð´ ÐºÐ°
ĠÑĤÐ°Ð± Ð»Ð¾
ĠÑĤÐ°Ð± Ð»Ð¸ÑĩÐºÐ°
ĠÑĥÐ· Ðº
ĠÑĢÐµÐ± ÑĢÐ¸ÑģÑĤÑĭÐ¹
Ġri ght
Ð¾ÐºÐ°Ð» Ð¾ÑĢÐ¸ÑĦÐµÑĢ
ĠÐ¼Ð½Ð¾Ð³Ð¾Ð¼Ð¾Ð´ Ð¾Ð²
ÑĪÑĤÐ° Ð½Ð³Ð°
Ġroom s
ĠÐ¾ÑģÑĤÑĢ Ð¾ÐºÐ¾Ð½ÐµÑĩÐ½ÑĭÐ¹
ĠÐ¿ÑĢÐ°Ð¹ Ð¼ÐµÑĢÐ°
ĠÐ´Ð²ÑĥÑħÐ» Ð¾Ð¿Ð°ÑģÑĤÐ½ÑĭÐ¹
ĠÐ°Ð½Ð³Ð°ÑĢ ÑģÐºÐ¸Ð¹
0 55
Ð½ Ð¿
Ð½ Ð°ÑĤÐ½ÑĭÐ¹
Ð¼ Ð°ÑĢ
Ð¼ Ð²Ð°
ĠÑģ Ð¾Ð¿Ð¾Ð»Ð¸Ð¼ÐµÑĢ
Ð¿ Ð°ÑĢ
ĠÐº Ð¾Ð³
ĠÐ´ ÐµÐ²
Ġ2 91
Ð°Ñģ Ð»Ð¾
Ð¸ÑģÑĤ Ð¾ÑĢ
Ġd g
Ġ6 80
ĠÑĦ Ð¸Ð³
Ġn on
ÐµÑģÑĤ Ð½ÑĭÐ¹
Ð¸Ðº ÑĨÐ¸Ð¾Ð½Ð½ÑĭÐ¹
ĠÐ¿Ð¾Ð» ÑĥÑĩ
Ġh kd
ĠÐ¿Ð¾Ðº ÑĢÐ°ÑģÐºÐ°
ĠÐºÐ¾Ð¼Ð¿ Ð¾Ð·Ð¸ÑĨÐ¸Ð¾Ð½Ð½ÑĭÐ¹
ĠÐºÑĢÑĥ ÑĤÐ¸ÑĤÑĮ
ic a
Ð»Ð°ÑģÑĤ Ð¸Ðº
Ġ01 3
Ð¸ÑģÐ» ÑĭÐ¹
Ġth m
ÑĥÑĩ ÐµÐ½ÑĮ
ĠÑģÑĢÐ°Ð± Ð°ÑĤÑĭÐ²Ð°Ð½Ð¸Ðµ
ul ic
Ð¾Ð»Ð° Ð³
Ġro of
Ġind oor
ĠÐ¶Ð¸Ð´ ÐºÐ¾ÑģÑĤÐ½ÑĭÐ¹
ĠÑģÐ°Ð½ Ð¸ÑĤÐ°ÑĢÐ½ÑĭÐ¹
Ð¾Ð¿Ð¾Ð³ Ð»Ð¾Ñī
ĠÑįÐ¼ ÑĥÐ»ÑĮÑģ
ĠÐ´ÑĭÐ¼Ð¾Ð³Ð°Ð· Ð¾Ð²ÑĭÐ´ÐµÐ»ÐµÐ½Ð¸Ðµ
Ġhydra ulic
Ð¼Ð¸Ð° Ðº
3774 30
Ġmosa ic
ĠÐ¼Ð¾ÑģÑĤÐ¾Ð² Ð°Ñı
Ġtit an
m on
t l
Ð¼ ÑĪÐ°
ÑģÑĤ ÑĥÐ»
Ð´ Ð±
00 35
ÐµÑĢ Ð»Ð¸ÑĤÑĮ
ĠÐ½ ÐµÑĤ
ĠÑĤ Ð¾ÑĩÐºÐ°
Ġ2 95
Ð¾ÑģÑĤ ÐµÐºÐ»Ð¾
ĠÐ± Ð·
Ġ3 65
Ġm d
ĠÑĪ Ð»
ĠÑĢÐ°Ð· Ð±Ð¾ÑĢ
ĠÑĥÐ³ Ð»ÐµÑĢÐ°
Ġ8 21
Ġ10 25
Ġ10 70
ĠÐ¿Ð¾Ð» Ð¸ÑĤ
Ð¾Ð¿ÑĢ Ð¾ÑĦÐ¸Ð»ÑĮÐ½ÑĭÐ¹
001 4
001 21
Ð½Ð¾ ÑįÐ»Ð°ÑģÑĤ
ĠÐ¾Ð³Ð½ ÐµÑĤÑĥÑĪÐ¸ÑĤÐµÐ»ÑĮ
ĠÑģÐ¸Ð» Ð¾ÑĤÐµÑĢÐ¼Ñĭ
ĠÑĢÐ°Ð·Ð¼Ðµ ÑĤÐºÐ°
Ġ80 5
Ġ01 7
Ð¾ÑĤÐºÐ° Ð½ÐµÐ²ÑĭÐ¹
Ġel k
ÑĤÐ°ÐºÑĤ Ð½ÑĭÐ¹
ĠÑĤÐµÑħÐ½ Ð¾ÑĢÑĥÑĦ
ul ated
ĠÐ¾ÑĢÐ³Ð°Ð½ Ð°Ð¹Ð·ÐµÑĢ
ĠÐ²Ð° Ð³
Ð¾Ð²Ð¾Ð»Ð¾Ðº Ð¾Ð½Ð½ÑĭÐ¹
Ð¾ÑĨ Ð¸Ð°Ð½
Ġhr d
ĠÐ»Ð¸Ð¿ ÐºÐ¸Ð¹
ĠÐ»Ð¾Ðº Ð°Ð»ÑĮÐ½ÑĭÐ¹
ĠÐ¿ÐµÑĢÐµÐ¿Ð» ÑĳÑĤ
ĠÐ´Ð¸ÑĦÑĦÑĥÐ· Ð¸Ñı
ĠÑģÐ¾Ð» ÐµÐ½Ð¾
ĠÐ³Ð½ÐµÐ· Ð´Ð¾
Ġ1117 1325
b el
n et
ĠÑģ ÐµÐ³Ð¼ÐµÐ½ÑĤ
Ð¿ Ð¾Ñģ
ÑĢÐ° Ð¶ÐµÐ½Ð¸Ðµ
ĠÐ² Ð¸Ð½
Ġ9 28
Ð¾Ñģ Ð±ÐµÑĢÐµÐ³Ð°ÑİÑīÐ¸Ð¹
Ġn ikomax
Ġ8 60
Ġ7 40
Ġ7 14
ĠÐ´Ð² Ð²
12 27
14 10
Ġre vision
Ð¿Ð¾Ð» ÐºÐ°
ĠÑī ÑĢ
ĠÑĥÐ´ Ð°Ð»Ð¸ÑĤÑĮ
Ð¾ÑĪ Ð¾Ðº
ĠÐ¿Ð¾Ð»Ð¸Ð² Ð¸Ð½Ð¸Ð»Ð°ÑĨÐµÑĤÐ°ÑĤÐ½ÑĭÐ¹
Ġto tal
Ġac cess
ÐµÑģÑģ ÑĥÐ°ÑĢ
ĠÐ¾Ð¿ÑĤ Ð¾Ð²Ð¾Ð»Ð¾ÐºÐ¾Ð½Ð½ÑĭÐ¹
Ġex ting
ĠÑģÐ¾Ð³ Ð»ÑĭÐ¹
ĠÑģÑĤÑĢÑĥ Ð¹Ð½ÑĭÐ¹
ĠÐ²Ð¸Ð» ÐºÐ°
Ġbar tec
ĠÑįÐ½ÐµÑĢÐ³ Ð¾ÑģÐ±ÐµÑĢÐµÐ³Ð°ÑİÑīÐ¸Ð¹
vr f
ĠÑĦÑĥÑĤÐµÑĢ Ð¾Ð²ÐºÐ°
Ð¾ÑĢÐ°ÑģÐ¿ ÑĢÐµÐ´ÐµÐ»Ð¸ÑĤÐµÐ»ÑĮ
ĠÐ¸Ð½ÑģÑĤÑĢÑĥ Ð¼ÐµÐ½ÑĤ
ĠÑĤÐ¾Ñĩ ÐµÑĩÐ½ÑĭÐ¹
Ġfv f
ÑĤÐµÑħ Ð½Ð¾ÑįÐ»Ð°ÑģÑĤ
9 120
o u
z ed
Ð² Ð¸ÑĤ
Ñı Ðº
Ð¾Ð² Ð°ÑĢ
ĠÐ´ Ð¿Ñģ
Ġ2 24
ĠÐ± Ð°Ñģ
Ġm ix
ĠÐ·Ð° ÐºÐ»ÑĳÐ¿ÐºÐ°
ĠÐ¾ÑĤ Ð´ÐµÐ»
ĠÐ» Ñĥ
ĠÐ¿ÑĢÐ¸ Ð¼Ð°
Ð¼ÐµÑĢ ÑĩÐµÑģÐºÐ¸Ð¹
Ġb und
ro gen
ÑĨÐµÐ² Ð¸Ð´Ð½ÑĭÐ¹
Ð²Ð¾Ð´ Ð½ÑĭÐ¹
14 3
Ġ13 7
ĠÐ°Ð½ÑĤ ÐµÐ½Ð½Ð°
Ġ22 8
ĠÑĤÑĢÐ° Ð¼Ð²Ð°
Ġen d
us hing
ÑĪÐ¿ Ð°ÑĤÐ»ÑĳÐ²ÐºÐ°
ĠÑĤÐµÐ»Ðµ ÑĦÐ¾Ð½
Ġ87 3027
Ġse w
ĠÐºÑĢÐ¸Ð² Ð¾Ð»Ð¸Ð½ÐµÐ¹Ð½ÑĭÐ¹
Ġstand ar
Ð»ÐµÐ¹ Ð±
Ġpol y
ĠÑĤÐ¿ Ð²Ð½Ð³
ĠÑģÐ¼Ðµ ÑĪÐµÐ½Ð¸Ðµ
ĠÐ°Ð´Ð³ÐµÐ· Ð¸Ñı
ĠÐ¾Ð´Ð½Ð¾Ð»Ð° Ð¿ÐºÐ¾Ð²ÑĭÑı
ĠÑĢÑĭ ÑĩÐ°
ĠÑĤÐµÑĢÐ¼Ð¾ÑĢÐ°Ð´Ð¸Ð° ÑĨÐ¸Ð¾Ð½Ð½Ð¾ÑģÑĤÐ¾Ð¹ÐºÐ¸Ð¹
ĠÐ°ÐºÑģ ÐµÑģÑģÑĥÐ°ÑĢ
ĠÐ¾Ð´Ð½Ð¾Ð¼ ÐµÑģÑĤÐ½ÑĭÐ¹
Ġhydr ate
ĠÐ³ÑĢÑĥÐ½ ÑĤÐ¾Ð²ÑĭÐ¹
Ġbund le
Ġ873027 29
f or
i v
w a
Ð¹ Ð¼
ĠÐ¼ Ð¾
ĠÐ¿ Ñĭ
ĠÐ¼Ð¼ Ð¼
Ð¾Ð¿ Ð¾ÑĢ
Ġ3 400
Ð¸Ñĩ Ð½ÐµÐ²ÑĭÐ¹
ĠÐ¾Ð± ÑĢÐ°Ð·
Ġ6 500
ĠÑĪ Ð¿ÑĢÐ¸
ĠÑĢ Ð¾Ð´
20 6
ÑħÐ¾Ð´ Ð¾Ð²ÑĭÐ¹
Ġv v
ĠÐ¿Ð» ÐµÑĩ
ĠÑĥÐ¿ Ð»
Ġl b
ĠÐºÐ¾ÑĢ Ð¸ÑĩÐ½ÐµÐ²ÑĭÐ¹
Ð¾Ð²Ñĭ ÑĢÐ°Ð²Ð½
Ġk c
ÐµÑĪ Ð½Ð¸ÑĨÐ°
ĠÐ·Ð°Ð¼ ÑĭÐºÐ°ÑĤÑĮ
Ġe h
13 7
Ġ35 8
Ġco p
ĠÑģÑĤÐµÐºÐ»Ð¾Ð¿ Ð»Ð°ÑģÑĤÐ¸Ðº
Ġ02 10
ĠÐ¾ÑģÑĤ Ð°Ð½Ð¾Ð²ÐºÐ°
Ġ69 37
Ġcable s
ĠÐºÑĥÐ¿ ÑįÑĦÐ¿Ð¼Ð½Ð³
is hing
ĠÑĦÑĢ Ð¸ÐºÑĨÐ¸Ð¾Ð½Ð½ÑĭÐ¹
ĠÐ½ÐµÐ¹ ÑĤÑĢÐ°Ð»ÑĮÐ½ÑĭÐ¹
Ġtra y
ĠÑģÐºÐ¾Ð± ÑıÐ½Ð¾Ð¹
ĠÐºÐ»Ð¸Ð¼Ð°ÑĤ Ð¸Ñĩ
ĠÑģÐ²Ð¾Ð±Ð¾Ð´ Ð½Ð¾ÑģÑĤÐ¾ÑıÑīÐ¸Ð¹
ĠÑĤÑĢÐ¾Ð» Ð»ÐµÐ¹Ð±
ĠÑĦÐ°Ð»ÑĮÑĪ Ð¿Ð¾Ð»
ĠÐ¿Ð¾Ð»Ð¸ÑĤ Ð¾Ð½
ĠÑĪÐ¿ÑĢÐ¸ ÑĨÐµÐ²Ð¸Ð´Ð½ÑĭÐ¹
v y
Ð¸ Ð¾ÑĤÐµÑĢÐ¼Ñĭ
ĠÐ¼ ÑĥÑģ
Ð¾Ð² Ð¾Ð»ÑĮÑĤÐ½ÑĭÐ¹
ĠÐ´ ÐµÐ»Ð¸ÑĤÐµÐ»ÑĮ
ĠÐ¸ Ð±Ð¿
Ð¾Ð¿ Ð½ÑĭÐ¹
ĠÐ° ÐºÐ°
ĠÐ± ÐµÑĤÐ°
Ġc Ð³
ÑĪ Ð»Ð°Ð¼
Ð¸ÑģÑĤ Ð°
Ġd f
Ġt b
ĠÐ» Ð±
Ð°Ð² Ð¸Ñģ
ĠÑĦ ÑĥÐ·
20 16
ĠÑįÐ»ÐµÐºÑĤÑĢ Ð¾ÐºÐ°Ð»Ð¾ÑĢÐ¸ÑĦÐµÑĢ
Ġg id
ter is
ĠÐ°Ð½ÑĤ Ð¸ÑģÑĤ
ĠÐ²ÑĭÑģÐ¾Ðº Ð¾Ð²Ð¾Ð»ÑĮÑĤÐ½ÑĭÐ¹
Ġta p
ac teris
29 1
77 654
Ġho t
ĠÑģÐ°Ð½ ÑĤ
ĠÑĦÑĥÑĤ Ð»ÑıÑĢ
Ġser vice
ĠÐ²Ð¾Ñģ ÑģÑĤÐ°Ð½
Ġ227 20
ĠÐ¿ÑĢÐ¸ÑģÑĤ Ð°Ð²Ð½Ð¾Ð¹
ĠÑĦÑĢÐµ Ð¾Ð½
Ġul t
Ð¸ÑģÐ¿ ÑĭÑĤÐ°Ð½Ð¸Ðµ
Ġ348 77654
ĠiÑĥÑĤ ÐµÑĩÐ°
Ġchar acteris
Ġexting u
Ġcop per
ĠÑĦÑĥÐ· Ð¸Ð¾ÑĤÐµÑĢÐ¼Ñĭ
Ġcharacteris tic
0 45
2 36
a x
m i
ĠÐ¼ Ð¾Ð±Ð¸Ð»ÑĮÐ½ÑĭÐ¹
ĠÐº ÑĢÐ°Ð¹
ÐµÐ½ Ñĩ
ĠÑĤ Ð¸Ðº
Ð»Ð° Ð³
Ġm g
Ġ6 65
Ð½Ð° Ð»
Ð»Ð¸ ÑĦÑĤ
Ġo t
ĠÐºÐ¾Ð¼ Ð¼ÐµÑĢÑĩÐµÑģÐºÐ¸Ð¹
ĠÐ½Ð¿ Ð¾
Ġk ÑĥÐ¿
12 7
Ġ14 254
Ġ45 8
ĠÑģÐº Ð¾Ñģ
Ġ28 5
Ġ28 7
ĠÑģÐ¿ÐµÑĨ Ð¸ÑĦ
ĠÑĨÐ²ÐµÑĤ Ð¾Ð²Ð¾Ð¹
ĠÐ¼Ð½Ð¾Ð³ Ð¾Ð¶Ð¸Ð»ÑĮÐ½ÑĭÐ¹
Ġho ur
em b
ĠÑģÐ²ÐµÑĤÐ¾ Ð¾ÑĤÑĢÐ°Ð¶Ð°ÑİÑīÐ¸Ð¹
ĠÐ¾Ð±ÑĢÐµÐ· Ð¸Ð½
ĠÑįÐ½ÐµÑĢÐ³ Ð¸Ñı
rol ica
ÐµÐ»Ð¸ÑĢÐ¾Ð² Ð°Ð½Ð¸Ðµ
ĠÑĥÐ´Ð°ÑĢ Ð¾Ð¿ÑĢÐ¾ÑĩÐ½ÑĭÐ¹
Ð±Ð°ÑĤ Ð°ÑĢÐµÑı
ĠÑĢÐ¾Ð´ Ð¸ÑĤÑĮÑģÑı
Ġgid rolica
Ġextingu ishing
a st
f ix
t d
Ð½ Ð¾Ðº
Ð¿ Ð°Ñģ
ĠÐº Ð¾ÑģÑĤÑĮ
Ð´ Ð¸
ĠÐ´ ÐºÑĥ
Ġd d
Ġt ec
ĠÐ» Ð¾ÐºÐ°
Ñĳ ÑģÑĤ
ĠÑĢ Ð¸Ñģ
ÐºÐ»Ð°Ð´ Ð¾ÑĩÐ½ÑĭÐ¹
20 4
Ġ10 80
ĠÐ¿Ð¾Ð» Ð¸ÑĢÐ¾Ð²ÐºÐ°
ĠÐ¿Ð» ÐµÐ½
ĠÑģÐ¿ Ð¸ÑĢ
40 4
ĠÑĢÑĥ ÑĦ
ÑĢÐ°Ð± Ð¾ÑĤÐ°
ĠÑĥÑģÑĤ Ð¾Ð¹ÑĩÐ¸Ð²ÑĭÐ¹
ĠÐ²Ð¾Ð´ Ð¾Ð¿Ð¾Ð³Ð»Ð¾ÑīÐµÐ½Ð¸Ðµ
ĠÑįÑĤ Ð¾
ĠÑĢÐ°ÑģÑħÐ¾Ð´ Ð¾Ð¼ÐµÑĢ
ÐµÑĢÑģ ÐºÐ¸Ð¹
ĠÐ³Ð¸Ð´ÑĢÐ¾ Ð¸ÑģÐ¿ÑĭÑĤÐ°Ð½Ð¸Ðµ
ĠÐ¿ÐµÐ½ Ð¾ÑģÑĤÐµÐºÐ»Ð¾
Ġfl ushing
ĠÐ¸ÑĤ Ð³
ĠÐºÑĢÑĥÐ¿ Ð½
ĠÐºÑģ Ð±Ð½Ð³
ĠÐ½Ð°Ð³ÑĢÐµÐ² Ð°ÑĤÐµÐ»ÑĮÐ½ÑĭÐ¹
ĠÐ¸Ð½Ð´ Ð¸ÐºÐ°ÑĨÐ¸Ñı
ĠÑĢÑĥÐºÐ°Ð² Ð½ÑĭÐ¹
ĠÑģÑĤÐ¾Ð» ÐµÑĪÐ½Ð¸ÑĨÐ°
ĠÑģÐ¿ÑĢÐ°Ð² Ð¾ÑĩÐ½ÑĭÐ¹
ĠÐ¿Ð½ÐµÐ² Ð¼
ĠÐ¿Ð½ÐµÐ² Ð¼Ð¾Ðº
ĠÐ´ÐµÐ¼ Ð¿ÑĦÐµÑĢ
ĠÑĤÑĢÑĥÐ´ Ð½Ð¾
ĠÐ¼ÐºÐ± Ñģ
ĠÐ´ÐµÐ² ÑıÑĤÑĮ
Ð¾Ð²ÑĭÑĢÐ°Ð²Ð½ Ð¸Ð²Ð°ÑĤÑĮÑģÑı
2 16
b iii
l l
r p
y w
Ñĭ Ð¼Ð½ÑĭÐ¹
Ð¼ Ð¾Ð¹ÐºÐ°
ĠÐ¼ Ð¾ÐµÑĩÐ½ÑĭÐ¹
Ð´ Ð°Ð»ÐµÐµ
Ð°Ð½ Ð½Ð°
Ġt ip
Ð¾Ð± ÑĢÐ°Ð·Ð½ÑĭÐ¹
Ġ9 30
ti k
Ñį Ð³
ĠÐ¿ÑĢÐ¾ ÑĨ
ĠÂ µ
ec t
le o
26 2
ĠÐ²ÐºÐ»ÑİÑĩ ÐµÐ½Ð¸Ðµ
ÑĭÐ² Ð½Ð¾Ð¹
ĠÑĢÐ°Ð´Ð¸ Ð¾Ð³ÑĢÐ°ÑĦÐ¸ÑĩÐµÑģÐºÐ¸Ð¹
Ð²ÑĢ Ð°ÑĤÑĮ
Ð¼Ðº Ð¾ÑģÑĤÐ½ÑĭÐ¹
Ġball of
ĠÑĳ Ð¼ÐºÐ¾ÑģÑĤÐ½ÑĭÐ¹
ĠÐºÐ¾Ð¼Ð¿Ð»ÐµÐº Ð»ÐµÐºÑĤ
Ġ210 7
ĠÑĢÐ°ÑģÑģ ÑĩÐ¸ÑĤÐ°ÑĤÑĮ
ĠÐ¿ÐµÐ½Ð¾Ð¿Ð¾Ð» Ð¸ÑģÑĤÐ¸ÑĢÐ¾Ð»ÑĮÐ½ÑĭÐ¹
Ġins er
ĠÐ°ÑģÐ±ÐµÑģÑĤ Ð¾Ð²ÑĭÐ¹
Ġass emb
ĠÐ¿Ð¸Ð³ Ð¼ÐµÐ½ÑĤ
ĠÐ¿ÑĢÐ¾Ð³ÑĢÐ°Ð¼ Ð¼Ð½ÑĭÐ¹
ĠÑĦÐ¸Ð³ ÑĥÑĢÐ½ÑĭÐ¹
ĠÐ¿Ð»ÐµÑĩ Ð¾
Ð°Ð²Ð¸Ñģ Ð¸Ð¼ÑĭÐ¹
Ġballof ix
1 001
3 16
f g
j ust
k h
Ð¾ Ð°Ð³ÐµÐ½ÑĤ
ĠÐ¿ ÑıÑĤÑĮ
ĠÐ¿ Ð±ÑĪ
ÑĤÐ° ÑĨÐ¸
ÑĢÐ° ÐºÑĤÐµÑĢÐ¸ÑģÑĤÐ¸ÐºÐ°
ĠÐ² Ð¸Ð½Ð¸Ð»
ĠÐ¿ÑĢ ÐµÐ²
Ġ0 16
ĠÐ·Ð° ÐºÑĢÐµÐ¿Ð»ÑıÑĤÑĮ
ĠÑĪ ÐµÑĢ
ĠÑĢ ÑĨ
Ġ7 400
Ð½Ð¾ Ð¾ÑĤ
Ġg p
Ġ40 5
Ġ300 8
ÑĳÐ¼ Ð½Ð¸Ðº
ĠÐ²Ð¾Ð´ Ð¾ÑģÑĤÐ¾Ð¹ÐºÐ¾ÑģÑĤÑĮ
di zed
Ġ22 6
ĠÐ²Ð¾Ð·Ð´ÑĥÑĪ Ð½Ð¸Ðº
ÑĥÑĩ ÑĳÑĤ
ĠÐ°Ð¼ Ð¼Ð¸Ð°Ðº
ĠÑħÐ° ÑĥÑģ
Ġ03 9
ĠÑĨÐµÐ»ÑĮ Ð½Ð¾Ð¾ÑĤ
Ġ102 16
ĠÑĦÐ° Ð¹Ð½
ĠÐºÐ¾Ð¼Ð¿Ð»ÐµÐº ÑĤÐ°ÑĨÐ¸
fl oor
ĠÐ¼Ð°ÑĢÑĪ ÐµÐ²ÑĭÐ¹
ĠÐ½ÐµÐ¿ÐµÑĢ ÑĦ
ĠÑĤÐ¿Ð¿ÑįÐ¿ Ð·
Ġdrain age
ĠÐ·Ð°Ð¼Ðº Ð½ÑĥÑĤÑĭÐ¹
ĠÑĪÐ¿ÑĥÐ½ ÑĤÐ¾Ð²ÑĭÐ¹
ĠÐºÐ°Ð»Ð¸ Ð±
Ġema co
over all
Ð³Ð» Ð´Ð¼
ĠÑħÐ°ÑĢ ÑĢÐ°ÐºÑĤÐµÑĢÐ¸ÑģÑĤÐ¸ÐºÐ°
Ġmaxl ogic
Ġstandar dized
ĠÐ²Ð¾ÑģÑģÑĤÐ°Ð½ Ð¾Ð²
4 11
b lo
g c
h o
Ð¾ ÑĢÐ°Ð½Ð¸Ðµ
ÑĤ ÑıÐ¶ÐºÐ°
Ð½ ÐµÐ²
ÑĢ Ð¾Ð»
ĠÐ¿ Ð¸Ð½
Ð· ÑĩÐ¸Ðº
Ġ2 250
ĠÐ± Ð¾Ð±ÑĭÑĪÐºÐ°
ĠÐ³ ÑĢÐ°
ĠÐ· Ð¿Ñĥ
Ġo s
Ġn ut
ĠÐ°ÑĢ Ð¾ÑĩÐ½ÑĭÐ¹
ĠÑĢ ÑĦ
ĠÐ½Ðµ Ð¾ÑĤ
Ġr it
ĠÐ¸Ð·Ð³Ð¾ÑĤÐ¾Ð² Ð»ÑıÑĤÑĮ
ÐºÑĤ Ð¸Ð²Ð°
Ġk d
Ð°Ð» Ð¾ÑĩÐ½ÑĭÐ¹
03 9
ĠÐ´Ð²ÑĥÑħ Ð¼ÐµÑģÑĤÐ½ÑĭÐ¹
ĠÑģÐ²ÐµÑĤ Ð»Ð¾
26 410
Ð¾Ð·Ð² ÑĥÐº
ÐºÐ» Ð¸Ð¿ÑģÐ°
ĠÑĤÑĢÐ°Ð½ Ñģ
ĠÑĢÐ°ÑģÑĤ Ð¾ÑĩÐºÐ°
ĠÐ¾ÑĤÐ½Ð¾Ñģ Ð¸ÑĤÑĮÑģÑı
Ġsi leo
ĠÐºÐ¸ÑģÐ» Ð¾ÑĤÐ¾
ĠÑĪÐ»Ð¸ÑĦ Ð¾Ð²ÐºÐ°
ĠÐ¿Ð»Ð°Ð½ Ð¾Ð²ÑĭÐ¹
ĠÑĩÐµÑĢ ÑĤÐ°
ĠÐºÐ¼Ð¿Ð² Ð²ÑįÐ²Ð½Ð³
Ġpri mer
ĠÐ¼ÐµÑħÐ°Ð½Ð¸Ð· Ð¸ÑĢÐ¾Ð²Ð°ÑĤÑĮ
ĠÐ¾Ð¿ÑĢ Ð¾ÑģÐ½ÑĭÐ¹
ĠÑħÐ»Ð°Ð´ Ð¾Ð°Ð³ÐµÐ½ÑĤ
ĠÐ¿Ð½ÐµÐ² Ð¼Ð°ÑĤÐ¸ÑĩÐµÑģÐºÐ¸Ð¹
Ð½Ñĭ Ðµ
ÐºÐµÑĤ Ð±Ð¾Ð»ÑĮÐ½ÑĭÐ¹
Ġbat termann
Ġnozzle s
ÐºÐ¾Ð¼Ð¿ÑĢÐµÑģÑģ Ð¾ÑĢ
ĠÑĩÐ¸ÑģÑĤ Ð¸ÑĤÑĮ
Ð½Ð°Ð´ Ð±Ð°Ð²ÐºÐ°
ĠÑıÐ´ ÐµÑĢÐ½ÑĭÐ¹
4944 54
ĠÐ°Ð±Ð¾Ð½ÐµÐ½ÑĤ ÑģÐºÐ¸Ð¹
ĠÑĤÐµÑĢÐ¼Ð¾Ñģ ÐºÑĢÐµÐ¿Ð¸ÑĤÑĮ
ĠÐ±Ð°Ñģ ÐºÐµÑĤÐ±Ð¾Ð»ÑĮÐ½ÑĭÐ¹
ĠÐ°Ð½ÑĤÐ¸ÑģÑĤ Ð°ÑĤÐ¸ÑĩÐµÑģÐºÐ¸Ð¹
ĠÑĦÐ°Ð¹Ð½ ÑĪÐ»Ð°Ð¼
0 22
Ð² Ð¸Ð±
ĠÐº ÑĥÐ»ÑĮÑĤ
ÑĤÐ° Ð¹
ĠÐ³ Ð¼
Ð°Ð½ Ð°
ĠÐ· Ð°Ð½
ÑĪ Ð¿Ð°Ð»Ð°
ÐµÐ³ ÑĢÐ°Ð´
Ġ6 23
Ġn ts
ĠÐ¼Ð°ÑĢ ÐºÐ°
ÑĨÐ¸Ð½ ÑģÐºÐ¸Ð¹
ĠÐ³Ð° Ð¼Ð¼Ð°
Ġv ts
Ġl h
ma a
Ð²Ð¾Ð·Ð´ÑĥÑħ Ð¾ÑĢÐ°ÑģÐ¿ÑĢÐµÐ´ÐµÐ»Ð¸ÑĤÐµÐ»ÑĮ
32 1
ĠÐ°Ð½ÑĤ Ð¸Ñģ
13 9
ĠÑĤÐµÑĢÐ¼ Ð¾Ð¼ÐµÑĤÑĢ
ĠÑģÑĤÑĢ Ð¾Ð¿
ĠÑģÐ¸Ð³Ð½Ð° Ð»Ð¸Ð·Ð¸ÑĢÐ¾Ð²Ð°ÑĤÑĮ
am p
da s
Ġ1500 0
Ġ55 377430
Ġsup er
ÐºÐ°ÑĤ Ð¾Ðº
Ġpo ol
ÑĢÐ°ÑģÐ¿ Ð¾ÑĢÐºÐ°
ĠÐ¿ÑĢÐ¾Ð³ Ð¾Ð½
ĠÑĤÐµÐ» ÐµÐ²Ð¸Ð·
ĠÐ¿ÑĥÑģÐº Ð¾Ð²Ð¾Ð¹
Ġser ies
ĠÐ¿ÑģÐ¿ Ð±
ĠÑģÐ±Ð¿ Ð·Ð°
ĠÐ°ÐºÑĤÐ¸Ð² Ð½Ð¾ÑģÑĤÑĮ
Ġtypl vs
ĠÐ°Ð±ÑĢÐ°Ð· Ð¸Ð²Ð½ÑĭÐ¹
ĠÐ´Ð»Ð¸Ð½ Ñĭ
ĠÐ³ÑĢÐ° Ð½Ñĥ
0 1009
3 70
7 20
v g
Ð¾ Ð¾ÑĤ
ĠÑģ Ñĩ
Ð´ Ð°ÑĤÑĮ
ĠÐ¸ ÑģÐ¾
Ð¾Ð½ Ð½
ÑĢÑĥ Ð¹Ð½ÑĭÐ¹
50 3
ĠÐ· Ð¿
ÑĪ Ð¾Ð²ÑĭÐ¹
ĠÐ·Ð° Ð³
Ġ6 46
ĠÑģÐ² Ñģ
Ġ5 96
ĠÑĦ ÐµÑĢÐ¼
Ġn f
ÐµÐ½ÑĤ Ð³
Ð¼Ð° Ð³Ð°
ĠÐ¿Ð¾Ð´ Ð²Ð°Ð»
Ð¾Ð³ Ð¾Ð´Ð½ÑĭÐ¹
25 162
ĠÐ¼ÐµÐ´ Ð¸
ĠÐ¿ÑĢÐ¾Ð± Ð½ÑĭÐ¹
ĠÑĤÑĢ Ð¾Ð¹Ð½Ð¾Ð¹
Ġ14 50
Ġma vi
ĠÐºÐ» Ð¾Ð¿
ĠÐ½Ð°Ðº Ð»Ð¾Ð½
43 14
ĠÐ´ÐµÐ·Ð° ÐºÑĤÐ¸Ð²Ð°
iz e
if t
ĠÐ¶Ð°Ð»ÑİÐ· Ð¸
ÑĢÐ¾ÑĤ Ð¾Ð½Ð½
of f
Ġdis ch
ĠÐ±ÑĢÐ¾Ð½ Ð·Ð°
ĠÑħÐ» Ð¾Ð¿
Ð¾Ð»Ñĳ ÑģÐ½ÑĭÐ¹
ĠÐ¶Ð°ÑĢ Ð¾Ð¿ÑĢÐ¾ÑĩÐ½ÑĭÐ¹
ĠÐ¼Ð¸Ðº ÑĢÐ¾ÑĤÐ¾Ð½Ð½
Ð²Ð°Ð¶ Ð¸Ð½Ð½ÑĭÐ¹
Ġ179 25162
ĠÐ´ÑĢÐ¾Ð± Ð»ÑĳÐ½ÑĭÐ¹
Ġremo ved
Ġad just
ĠÐ¿ÑĢÐ¾Ñģ Ð°Ð´Ð¾ÑĩÐ½ÑĭÐ¹
ĠÐ¿Ð¾ÐºÑĢÐ¾Ð² Ð½ÑĭÐ¹
Ġaw g
Ġchem ical
ĠÐ¿ÑĢÐ¾ÑĢÐµÐ· Ð°Ð½Ð¸Ðµ
ĠÐ´Ð°Ð½ Ð½ÑĭÐµ
Ġassemb ly
ĠÐºÐ¸ÑģÐ»Ð¾ÑĤÐ¾ ÑĥÐ¿Ð¾ÑĢÐ½ÑĭÐ¹
Ġmavi gard
2 90
i st
u q
Ñģ Ð¾Ð¿Ð¾Ð»Ð¸Ð¼ÐµÑĢ
Ð» Ð³Ð°
ĠÑģ Ð¾ÑĤÐ¾Ð²ÑĭÐ¹
ĠÐ¼ ÐµÑĢÐ½ÑĭÐ¹
Ð´ Ñģ
Ð³ Ð²
Ð¾Ð» Ð¾Ð¿Ð°ÑģÑĤÐ½ÑĭÐ¹
ĠÐ½ Ð¸
Ð¾ÑĢ ÐµÐ»ÑĮÑģ
ĠÑĤ ÐºÐ¿
ÑĤÑĢ Ð¾Ð¿Ð½ÑĭÐ¹
Ġ3 75
Ġ4 800
Ð°Ð² Ð°ÑĤÑĮ
ĠÑĦ ÑģÑĦ
Ġf f
ÑģÐ¾ ÑĤÑĢÐ¾Ð¿Ð½ÑĭÐ¹
ĠÐ¼ÐµÑĤÐ° Ð»
ĠÐºÐ¾Ð¼ Ð½Ð°ÑĤÐ½ÑĭÐ¹
Ġcl x
Ġ40 149
en sion
ĠÑĢÐµÐ· ÑĥÐ»ÑĮÑĤ
200 5
Ġ30 245
ĠÑĪÐ¸ÑĢ Ð¾Ðº
ĠÐ´Ð²ÑĥÑħ ÑĨÐµÐ¿Ð½Ð¾Ð¹
Ġ22 3
Ð½ÑĤ Ð¿
ĠÑģÐ°Ð¼ Ð¾Ð²ÑĭÑĢÐ°Ð²Ð½Ð¸Ð²Ð°ÑĤÑĮÑģÑı
Ð¾Ð¿Ð¾Ð»Ð¸ ÑįÑĤ
Ð¾Ð·Ð°ÑīÐ¸Ñī ÐµÐ½Ð½ÑĭÐ¹
Ġshut off
ĠÐ¾ÑĢÐ³Ð°Ð½ Ð¾ÑģÐ¸Ð»Ð¸ÐºÐ°ÑĤÐ½ÑĭÐ¹
Ġic das
ĠÐºÐ¸ÑģÐ» Ð¾ÑĤ
Ġpo table
Ġtm s
Ð¾ÑģÐ½Ð¾Ð² Ð½Ð¾Ð¹
ĠÑĪÑĤÐ¾Ðº Ð¾Ð²ÑĭÐ¹
Ġet a
ĠÑĪÐ² Ñĥ
ĠÐ²Ð¸ÑĤ ÑĢÐ°Ð¶
620 8
Ð¿ÑĢÐ¾ÑĦ Ð½Ð°ÑģÑĤÐ¸Ð»
ĠÐ²ÐµÑĤÑĢ Ð¾ÑĥÑģÑĤÐ¾Ð¹ÑĩÐ¸Ð²ÑĭÐ¹
ĠÑĢÐµÐ³ ÐµÐ½
ĠÑĦÑĥÐ½ ÐºÑĨÐ¸Ñı
ĠÐ¼Ð°Ñħ Ð¾Ð²
Ġaccor ding
ĠÑĦÑĢÐ°Ð¼ ÑĥÐ³Ð°
ĠÐ¿Ð¾Ð´Ð¿ Ð¸ÑĤÐºÐ°
ĠÑĤÐ¸Ðº ÑģÐ¾ÑĤÑĢÐ¾Ð¿Ð½ÑĭÐ¹
ĠÑĤÑĢÑĥÐ´Ð½Ð¾ ÑĥÑģÑĤ
ĠÐºÑĥÐ»ÑĮÑĤ ÑĥÑĢÐ°
ĠÐ¼ÐµÐ´Ð¸ ÑĨÐ¸Ð½ÑģÐºÐ¸Ð¹
Ġ40149 153
2 32
5 80
b i
n h
Ð¾Ð² ÑĪÐ¾Ð²ÑĭÐ¹
Ġ2 22
ĠÐ± Ð²ÑĢÐ°ÑĤÑĮ
Ġ3 95
ĠÐ½Ð° Ð±
Ġs ize
ĠÑĪ Ð»Ð¸ÑĨ
Ð¾Ð± Ñĥ
Ð¾Ð± ÑĢÐ°Ð¼Ð»ÐµÐ½Ð¸Ðµ
ĠÐºÐ¾Ð½ Ð²ÐµÐºÑĤÐ¾ÑĢ
Ð¾Ð¶ ÐµÑĩÑĮ
Ġ12 9
Ġv t
Ġw c
30 3
15 2
Ġ40 50
ÑĨÐµÐ² Ð°ÑĤÑĮ
90 80
ĠÐ¼Ð¾Ð½ Ð¸ÑĤÐ¾ÑĢ
Ġ19 20
ĠÑģÐº Ð²Ð°Ð¶Ð¸Ð½Ð½ÑĭÐ¹
ĠÐ±Ð° ÑĩÐ¾Ðº
ĠÐ±ÑĥÑĢ Ð¸Ð»ÑĮÐ½ÑĭÐ¹
ÐµÐ± ÑĢ
ĠÑģÐµÐº ÑĤÐ¾ÑĢÐ½ÑĭÐ¹
02 1
ĠÑĨÐ²ÐµÑĤ Ð¾ÑĩÐ½ÑĭÐ¹
ĠÐºÐ¼ Ñĩ
ĠÐ¾Ð´Ð½Ð¾Ðº Ð¾Ð²ÑĪÐ¾Ð²ÑĭÐ¹
ÑģÑĤÐ¾Ð» Ð±
ĠÐ¿ÑĢÐ¾ÑĦ Ð¸Ð»
ĠÐ°Ð² ÑĢ
ÐµÐ¿ÑĢ ÐµÐ³ÑĢÐ°Ð´
62 10
Ġse val
Ð¿Ð¾Ð´ Ð²Ð¾Ð´ÐºÐ°
Ġho u
132 3
ĠÐ²Ð·Ð»Ð¾Ð¼ Ð¾ÑģÑĤÐ¾Ð¹ÐºÐ¸Ð¹
ĠÑĤÐ¾Ð½Ð½ ÐµÐ»ÑĮÐ½ÑĭÐ¹
620 9
ĠÐ·Ð²ÑĥÐºÐ¾ Ð¸Ð·Ð¾Ð»Ð¸ÑĢÑĥÑİÑīÐ¸Ð¹
Ð¾Ð»ÐµÑĤ Ð½Ð¸Ð¹
Ġha w
Ġare a
ĠÐ¾Ð±ÑĤ Ð¾ÑĩÐºÐ°
Ġtitan ium
ĠÑģÐ¾Ð»ÐµÐ½Ð¾ Ð¸Ð´
ĠÐ¿Ð½ÐµÐ²Ð¼Ð¾Ðº Ð¾Ð»ÑĳÑģÐ½ÑĭÐ¹
ĠÐ½ÐµÐ¾ÑĤ Ð¾Ð¶ÐµÑĩÑĮ
ĠÑĢÐµÐ·ÑĥÐ»ÑĮÑĤ Ð°ÑĤ
0 28
9 90
b ed
Ð¼ Ð½
Ð¼ Ð¸Ðº
Ð³ Ñĥ
Ñħ ÑĢ
Ð¾Ð¿ ÑĥÑģÐº
ĠÐ± ÐµÐ½Ð·
ĠÑģÑĤ Ð¿
ĠÐºÐ° Ð»ÑĮ
Ġ5 92
Ġf ir
ĠÐ½Ðµ ÑĦ
Ġv d
Ð¿ÑĢ Ð¸Ñģ
ĠÑģÐ¿ ÐµÐºÑĤÑĢ
it ting
Ġ15 3
Ġ40 210
ag ne
Ð¾Ð²Ñĭ Ð¼ÑĮ
Ġ30 50
ĠÐ¼Ð¾Ð½ Ð¾ÑĢÐµÐ»ÑĮÑģ
ĠÐ¿ÐµÑĢÐµÑħÐ¾Ð´ Ð½Ð¾Ð¹
Ġvalve s
ÐºÐ¾ÑĢ Ð¾ÑģÑĤÐ½Ð¾Ð¹
Ġ19 17
ÑĩÐ°ÑĤ Ð¾Ð±Ñĥ
ĠÑĤÑĢÐ¾Ð¹Ð½Ð¸Ðº Ð¾Ð²ÑĭÐ¹
Ġnorm al
ĠÑĤd sg
Ġmin i
ĠÑģÐ¾Ð³Ð»Ð°Ñģ Ð¾Ð²Ð°ÑĤÑĮ
ÐµÐ½ÐµÑĢ Ð°ÑĤÐ¾ÑĢÐ½ÑĭÐ¹
ÑĦÑĢÐ° Ðº
ĠÐ²Ð¾Ð´Ð¾Ð¾ÑĤ Ð»Ð¸Ð²
Ð°Ð¹ ÑĤ
ĠÐ³ÑĢÐ°ÑĦ Ð¸ÑĤÐ¾Ð²ÑĭÐ¹
ĠÐ¼ÑĢÐ°Ð¼ Ð¾ÑĢÐ½ÑĭÐ¹
Ġcabinet s
ĠÐ½Ð¸Ð·Ðº Ð¾ÑĤÐµÐ¼Ð¿ÐµÑĢÐ°ÑĤÑĥÑĢÐ½ÑĭÐ¹
Ġnit rogen
ĠÐ¾Ð´Ð½Ð¾Ð± Ð°Ð»Ð¾ÑĩÐ½ÑĭÐ¹
ĠÐ´Ñİ Ð¹Ð¼
ĠÑįÐ»ÐµÐºÑĤÑĢÐ¾Ð¿ Ð¸ÑĤÐ°Ð½Ð¸Ðµ
Ð¿Ð»Ð¸Ð½ÑĤ ÑĥÑģ
ĠÑģÐ°Ð½ÑĤ ÐµÑħÐ½Ð¸ÑĩÐµÑģÐºÐ¸Ð¹
ĠÑģÐ¿Ð¸ÑĢ Ð¸ÑĤ
ĠÐºÐ¾Ð¼Ð¿Ð»ÐµÐºÑĤÐ°ÑĨÐ¸ Ð¸Ñı
Ð¿ÑĢÐ¸Ñģ Ð°Ð´ÐºÐ°
agne tic
2 18
b ox
ĠÐº ÑĥÑħ
ÑģÑĤ ÐµÐº
Ð¾Ð½ Ð¸Ð¶ÐµÐ½Ð¸Ðµ
Ð¾Ð¿ Ð¾Ð½Ð¸Ð¶ÐµÐ½Ð¸Ðµ
on t
Ð¸Ð· Ð¾ÑĨÐ¸Ð°Ð½
ÐºÐ»Ð°Ð´ ÑĭÑĪ
si c
si s
ĠÑĩ ÑĥÐ²ÑģÑĤÐ²Ð¸ÑĤÐµÐ»ÑĮÐ½Ð¾ÑģÑĤÑĮ
Ġ90 10
ÑĢÐ¾ ÐµÐ½Ð¸Ðµ
ĠÐ¼Ð°ÑĤ ÑĢ
ÑĢÐ°Ñģ Ð½ÑĭÐ¹
Ġ30 8
ĠÐ´Ð²ÑĥÑħ ÑħÐ¾Ð´Ð¾Ð²ÑĭÐ¹
ĠÑģÐ± ÑĢÐ¾Ñģ
Ġre g
22 3
17 9
Ġsp ec
Ġy ong
704 9080
ĠÐ´Ð½ Ð°ÑĤ
ĠÐ´Ð¾ÑĢ Ð½Ð¸ÑĤ
zh an
Ġ165 23
Ġhi dra
Ġem bed
Ð°Ð»ÑİÐ¼Ð¸Ð½ Ð¸ÐµÐ²ÑĭÐ¹
ĠÑģÐµÐ¹ÑģÐ¼Ð¾ÑģÑĤ ÑĭÐ¹
ĠÑģÑĤÐµÐºÐ»Ð¾Ðº Ð¾Ð¼Ð¿Ð¾Ð·Ð¸ÑĤÐ½ÑĭÐ¹
ĠÐºÐ¾Ð·ÑĭÑĢ ÑĳÐº
Ġmach iner
Ð¿Ð¾Ñģ Ð°Ð´Ð¾ÑĩÐ½ÑĭÐ¹
ĠÐ¼ÑĥÑģ Ð¾ÑĢ
ĠÐ²Ð¾ÑģÑģÑĤÐ°Ð½Ð¾Ð² Ð»ÐµÐ½Ð¸Ðµ
Ġrit tal
Ġdisch arge
ĠÑħÐ»Ð¾Ð¿ ÑĩÐ°ÑĤÐ¾Ð±Ñĥ
Ġyong zhan
Ġhidra zine
Ġembed ded
Ġmachiner y
3 40
3 75
i ght
k v
w p
Ñĭ ÑĤÑĮ
ÑĢÐ° Ð¿
ĠÐ² Ð°Ð½Ð½Ð°
ĠÐ¸Ð· Ð»Ð¸Ð²
ĠÐ± ÑĢÑĭÐ·Ð³
Ġ4 100
Ð¾ÑĤ Ð¸ÑĤÑĮ
Ñĳ Ð´
ĠÐ¿ÐµÑĢ Ð»
ĠÑĢ ÐµÐ½ÑĤÐ³
Ġ8 15
20 30
Ð¸Ð» Ð¾Ð²Ð¾Ð¹
ĠÐ¿Ð¾ ÑĤÐ°Ð¹
Ð»Ð» Ð¾Ð½
Ġ40 330
ÑģÑģÐ° Ð¶Ð¸ÑĢ
ĠÐ¿ÑĢÐ¾ÑĤÐ¸Ð² Ð¾ÑģÑĬÑĳÐ¼Ð½ÑĭÐ¹
um ent
ÐºÐ¾Ð» Ð¾Ð½ÑĩÐ°ÑĤÑĭÐ¹
Ð½Ð¾Ð² ÐµÐ½Ð¸Ðµ
ĠÐ¿Ð² Ð´
ĠÐ³Ð°Ð· Ð¾Ð¾Ð±ÑĢÐ°Ð·Ð½ÑĭÐ¹
Ġ17 60
ÑĥÐ´ Ð»Ð¸Ð½
Ð³ÑĢÑĥ Ð·Ð¾ÑĩÐ½ÑĭÐ¹
Ġpl ug
63 9
Ġcomp an
ĠÐ´ÑĢ Ð´
Ð¾Ð´Ð¸ ÑģÐ¿
ĠÑĤÑĥÑĢ Ð½Ð¸Ðº
ge ar
ĠÑģÑĤÐ´ ÑĤ
ĠÑĦÑĢ Ð¾Ð½ÑĤÐ°Ð»ÑĮÐ½ÑĭÐ¹
Ġcat al
ĠÐ±ÑĭÑģÑĤÑĢ Ð¾ÑģÑĬÑĳÐ¼Ð½ÑĭÐ¹
Ġid pn
cent ric
Ġaqu as
Ġcer e
ension s
ĠÑħÐ»Ð¾Ð¿ÑĩÐ°ÑĤÐ¾Ð±Ñĥ Ð¼Ð°Ð¶Ð½ÑĭÐ¹
ĠÐ¿Ð¾ÑĤÐ°Ð¹ Ð½Ð¾Ð¹
0 42
2 14
s l
v d
Ð» ÑĳÑĤ
Ñĥ Ð»Ð°Ð²
Ð· Ð°ÑĢÑıÐ´
ĠÐ² ÑĥÑģ
ĠÐ½ ÐµÐ½Ð°Ð¿ÑĢ
ĠÑĤ ÐµÑģÑĤ
Ġ2 900
Ġ3 92
Ð¾Ð¼ Ð°
ĠÑį Ð¸Ð¼
Ð°Ð² Ñģ
Ġ8 70
Ġ7 98
Ġ12 80
Ġv b
om ation
Ġu r
ĠÐ²ÐµÑģÑĮ Ð¼Ð°
ĠÐ¾Ñģ Ð°Ð´Ð¾ÑĩÐ½ÑĭÐ¹
Ġde s
ĠÐ¾Ðº Ð¿Ð¼
ĠÑĥÐ´Ð»Ð¸Ð½ Ð¸ÑĤÐµÐ»ÑĮÐ½ÑĭÐ¹
ĠÐ²Ð· Ð»ÑĳÑĤ
ĠÐ°Ðº Ð²Ð°Ð½
ĠÐ¾ÑĢ ÑĨ
Ð»Ð¾Ð² Ð°ÑĤÑĭÐ¹
ĠÐ¸Ð³ Ð»Ð¾Ð²Ð°ÑĤÑĭÐ¹
ĠÑģÐºÐ° Ð¼ÑĮÑı
ĠÐ°Ð»ÑİÐ¼ Ð¾Ð¿Ð¾Ð»Ð¸Ð¼ÐµÑĢÐ½ÑĭÐ¹
ĠÑĦÐµÑĢ ÑĢÐ¸ÑĤÐ½ÑĭÐ¹
Ð¿Ð¾ÑĢ Ð¾ÑĪÐ¾Ðº
Ġaut omation
ÑıÐ³Ð° ÐµÐ¼ÑĭÐ¹
Ġbasi c
ĠÐ¿Ð»Ð°ÑĤ ÑĦÐ¾ÑĢÐ¼Ð°
ĠÑįÑĨ Ð²
ĠÐ²ÑĭÐ½Ð¾Ñģ Ð½Ð¾Ð¹
ĠÐ¿ÑĢÐµÐ² ÑĭÑĪ
ÑģÑģÐ°Ð¶Ð¸ÑĢ ÑģÐºÐ¸Ð¹
Ġcatal yst
ĠÐ½ÐµÐ½Ð°Ð¿ÑĢ ÑıÐ³Ð°ÐµÐ¼ÑĭÐ¹
ĠÐ°ÐºÐ²Ð°Ð½ Ð°ÑģÑĤ
3 12
4 30
6 70
l it
Ð½ Ð±
Ð» Ð¸Ð²ÐºÐ°
Ð´ Ð´Ð°
Ġ1 7049080
ĠÐ¾ Ð°
Ġ3 68
Ġ3 93
Ð¼Ðµ Ð´
ĠÐ¾ÑĤ Ð¿
ĠÐ¿ÐµÑĢ ÐµÐ½Ð°Ð¿ÑĢ
ĠÑĦ Ð´Ð±
ĠÑĢ Ð¸Ð·
Ġ8 10
Ġ7 25
Ġw ire
ĠÑģÐ¿ Ð¿Ðº
ĠÐ¿Ð¾Ð´ ÑģÐ¾ÐµÐ´Ð¸Ð½ÐµÐ½Ð¸Ðµ
40 10
30 388
Ġ14 3
ĠÐ¾Ð´Ð½ Ð¾ÑģÐ»
ÑĥÐ½ Ð¸Ð²ÐµÑĢÑģÐ°Ð»ÑĮÐ½ÑĭÐ¹
ĠÐµ Ð²
ĠÑģÐ» Ð¾Ð¶Ð½ÑĭÐ¹
Ġ19 281
ĠÑįÐ¿ Ñĥ
ĠÑĤÐµÑĢÐ¼ Ð¸ÑĩÐµÑģÐºÐ¸
Ġfl oor
ĠÐ²Ð·ÑĢÑĭÐ² Ð¾Ð±ÐµÐ·Ð¾Ð¿Ð°ÑģÐ½ÑĭÐ¹
ĠÐ»Ð° Ð±
ĠÐ¼Ðº ÑįÑĪ
Ð¿ÐºÐ²ÐºÑĤ ÑįÐ¾Ð½Ð³
Ð»Ð¾Ð¼ Ð½Ð¾Ð¹
Ð½Ð°ÑĢ ÐµÐ·ÐºÐ°
ĠÑģÐ¼Ðµ ÑĪ
ĠÐ¾ÐºÑģ Ð¸Ð´
ĠÑģÐ±Ð· Ð¿Ð±
ĠÐ¿ÑĢÐ¾ÑĤÐ¸Ð²Ð¾Ð²Ð· Ð»Ð¾Ð¼Ð½Ð¾Ð¹
ĠÑĥÐ²ÐµÐ»Ð¸Ñĩ Ð¸ÑĤÑĮ
ĠÐ¾Ñĩ ÐµÐ½ÑĮ
Ð²ÐµÑĪ Ð¸Ð²Ð°Ð½Ð¸Ðµ
Ġstra ight
Ġglo be
ĠmpÐ° g
Ġ714 30388
Ð¸ÑģÑĤÐ° Ð»Ð»
ĠÐ¿ÑĢÐ¾ÑĨ ÐµÑģÑģ
ĠÐ¿ÐµÑĢÐµÐ½Ð°Ð¿ÑĢ ÑıÐ¶ÐµÐ½Ð¸Ðµ
4 70
f q
p p
ĠÐ¿ ÐµÑĪ
ĠÐ´ Ð¸Ð¿
ĠÐ² Ð¸ÑĤÐ°ÑĤÑĮ
ĠÑĤ r
Ð¾Ð½ ÑĤÐ°ÐºÑĤÐ½ÑĭÐ¹
ĠÑĢÐ° ÐºÐ¾Ð²Ð¸Ð½Ð°
ĠÐ· Ð²
ĠÑį Ð°
Ġ6 14
Ġp w
ÐµÐ¼ ÐµÑĢ
001 8
40 5
60 1
ĠÑĢÐ°ÑģÐ¿ ÑĭÐ»
Ġ60 331
ÐºÐ»ÑİÑĩ Ð°ÑĤÑĮ
Ð³Ð¾ÑĢ ÐºÐ°
tic al
ĠÐ±Ð»Ð¾Ðº Ð¸ÑĢÐ¾Ð²ÐºÐ°
ĠÑģÐº Ð¾Ð¼Ð¼
ĠÑģÑĤÐµÐºÐ» Ð¾Ð²Ð°ÑĢ
ĠÑĤÑıÐ¶ ÐµÑģÑĤÑĮ
ĠÑī ÑĥÐ²
ĠâĢ ¢
Ð¸ÑĤÐ¾Ðº Ð¾Ð½ÑĤÐ°ÐºÑĤÐ½ÑĭÐ¹
ĠÑħÐ¾Ð»Ð¾Ð´ Ð½Ð¾
Ġz d
Ġz n
ÑĳÐ½ Ð¾Ðº
ĠÐ¿ÑĢÐ¸Ð¼ ÐµÑģÑĮ
ÐµÐ³ÑĥÐ»Ð¸ÑĢÑĥ ÑİÑīÐ¸Ð¹
ĠÐ¾Ð´Ð½Ð¾Ð¼Ð¾Ð´ Ð¾Ð²ÑĭÐ¼ÑĮ
Ġar s
ĠÐ±ÑĢÐ¾Ð½ ÑĮ
ĠÐ²Ð¸Ð±ÑĢÐ¾ Ð¸Ð·Ð¾Ð»ÑıÑĨÐ¸Ñı
ĠÐ·Ð²ÑĥÐº Ð¾Ð¿Ð¾Ð³Ð»Ð¾Ñī
Ġbor on
pac t
Ġ59 49
ĠÐ°ÑģÑĦÐ°Ð»ÑĮÑĤ Ð¾Ð±ÐµÑĤÐ¾Ð½
ĠÐ¸Ð½ÑĦÐ¾ÑĢÐ¼Ð° ÑĨÐ¸Ñı
ĠÑģÐ°Ð¼Ð¾ÑģÐ² ÐµÑĢÐ»Ð¸ÑĤÑĮ
uel ler
ĠÐ¿Ð¾ÑģÐ»ÐµÐ´ ÑĥÑİÑīÐ¸Ð¹
ĠÑĤÐµÑĢÐ¼Ð¾ÑĢ ÐµÐ³ÑĥÐ»Ð¸ÑĢÑĥÑİÑīÐ¸Ð¹
ĠÐ½ÐµÐ· Ð°Ð²Ð¸ÑģÐ¸Ð¼ÑĭÐ¹
Ġweidm ueller
ĠÐ´ÑĭÐ¼Ð¾Ð³Ð°Ð· Ð¾Ð½ÐµÐ¿ÑĢÐ¾Ð½Ð¸ÑĨÐ°ÐµÐ¼ÑĭÐ¹
ĠÐ¾Ð¿ÐµÑĢ Ð°ÑĤÐ¾ÑĢ
ĠÑĥÐºÐ°Ð· Ð°ÑĤÑĮ
ĠÑģÐ¸Ð½ Ð¸Ð¹
Ġtip u
Ġaquas ys
ĠÐ¿ÐµÑĪ ÐµÑħÐ¾Ð´
ĠÑĢÐ°ÑģÐ¿ÑĭÐ» Ð¸ÑĤÐµÐ»ÑĮ
ĠÑģÐºÐ¾Ð¼Ð¼ ÑĥÑĤÐ¸ÑĢÐ¾Ð²Ð°ÑĤÑĮ
ĠÑģÑĤÐµÐºÐ»Ð¾Ð²Ð°ÑĢ ÐµÐ½Ð½ÑĭÐ¹
ĠÐ·Ð²ÑĥÐºÐ¾Ð¿Ð¾Ð³Ð»Ð¾Ñī Ð°ÑİÑīÐ¸Ð¹
4 92
y l
Ð» ÐµÐ²Ð¾Ð¹
Ñĩ ÐµÑĢÐµÐ¿Ð¸ÑĨÐ°
Ð± ÑĨÐ¸Ð¾Ð½Ð½ÑĭÐ¹
ÑĢÐ° ÑĨ
ĠÐ² ÐµÐº
ĠÑĤ ÐºÐ¼
Ġ3 44
Ġ3 41
Ġc Ð²ÐµÑĤ
Ð¾ÑĤ ÐµÑĢÐ¼
ĠÐ· ÑģÑĢ
ĠÑģÑĤ ÐµÐ»Ð»Ð°Ð¶
ĠÐ» Ð¾
Ġ5 29
ĠÑįÐ»ÐµÐºÑĤÑĢ Ð¾Ð¿ÑĢÐ¾Ð²Ð¾Ð´
ĠÑģÐ¼ ÑĭÐ²Ð½Ð¾Ð¹
Ġ40 220
ĠÑĤÐµÐ¿Ð» Ð¾ÑģÑĤÐ¾Ð¹ÐºÐ¸Ð¹
um in
90 3
ÐºÐµÑĢ Ð½ÑĭÐ¹
Ð¸ÐºÐ° Ð½Ð°Ð»
01 12
Ġ45 43
ĠÑģÐº Ð¿Ñĥ
ĠÐ½Ð¾ÑĢ Ð¼Ð°ÑĤ
ĠÑĤÑĢÐ° ÐºÑĤÐ¾ÑĢ
ÑģÐ² Ð°ÑĢÐ½Ð¾Ð¹
ĠÑģÐ²ÑıÐ· ÐºÐ°
ĠÑĢÐ°ÑģÐ¿ÑĢÐµÐ´ÐµÐ» Ð¸ÑĤÐµÐ»ÑĮ
49 14
Ġswitch gear
co ol
Ð³Ðµ Ð¾ÑģÐµÑĤÐºÐ°
ĠÐ¿ÐµÑĤ Ð»ÐµÐ²Ð¾Ð¹
ĠÐ²ÐµÐ½ÑĤÐ¸ Ð»ÑĮÐ½ÑĭÐ¹
ĠÐ¿Ð²Ð¿ Ð³ÑįÐ½Ð³
ÑħÐ² Ð°ÑĤ
ĠÐ¸Ð½ÑĤÐµÑĢÑĦÐµÐ¹ ÑģÐ½ÑĭÐ¹
ĠÐ¿Ð¾Ð¼ Ð¾Ð»
ĠÑĪÐµÑģÑĤ ÐµÑĢ
Ð´Ð¸Ð° ÑĦÑĢÐ°Ð³Ð¼Ð°
ĠÐ´Ð¾Ð¶Ð´ ÐµÐ¿ÑĢ
Ġhaw le
ÑĦÑĢÐ°Ðº ÑĢÐ°ÑģÐ½ÑĭÐ¹
Ð°Ð²Ñģ Ð°Ð½Ð¾Ð²ÑĭÐ¹
4 26
c d
k p
p ro
r u
ÑĢ Ðµ
ĠÑģ ÑģÐ´
Ð· ÑģÑĢ
Ð± Ð±ÑĪÐ²Ð°
ĠÐ¾ ÑģÑĤÐ°Ð»ÑĮÐ½Ð¾Ð¹
Ñħ Ð¾Ð¶Ð´ÐµÐ½Ð¸Ðµ
ĠÐ¿ÑĢ Ð¾ÑĩÐ½ÑĭÐ¹
ÐµÑģ Ð»Ð¾
ĠÐ³ ÐµÐ½ÐµÑĢÐ°ÑĤÐ¾ÑĢÐ½ÑĭÐ¹
ĠÑĥ Ð²Ð²
Ñİ Ðº
ĠÑĢ Ð¾Ñĩ
20 25
001 5
Ð¿ÑĢ Ð¾ÑĤÐ¸Ð²
Ġw il
Ġl ad
Ð¾Ð³ ÑĢÐ°Ð½Ð¸Ñĩ
40 9
ÐµÑħ Ð¾Ð»
ÐºÑĤ Ð¾ÑĢÐ½ÑĭÐ¹
16 4
ĠÐºÐ¾Ð¼Ð¿Ð»ÐµÐºÑĤ Ð¾Ð²Ð°ÑĤÑĮÑģÑı
st at
Ġfor tec
ĠÐºÐ¾Ð» Ð¾ÑĤÑĭÐ¹
Ġ11 7
ĠÑģÐº Ð¿
ÐºÑĢ Ð¸ÑģÑĤÐ°Ð»Ð»
ĠÐ¸Ð½ Ð¶
ĠÐ´ÑĢ Ð»
ĠÐ²Ð¸Ð´ Ð¸Ð¼ÑĭÐ¹
ĠÐ¿Ð¾Ð¶Ð°ÑĢ Ð¾Ð±ÐµÐ·Ð¾Ð¿Ð°ÑģÐ½ÑĭÐ¹
ĠÑĨÐµÐ½ÑĤÑĢ Ð¸ÑĢÐ¾Ð²Ð°ÑĤÑĮ
ĠÐ²ÑĭÑħÐ¾Ð´ Ð¸ÑĤÑĮ
Ġsys vrf
ĠÐ½Ð°Ñģ ÑĭÐ¿
ĠÐ¸Ð½Ð´ ÑĥÐºÑĨÐ¸Ð¾Ð½Ð½ÑĭÐ¹
ĠÐ¼ÐµÐ¶ ÐºÑĢÐ¸ÑģÑĤÐ°Ð»Ð»
of i
ĠÑĩÐµÑĢ ÐµÐ¿Ð¸ÑĨÐ°
ĠÑĤÐµÑĢÐ¼Ð¾Ð¾Ð± ÑĢÐ°Ð±Ð¾ÑĤÐ°
ĠÐ´Ð¸Ð· ÐµÐ»ÑĮ
ĠÐ´ÑĥÑĪ Ð°
Ð½Ð°ÑĢ ÑĥÐ¶ÐµÐ½Ð¸Ðµ
ĠqÐ¾Ñħ Ð»ÑĭÐ¹
ĠÑĪÑĤÑĥÐºÐ°ÑĤ ÑĥÑĢÐºÐ°
ĠÐ¼Ð°Ð³Ð½ Ð¸Ð¹
ĠÐ¼Ð°Ð³Ð½ Ð¸ÑĤÐ¾ÐºÐ¾Ð½ÑĤÐ°ÐºÑĤÐ½ÑĭÐ¹
ĠÑģÐµÐ´ Ð»Ð¾
Ġblo ck
ĠÑĤÑį Ð¾
Ġtec ofi
ÑģÑĤÐµÐº Ð»
ĠÐ±ÑĢÑĭÐ·Ð³ Ð¾Ð·Ð°ÑīÐ¸ÑīÐµÐ½Ð½ÑĭÐ¹
ĠÐ¿ÑĢÐµÐ²ÑĭÑĪ Ð°ÑĤÑĮ
ĠÐ¾Ð´Ð½Ð¾ÑģÐ» Ð¾Ð¹Ð½Ð¾Ð¹
ĠÐ¿ÐµÑĪÐµÑħÐ¾Ð´ Ð½ÑĭÐ¹
ĠÐ¼ÐµÐ¶ÐºÑĢÐ¸ÑģÑĤÐ°Ð»Ð» Ð¸ÑĤÐ¾Ð²ÑĭÐ¹
ĠÑĤÐµÑĢÐ¼Ð¾Ð¾Ð±ÑĢÐ°Ð±Ð¾ÑĤÐ° Ð½ÑĭÐ¹
n er
z d
ÑĤ Ð»Ð¾
Ñģ ÐµÑĢ
Ð² Ñģ
Ð² ÐµÑĢÐ½ÑĭÐ¹
ÑģÑĤ ÐµÐ½ÐºÐ°
ÐµÐ½ Ð½Ð¾
Ð»Ñı ÑĨÐ¸Ð¾Ð½Ð½ÑĭÐ¹
Ġ0 43
ĠÑį ÐºÐ¾Ð»
ĠÐºÐ° Ð¿ÑĢ
ÐºÐ»Ð° ÑģÑģ
Ð½Ð° Ð»Ð¸Ñĩ
ĠÐ¿ÐµÑĢ ÐµÐ»
ĠÐ¿ÐµÑĢ ÐµÐ¿
er ator
ÑĥÑĢ Ð°ÑĤ
ĠÐ¿ÑĢÐ¾ ÑħÐ¾Ð¶Ð´ÐµÐ½Ð¸Ðµ
ĠÐ¶ Ðº
Ġb as
ĠÐ¾ÑĤÐ² Ð°Ð»
Ġ200 00
60 9
um x
ĠÐµ Ð¼
Ġ45 5
ĠÑģÐ¸Ð³Ð½Ð° Ð»Ð¸Ð·Ð°ÑĤÐ¾ÑĢ
Ð¾Ñħ Ð¾Ð²
ĠÑĤÑĢÐµÐ± Ð¾Ð²Ð°ÑĤÑĮÑģÑı
ĠÑĤÐ¾ÑĢ ÑĨÐ¾Ð²ÑĭÐ¹
ĠÐ¼ÐµÐ¶ Ð±Ð»Ð¾ÑĩÐ½ÑĭÐ¹
Ġ343 3
Ġy d
Ġpo e
dm i
Ġar t
ĠÐ±ÐµÐ·Ð¾Ð¿Ð°ÑģÐ½Ð¾Ñģ Ð½Ð¾ÑģÑĤÑĮ
ĠÐºÐ¼Ð¿ ÑįÐ²Ð½Ð³
ÐºÐ½ Ð¾Ð¿
Ġho ist
ĠÐ¿Ð¸ ÑģÑģ
ĠÑĦÐ¸Ð± ÑĢÐ°
Ġad d
465 614
ĠÑĢÐµÐ·Ð¸Ð½ Ð¾ÑĤÐºÐ°Ð½ÐµÐ²ÑĭÐ¹
ĠÐ½ÐµÐ¾ÑĤÐº ÑĢÑĭÐ²Ð°ÑĤÑĮ
bii a
ĠÐºÑĢÑĥÐ¿Ð½ Ð¾Ð·ÐµÑĢÐ½Ð¸ÑģÑĤÑĭÐ¹
ĠÑĪÐµÑĢ Ð¾ÑħÐ¾Ð²
Ġcere sit
ĠÑĪÐµÑģÑĤÐµÑĢ ÑĳÐ½Ð½ÑĭÐ¹
Ð½Ð°Ð»Ð¸Ñĩ Ð½Ð¸Ðº
1 18
2 11
6 25
7 16
b y
Ðº Ð³
ĠÑģ Ð½Ð°Ð±
ĠÐ´ Ñģ
Ð°ÑĤ ÑĥÑĢÐ°
Ð± Ð»Ð°
Ð¾Ð» Ð°Ð²ÑģÐ°Ð½Ð¾Ð²ÑĭÐ¹
Ð¾Ð¿ ÑĤÐ¸ÑĩÐµÑģÐºÐ¸Ð¹
ĠÐ° Ð±Ð°
ĠÐ± Ð½
ĠÐ± ÑįÐ·
ĠÐ·Ð° Ð²Ð°Ð»
ĠÐ¾Ð± Ð½Ð°ÑĢÑĥÐ¶ÐµÐ½Ð¸Ðµ
Ð¸Ð¿ Ð¾Ð¹
or t
Ġf itting
Ġl ab
Ð¼ÐµÐ½ ÑĤÐ°Ð»ÑĮÐ½ÑĭÐ¹
ĠÐ²Ð¾Ð´ Ð¾Ð¼ÐµÑĢ
ĠÑĢÐµÐ· ÐºÐ°
Ġas u
Ġ18 50
Ġ24 3
ĠÐºÐ¾ÑĢÑĢÐ¾Ð· Ð¸Ð¹Ð½ÑĭÐ¹
ĠÐºÐ¾Ð» Ð±Ð°
Ġe ss
Ġel p
Ġsh a
ĠÑĩÐ°ÑģÑĤ Ð¸ÑĩÐ½ÑĭÐ¹
Ð¾ÑģÑĤÑĥÐ¿ ÐµÐ½ÑĩÐ°ÑĤÑĭÐ¹
ĠÑģÐ½ Ð¸Ð·
se ga
ĠÑĦÐ¸Ð»ÑĮÑĤÑĢ Ð¾Ð²Ð°Ð»ÑĮÐ½ÑĭÐ¹
Ð¿Ð² Ñģ
ĠÐ±Ð°Ð» Ð»Ð°ÑģÑĤ
ĠÐ¾Ð´Ð½Ð¾ÑģÑĤ Ð¾ÐµÑĩÐ½ÑĭÐ¹
Ġli sega
ĠÐ¿ÑĢÐ¾ÑĤ ÐµÐºÑĤÐ¾ÑĢ
ĠÐ²Ñģ Ñħ
ĠÐ°Ð»ÑİÐ¼ Ð¾Ð»Ð°Ð²ÑģÐ°Ð½Ð¾Ð²ÑĭÐ¹
ĠÐ¿ÐµÑĢÐµÐ³ ÑĢÑĥ
ĠÐ¿ÑĥÐ³ Ð²Ð½Ð³
Ġou ter
oc am
ĠÐ¿Ð¾Ð»ÑĥÑģ ÐµÑĩÐµÐ½Ð¸Ðµ
ĠÐ»Ð¾ÐºÐ° Ð»Ð¸Ð·Ð¾Ð²Ð°ÑĤÑĮ
ĠÑģÐ½Ð°Ð± Ð´Ð¸ÑĤÑĮ
h l
p r
Ñģ Ð¸Ñģ
ÑĢ Ð¸Ñģ
Ð» ÐµÐ¹ÐºÐ°
Ð² ÑĢÐ°Ð½
ĠÐº ÑĤÐ¾
ÐµÐ½ ÐµÑĢÐ½ÑĭÐ¹
ĠÐ´ ÑĥÐ¿
Ġ0 63
ĠÐ¾Ð± Ð»Ð¸
Ð¾Ñģ ÐºÐ¾ÑĢÐ¾ÑģÑĤÐ½Ð¾Ð¹
ĠÑħ Ð¾ÑĢ
Ġ10 30
ĠÐ½Ðµ ÑįÐºÑĢÐ°Ð½
ĠÐ¾Ð¿ ÑĢÐ°Ð²ÐºÐ°
ÑģÐ¾ Ð¾ÑĢÑĥÐ¶ÐµÐ½Ð¸Ðµ
Ġ16 1
Ð»Ñİ Ð·
Ġl mf
ĠÐºÐ¾ÑĢ ÑģÐ¸Ñģ
Ġcon sis
ĠÐ²Ð¾Ð´ Ð¾Ð±Ð»Ð¾Ðº
ĠÐ·Ð°Ð¿ Ð¾Ð»Ð½
ÐºÐ¾Ð» Ð¾Ð½Ð½Ð°
ic o
ÑĥÐ½ Ð¾Ðº
22 12
ĠÐ³Ð¸Ð´ ÑĢÐ¾Ð¿
74 183
Ð°ÑĤÐ° Ð¹
ĠÐºÐ¿Ñģ Ð½Ð³
ĠÑĤÐµÑĢÐ¼ Ñĭ
ÐºÐ¾Ð¼Ð¿ Ð¾Ð½ÐµÐ½ÑĤÐ½ÑĭÐ¹
ĠÑĩÐ°ÑģÑĤ Ð¾ÑĤÐ½ÑĭÐ¹
43 4
ĠÑĥÑģ Ð¸
ÑĥÐ½Ð´ Ð°
ĠÐ¿Ð¾Ð»Ð¾Ñģ ÐºÐ°
Ġ38 5
ĠÐ°Ð· ÑĤ
Ð¾Ð»ÑĮÐ· ÑıÑīÐ¸Ð¹
Ġmod el
Ġins ulated
Ġ9130 5
ÐµÐ½Ð¾Ð² ÑģÐºÐ¸Ð¹
ĠÐ¾Ð±ÑĢÐ°Ð· ÐµÑĨ
ĠÑĢÐ¸Ñģ ÑĥÐ½Ð¾Ðº
ĠÑĤÐµÐ»ÐµÐ²Ð¸Ð· Ð¸Ð¾Ð½Ð½ÑĭÐ¹
ĠÐ¼Ð¸ÐºÑĢÐ¾ÑĤÐ¾Ð½Ð½ ÐµÐ»Ð¸ÑĢÐ¾Ð²Ð°Ð½Ð¸Ðµ
ĠÐºÐ°Ð¿ÑĢ Ð¾Ð½Ð¾Ð²ÑĭÐ¹
Ġess ential
ĠÑģÐ½Ð¸Ð· Ñĥ
ĠÐ¾Ð±Ð»Ð¸ ÑĨÐµÐ²Ð°ÑĤÑĮ
Ġconsis ting
ĠÐ²Ð¾Ð´Ð¾Ð±Ð»Ð¾Ðº Ð¸ÑĢÐ¾Ð²Ð°ÑĤÑĮ
0 26
q a
t ÑģÑĢ
w ork
ÑĢ ÐµÐ¹ÐºÐ°
ÑĮ ÐºÐ¾Ð²ÑĭÐ¹
Ð¿ Ð¾Ð·Ð°
Ð· ÑĤÐ¸
ĠÐ´ Ð¸Ð½
ĠÐ¼Ð¼ x
ĠÑĤ Ð¿Ñģ
Ġ2 66
Ġ2 17
ĠÐ¿ÑĢ Ð¿
ÑĤÑĢ Ð¾Ñģ
ĠÐ³ ÑģÐ¿
ĠÑĥ ÑĪ
Ð¾ÑĤ Ð´ÐµÐ»Ð¸ÑĤÐµÐ»ÑĮ
50 2
Ð¸ÑģÑĤ ÐµÑĢ
ĠÑĪ Ð¸Ð¿
ĠÑĪ ÑĢÐ½
ĠÑĢÐ°Ð· Ð»Ð¸Ð²ÐºÐ°
Ñį Ð½ÑĤ
ĠÐ¼ÐµÑĤÐ°Ð»Ð» Ð¾ÑĩÐµÑĢÐµÐ¿Ð¸ÑĨÐ°
Ġg t
Ġk hr
ÑĢÐ¾ ÑĤÑĢÑĥÐ±
60 6
03 4
ĠÐ¿Ð° ÑģÑģÐ°Ð¶Ð¸ÑĢÑģÐºÐ¸Ð¹
Ġe k
Ġ35 4914
ĠÐ²ÑĭÑģÐ¾Ðº Ð¾ÑģÐºÐ¾ÑĢÐ¾ÑģÑĤÐ½Ð¾Ð¹
Ġaku maa
ĠÑģÐµÑĢ Ð½ÑĭÐ¹
ĠÐ¿Ð¾ÑĢÐ¾ÑĪ Ð¾Ðº
Ð¾Ð»Ð½ Ð¾Ð²ÑĭÐ¹
29 25
Ð¾ÑĦ ÑĢÐ¾ÑĤÑĢÑĥÐ±
23 1
ĠÐºÑĢÐ°Ð½ Ð¾Ð²ÑĭÐ¹
Ġ55 82
Ġal u
ĠÐ¿Ð°ÑĢ Ð¾Ð½Ð¸ÑĤÐ¾Ð²ÑĭÐ¹
Ġra da
ÑħÐ¾Ð» Ð¾Ð´
ĠÐ½Ð°ÑĤ ÑĥÑĢÐ°
014 7
ĠÑĪÑĤÐ° Ð¼Ð¿
ĠÑĢÐ°ÑģÐº Ð»Ð¸Ð½
Ġfd c
ĠÐ°Ð» ÑĢ
Ġzinc ed
ĠÐ¾ÑĩÐ¸ÑģÑĤ Ð¸ÑĤÑĮ
Ġelectrom agnetic
ĠÐ»Ð°Ð· Ð°Ð½Ð¸Ðµ
sc i
ĠÐ¿Ñĭ Ð»Ðµ
ÐµÐ½Ñĩ Ð°ÑĤÐ°Ð¹
Ġinser ts
Ġfir at
ĠÐºÑĥÑħ Ð¾Ð½Ð½ÑĭÐ¹
Ġkhr q
Ġ354914 54
r or
ÑĢ ÐµÑĦ
Ð¼ ÑĤÑĮ
Ð¿ ÑĩÐ°ÑĤÑĭÐ¹
ĠÐº Ð¸Ð²
ĠÐº Ð¸Ð¿Ð°
ĠÐº vy
ĠÐ´ Ð¾Ð²
ĠÐ² ÐºÐ»Ð°Ð´ÑĭÑĪ
ĠÑĤ ÑıÐ³Ð¾Ð²ÑĭÐ¹
ĠÐ± Ð½Ð´
Ġ3 31
ĠÑĥ ÐºÑĢÐµÐ¿Ð»ÑıÑĤÑĮ
Ġc dz
ÑģÑģ Ð¸
ÑĪ ÐµÐ½ÑĮ
Ġd l
Ġd al
Ð¾Ð± Ð¸Ð»ÑĮ
Ġ9 600
Ġp ts
ĠÑĢÐ°Ð· Ð´Ð²Ð¸Ð¶Ð½Ð¾Ð¹
ĠÐ°ÑĢ Ð¼Ð°
20 40
Ġf Ðµ
Ñį ÑĤÐ°Ð¶Ð½ÑĭÐ¹
Ġl x
ÑĥÐ³ Ð»
Ð²Ð¾Ð´ Ð¾Ð½Ð°Ð³ÑĢÐµÐ²Ð°ÑĤÐµÐ»ÑĮ
ĠÑģÑĤÐ° Ð±Ð¸
14 1410
ĠÐ¾Ðº ÐºÐ¼
ĠÑģÐ¾ÑĢ Ð±ÑĨÐ¸Ð¾Ð½Ð½ÑĭÐ¹
Ġpl ate
ut ting
38 5
29 60
Ġun il
ĠÐ²ÑģÐ¿ ÑĥÑĩ
Ġbl ack
Ġts kb
ĠÑħÐ¾Ð»Ð¾Ð´ Ð¸Ð»ÑĮÐ½ÑĭÐ¹
Ġpp gng
Ġopen ing
ĠÐ´Ð¾Ð» Ð¾ÑĤÐ¾
Ġsi k
ÐºÑĢÐ¸Ð» Ð°ÑĤ
ĠÐ°ÐºÐº Ð¾Ð²Ð°ÑĤÑĮ
ĠÐ»Ð¾Ð¿ Ð°ÑĤÐºÐ°
ĠÐ·Ð²ÑĥÐº Ð¾Ð¸Ð·Ð¾Ð»ÑıÑĨÐ¸Ð¾Ð½Ð½ÑĭÐ¹
ik on
ĠÑģÑĤÑĢÑĥ Ð¶ÐµÑĩÐ½ÑĭÐ¹
ĠÑĥÐ· ÐºÐ¸Ð¹
ĠvÐ¿Ð¾Ð» Ð½Ð°
Ð°Ð²ÑĤÐ¾Ð¼ Ð¾Ð±Ð¸Ð»ÑĮ
ĠÑįÐ½ÐµÑĢÐ³ ÐµÑĤÐ¸ÑĩÐµÑģÐºÐ¸Ð¹
ĠÐ¸Ð½ÑģÑĤÑĢÑĥ Ð¼ÐµÐ½ÑĤÐ°Ð»ÑĮÐ½ÑĭÐ¹
Ġ294 74183
ĠqÐ½Ð° Ð³ÑĢ
374 2
Ġbuilding s
ĠÑĤÐ» Ðº
ĠÐºÐ°Ð»Ð¸Ð± ÑĢÐ¾Ð²
Ð³Ð² Ð¾Ð·Ð´ÑĮ
Ġwil o
0 70
3 65
9 71
Ð» Ð¾Ð·
Ðº ÑĥÐ¼Ñĥ
Ð¿ ÑģÑĤ
ĠÐ¼ ÑĢ
ĠÐ¼ ÐµÑĪ
ĠÐ¿ ÑĤÑģ
ÐµÐ½ Ð°Ð¶
00 32
ĠÐ± ÑĥÐ³
ĠÐ³ Ðº
Ġ3 45
Ġ0 24
Ð¸Ð² Ð°Ð»
Ġt fb
ĠÐ¾Ð± Ð¼
ĠÑĢ ÐµÐ»ÑĮ
ÐºÐ»Ð°Ð´ ÑĩÐ¸Ðº
Ġ100 56
Ġf ox
Ġ50 50
ĠÑĨ ÐµÐ´
Ð·Ð° ÐºÑĢ
ĠÐ·Ð°Ð¿ ÑĭÐ»
Ġnp u
Ġ18 3
ĠÑĤÐ¾Ðº Ð¾Ð¿Ð¾Ð´
ĠÐ±Ð»Ð¾Ðº Ð¸ÑĢÐ¾Ð²Ð°ÑĤÑĮ
ÐºÐ¾ÑĢ Ð¸ÑĤÐµÐ»ÑĮ
ĠÐ¼Ð¸Ð½ Ð¸ÐºÐ°Ð½Ð°Ð»
19 5
Ġpro cess
Ġ36 34
Ġcom mon
Ġch il
ÐºÑĥ Ñİ
ĠÐ¾Ð´Ð½Ð¾ ÑĨÐµÐ¿Ð½Ð¾Ð¹
49 4314
ĠÐ½Ð¸Ðº ÐµÐ»Ð¸ÑĢÐ¾Ð²
ĠÐ½ÐµÑģ Ð¸Ð»Ð¾Ð²Ð¾Ð¹
ÐºÐ¾ÑģÑĤ Ð½Ð¾Ð¹
ĠÐ°ÑĢÐºÑĤ Ð¸ÐºÐ°
ĠÑĤÐ¸ÑĤÐ°Ð½ Ð¾Ð²ÑĭÐ¹
ex el
zh ou
ĠÑģÐ¿ÑĢÐ°Ð² Ð°
Ġ227 36
Ġsu zhou
Ð¿Ð¾Ð³ÑĢÑĥ Ð·Ð¾ÑĩÐ½ÑĭÐ¹
ĠÐ¼Ð¸ÐºÑĢÐ¾ ÑĦÐ¾Ð½Ð½ÑĭÐ¹
Ġtransduc ers
Ġus b
ĠÑįÐºÐ² Ð¸Ð²Ð°Ð»
wa ter
ĠÐ¾Ð±ÑĢÐµÐ·Ð¸Ð½ ÐµÐ½Ð½ÑĭÐ¹
Ð¸Ð·Ð¾ÑĨÐ¸Ð°Ð½ ÑĥÑĢÐ°ÑĤ
ÐºÐ½Ð¾Ð¿ ÐºÐ°
Ġsha ft
ĠÐ½ÐµÑįÐºÑĢÐ°Ð½ Ð¸ÑĢÐ¾Ð²Ð°Ð½Ð½ÑĭÐ¹
ĠÐ·Ð°Ð¿ÑĭÐ» ÑĳÐ½Ð½Ð¾ÑģÑĤÑĮ
ĠÑĤÐ¾ÐºÐ¾Ð¿Ð¾Ð´ Ð²Ð¾Ð´
5 40
o ut
ÑĢ Ð¸Ðº
ĠÑģ Ð¼ÐµÑģÑĤÐ¸ÑĤÑĮ
ĠÐ¿ ÑĥÐ»ÑĮ
00 31
ĠÐ´ Ð°
Ð°ÑĤ Ð¾ÑģÑĤÑĮ
ĠÐ¼Ð¼ Ð¼Ð¼
Ġ2 13
Ġ2 63
ĠÐ° ÑĤÐ°
ĠÐ³ Ð½Ð¾Ð¼
ĠÑĥ ÑĢÐ°Ð²Ð½Ð¸Ð²Ð°Ð½Ð¸Ðµ
Ġc Ð¿Ð¾
50 8
Ġs x
ĠÐ¾ÑĤ Ð¶ÐµÑĩÑĮ
ĠÐ» Ð´
ĠÐºÐ° Ð±
Ð¾Ð± ÑĢÐ°Ð¶ÐµÐ½Ð¸Ðµ
Ġ8 639
ÑĢÐ°Ð½ Ð¸Ð¼ÑĭÐ¹
Ð¿ÑĢ Ð¾ÑĤ
ĠÑĩ ÐµÑħÐ¾Ð»
in al
ĠÑĢÐ°ÑģÐ¿ Ð°
ĠÑĢÐ°ÑģÐ¿ Ð¾Ð»Ð°Ð³
ÑĥÐ½ ÐºÑĨÐ¸Ð¾Ð½Ð°Ð»ÑĮÐ½ÑĭÐ¹
ĠÐ¿Ð² Ñģ
01 10
Ð²Ð¾Ð·Ð´ÑĥÑħ Ð¾Ð½Ð°Ð³ÑĢÐµÐ²Ð°ÑĤÐµÐ»ÑĮ
ĠÐ´Ð²ÑĥÑħ Ð¿
Ġ11 000
Ð°Ðº ÐºÑĥÐ¼Ñĥ
ĠÑģÐµÐº ÑĥÐ½Ð´Ð°
Ġei s
ĠÐ¸Ð½ ÑĦÑĢÐ°ÐºÑĢÐ°ÑģÐ½ÑĭÐ¹
ĠÐ¼Ð½Ð¾Ð³ Ð¾ÑģÑĤ
Ġls hf
Ġ33 50
ĠÑĤÐµÐ»Ðµ Ð¶ÐºÐ°
ul p
ÑįÐ½ ÐµÑĢÐ³
Ð½Ð°Ð¿ ÑĢÐ°Ð²Ð»ÑıÑĤÑĮ
Ġpo c
ĠÐ¾Ð¿Ð°Ð»ÑĥÐ± Ð¾ÑĩÐ½ÑĭÐ¹
ĠÐ°Ð´ Ð¾
ĠÐ³Ðµ Ð¾ÑĤÐµÐºÑģÑĤ
ĠÐ¿Ð± Ð²
ĠÐºÐ°ÑĢ ÑĤÐ°
ĠÐ½Ð°Ð¿Ð»Ð°Ð² Ð¸ÑĤÑĮ
ĠÐ²ÑĢÐ° Ñī
ĠÐ°Ð» Ðº
ĠÑĤÐ¿Ð¿ÑįÐ¿ Ð±
ĠÐ¿Ð¸Ð» Ð¾Ð¼Ð°ÑĤÐµÑĢÐ¸Ð°Ð»
Ð°Ñį ÑĢÐ°ÑĤÐ¾ÑĢ
Ġpk j
ĠÐ¿Ð°ÑĢÐ¾Ð¿ÑĢÐ¾Ð½Ð¸ÑĨÐ° ÐµÐ¼Ð¾ÑģÑĤÑĮ
ĠÑĥÐ¿ÑĢÐ¾ÑĩÐ½ Ð¸ÑĤÑĮ
Ġprof il
Ð²Ð¸Ð± ÑĢÐ¾
ĠÑĢÐµÐ³ÐµÐ½ ÐµÑĢÐ°
ĠÑĤÑĢÑĥÐ´Ð½Ð¾ÑĥÑģÑĤ ÑĢÐ°Ð½Ð¸Ð¼ÑĭÐ¹
ĠÑĪÐµÑĢÐ¾ÑħÐ¾Ð² Ð°ÑĤÐ¾ÑģÑĤÑĮ
ĠÐ½Ð°ÑĤÑĥÑĢÐ° Ð»ÑĮÐ½ÑĭÐ¹
Ġfdc i
ĠÐ¿ÑĥÐ»ÑĮ Ð¿Ð°
ĠÐ³ÐµÐ¾ÑĤÐµÐºÑģÑĤ Ð¸Ð»ÑĮÐ½ÑĭÐ¹
0 60
0 96
f ication
p le
x m
Ð½ ÐºÐ·
Ñģ ÑĢÐµÐ´Ð°
ĠÐ¼ Ð·
ĠÐº ÑĥÐ¼Ñĥ
ĠÐ¿ ÑĥÐ´
Ð± ÑĢÐ¾
Ð¾Ð» Ð¾Ð³Ð¸Ñı
ĠÑĤ Ð³
Ð¾Ð¿ Ð¾ÐºÑģ
Ġc d
Ġc Ð¾
ÑĢÑĥ Ð¶ÐµÑĩÐ½ÑĭÐ¹
Ġs b
Ġs od
Ġt in
ĠÑĢ Ð²Ð¾
Ġ20 50
Ġf b
Ġ7 42
Ġb d
Ġ12 28
Ð¿ÑĢ ÐµÐ¾Ð±ÑĢÐ°Ð·Ð¾Ð²Ð°ÑĤÐµÐ»ÑĮ
ĠÂ ®
ÑĥÐ½ Ð½
Ġ17 2
22 9
ĠÐ³Ð¸Ð´ ÑĢÐ¾Ð·
ÑĢÑĭÐ² Ð°ÑĤÑĮÑģÑı
ĠÑĤÐµÑĢÐ¼ Ð¾Ð´
ĠÑĤÑĢÐµÑħ Ð¶Ð¸Ð»ÑĮÐ½ÑĭÐ¹
ĠÐ¿ÑĢÐ¾ÑĦ Ð¸
Ġ54 9
ĠÐ¿ÐµÐ½Ð¾Ð¿Ð¾Ð»Ð¸ Ð¸Ð·Ð¾ÑĨÐ¸Ð°Ð½ÑĥÑĢÐ°ÑĤ
ĠÐ½Ð°Ð³ÑĢÐµÐ² Ð°ÑĤÐµÐ»ÑĮ
Ð¿ÐµÑĢÐµÑħÐ¾Ð´ Ð½ÑĭÐ¹
Ġex ha
ĠÐ·Ðº Ð½ÐºÐ·
Ð»ÑıÑĤ Ð¸Ð²Ð½ÑĭÐ¹
Ð¾ÑĩÐ½ Ð¸ÑĨÐ°
ĠÐ¾Ð´Ð½Ð¾Ð¼Ð¾Ð´ Ð¾Ð²ÑĭÑı
Ġar c
Ġdb z
Ġfasten ing
Ġinter pact
uy p
Ġ698 1
Ġmeasur ing
Ġ574 5
Ð²Ð¸Ð´Ðµ Ð¾ÐºÐ°Ð¼ÐµÑĢÐ°
ĠÐ½ÐµÐ± ÑĢÐ¾Ð½
Ġindic ating
ĠÑĢÐ¸Ð· Ð¾Ð¿Ð¾ÐºÑģ
Ġunil ift
ĠÑįÐºÐ²Ð¸Ð²Ð°Ð» ÐµÐ½ÑĤ
ĠÑĢÐ°ÑģÐ¿Ð¾Ð»Ð°Ð³ Ð°ÑĤÑĮÑģÑı
ĠÐºÑĥÐ¼Ñĥ Ð»ÑıÑĤÐ¸Ð²Ð½ÑĭÐ¹
Ġexha ust
z a
Ð¾ ÑĨÐµÐ¼ÐµÐ½ÑĤÐ½ÑĭÐ¹
ÑĤ Ð²
ÑĤ Ð¸Ðµ
ĠÑģ ÐµÐ¼
Ð² Ð°Ð½Ð¸ÑĩÐµÑģÐºÐ¸Ð¹
ĠÐ¼ Ñħ
ĠÐº Ð¾Ñģ
ĠÐº ÑģÐº
ÑģÑĤ Ð°Ðº
Ð¾Ð² Ð¾ÑĢÐ½ÑĭÐ¹
Ð³ Ð¾Ð½
ĠÐ² ÐºÑĥ
ĠÑĤ Ñĳ
Ð¾ÑģÑĤ Ð°ÑĤ
Ġc e
ĠÐ·Ð° ÐºÐ°Ð·
ĠÐ¾Ð± ÑĢÐµÐ·ÐºÐ°
Ð¾Ð± Ð»Ð¾ÑĩÐ½ÑĭÐ¹
Ð¾Ð± ÐµÐ´ÑĢ
Ð»Ð¸ Ð»ÑĮÐ½ÑĭÐ¹
ĠÑĢÐ°Ð· Ð½Ð¾
ti me
ĠÐ¿ÑĢÐ¸ Ð¶Ð¸Ð¼
ĠÐ¿ÑĢÐ¸ ÑģÐ¾ÐµÐ´Ð¸Ð½
ĠÑĥÐ³ Ð²
20 7
ĠÐºÐ¾Ð½ Ð²
Ġq ÑĤÐµÐ¿Ð»
Ġ7 96
Ġ12 15
Ġv x
ĠÑĪÑĤ ÑĥÑĩÐ½ÑĭÐ¹
15 1
ĠÐ²Ð¾Ð´ Ð¾Ð¿Ð¾Ð½Ð¸Ð¶ÐµÐ½Ð¸Ðµ
Ð¸Ð¾Ð½Ð½ Ð¾ÑģÑĤÐ¾Ð¹ÐºÐ°
Ð²Ð° Ð·Ð¾Ð½
ĠÑģÐ²ÐµÑĤ Ð¾Ð·Ð²ÑĥÐº
Ġto per
02 9
Ġst o
Ġen er
Ġls a
ĠÑħÐ¾Ð»Ð¾Ð´ Ð¾Ð¿ÑĢÐ¾Ð¸Ð·Ð²Ð¾Ð´Ð¸ÑĤÐµÐ»ÑĮÐ½Ð¾ÑģÑĤÑĮ
ÐµÐºÑĤ Ð¾ÑĢÐ½ÑĭÐ¹
Ġ04 7
Ġz p
Ð´Ð° Ð¶Ð½ÑĭÐ¹
Ð±Ð¾ÑĢ Ð½Ð¸Ðº
Ġlc u
Ġfx fq
ĠÐ¿Ð¾Ð»Ñĥ ÑĨÐ¸Ð»Ð¸Ð½Ð´ÑĢ
Ġph one
ĠÐºÐ¾Ð½ÑĤ ÐµÐ¹Ð½ÐµÑĢ
ĠÐ³Ð°Ð»ÑĮ Ð²Ð°Ð½Ð¸ÑĩÐµÑģÐºÐ¸Ð¹
ĠÐ¿ÐµÑĢÐµÑĤ ÑĢÐ°Ð²
ĠÐ¾ÐºÐ» Ð½Ð³
Ġiz ocam
Ġnit ric
ĠÑģÐ¾Ð² Ð¼ÐµÑģÑĤ
ĠÐºÐ¾Ð¼Ð¿ÐµÐ½Ñģ Ð¸ÑĢÐ¾Ð²Ð°ÑĤÑĮ
ĠÐ¾Ð±ÐµÑģÐ¿ÐµÑĩ Ð¸Ð²Ð°ÑĤÑĮ
ĠÑĢÐµÐ» ÐµÐ¹Ð½ÑĭÐ¹
ĠÐ±Ð°Ð½ Ð´Ð°Ð¶Ð½ÑĭÐ¹
ĠÐ¿ÑıÑĤ Ð¸Ð¶Ð¸Ð»ÑĮÐ½ÑĭÐ¹
Ð¼Ð°ÑĤÑĢ Ð¾Ð½Ð°
dow n
ĠÐ°Ð½ÑĤÐ¸Ñģ ÐµÐ¿ÑĤ
ĠÐºÐ°Ð»ÑĮ Ð¼Ð°ÑĤÑĢÐ¾Ð½Ð°
ÐµÐ½Ð°Ð¶ ÑĳÑĢ
ĠÐ½Ð¸ÐºÐµÐ»Ð¸ÑĢÐ¾Ð² Ð°Ð½Ð½ÑĭÐ¹
ĠÑģÐ²ÐµÑĤÐ¾Ð·Ð²ÑĥÐº Ð¾Ð²Ð¾Ð¹
3 13
7 85
d ur
h s
Ðµ Ð»Ð°
Ñĥ Ð°Ð¹ÑĤ
Ð¿ Ñħ
Ð¿ Ð»ÑĭÐ¹
ÑģÑĤ Ð¼
ĠÐ¸ Ð´
ĠÐ² Ð¾Ðº
ĠÐ¿ÑĢ Ð¸Ð½ÑĤÐµÑĢ
Ð¾Ð½ ÑĤÐ°Ð¶Ð½ÑĭÐ¹
Ġ3 37
ĠÑĢÐ° Ð½Ð´
Ġs in
Ð¾Ð¼ ÑģÐ¾Ð¿Ð¾Ð»Ð¸Ð¼ÐµÑĢ
ÑĪ Ð²
Ñİ ÑĪ
ĠÐ¿ÐµÑĢ ÐµÐ²Ð¾Ð´
ÑģÐ¼ Ð°Ð·
ro time
Ġl w
ĠÑĤÐ°Ðº Ð¾Ð¹
Ġ40 32
Ð»Ð°Ð´ Ð¸Ð½Ð°
ÑĥÐ¿ Ð¿Ð¾ÑĢÑĤ
ĠÐ¾Ðº Ð³Ð½Ð³
ĠÑģÑĤÐ°Ð½ Ð¸Ð½Ð°
Ġre f
17 383
ĠÐ°Ð²ÑĤÐ¾Ð¼Ð°ÑĤ Ð¸Ð·Ð¸ÑĢÐ¾Ð²Ð°Ð½Ð½ÑĭÐ¹
ĠÑģÑĤÑĢ Ð¾Ð³
ĠÐ¿ÐµÑĢÐµÐº Ð»Ð°Ð´Ð¸Ð½Ð°
Ġ58 9
Ð¼Ðº ÑīÐ¸Ð¹
Ġ91 300
ĠÐºÐ¾Ð¼Ð¼ ÑĥÑĤÐ¸ÑĢÐ¾Ð²Ð°ÑĤÑĮ
Ġindust ry
ĠÐ¿Ð¾ÐºÐ°Ð· Ð°Ð½Ð¸Ðµ
Ġhy d
bo ard
ÑĥÑĢÐ¾Ð² ÑģÐºÐ¸Ð¹
ÑĤÐµÐ¿Ð» Ð¾Ð¸Ð·Ð¾Ð»ÑıÑĨÐ¸Ð¾Ð½Ð½ÑĭÐ¹
ĠÐ¼Ð°Ð½Ñģ ÑĥÑĢÐ¾Ð²ÑģÐºÐ¸Ð¹
ĠÐ´ÑĢÐ¾Ð± ÑĮ
Ġ77 98
ĠÑģÐ±Ð² Ð³Ð½Ð³
ĠÐ³Ð»Ð¸Ð½ ÑıÐ½ÑĭÐ¹
Ġbu rotime
Ġer ror
Ð¸Ð»ÐºÐ° ÑĥÑĩ
ĠÐ¿ÐµÑģÐºÐ¾ ÑĥÐ»Ð¾Ð²Ð¸ÑĤÐµÐ»ÑĮ
ĠÑĢÐµÐ·Ð¸Ð½ Ð¾Ð¼ÐµÑĤÐ°Ð»Ð»Ð¸ÑĩÐµÑģÐºÐ¸Ð¹
Ð·Ð°Ñī Ð¸ÑĤÐ½ÑĭÐ¹
Ġ475 17383
ĠÐ¼Ð°ÑħÐ¾Ð² Ð¸Ðº
ĠÐ¿ÐµÑĢÐµÐ³ÑĢÑĥ Ð·ÐºÐ°
ĠÑĢÐµÐ»ÑĮ ÐµÑĦ
ĠÑĤÑĳ Ð¿Ð»ÑĭÐ¹
Ð¾Ð±ÐµÐ´ÑĢ ÐµÐ½Ð½ÑĭÐ¹
ĠÑĢÐ°Ð½Ð´ Ð¾Ð¼ÑģÐ¾Ð¿Ð¾Ð»Ð¸Ð¼ÐµÑĢ
ÑģÐ¼Ð°Ð· ÐºÐ°
8 60
p ar
s ÑĦ
ÑĤ ÑĤ
Ð¸ Ð½ÑĭÐ¹
Ð¸ ÑĢÐ°
ĠÑģ Ð¾Ð»Ð½
Ð² ÐµÐ½ÑĤÐ¸
Ð¿ Ð°ÑĤÑĮ
Ð¿ ÑĥÑĤÑĮ
ĠÐº ÑĥÐ¿Ð¾Ð»ÑĮÐ½ÑĭÐ¹
Ñĩ Ð½Ñĥ
ĠÐ¾ ÑģÐ¼
ÑĢÐ° ÑģÑĤÑĢÑĥÐ±
ĠÑĤ ÑĥÐ½Ð½
Ð»Ð° Ð¼Ð¸Ð½
ĠÐ¿ÑĢ Ð¾Ð»
ĠÐ± Ð²
ĠÐ³ Ð·
ĠÐ³ Ð³ÑĨ
Ġ4 18
Ġi u
Ġi Ð¾
ĠÐºÐ° ÑĪ
Ġp m
ĠÐ¿ÑĢÐ¸ ÑĨÐµÐ¿Ð½Ð¾Ð¹
ĠÑĦ ÑģÐ°
Ð¾Ð·Ð´ ÑĥÑĪ
ĠÑįÐ»ÐµÐºÑĤÑĢ Ð¾ÑģÐ½Ð°Ð±Ð¶ÐµÐ½Ð¸Ðµ
Ġw in
Ġl v
Ġr ack
Ġ40 14
ag ma
ĠÐ¾Ñģ Ð½
tor s
ur ac
Ġ30 2
ĠÐ¾Ð´Ð½ Ð¾ÑģÑĤÑĥÐ¿ÐµÐ½ÑĩÐ°ÑĤÑĭÐ¹
ĠÐ½ÐµÑĢÐ¶Ð°Ð² Ðµ
ter nal
Ġ22 9
Ð°Ðº ÐºÑĥÑİ
ĠÐ³Ð¸Ð´ÑĢÐ¾ ÑĳÐ¼ÐºÐ¾ÑģÑĤÑĮ
Ġweld s
ĠÑĢÐ°Ð²Ð½ Ð¾Ð¼ÐµÑĢÐ½ÑĭÐ¹
ang ular
ĠÑĢÐµ ÐµÑĩÐ½ÑĭÐ¹
Ġex ternal
ĠÐ¼ÐµÐ¶ ÑĤÑĢÑĥÐ±Ð½ÑĭÐ¹
ĠÑģÑĤÐ´ Ðº
Ġy t
Ġmaster top
Ġno bo
Ð¿ÐµÑģ Ð¾ÑĩÐ½Ð¸ÑĨÐ°
Ġjo ta
eli os
Ġpr agma
Ġrec t
Ġne ut
ÑĪÐ½ ÐµÐº
ĠÐ²ÑĢÑĥ ÑĩÐ½Ñĥ
Ġlih h
mt c
ĠÐ³Ð°Ð»ÑĮÐ²Ð°Ð½ Ð¸Ð·Ð¸ÑĢÐ¾Ð²Ð°ÑĤÑĮ
Ġkb j
ĠÐ²ÑģÐº ÑĢÑĭÑĤÐ¸Ðµ
Ð¾Ð¿Ð¾ÑĢ Ð¸ÑģÑĤÑĭÐ¹
ĠÐ¸Ð½Ð¶ ÐµÐ½ÐµÑĢÐ½ÑĭÐ¹
Ð²Ð¸Ð±ÑĢÐ¾ Ð¸Ð·Ð¾Ð»ÑıÑĤÐ¾ÑĢ
ĠÑĢÐµÐ»ÑĮÐµÑĦ Ð½ÑĭÐ¹
Ð¾Ð·Ð´ÑĥÑĪ Ð½ÑĭÐ¹
ĠÐ²ÑĢÑĥÑĩÐ½Ñĥ Ñİ
a y
g mm
ĠÐ ¹
Ð¾ Ð¸Ð·Ð¾Ð»ÑıÑĨÐ¸Ñı
Ðº ÑĢÐ¾ÑģÑģ
Ðº Ð¸ÑĢÐ¾Ð²Ð¾ÑĩÐ½ÑĭÐ¹
Ð¼ Ð°ÑģÐ»Ð¾
ĠÐ¼ Ð³ÑĨ
ÐµÑĢ ÑĤÐ½ÑĭÐ¹
ĠÐ¸ Ð¾
ÑĢÐ° Ðº
ĠÑĤ design
Ð°ÑĢ ÑıÐ´Ð½ÑĭÐ¹
ĠÐ³ ÐµÑĢ
ĠÐ³ Ð¾ÑĦÑĢÐ¾ÑĤÑĢÑĥÐ±
ĠÑĥ ÐºÐ¾ÑĢ
ĠÑĥ Ð¾Ð½Ð¸ÑĤÑĮ
ĠÐ· Ð²Ð¸
Ġi gc
er nal
Ġf ds
ĠÑĤÐ° Ð¼
Ġ7 70
Ð¿ÑĢ Ð¾Ð±
Ð»Ð°Ð½ ÑĤ
Ġ14 60
Ð¸ÑĨ Ð¸Ð´Ð½ÑĭÐ¹
ĠÑģÐ» ÐµÑģ
Ġ11 70
Ġco sÑĦ
ÑĢÐµÐ· Ð°ÑĤÑĮ
21 70
Ġ26 4
am in
am less
ĠÐ¼Ð½Ð¾Ð³ Ð¾Ð»Ð¾Ð¿Ð°ÑģÑĤÐ½ÑĭÐ¹
29 3
47 8
010 8
Ġse amless
Ġte st
Ð¾Ð»Ñĳ ÑĤÐ½ÑĭÐ¹
014 5
Ġet ernal
ĠÐ´Ð¿ Ñĥ
ĠÐ¿ÑĢÐ¸Ð½ ÑıÑĤÑĮ
ĠÐ±ÑĥÑĤ Ð¸Ð»ÐºÐ°ÑĥÑĩ
Ġfeed water
ĠÑĤÐµÑĢÐ¼Ð¾ÑģÑĤ Ð°ÑĤÐ¸ÑĩÐµÑģÐºÐ¸Ð¹
Ġfa ith
Ġacc urac
Ġiz m
ĠÑĤÐµÐ¿Ð»Ð¾Ð¾Ð± Ð¼ÐµÐ½
Ð´Ð¾Ð± Ð°Ð²ÐºÐ°
ĠÐ±Ð°Ð·Ð°Ð»ÑĮÑĤ Ð¾Ð¿Ð»Ð°ÑģÑĤÐ¸ÐºÐ¾Ð²ÑĭÐ¹
ĠÑĢÐ°Ð·Ð±Ð¾ÑĢ Ð½Ð¾
Ġvv gng
Ð°Ð½Ð° Ð»Ð¸Ð·Ð°ÑĤÐ¾ÑĢ
Ġcompan y
ĠÐ½ÐµÐ±ÑĢÐ¾Ð½ Ð¸ÑĢÐ¾Ð²Ð°Ð½Ð½ÑĭÐ¹
Ġrect angular
gmm m
Ġaccurac y
1 74
7 28
j b
z kd
Ð» Ð¸Ð²Ð°ÑİÑīÐ¸Ð¹
Ð² Ð¾Ð²Ð°
ĠÐ¼ Ð¾ÑĩÑĮ
ĠÐº Ð»Ñİ
ÑģÑĤ Ð°ÑĢÑĤ
ÑĤÐ° Ð½
ĠÐ² Ðµ
ĠÑ İ
ĠÐ³ ÑĤÐ¿
Ġ3 36
Ð»Ñı Ð½
ĠÐ½Ð° Ð³Ð½
ĠÐ· Ð°ÑĢÑıÐ´
ĠÑį ÐºÐ¿
ĠÑĢÐ°Ð· Ð±
ĠÑĥÐ³ Ð½
Ġ8 45
Ġh dmi
ĠÐ²Ñĭ Ñģ
Ð¾Ð¿ÑĢ Ð¾Ð·ÑĢÐ°ÑĩÐ½ÑĭÐ¹
Ð»Ñİ ÑģÐ½ÑĭÐ¹
Ġw h
ĠÑĥÐ¿ ÑĢÐ°Ð²Ð»ÑıÑĤÑĮ
ĠÐºÐ¾ÑĢ ÑĥÐ½Ð´Ð¾Ð²ÑĭÐ¹
ĠÑģÐ¿ ÑĥÑģÐº
ĠÐ¿Ð¾Ð´ ÐºÐ»Ð°Ð´Ð¾ÑĩÐ½ÑĭÐ¹
Ġ15 1
Ġ15 20
Ġ00 25
ÑģÑĤÐ² ÐµÐ½Ð½Ð¾ÑģÑĤÑĮ
11 90
ĠÐ´Ð²ÑĥÑħ Ð»ÑİÑģÐ½ÑĭÐ¹
ĠÐ¾ÑĤÐ²ÐµÑĤ ÑģÑĤÐ²ÐµÐ½Ð½Ð¾ÑģÑĤÑĮ
ĠÐ¿Ð¾ÑĢ Ð¾Ð³
ĠÐ¿ÑĢÑıÐ¼ Ð¾Ð»Ð¸Ð½ÐµÐ¹Ð½ÑĭÐ¹
ol og
ĠÐºÐ¿ Ð¾
ĠÑĥÐº Ð»Ð¾Ð½
ĠÐºÐ¾ Ð¾
ĠÐ³ÑĢÐ°Ð½ Ð²ÐµÐ»
ÑįÐ»ÐµÐºÑĤÑĢ Ð¾Ð¿ÑĢÐ¸Ð²Ð¾Ð´
ĠÐ¿Ð°ÑĢ Ð¾Ð²Ð¾Ð¹
ĠÐºÐ¾Ð¼Ð¼ ÑĥÐ½Ð¸ÐºÐ°
Ð¿Ð¾Ð´ ÐºÐ»Ð°Ð´ÐºÐ°
ĠÑħÐ¾Ð»Ð¾Ð´Ð½Ð¾ÐºÐ°ÑĤ Ð°Ð½Ð½ÑĭÐ¹
ĠÑĢÐ°Ð·ÑĢÑıÐ´ Ð½ÑĭÐ¹
ĠÑĤÑĢÐ°Ð½ÑģÐ¿Ð¾ÑĢÑĤ ÑĳÑĢ
ĠÑĤÐ°Ð± Ð»Ð°
Ġcond uc
ĠÑĥÑĦ Ð¾
Ġins ulation
ĠÑĨÐ° ÑĢÐ°Ð¿
ĠÐºÐ¾Ð½ÑĤ ÑĥÑĢÐ½ÑĭÐ¹
ĠÐ¼ÑĥÐ»ÑĮÑĤ Ð¸Ð¿
ĠÐ³Ð°Ð± Ð±ÑĢÐ¾
ĠÐ½Ð°Ð±Ð¾ÑĢ ÑĤÐ½ÑĭÐ¹
Ġuk k
ĠÐºÐµÑĢÐ°Ð¼Ð· Ð¸ÑĤ
Ġtechn olog
ĠÐ¿ÐµÐ½Ð¾Ð¿Ð»Ð°ÑģÑĤ Ð¾Ð²ÑĭÐ¹
ÑĥÐ»Ð°Ð² Ð»Ð¸Ð²Ð°ÑİÑīÐ¸Ð¹
cool ing
ĠÐ¿ÑĭÐ»Ðµ ÑĥÐ»Ð°Ð²Ð»Ð¸Ð²Ð°ÑİÑīÐ¸Ð¹
ĠÐ²ÑģÐ¿ÑĥÑĩ Ð¸Ð²Ð°ÑĤÑĮÑģÑı
ÑįÐ½ÐµÑĢÐ³ Ð¸Ñı
ĠÐºÐ°ÑĪ Ð¸ÑĢÐ¾Ð²Ð°Ð½Ð¸Ðµ
ĠÑĥÐºÐ¾ÑĢ Ð¾ÑĤÐ¸ÑĤÑĮ
ĠÑģÐ»ÐµÑģ Ð°ÑĢÐ½ÑĭÐ¹
ĠÐºÐ»Ñİ Ð²Ð¾Ð²Ð°
ĠÐºÐ¾Ð¼Ð¼ÑĥÐ½Ð¸ÐºÐ° ÑĨÐ¸Ñı
Ġtechnolog ies
9 40
f d
i ce
k ti
m l
u ks
x rj
Ð½ o
ÑĢ Ð¾Ð¶Ð´ÐµÐ½Ð¸Ðµ
Ð¹ ÑĤÐ°
ĠÑģ Ðµ
ĠÑģ ÐµÑĩÐ°
Ð¿ ÐµÑĨ
ĠÐº ÑĤÐ°
ĠÐ¿ Ð¿Ñģ
Ð´ Ð¾Ð·ÐµÑĢ
ĠÐ´ Ð¿Ð¿
ĠÐ´ Ð¾Ð·Ð¸Ð¼ÐµÑĤÑĢ
ÑĢÐ° ÑģÑĤ
Ð¾Ð¹ Ð¼Ð°
Ð¾ÑĢ Ð³Ð°Ð½
ĠÑĤ Ð¼Ñģ
Ġ3 91
Ġ4 16
ÑĢÑĥ Ñĩ
ÐµÐ· Ð´Ð½ÑĭÐ¹
ĠÐ· Ð»Ð¾
ĠÐ· Ð¿Ð²Ñģ
Ġs dn
Ġd u
Ġt fl
Ð¾Ð± ÑĢÐ°ÑĤÐ½ÑĭÐ¹
ĠÑĤÐ¾Ð» ÑģÑĤ
ti s
ĠÐ°ÑĢ Ð½Ð°
ĠÑĢ Ð¼
ĠÐ¿ÑĢÐ¾ ÐµÐ·
ÐµÑĢÐ° Ð±
ÐµÐ² Ð¸Ðº
ÑıÑĩ Ð½ÑĭÐ¹
Ġ12 30
an it
ĠÐ´Ð² ÑĥÐ¶
ĠÑĨ Ñħ
ĠÐºÑĢ ÑĤÐ¿
Ġr r
15 4
Ġ90 3
100 5
80 80
ec o
Ġk sa
ĠÐ²Ð¾Ð´ Ð¾Ð¿Ð¾Ð´
ĠÑĤÑĢ ÑĳÑħ
Ġ00 20
Ġas vs
Ð°Ð» Ð¸ÑĤ
ĠÐºÐ¾Ð» ÑİÑĩÐ¸Ð¹
Ġ11 371
65 7
ĠÑģÐ²ÐµÑĤ Ð¾Ð¿ÑĢÐ¾Ð·ÑĢÐ°ÑĩÐ½ÑĭÐ¹
ÐµÐ± ÑĳÐ´
Ġsh ell
21 14
ÑĥÐ»ÑĮ Ð´Ð¾Ð·ÐµÑĢ
ĠÑĥÑĤ Ð¾Ð»ÑģÑĤ
Ġ29 60
Ġ102 10
ĠÐ´Ð¾Ð± Ð°Ð²Ð»ÐµÐ½Ð¸Ðµ
Ġar ma
ĠÑģÐ³ Ð¾ÑĢÐ°Ð½Ð¸Ðµ
212 2
Ð»ÑĥÑĩ Ð°ÑĤÐµÐ»ÑĮ
Ð»ÑĥÑĩ ÐµÐ²Ð¾Ð¹
ĠÐ²Ð¾Ð· ÑĢÐ¾Ð¶Ð´ÐµÐ½Ð¸Ðµ
Ð±Ð¿ ÑĪÐ¿
ĠÐºÐ·Ð° Ð¿Ð°Ñģ
ĠÑģÐ¸Ð¿ Ð½ÑĥÑĤÑĮ
Ġmq z
ĠÐºÐ»Ð°Ð²Ð¸ ÑĪÐ°
ĠÐºÐ»Ð°Ð²Ð¸ Ð°ÑĤÑĥÑĢÐ°
ĠÐ²Ð± Ð±ÑĪÐ²Ð½Ð³
ĠÐ¼Ð´ ÑĦ
ÑĦÐ°Ñģ Ð¾Ð½Ð½ÑĭÐ¹
Ġ745 9
ĠÐ²ÑĭÑħÐ»Ð¾Ð¿ Ð½Ð¾Ð¹
ĠÐ°ÐºÐ° ÑįÑģ
ĠkÑĥÐ¿ Ð¿Ð¼Ð½Ð³
biii b
Ġadjust able
ÐµÐ¿ÑĢÐµÐ³ÑĢÐ°Ð´ Ð¸ÑĤÐµÐ»ÑĮ
ĠÑĢÐ°ÑģÐºÐ»Ð¸Ð½ Ð¸Ð²Ð°ÑĤÑĮÑģÑı
ĠÑĨÐ°ÑĢÐ°Ð¿ Ð¸Ð½Ð°
ĠÐ´Ð²ÑĥÐ¶ Ð¸Ð»ÑĮÐ½ÑĭÐ¹
ĠÑĥÑĤÐ¾Ð»ÑģÑĤ Ð¸ÑĤÑĮ
6 40
8 20
s r
s ae
Ð» ÐµÐ½
Ð¼ ÐºÐ¼
Ð¿ Ð¿Ð½Ð³
ĠÐ¿ Ð¾Ð±Ðµ
Ð´ ÐµÐ¼
Ð´ Ð¾Ð·Ð¸Ð¼ÐµÑĤÑĢ
Ð´ Ð¾Ð¿ÑĥÑģÐº
Ð¾Ð² ÐµÐ½ÑĤÐ¸Ð»Ñı
ĠÐ¾ Ð·
ĠÐ½ ÑĦ
ĠÑĤ Ð¼ÐºÑīÐ¸Ð¹
ĠÐ³ Ð¾Ð»
Ð¶ Ð°Ð»
ĠÑĢÐ° ÑģÑĤÐ°
ÐµÐº ÑģÐ½ÑĭÐ¹
ÑĪ Ð¸Ð¿
ĠÐ·Ð° Ð¿Ð°
Ġt es
Ġa h
ĠÐºÐ° ÑĪÐ¸Ð½
ĠÑĪ Ð½
ĠÐ¿ÐµÑĢ ÐµÑĢÐ°Ð±
ĠÑĢÐ°Ð· Ð´ÐµÐ»ÐµÐ½Ð¸Ðµ
Ġf re
ĠÐ¿ÑĢÐ¾ ÑĪÐ¸ÑĤÑĮ
Ġq cooling
Ġh g
Ġh one
ĠÐ½Ðµ Ð¾ÑĢÐ³Ð°Ð½Ð¸ÑĩÐµÑģÐºÐ¸Ð¹
000 21
Ð¿ÑĢ Ñı
Ð¿ÑĢ Ð¸Ð¿Ð¾Ð¹
Ġ25 6
Ð¼ÐµÐ½ Ð½Ð¾
Ð»ÑıÑĤÑĮ ÑģÑı
12 4
Ġ32 62
ĠÑģÐ²ÐµÑĢ Ð»Ð¸Ð»ÑĮÐ½ÑĭÐ¹
ĠÑĤÐµÐ¿Ð» Ð¾Ð·Ð°ÑīÐ¸ÑĤÐ½ÑĭÐ¹
ĠÐ¾Ñģ Ðº
ĠÑįÑĤ Ð¸Ð»ÐµÐ½
ÑģÑĤÐ² Ð¾ÑĢÐ½ÑĭÐ¹
her m
ĠÐ²Ð² ÐµÑĢÑĤÐ½ÑĭÐ¹
Ð¿ÑĥÑģ Ð½ÑĭÐ¹
Ġ45 7
13 8
Ð²Ð° Ð°ÑĢ
Ð²Ð° ÑİÑīÐ¸Ð¹ÑģÑı
ĠÑĪÐ¿ Ð¾Ð½ÐºÐ°
ĠÑĪÐ°ÑĢ Ð¸Ðº
ĠÑĤÑĢÐ° ÐºÑĤ
Ð¾Ñı ÑĤÐ¾ÑĩÐ½ÑĭÐ¹
Ġin te
ÑģÐº Ð°ÑĤÐ½ÑĭÐ¹
ĠÑĤÐµÑħÐ½ Ð¾Ð»Ð¾Ð³Ð¸Ñı
Ð»Ð°Ð² Ð»ÐµÐ½Ð¸Ðµ
ÑĭÐ² Ð°ÑĤÐµÐ»ÑĮ
Ð¾Ð·Ð°Ñī Ð¸ÑĤÐ°
Ð¾ÑĦÑĢ Ð¸ÑĢÐ¾Ð²Ð°Ð½Ð½ÑĭÐ¹
ĠÐºÐ¾ ÑĥÑĪ
Ġx p
Ġz sd
ĠÐ°Ð² Ð±ÑĪÐ²Ð°
Ġthrott ling
ak ronex
ĠÐ°ÑĤÐ¼Ð¾ÑģÑĦÐµÑĢ Ð¾ÑģÑĤÐ¾Ð¹ÐºÐ¸Ð¹
ĠÑĤÑĢÐ¾Ñģ Ð¾Ð²ÑĭÐ¹
Ġsika dur
Ġline s
ĠÐºÐ°Ð» Ð³Ñĥ
Ġtl x
Ġflag on
ĠÐ¿Ð»Ð°Ð² ÐºÐ°
ÑįÐ¼ÑĥÐ»ÑĮÑģ Ð¸Ñı
ÐºÐ¾Ð¼Ð¿ÑĢÐµÑģÑģ Ð¾ÑĢÐ½ÑĭÐ¹
ĠÐ¿Ð½ÐµÐ²Ð¼ Ð¾Ð¿ÑĢÐ¸Ð²Ð¾Ð´
ĠÑĨÐµÐ»ÑĮÐ½Ð¾Ð¾ÑĤ Ð»Ð¸ÑĤÐ°
ĠÑĪÑĤÐ°Ð¼Ð¿ Ð¾Ð²Ð°ÑĤÑĮ
ĠÐ±ÑĥÐ³ ÐµÐ»ÑĮ
ĠÐ½ÐµÑĢÐ¶Ð°Ð²Ðµ ÑİÑĪ
ÐµÐ±ÑĳÐ´ ÐºÐ°
ĠÐ¿Ð¾Ð±Ðµ Ð¶Ð°Ð»
Ġhone yw
ĠÐºÐ°Ð»Ð³Ñĥ Ð²Ð°Ð°ÑĢ
ĠÐ¿Ð¾Ð±ÐµÐ¶Ð°Ð» Ð¾ÑģÑĤÑĮ
5 20
9 13
g er
Ð½ ÐµÑĢ
Ðº Ð¸ÑģÐ»
ĠÑģ ÑĥÑĤ
ÑĤÐ° Ñĥ
ÑĤÐ° ÑĩÐ¸Ð²Ð°Ð½Ð¸Ðµ
ĠÐ³ Ð¾ÑĢÐ°
Ð¶ Ð¸Ð¹
ÑĦ Ð°Ð½Ð¾Ð²ÑĭÐ¹
Ð¾ÑĤ ÑĤÑıÐ¶ÐºÐ°
Ġm ds
ÐµÑĤ Ð¾ÑĩÐ½ÑĭÐ¹
ĠÐ¾Ð± ÑĤÐ°ÑĩÐ¸Ð²Ð°Ð½Ð¸Ðµ
ĠÑģÐ² Ð¾
Ġ5 600
Ġ5 68
Ð¸Ð· Ð¼ÐµÑĢ
Ð¸Ð»ÑĮ ÑĤÐ°Ñĥ
ĠÐºÐ¾Ð½ Ð½ÐµÐºÑĤÐ¾ÑĢ
Ġ10 279
Ð¾Ð¶ ÑģÐºÐ¸Ð¹
Ġ16 2
Ð¸Ð´ Ð¶
18 50
100 56
ĠÐ¿ÑĢÐ¾ÑĤÐ¸Ð² Ð¾ÑģÐº
ĠÐ¾Ñģ ÑĥÑĪÐ¸ÑĤÐµÐ»ÑĮ
ĠÑĤÐµÑĢ ÑĢÐ°Ðº
ÑģÑĤÐ² ÐµÐ½Ð½Ð¾
Ġnom inal
ĠÐ´Ð²ÑĥÑħ Ð¿Ð»Ð¾Ñģ
ĠÐ´Ð²ÑĥÑħ ÑģÐºÐ°ÑĤÐ½ÑĭÐ¹
ÑĦÐ¾ÑĢ Ð¼
ĠÐ¾Ðº ÑĢÑĥ
Ġ11 9
Ġ28 20
ÑģÐ² Ð°ÑĢÐ¾ÑĩÐ½ÑĭÐ¹
ĠÑĤÐµÑĢÐ¼Ð¾ÑĥÑģÐ°Ð¶ Ð¸Ð²Ð°ÑĤÑĮÑģÑı
54 33
Ġfl ame
ĠÐ¿Ð¾Ð²Ñĭ ÑĪÐµÐ½Ð¸Ðµ
ĠÐ´ÑĢ Ð¸
Ð»Ðµ Ð½ÑĭÐ¹
ment s
ĠÐºÐ²Ð² Ð±
Ġ38 2
Ġj ip
ĠÐºÑĥÐ³ Ð¿Ð¿
ĠÐ¿ÐµÑĢÐµÐ´ Ð°Ð²Ð°ÑĤÑĮ
Ð¿ÑĢÐµÑģÑģ Ð¾Ð²Ð°ÑĤÑĮ
ĠÐ¿ÑĢÐ¾Ð¿ Ð»Ð°Ð²Ð»ÐµÐ½Ð¸Ðµ
Ġar m
ÑĤÐµÑĢ Ð¼Ð¾
Ġgl dm
ĠÐºÐ»Ð¸Ð½ ÐºÐµÑĢÐ½ÑĭÐ¹
Ġmi o
Ġhea ter
Ġbet on
ĠÐ²ÑĭÐ¿ Ð¾Ð»Ð½ÐµÐ½Ð¸Ðµ
ĠÐ³Ð°Ð»ÑĮ ÑĦÐ°Ð½Ð¾Ð²ÑĭÐ¹
ÐºÐ°Ñĩ ÐµÐ»Ð¸
Ġny y
Ġmarg ing
ÑįÐº ÑģÑĤÑĢÑĥ
ĠÐ´Ð¶ Ð¸Ð»ÑĮÑĤÐ°Ñĥ
ĠÐ·Ð°Ð½ ÐµÑģÑĤÐ¸
ĠcÐ²ÐµÑĤ Ð¾Ð´Ð¸Ð¾Ð´Ð½ÑĭÐ¹
ĠÐ¿ÐµÑĢÐµÐ» Ð¸Ð²
ĠÑĥÑģÐ¸ Ð»ÐµÐ½Ð¸Ðµ
ĠÐ¿ÑĥÐ´ Ð¾Ð¶ÑģÐºÐ¸Ð¹
Ġsod a
ĠÐ²Ð¾Ðº ÑĢÑĥÐ³
Ð¿ÑĢÐ¾Ð± ÐºÐ°
ĠÐ±ÑĥÑĤÐ¸Ð»ÐºÐ°ÑĥÑĩ ÑĥÐºÐ¾Ð²ÑĭÐ¹
kti ka
ĠÐ¿ÑĢÐ¾ÐµÐ· Ð¶Ð¸Ð¹
ĠÑĢÐ°ÑģÑĤÐ° ÑĩÐ¸Ð²Ð°Ð½Ð¸Ðµ
ĠÐ´Ð²ÑĥÑħÐ¿Ð»Ð¾Ñģ ÐºÐ¾ÑģÑĤÐ½Ð¾Ð¹
6 15
b us
ĠÑģ Ð¼ÐµÑĤÐ°
ĠÐ¼ ÑĦ
ĠÐº ÑĥÑĢ
ĠÐ¿ Ð¸ÑģÑĮ
Ð´ ÐµÑĢ
00 28
ĠÐ´ Ðµ
ĠÐ¸ Ð¾Ð½
ĠÐ½ ÑĤ
ĠÑĤ ÐµÐ¼
Ð¾ÑģÑĤ ÑĢ
ÑĨ ÐµÐ»
ĠÐ± Ð¼
ĠÐ³ Ð±
ĠÑĥ Ð»ÑĥÑĩ
Ð¸Ñı ÑĤÐ¸Ðµ
ÑĦ Ð¸Ð±ÑĢ
ÑĢÑĥ Ðº
ĠÐ½Ð° Ð¶Ð¸Ð¼Ð½ÑĭÐ¹
ÐµÐ´ ÑģÐºÐ¸Ð¹
Ġi re
ĠÑģÑĤ Ð°ÑĤ
ĠÑģÑĤ Ð¾Ñı
ĠÐ¾Ð± Ð²Ð¾Ð´Ð½ÑĭÐ¹
ĠÐ¾Ð± Ð¾Ð¹Ð¼Ð°
Ġp d
Ġp ass
Ġ5 55
Ġo g
Ġo oo
Ð¸Ð· Ð°ÑĤÐ¾ÑĢ
ĠÑĦ ÐµÐ½
Ġn Ð½Ð¾Ð¼
ĠÑĢ Ð»
ĠÐ¿Ð¾Ð» Ðµ
Ġq Ð½Ð¾Ð¼
Ġb v
ĠÑģÐ²Ð°ÑĢ Ð¸Ð²Ð°Ð½Ð¸Ðµ
Ġl ink
Ġ25 60
ĠÐ¿Ð¾Ðº Ð¾ÑģÑĤÐ¾Ð²
15 7
Ġk pa
ÐºÐ¾Ð½ ÑĨÐµÐ²
Ġ30 6
Ð½Ð¾Ð² ÑģÐºÐ¸Ð¹
Ġ18 4
Ð²Ð¸ Ñģ
st op
Ġ19 4
Ð°Ð¼ Ð¼Ð¾Ð½Ð¸ÑĤ
ÑĥÑģÑĤ Ð¸Ð½ÑģÐºÐ¸Ð¹
ÑĢÐ°Ð· Ð¼ÐµÑĢ
Ð¾ÑĪ Ð¸Ð¹
ĠÑĤÑĢÐµÑħ Ð»ÑĥÑĩÐµÐ²Ð¾Ð¹
Ð¸Ð¼Ð° ÐµÐ¼Ð¾ÑģÑĤÑĮ
Ð¾ÑĢÐ¾Ð¶ ÐºÐ¾Ð²ÑĭÐ¹
Ġlo u
120 2
Ð»Ð°Ð² ÐºÐ¾Ð²ÑĭÐ¹
ĠÐ²Ð· Ð¾
ĠÐ»Ð°ÑĤ ÐµÐºÑģÐ½ÑĭÐ¹
Ġx b
ĠÑĥÑģÐ¸Ð» Ð¸ÑĤÐµÐ»ÑĮ
ĠÐ°Ð½Ð° Ð»Ð¸Ð·Ð°ÑĤÐ¾ÑĢ
ĠÑĥÐ¿Ð»Ð¾ÑĤ Ð½
ĠÐ¾ÑĨÐ¸Ð½Ðº Ð¾Ð²ÐºÐ°
ĠÑģÑĤÑĭÐº Ð¾Ð²ÐºÐ°
Ġ41 144
ĠÑģÐ¶ Ð¸Ð¼Ð°ÐµÐ¼Ð¾ÑģÑĤÑĮ
Ð¿Ð¾Ð´ ÑģÑĤÐ°Ð²ÐºÐ°
ĠÐ¿ÑĢÐ¾Ð½Ð¸Ðº Ð½Ð¾Ð²ÐµÐ½Ð¸Ðµ
Ġar ktika
ĠÑĢÐ°Ð·Ð´ÐµÐ» Ð¸ÑĤÑĮ
ĠÑĤÐµÑĢÐ¼Ð¾Ð¾Ð± ÑĢÐ°Ð±Ð¾ÑĤÐºÐ°
ĠÐ²Ð¾Ð» Ð³Ð°Ñģ
ĠÑĢÐµÐ²Ð¸Ð· Ð¸Ð¾Ð½Ð½ÑĭÐ¹
ĠÑĢÐµÑĨ Ð¸ÑĢÐºÑĥÐ»ÑıÑĨÐ¸Ñı
Ġinst r
ĠÐºÐ°Ð¿ ÑĥÑģÑĤÐ¸Ð½ÑģÐºÐ¸Ð¹
ÐºÐ¾Ð½Ð´ ÐµÐ½Ñģ
Ġnsy tr
ĠÑĢÐµÐ³ Ð¸ÑģÑĤ
148 98
Ġthermo stat
ĠÐºÐµÑĢÐ°Ð¼Ð· Ð¸ÑĤÐ¾Ð²ÑĭÐ¹
Ð³Ð°Ñģ Ð¸ÑĤÐµÐ»ÑĮ
Ġhc x
ĠÑħÐ¾ÑĢ Ð¾ÑĪÐ¸Ð¹
ÑĢÐµÑĦ Ð½ÑĥÑĤÑĮ
ĠÐ¿ÑĢÐ¾Ð» Ð¾Ð¶Ð¸ÑĤÑĮ
Ġneut ral
Ġconduc tors
Ð¿ÐµÑĨ Ð¾Ð±Ð¾ÑĢÑĥÐ´Ð¾Ð²Ð°Ð½Ð¸Ðµ
Ð¿ÑĢÑı Ð¼
ĠÐ¿ÑĢÐ¾ÑĤÐ¸Ð²Ð¾ÑģÐº Ð¾Ð»ÑĮÐ·ÑıÑīÐ¸Ð¹
ÑįÐºÑģÑĤÑĢÑĥ Ð´Ð¸ÑĢÐ¾Ð²Ð°ÑĤÑĮ
ĠÑģÑĤÐ¾Ñı Ðº
ĠÐ¿Ð¾ÐºÐ¾ÑģÑĤÐ¾Ð² ÑģÐºÐ¸Ð¹
ĠÐ²Ð¾Ð»Ð³Ð°Ñģ Ð¿ÐµÑĨÐ¾Ð±Ð¾ÑĢÑĥÐ´Ð¾Ð²Ð°Ð½Ð¸Ðµ
e u
u a
Ð¸ Ñĥ
Ðº Ð¾Ð±
Ð¼ Ð¾Ð»
ĠÑģ ÐµÐ¹
ĠÐº ÑĢÐ°
Ñı Ð½Ð¾Ð²ÑģÐºÐ¸Ð¹
ĠÐ² Ñį
Ð¾Ð¿ ÑĭÐ»
ÐµÐ»ÑĮ ÑıÐ½Ð¾Ð²ÑģÐºÐ¸Ð¹
ĠÐ³ Ñģ
Ġ3 38
Ġc yl
ÑĦ Ð¸ÑĤÐ¸Ð½Ð³
ĠÐ¾ÑĤ Ð´ÐµÐ»ÐµÐ½Ð¸Ðµ
ĠÐ¾ÑĤ ÐºÐ°ÑĩÐºÐ°
ĠÑį ÐºÐ·
Ġ6 75
Ġp vd
ĠÑĥÐ³ Ð¾Ð»ÑĮ
ÑĥÑĢ Ñģ
ĠÑĦ ÑĢÐµÐ·
ĠÑĦ Ð¾ÑĢÑĤ
ĠÑĦ ÑģÐ±
Ġf m
ĠÐºÐ¾Ð½ ÑĦ
Ġ7 85
Ġb i
ate mp
Ð¿ÑĢ Ð¸ÑıÑĤÐ¸Ðµ
ĠÐ¿Ð» Ð¸ÑĤÐ¾ÑĩÐ½ÑĭÐ¹
ĠÐ¿Ð¾Ð´ Ð³Ð¾ÑĤÐ¾Ð²ÐºÐ°
ĠÐºÐ¾Ð¼Ð¿ Ð¾Ð·Ð¸ÑĤ
80 4
12 000
Ġ60 1
Ġsa t
14 80
ĠÐ¾Ð´Ð½ Ð¾ÑĤ
Ġ18 000
Ġ18 31
her net
ĠÐ¿ÑĢÐµÐ´ Ð¿ÑĢÐ¸ÑıÑĤÐ¸Ðµ
Ġ70 47
Ð°ÑģÑĤ ÑĭÐ¹
Ð°ÑģÑĤ Ð¾Ð¿Ð°
ÑĥÑĤ Ð½Ð¸ÐºÐ¾Ð²ÑĭÐ¹
Ð´ÑĢ Ð¾Ð±
45 5
28 2
Ð¾ÑĤÐ° ÑĢÐ°Ð½Ð½ÑĭÐ¹
ÑĢÐµÐ· ÐµÑĢÐ²
ĠÐ»Ð¸Ð½ Ð¾Ð»ÐµÑĥÐ¼
21 35
ĠÐ²ÐµÑĢÑĤÐ¸ÐºÐ° Ð»ÑĮÐ½Ð¾
Ð¾ÑĢÐ¾Ð¶ Ð½Ð¾
Ð¾ÑĦ ÑĥÐ½ÐºÑĨÐ¸Ð¾Ð½Ð°Ð»ÑĮÐ½ÑĭÐ¹
ĠÐ¾Ð³ ÑĤÑģ
Ġ23 3
ĠÐ¾ÑĢ Ð¾ÑģÐ¸ÑĤÐµÐ»ÑĮ
ĠÐ¾ÑģÑĤ Ð¾ÑĢÐ¾Ð¶Ð½Ð¾
ĠÐ½Ð°Ñģ ÐµÑĩÐºÐ°
Ð¾Ð»Ð° Ð¼Ð¸Ð½
ĠÑģÑĤÐ°ÑĢ Ð¾Ð³Ð¾Ð´Ð½ÑĭÐ¹
47 6
ĠÑĤÐ· Ð³
Ð½Ð¾ÑģÑĤ ÑĢÑĥÐ¶ÐµÑĩÐ½ÑĭÐ¹
ĠÐ¼Ð°Ñģ Ð»
pl an
ĠÐºÐ¾Ð½Ð´ÐµÐ½Ñģ Ð°ÑĤÐ½ÑĭÐ¹
Ġkv a
ĠÐ´Ð²ÑĥÑģÑĤ ÐµÐ½ÑĩÐ°ÑĤÐ°Ð¹
ĠÐ¸ÑģÐ¿Ð¾Ð»ÑĮÐ· Ð¾Ð²Ð°ÑĤÑĮÑģÑı
Ð¾ÑģÐ½Ð¾Ð² Ð½ÑĭÐ¹
Ġon ka
850 1
ĠÐ½ÐµÐ¹ ÑĤÑĢÐ°
ĠÐ°ÑģÑĦÐ°Ð»ÑĮÑĤ Ð¾ÑģÐ¼ÐµÑģÑĮ
ĠÐ´Ð¿ Ð¾
440 4
Ġfil ling
Ġjot atemp
ĠÐ´ÐµÑĤ ÑģÐºÐ¸Ð¹
ĠÐ¿ÐµÑĢÐµÐ³ Ð¾Ð²Ð¾ÑĢÐ½ÑĭÐ¹
ÑĪÐ°ÑĢ Ð½
Ġequ ip
ĠÑĤÐ°ÑĢ ÐºÐµÑĤ
ĠÐ³ÑĢÐ°ÑĦ Ð¸ÑĤ
ĠÐ¿Ð»Ð°Ð² ÐºÐ¸Ð¹
ĠÐ¸Ð·Ð¼ÐµÐ½ ÐµÐ½Ð¸Ðµ
ĠÐ²Ð¸Ð´Ðµ Ð¾ÐºÐ°Ð¼ÐµÑĢÐ°
ĠÐ°ÐºÐ² Ð°ÑģÑĤÐ¾Ð¿Ð°
Ġmeasur ed
Ġ158 74
ĠÑĦÐ°ÐºÑĤ ÑĥÑĢÐ½ÑĭÐ¹
Ð¿Ð°ÑĢ Ð¾Ð½Ð¸ÑĤ
ĠÑĤÑĢÐ°Ð¼Ð²Ð° Ð¹
ĠÑĤÑĢÐ¾Ð»Ð»ÐµÐ¹Ð± ÑĥÑģ
ĠÐ²Ð¸Ð½Ð¸Ð» Ð¾Ð²ÑĭÐ¹
ĠÐ³ÑĢÐ°Ð½Ñĥ Ð»Ð°
ĠÐ´ÐµÐ·Ð°ÐºÑĤÐ¸Ð²Ð° ÑĨÐ¸Ð¾Ð½Ð½ÑĭÐ¹
Ġreg ul
ĠÐ¿ÐµÑĢÐ» Ð¸ÑĤÐ½ÑĭÐ¹
ĠÐµÐ¼ ÐµÐ»ÑĮÑıÐ½Ð¾Ð²ÑģÐºÐ¸Ð¹
ĠÐ°Ð»Ðº Ð¸Ð´Ð½ÑĭÐ¹
Ġsin ikon
Ð´Ð¾Ð¿ÑĥÑģÐº Ð°ÑĤÑĮÑģÑı
Ġpvd f
ĠÑĤÐ°ÑĢÐºÐµÑĤ ÑĤÐ°
4 121
a v
e v
p h
Ð» Ð°ÑĤ
Ðº ÑĥÑĪ
Ð¼ Ð¸ÑĢÐ¾Ð²Ð°ÑĤÑĮÑģÑı
ĠÑģ ÑĢÑĭÐ²Ð°ÑĤÑĮÑģÑı
ĠÐ¼ ÑĢÐ¿
Ð± Ð¾Ð±ÑĭÑĪÐºÐ°
Ð¾Ð» Ð¸ÑĤ
ĠÐ½ Ð±
Ð»Ð° Ð¿Ð°ÑĤÑĮ
Ð¾Ð½ ÐµÐ½Ð¸Ðµ
ÑĦ Ð¾Ð»ÑĮ
Ð¾ÑĤ Ð½
Ġs ir
Ð¾Ð¼ Ð°ÑģÑĤÑĭÐ¹
Ġd ual
Ġa y
Ġ9 34
Ð¾Ñģ ÑĥÐ´
Ð¸Ð¿ Ñĥ
Ð°Ð² Ð¸ÑĤÐµÐ»ÑĮ
ÑģÐ¼ Ð¾Ð»Ð°
Ð¸Ð» ÑĨÐµÐ»
ĠÐ¶ Ð²
ÐµÐ² Ð°
Ġv it
Ġw du
Ġg lc
Ð¾Ð»Ð¾Ðº Ð½Ð¸ÑģÑĤÑĭÐ¹
ĠÐ¿ÑĢÐ¾ÑĤÐ¸Ð² Ð¾ÑĤÐ°ÑĢÐ°Ð½Ð½ÑĭÐ¹
ĠÐ²Ð¾Ð´ Ð¾Ð½ÐµÐ¿ÑĢ
ĠÐ¿ÑĢÐ¾Ð± Ð¾Ð¾ÑĤ
Ġ60 4
ĠÐºÐ¾Ð¼Ð¿Ð»ÐµÐºÑĤ Ð¾Ð²Ð°ÑĤÑĮ
ĠÐ¼Ð¾Ð½ Ð¾Ð±Ð»Ð¾ÑĩÐ½ÑĭÐ¹
ĠÐ¾Ð´Ð½ Ð¾ÑĢÐ¾Ð¶ÐºÐ¾Ð²ÑĭÐ¹
Ġ18 30
Ð°Ð» Ð¾
Ġe q
ĠÐ½Ð°Ð¿ Ð¾Ð»Ð½
Ġ35 6
Ġan tic
ÐºÑĢ Ð¾Ð±ÐµÐ·Ð¾Ð¿Ð°ÑģÐ½ÑĭÐ¹
Ġ28 51
ÐµÐ½ÑĤÐ° ÑĨÐ¸Ñı
Ġ65 8
ĠÑĤÐµÑħÐ½ Ð¾Ð¼Ð°ÑģÑĤÑĭÐ¹
Ð»Ð°Ð² ÐºÐ°
ĠÐ¿Ð¾Ñģ ÑĥÐ´Ð°
ĠÑĥÑĤ Ð¾Ð½ÐµÐ½Ð¸Ðµ
91 300
ĠÐ¿Ð¾Ð³ÑĢÑĥ Ð¶Ð°ÑĤÑĮ
ĠÑĨÐµÐ»ÑĮ Ð½Ð¾ÑģÑĤ
ĠÑĢÐ¾Ð· ÐµÑĤÐ¾ÑĩÐ½ÑĭÐ¹
Ġback pressure
ĠÑģÐ°Ð¼Ð¾ÑĢ ÐµÐ·
ĠÐ´Ð¸ Ð¼ÐµÑĤÑĢ
ĠÐ¸Ð½ÐµÑĢ ÑĨÐ¸Ð¾Ð½Ð½ÑĭÐ¹
Ġup vc
ĠÑģÑĥ ÑĪÐºÐ°
ĠÐ°Ð´ÑĢ ÐµÑģ
ĠÐ»Ð¸ ÑĤÑĢ
ĠÑĤÑĢÐ¾Ñģ Ð¾ÑģÑĤÐ¾Ð¹ÐºÐ°
Ð¿ÑĢÐ¸ Ð¶Ð¸Ð¼
Ð½Ð¾ÑĢ Ð¼Ð¸ÑĢÐ¾Ð²Ð°ÑĤÑĮÑģÑı
Ð²Ð¸Ð½ÑĤ Ð¾Ð²Ð¾Ð¹
Ð¾ÑģÐ¼ ÐµÑģÐ¸ÑĤÐµÐ»ÑĮ
ĠÐ½ÐµÐ³ Ð»Ð°Ð·ÑĥÑĢÐ¾Ð²
Ð³Ð¸Ð´ ÑĢÐ°Ð½ÑĤ
ĠÐ²ÑĭÐ¿ ÑĥÐº
Ġve za
ÑĪÐ½ Ñı
ĠÑĢÐµÑģ ÑĥÑĢÑģ
ĠÐ²ÐµÑĢ ÑĪÐ¸Ð½Ð°
Ð¿ÐµÐ½ Ð¾Ð¿Ð¾Ð»Ð¸ÑįÑĤ
Ġcoup led
ĠÑĥÐ´Ð°Ð»ÑıÑĤÑĮ ÑģÑı
Ġbo ard
ĠÐ¸Ñģ ÐºÑĢÐ¾Ð±ÐµÐ·Ð¾Ð¿Ð°ÑģÐ½ÑĭÐ¹
Ġmic ro
Ġ474 728
ĠÐ¾Ð±ÐµÐ· Ð¶Ð¸ÑĢ
ĠÐ¾ÑĤÐ´ÐµÐ» Ð¾ÑĩÐ½ÑĭÐ¹
ĠÑĢÑĭÑĩÐ° Ð¶Ð½ÑĭÐ¹
Ġhou sing
Ð¾Ð´Ð¸ÑģÐ¿ ÐµÑĢÑģÐ¸Ð¾Ð½Ð½ÑĭÐ¹
Ġ798 14898
Ġlad der
amin ation
ĠÐ¿ÐµÑĢÐµÑĢÐ°Ð± Ð¾ÑĤÐºÐ°
Ġlou ver
ĠÐ½ÐµÐ³Ð»Ð°Ð·ÑĥÑĢÐ¾Ð² Ð°Ð½Ð½ÑĭÐ¹
Ð¿ÐµÐ½Ð¾Ð¿Ð¾Ð»Ð¸ÑįÑĤ Ð¸Ð»ÐµÐ½
Ġ474728 41
a ir
h b
r s
s o
v k
Ð° Ð¿
Ðº Ð»Ðµ
ĠÐº ÑĥÐ±
ĠÐ¿ ÑĥÐ»
ÑģÑĤ Ð¾Ð¹
Ð´ Ð»Ðµ
ÐµÑĢ Ð¾Ð³ÐµÐ½Ð½ÑĭÐ¹
Ð± Ð¸Ð½Ð½ÑĭÐ¹
ĠÐ¾ Ñį
ÐºÐ° Ð¿ÑģÑĥÐ»Ð°
ĠÑĤ ÑģÐ°
Ð¾ÑģÑĤ Ð¸ÑĤÑĮ
ĠÐ¿ÑĢ Ð¸Ð½Ð°
ĠÐ³ ÐµÑĤ
Ġ4 400
Ġ4 36
Ġs v
Ġm it
Ġp lex
Ġn Ð¾Ñħ
Ġ8 55
ÑĢÑĭ Ð²Ð°ÑİÑīÐ¸Ð¹ÑģÑı
ĠÐ½Ðµ Ð¾Ð¿ÑĢ
Ġ12 13
el f
ĠÑĥÐ¿ Ð²Ðº
Ġu sg
12 9
60 2
Ġ14 70
ĠÑĢÐ°Ñģ ÑĩÐ°
Ð¿ÐµÑĢ ÐµÐ²Ð¾Ð´
Ð½Ð¾Ð² Ð¾Ð»Ð¾ÐºÐ½Ð¸ÑģÑĤÑĭÐ¹
Ð°Ð»ÑĮ Ð½Ð¾ÑģÑĤÑĮ
ÑĥÐ¿ Ð°ÑĤÑĮ
ĠÐ¾Ðº Ð±
Ġ19 50
ĠÐ¿ÑĢÐµÐ´ ÑĦÐ¸Ð»ÑĮÑĤÑĢ
Ġdi m
ĠÐ°Ð½ÑĤ ÐµÐ½Ð½ÑĭÐ¹
ÐµÐ± ÑĢÐ¸ÑģÑĤÑĭÐ¹
Ġth ree
41 10
Ð´Ð² ÑĥÑħ
ĠÐºÐ¾Ð² ÑĢÐ¾Ð²ÑĭÐ¹
Ġ23 4
ĠÐ¿Ð¾Ñģ Ð°Ð´Ð¾ÑĩÐ½ÑĭÐ¹
ĠÑĥÑĤ ÑıÐ¶
ĠÐ¾Ð´Ð½Ð¾ ÑĥÑĢÐ¾Ð²Ð½ÐµÐ²ÑĭÐ¹
ĠÐ¾ÑģÑĤ ÑĢÐ¾Ð²
Ð²ÐµÑĢ Ð³
Ð²ÐµÑĢ ÑģÑĤÐ°Ðº
ĠÐ¿Ð°ÑĢ Ð¾Ð¸Ð·Ð¾Ð»ÑıÑĨÐ¸Ð¾Ð½Ð½ÑĭÐ¹
ĠÐ´ÑĢÐµÐ²ÐµÑģ Ð½Ð¾ÑģÑĤÑĢÑĥÐ¶ÐµÑĩÐ½ÑĭÐ¹
ĠÐ´ÑĢÐµÐ²ÐµÑģ Ð½Ð¾Ð²Ð¾Ð»Ð¾ÐºÐ½Ð¸ÑģÑĤÑĭÐ¹
Ġec centric
Ġar kt
102 19
ÑĢÐ°ÑģÐ¿ ÑĢ
ĠÐ±ÑĭÑģÑĤÑĢ Ð¾Ñģ
Ġsika floor
ÑĳÑĤ Ð¾ÑĩÐ½ÑĭÐ¹
ĠÎ ´
ĠÐ¿ÐµÐ½Ð¾Ð¿ Ð»ÐµÐºÑģ
ĠÐºÐ¸Ð¿ ÐµÑĤÑĮ
ĠÐ°ÑģÐ±ÐµÑģÑĤ Ð¾ÑĨÐµÐ¼ÐµÐ½ÑĤÐ½ÑĭÐ¹
Ġnet work
ĠÐ¸ÐºÐ± Ð½Ð³
ÑĦÑĢ ÐµÐ·Ð°
408 80
ĠÐ½Ð°Ñĩ Ð°Ð»Ð¾
ĠÐ¿Ð¾Ð»ÑĥÑĩ Ð¸ÑĤÑĮ
Ġfdci o
Ġinstr ument
Ġcyl inder
ĠÐ²ÑĭÐ¿ÑĥÐº Ð»ÑĭÐ¹
Ð´Ð»Ðµ Ð¶Ð½Ð¾ÑģÑĤÑĮ
ĠÐ¿ÑĢÐ¸Ð½Ð° Ð´Ð»ÐµÐ¶Ð½Ð¾ÑģÑĤÑĮ
ĠÐ³ÐµÑĤ ÐµÑĢÐ¾Ð³ÐµÐ½Ð½ÑĭÐ¹
Ġplex o
ĠnÐ¾Ñħ Ð»ÑĭÐ¹
Ġarkt os
0 90
0 75
8 10
f a
g l
g s
g x
i ms
k uy
l xx
ÑĤ Ð¸Ð½ÑģÐºÐ¸Ð¹
Ð½ Ð¾Ð»Ð°Ð¼Ð¸Ð½
Ð» Ð²Ð°
ÑģÑĤ Ð¾Ð¿Ð¾ÑĢÐ½ÑĭÐ¹
Ð³ Ðº
Ð³ ÑģÐ¿
ÐµÑĢ ÐºÐ°
ĠÐ² ÑįÐ¿
ĠÐ½ Ð¾Ñģ
ĠÐ³ Ð´Ðµ
Ġ3 99
ĠÐ½Ð° Ð±Ð¸Ð²Ð½Ð¾Ð¹
ÑĪ Ð»Ð°Ð½Ð³
Ġd eck
ĠÑģÐ² Ð·
Ð»Ð¸ Ð´
ĠÐ¿ÑĢÐ¸ Ð±Ð¾ÑĢÐ½ÑĭÐ¹
ÐµÐ½ÑĤ ÑĢÐ°ÑĨÐ¸Ñı
Ġ10 26
Ġ12 47
Ġv ent
Ġcl amp
ĠÑģÐ¿ Ð°ÑĢÐ¸ÑĤÑĮ
ĠÑģÐ¿ ÑĥÑĤÐ½Ð¸ÐºÐ¾Ð²ÑĭÐ¹
ĠÐ²Ð¾Ð·Ð´ÑĥÑħ r
ĠÐ¿Ð¾Ð´ Ð²ÐµÑĢÐ³
ĠÐºÑĢ ÑĤÐ¼
ri k
Ġ15 50
Ġu c
Ġk n
ĠÐ²Ð¾Ð´ Ð¾ÑĢÐ°Ð·
Ġclass ic
Ġ30 3
Ð¸Ð¼ Ð½ÑĭÐ¹
Ð¸Ð¼ Ð¾ÑģÑĤÐ¸ÑĤÑĮ
ĠÐºÐ» Ð¿
ĠÐ¿Ð¾Ð² ÑĤÐ¾ÑĢÐ½ÑĭÐ¹
01 15
Ġ17 7
ÑĥÑĪ ÐºÐ¾
ĠÐ¾ÑĤÐº Ð¾ÑģÐ½ÑĭÐ¹
ĠÐ±Ð° ÐºÑĤÐµÑĢ
ĠÑī ÑĳÐ»
Ð°Ð¶ Ð¸Ð¼Ð½ÑĭÐ¹
fr Ð½f
ÑĥÐ¼ Ð±
Ġ28 8
Ġ21 20
Ġwa y
29 2
ĠÐ¿ÐµÑĢÐµÐº Ð»ÑİÑĩ
de s
ĠÐ°Ðº Ð²Ð²
ĠÑĢÐ°Ð´Ð¸ Ð¾Ð¼ÐµÑĤÑĢ
ĠÑı ÑĢÐ¿
Ġ29 7
ĠÐºÐ´ Ð·Ñģ
ĠÑĨÐ¾Ðº Ð¾Ð»ÑĮÐ½ÑĭÐ¹
ĠÑĤÑĥÑĢ Ð±Ð¸Ð½Ð½ÑĭÐ¹
ĠÑĦÐ¾ÑĢ Ð¼Ð°ÑĤ
ĠÑģÐ¿Ð»Ð¾ÑĪ Ð½Ð¾ÑģÑĤÑĮ
Ġiv Ð±
Ð¿ÐºÐ² Ð¿ÑĤ
Ġet hernet
ĠÐºÐ¾Ð½ÑĨ ÐµÐ½ÑĤÑĢÐ°ÑĨÐ¸Ñı
Ġfd o
ĠÐ´ÑĢÐ¾Ð± Ð¸Ð¼Ð¾ÑģÑĤÐ¸ÑĤÑĮ
Ġsika plan
ĠÐ°Ð»ÑİÐ¼ Ð¾Ð¿Ð»Ð°ÑģÑĤÐ¸ÐºÐ¾Ð²ÑĭÐ¹
Ð°Ð¹ Ð½
Ð²Ð² Ð³Ð½Ð³
ĠÐ²ÑĭÐ¿ Ð»Ð°Ð²ÐºÐ°
Ġreduc ed
ĠÐ¿ÑĢÐ¸ÑģÑĤ ÐµÐ½Ð½ÑĭÐ¹
ĠÑĦÐ¾Ð»ÑĮÐ³ Ð¸ÑĢÐ¾Ð²Ð°Ð½Ð¸Ðµ
Ð¾Ð±Ð¾ Ð¸
ĠÑįÑĤÐ° Ð½Ð¾Ð»Ð°Ð¼Ð¸Ð½
ĠÐ²Ð¾Ð»Ð½ Ð¾Ð²Ð¾Ð¹
ĠÐ³ÑĢÐ°ÑĦ Ð¸ÑĩÐµÑģÐºÐ¸Ð¹
Ġbol t
Ð±ÐµÑĤ Ð¾Ð½
Ġge o
ĠÐ¿Ð¾Ð¿ Ð»Ð°Ð²ÐºÐ¾Ð²ÑĭÐ¹
ĠÐµÐ° Ðµ
990 22
ĠÐ´Ð¾Ð¶Ð´ÐµÐ¿ÑĢ Ð¸ÑĳÐ¼Ð½ÑĭÐ¹
Ġref ri
Ġbeton ol
ĠÐºÑĥÑĢ ÑĤÐ¸Ð½ÑģÐºÐ¸Ð¹
kuy u
2 001
4 000
5 70
8 31
g el
l an
Ġ Ñĭ
Ðµ ÐºÐ°Ð½Ð¸Ðµ
ÑĤ Ð½
Ð½ ÑĤÑĮ
Ð¸ ÑĢÐ°Ð»ÑĮÐ½ÑĭÐ¹
ĠÐ¼ ÑĪ
ĠÐº ÑģÐ¾
ÑģÑĤ ÑĢÐ¾Ð¿
Ð· Ð°ÑĤÑĢ
Ñı Ð½ÑĥÑĤÑĮ
Ð°ÑĤ Ð¾Ð¾ÑĤÐ²Ð¾Ð´ÑĩÐ¸Ðº
Ð³ Ñį
Ð± Ð¿Ð½Ð³
ĠÐ² ÐµÐ´
ĠÐ² Ð³Ð¿
ĠÐ½ Ð²
Ð¾ÑĢ Ð¾Ð·
ĠÑĤ Ð±
Ð¾Ð´ ÐµÑĦÐ¾ÑĢÐ¼Ð¸ÑĢÐ¾Ð²Ð°ÑĤÑĮ
Ð¾Ð´ ÑĭÐ¼Ð½ÑĭÐ¹
ĠÐ¿ÑĢ ÑĤÑĭÐ¹
ĠÐ¿ÑĢ Ð¾Ð¶ÐµÐºÑĤÐ¾ÑĢ
ÑĨ Ð¸ÑĦ
ÑĤÑĢ ÐµÐ½Ð°Ð¶ÑĳÑĢ
ĠÐ¸Ð· Ð¾Ð±ÑĢÐ°Ð¶ÐµÐ½Ð¸Ðµ
ÑĦ Ð»ÐµÐºÑģ
Ġm xi
ĠÐ·Ð° ÐºÑĢÐµÐ¿Ð»ÐµÐ½Ð¸Ðµ
Ġt el
ĠÑģÑĤ ÐµÐ¼
ÐµÑĤ Ñĩ
ĠÐ±ÐµÐ· Ð²Ð¸Ð½ÑĤÐ¾Ð²Ð¾Ð¹
ĠÐºÐ° Ð¼ÐµÐ½Ð½Ð¾
Ġ5 28
ÐµÐ» Ð¸ÑĤÑĮ
Ġ8 26
ÑģÐ» Ð¾
ĠÐ¾Ð¿ ÑĨÐ¸Ð¾Ð½Ð°Ð»ÑĮÐ½ÑĭÐ¹
Ġv mf
Ġl l
ĠÑĨ ÐµÐ»
Ġr k
Ð¼ÐµÐ½ Ð°
ri st
ÑĥÐ³ Ð»ÑĭÐ¹
Ġk ur
ÑĢÐ¾ Ð¸ÑĤÐµÐ»ÑĮÐ½ÑĭÐ¹
ĠÐ½Ð°Ð»Ð¸Ñĩ Ð½Ð¸Ðº
ĠÑĢÐµÐ· Ð½Ð¾Ð¹
ÐºÐ¾Ð½ Ð½ÐµÐºÑĤÐ¾ÑĢ
Ġ14 52
ĠÐ²Ð¾Ð·Ð´ÑĥÑħÐ¾Ð²Ð¾Ð´ Ñĭ
22 22
Ð³ÑĢÑĥ Ð·
55 5
Ġst r
ac tor
Ð¾Ñħ Ð¸Ð¼
ĠÐºÐ¾Ð² ÐµÑĢÐ°
Ġhe gel
115 7
ÐºÐ¾ ÑĥÐ»Ð¾Ð²Ð¸ÑĤÐµÐ»ÑĮ
ĠÐ¼Ð°Ð½ Ð¸Ð¿Ñĥ
Ġal l
ĠÐºÑĥÐ³ Ð¿Ð¿Ð½Ð³
Ð¼Ñģ ÑĢ
010 6
Ġsystem s
Ġho se
Ð¿ÐµÑģ ÐºÐ¾ÑĥÐ»Ð¾Ð²Ð¸ÑĤÐµÐ»ÑĮ
ĠÑģÐºÐ»Ð°Ð´ ÑĩÐ°ÑĤÑĭÐ¹
ĠÑĢÐµÐ° ÐºÑĤÐ¾ÑĢÐ½ÑĭÐ¹
ĠÐ°Ð± Ñģ
Ġes b
Ġcontain ing
Ġdy n
ĠÐ½ÐµÐ¾ÑĤÐº ÑĢÑĭÐ²Ð°ÑİÑīÐ¸Ð¹ÑģÑı
ĠÐ¼Ð°Ð» Ð¾Ð´ÑĭÐ¼Ð½ÑĭÐ¹
ĠÑįÐ»ÐµÐºÑĤÑĢÐ¾Ð¿ÑĢÐ¾Ð²Ð¾Ð´ ÐºÐ°
ĠÐ¿ÐµÑĢÐµÐ¿ Ð»Ð°Ð²
Ð»Ð¾Ð· Ð¾Ð»ÑĮ
ÑĢÐ°ÑģÑĤÑĢÑĥÐ± Ð½ÑĭÐ¹
ĠÑĤÐµÑĢÑĢÐ°Ðº Ð¾ÑĤÐ°
ĠÐ¾ÐºÑĢÑĥ Ð¶Ð°ÑĤÑĮ
ĠÐ´Ðµ Ð°ÑįÑĢÐ°ÑĤÐ¾ÑĢ
ÐºÐ¾Ð½Ð´ÐµÐ½Ñģ Ð°ÑĤÐ¾Ð¾ÑĤÐ²Ð¾Ð´ÑĩÐ¸Ðº
Ð¸Ð»ÑĨÐµÐ» Ð»Ð¾Ð·Ð¾Ð»ÑĮ
ĠÐ¾Ð±ÐµÐ·Ð¶Ð¸ÑĢ Ð¸Ð²Ð°Ð½Ð¸Ðµ
ĠÐ²ÑįÐ¿ ÑĪ
Ð·Ð°ÑĤÑĢ Ð°ÑĤÐ°
ÑĨÐ¸ÑĦ ÑĢÐ¾Ð²Ð¾Ð¹
ĠÑģÑĤÐµÐ¼ Ð°Ð»Ð¸ÑĤ
ĠÐºÐ°Ð¼ÐµÐ½Ð½Ð¾ ÑĥÐ³Ð¾Ð»ÑĮÐ½ÑĭÐ¹
3 24
g Ñħ
u fc
Ð¼ ÑĦ
Ð¼ ÑĢÐ¿
ĠÑģ Ð»Ð°
ĠÑģ ÑĥÐ²
Ð² Ð¸Ð»ÐºÐ°
Ð· Ð¾ÑĢ
Ð¾Ð² Ð¾Ð·
Ð± ÑĦ
ĠÐ² Ñĥ
ÐºÐ° Ð½Ð½ÑĭÐ¹
ĠÑĤ u
ĠÐ¿ÑĢ ÐµÐ¿
Ð¸Ð¹ ÑģÐºÐ¸Ð¹
ĠÐ± ÐµÐ½ÑĤ
Ð¸ÑĤ ÑĭÐ²Ð°ÑĤÐµÐ»ÑĮ
Ġ3 18
Ġs q
ÐµÐº Ð»ÑıÐ½Ð½ÑĭÐ¹
ÑĪ Ð¸ÑĤÐµÐ»ÑĮ
ĠÐ·Ð° ÐºÐ°
Ġt ag
Ġa ÑĢ
Ġ6 35
ĠÑĪ Ð»ÑİÐ·
Ġ5 100
ĠÐ¿ÑĢÐ¸ ÐºÑĢÐµÐ¿Ð»ÑıÑĤÑĮ
Ð¿Ð° ÐºÐ»Ñĳ
Ð¸Ð» Ð¾Ð»
Ġ7 240
Ġ7 39
et te
ĠÐ²Ð¾Ð·Ð´ÑĥÑħ Ð¾Ð¿ÑĢ
30 9
Ġop l
Ġu t
Ġu Ð½Ð¾Ð¼
ĠÐ¼Ð°ÑĤ ÑĢÐ°ÑĨ
ĠÑģÑĤÐ° ÐºÐ°Ð½Ð½ÑĭÐ¹
Ġ30 48
ĠÑĤÐ¾Ð½ ÐºÐ¾ÑģÑĤ
Ġ18 2
st ri
ĠÐ±ÐµÑģ ÑģÐ²Ð°ÑĢÐ½Ð¾Ð¹
ĠÑģÑĤÐµÐºÐ» Ð¾ÑĦ
ĠÑįÐ»ÐµÐºÑĤÑĢÐ¾Ð¼ Ð¾Ð½ÑĤÐ°Ð¶Ð½ÑĭÐ¹
ÑĥÐ´ Ð¸
ÑĢÐµÐ· Ð¸ÑģÑĤÐ¾ÑĢ
27 101
Ð¸Ñī ÑĳÐ½Ð½ÑĭÐ¹
ĠÐ¿Ð°ÑĢÐ°Ð»Ð» ÐµÐ»ÑĮ
Ġhand ling
ÐµÐ·Ð°Ñī Ð¸ÑīÑĳÐ½Ð½ÑĭÐ¹
Ġhe b
ÑĢÐ°Ð¶Ð´ Ð°ÑĤÑĮ
ĠÐ½ÐµÐ¿ Ð¾ÑģÑĢÐµÐ´
125 7
ĠÐ¿ÑĢÐ¾ÑĤ Ð¾ÑĩÐ½ÑĭÐ¹
Ġtyp jb
ÑįÑĤ Ð¾ÑĤ
ĠÐºÐ¾Ð¼Ð¿ÑĢÐµÑģÑģ Ð¾ÑĢ
ĠÐ±Ñĥ Ð¼Ð°Ð³Ð°
ĠÐ´Ð¸Ð· Ð°Ð¹Ð½
ĠÑĤÐµÑĢÐ¼Ð¾Ð¿Ð»Ð°ÑģÑĤ Ð¸Ðº
Ð¾Ð³Ð½ ÐµÐ¿ÑĢÐµÐ³ÑĢÐ°Ð´Ð¸ÑĤÐµÐ»ÑĮ
Ð°Ð½ÑĤ ÐµÐ½Ð½Ð°
Ġdec ont
Ġax ial
ĠÑģÐ±Ð¿Ð± Ð±ÑĪÐ²Ð°
ĠÑģÐ±Ð¿Ð± Ð±ÑĪÐ¿
ĠÑĤÐµÐ¿Ð»Ð¾Ð¾Ð± Ð¼ÐµÐ½Ð½Ð¸Ðº
Ð·Ð°Ñī Ð¸ÑĤÐ°
Ġlih ch
ĠÐ¿Ð¸Ð³Ð¼ÐµÐ½ÑĤ Ð¸ÑĢÐ¾Ð²Ð°ÑĤÑĮ
ĠÐ½ÐµÑĦ ÑĤÑĮ
Ġur sa
Ð¾ÑĤÐµÑĢÐ¼ Ð¸ÑĩÐµÑģÐºÐ¸Ð¹
ÑģÐµÑĢ Ð²ÐµÑĢ
ĠÐ»Ð´ ÑģÐ¿
Ð¾ÑĢÐ³Ð°Ð½ Ð¾
ĠÑįÐºÐ· Ð¾ÑĤÐµÑĢÐ¼Ð¸ÑĩÐµÑģÐºÐ¸Ð¹
ÑĪÐ°ÑĢÐ½ Ð¸ÑĢ
Ġequip ment
ÑĦÐ¾Ð»ÑĮ Ð³Ð°
Ġeq ual
ĠÑīÑĳÐ» Ð¾ÑĩÑĮ
Ġrefri ger
ĠÑĤÐ¾Ð½ÐºÐ¾ÑģÑĤ ÐµÐ½Ð½ÑĭÐ¹
ĠÑģÑĤÐµÐºÐ»Ð¾ÑĦ Ð¸Ð±ÑĢ
3 68
3 93
7 40
i on
l b
o ol
Ð½ Ñħ
Ð» ÐµÐ±ÑĳÐ´ÐºÐ°
ĠÑģ ÑĦ
ĠÑģ on
ĠÑģ Ð¾Ð·Ð´
ĠÐ¿ ÑĨ
Ð´ Ð¾Ð¼
Ð°ÑĤ Ð»
Ð± Ñĥ
ĠÐ¾ ÑģÐ¿
Ð¸Ð½ Ð´
ĠÐ° Ð´Ðµ
ĠÐ± Ð¾ÑĢÐ°
ÐµÑģ Ð¸Ð¼Ð¼ÐµÑĤÑĢÐ¸ÑĩÐ½ÑĭÐ¹
Ġ0 14
50 7
ÑĪ Ð¸Ð½Ð½ÑĭÐ¹
ĠÐ¾Ð± Ð¾ÑĢÐ°
Ġp ulp
Ġn h
ÐµÑģÑĤ ÑĢÐ¾Ð¸ÑĤÐµÐ»ÑĮÐ½ÑĭÐ¹
20 8
Ġ7 68
Ġb g
Ġb al
ĠÐ²Ñĭ Ð¿ÑĢÐµÑģÑģÐ¾Ð²Ð°ÑĤÑĮ
ÑģÐ» Ð¾Ð²
ĠÐ¾Ð¿ Ð¾ÑĢÐ¾Ð¶
Ġ12 10
ĠÐºÐ² Ñĥ
Ġ97 0
Ġg fe
ĠÑĪÑĤ Ñģ
ĠÐ¿ÑĢÐ¸Ð¼ÐµÐ½ ÑıÑĤÑĮÑģÑı
Ġ15 4
ec tor
ĠÐ°ÑĤÐ¼Ð¾ÑģÑĦ ÐµÑĢÐ½ÑĭÐ¹
ĠÐ¾Ñģ ÐµÑģÐ¸Ð¼Ð¼ÐµÑĤÑĢÐ¸ÑĩÐ½ÑĭÐ¹
Ð°Ð´ Ð¸ÑĤÑĮ
Ġde tec
Ġma k
ĠÐ²Ð² ÐµÐ´ÐµÐ½Ð¸Ðµ
ĠÑģÐ» ÐµÐ²Ð°
32 8
ĠÐ³Ð°Ð· Ð¾ÑĢÐ°Ð·
ĠÐ°Ð½ÐºÐµÑĢ Ð¾Ð²Ð°ÑĤÑĮ
22 6
Ġwith out
ĠÐ¿Ð»Ð°ÑģÑĤ Ð¸ÑĩÐµÑģÐºÐ¸Ð¹
66 6
ĠÑģÐµÑĢ Ð¿
36 9
Ġsh o
ĠÐºÐ¿ Ðº
Ġ48 6
Ð¿ÑĢÐ¾Ð²Ð¾Ð´ Ð½ÑĭÐ¹
us an
ĠÐ¾Ð±Ñī ÐµÑģÑĤÑĢÐ¾Ð¸ÑĤÐµÐ»ÑĮÐ½ÑĭÐ¹
ĠÐ½Ð°Ð´ Ð¿
ĠÐºÐ¾Ð¼Ð¼ ÑĥÐ½Ð¸ÐºÐ°ÑĨÐ¸Ð¾Ð½Ð½ÑĭÐ¹
ĠÐºÑĥÐ¿ Ð¾Ð»
ĠÑĦÐ° Ð¹
ĠÐ¿ÑĢÐ¾ÑĤ ÐµÐºÐ°Ð½Ð¸Ðµ
Ġele kt
ĠÐ±Ð¸ Ð¾Ð»Ð¾Ð³Ð¸ÑĩÐµÑģÐºÐ¸Ð¹
425 5
ĠÐ²Ð»Ð°Ð³ Ð¾Ð¿ÑĭÐ»
Ġ508 38
ÑģÐ¿Ð» ÐµÐ¹Ð½ÑĭÐ¹
ĠÑģÑģ Ð°ÑĤÑĮ
Ġ000 5
ĠÐ½ÐµÑĢÐ°Ð²Ð½ Ð¾Ð¿ÑĢÐ¾ÑħÐ¾Ð´Ð½Ð°Ñı
ÑĥÐ¿Ð»Ð¾ÑĤ Ð½Ð¸ÑĤÐµÐ»ÑĮÐ½ÑĭÐ¹
ĠÐ±Ð°ÑĢ Ð¸Ð½
ĠÐºÐ¾Ð¼Ð¿ÑĮÑİ ÑĤÐµÑĢ
ĠÐ»Ð¸Ð¿ Ð»ÐµÐ½ÑĤÐ°
ĠÐ¿Ð¿Ðº Ð¿
Ġlr d
ĠÐ¿ÑĢÐµÑģÑģ ÑĪÐ°Ð¹Ð±Ð°
Ġ232 79
ĠÐ³ÑĢÑıÐ· ÐµÐ²ÑĭÐ¹
ĠÑĪÐ¸ÑĢÐ¾Ðº Ð¾Ð¿Ð¾Ð»Ð¾ÑĩÐ½ÑĭÐ¹
Ð¼Ð½ Ð¾Ð³
Ġ393 10
Ð¾Ð³ÑĢÐ°Ð½Ð¸Ñĩ Ð¸ÑĤÐµÐ»ÑĮ
ĠÐ·Ð°Ð¿Ð¾Ð»Ð½ ÑıÑĤÑĮ
ĠÐ³Ð¸Ð´ÑĢÐ¾Ð¿ ÐµÐ½Ð°
ĠÐ²ÑĢÐ°Ñī Ð°ÑĤÑĮÑģÑı
Ġarc tic
Ġhyd ro
Ġvit ra
ĠÑĨÐµÐ»ÑĮÐ½Ð¾ÑģÑĤ ÐµÐºÐ»ÑıÐ½Ð½ÑĭÐ¹
Ġdim ensions
ĠÐ°Ð´Ðµ Ð»Ð°Ð½ÑĤ
ĠÐ¾Ð¿Ð¾ÑĢÐ¾Ð¶ Ð½ÐµÐ½Ð¸Ðµ
Ġgfe a
ĠÐ³Ð°Ð·Ð¾ÑĢÐ°Ð· ÑĢÑıÐ´Ð½ÑĭÐ¹
Ġelekt rik
ĠÐ²Ð»Ð°Ð³Ð¾Ð¿ÑĭÐ» ÐµÐ·Ð°ÑīÐ¸ÑīÑĳÐ½Ð½ÑĭÐ¹
0 63
6 99
Ð½ Ðµ
ÑĢ Ð¸Ð°Ð»ÑĮÐ½ÑĭÐ¹
ĠÑģ ÑįÐ¼
Ð¿ Ð°ÑĢÐ½ÑĭÐ¹
ĠÐ¼ Ð¿Ð¿
ĠÐº ÑĦ
ĠÐº ÑĤÐ¿
Ð· ÑĤ
ĠÐ´ Ð´
Ð± Ð¸ÑĢ
ĠÐ¾ Ð·Ð¾Ð½
ĠÐ² Ð³
ĠÑĤ Ñİ
ĠÑĤ ÑģÐ²
Ð¾Ð½ Ð¸ÑĨ
ĠÐ¸Ð· Ð½Ñĥ
Ð»Ñı ÑĨÐ¸Ñı
Ġs ti
Ġm es
ÐµÐ´ ÐµÐ½Ð½ÑĭÐ¹
Ġt w
Ġt ri
ĠÐ» ÑįÐ·
Ġ9 96
ĠÑĦ Ð¼Ð¼
Ġf h
ĠÐ¿Ð¾Ð» ÑİÑģÐ½ÑĭÐ¹
Ġv l
Ġv ÐºÐ»Ð°Ð¿Ð°Ð½
ĠÐ¿Ð» Ð¸ÑĤÐ½ÑĭÐ¹
Ġr el
Ġ40 2
Ġu vr
ÑĳÐ¼ Ð¸ÑģÑĤÑĭÐ¹
60 5
Ġ00 28
70 1
ĠÐ¿Ð¾ÑĢ ÑĥÑĩÐµÐ½ÑĮ
ĠÐ¼Ð¸Ð½ Ð²Ð°ÑĤÐ°
19 8
ĠÐ¶ÐµÐ»ÐµÐ· Ð¾
ÑıÐ· ÐºÐ¸Ð¹
ÑĥÑģÑĤ ÑĢÐ¸Ð°Ð»ÑĮÐ½ÑĭÐ¹
ĠÑĪÐ¿ Ð°ÑĤÐ»
Ġ27 8
Ġmax seal
63 3
Ġle ft
08 8
ÑĭÑĪÐ» ÐµÐ½Ð½Ð¾ÑģÑĤÑĮ
Ġpa th
ĠÐ½ÐµÐ¿ Ð¾Ð»
ĠÑįÐ»Ð°ÑģÑĤ Ð¸ÑĩÐ½Ð¾ÑģÑĤÑĮ
Ġal p
Ġal ud
ĠÐ¸Ð½Ð´ ÑĥÑģÑĤÑĢÐ¸Ð°Ð»ÑĮÐ½ÑĭÐ¹
ĠÐ¿ÐµÑĢÐµ ÐºÐ°ÑĩÐºÐ°
Ġdis c
Ġ99 40
ĠÑĩÐµÑĤÑĭÑĢÐµÑħ Ð¶Ð¸Ð»ÑĮÐ½ÑĭÐ¹
ĠÑĪÑĥÐ¼ Ð¾Ð·Ð°ÑīÐ¸ÑĤÐ½ÑĭÐ¹
ĠÑĢÑĥÐº Ð¾Ð²Ð¾Ð´
ĠÑĪÑĤÐ° Ð½Ñĭ
ĠÐºÐ¼Ð¿Ð² Ð²Ð½Ð³
Ð¿Ð± Ð½Ð³
Ġgl and
ĠÑģÑĤÐ°Ð»Ðµ ÑĦÐ¸Ð±ÑĢ
ĠÑĪÐ»Ð°Ð½Ð³ Ð¾Ð²ÑĭÐ¹
ĠÐ´Ð²Ð¸Ð³ Ð°ÑĤÐµÐ»ÑĮÐ½ÑĭÐ¹
ĠÐ½Ñĥ Ð¼ÐµÑĢ
ÑĦÐµÑĢ Ð¸ÑĩÐµÑģÐºÐ¸Ð¹
ĠÐ½Ð¸Ð·ÐºÐ¾Ð² ÑıÐ·ÐºÐ¸Ð¹
ĠÐ¾ÑĤÐ¼ ÑĭÑĤÑĮ
ĠÑĤÑĢÑĥÐ´ Ð½
ĠÐºÑĢÐ¾ ÑĪÐºÐ°
ĠÐ²Ð¾Ð´Ð¾Ð¿ÑĢ Ð¸ÑĳÐ¼Ð½ÑĭÐ¹
ĠÐ¿Ð°ÑĢÐ°Ð¿ ÐµÑĤ
Ġeu ro
ĠÑįÐ»ÐµÐºÑĤÑĢÐ¾ ÑįÐ½ÐµÑĢÐ³Ð¸Ñı
Ġoperation al
Ġgri d
ÑĥÐ¿ÑĢ ÐµÐ¶Ð´
Ġsew er
ĠÑĢÐµÐ³ÐµÐ½ÐµÑĢÐ° ÑĨ
ĠÑģÐ¾Ð²Ð¼ÐµÑģÑĤ Ð½Ð¾
ĠÑĥÐ»ÑĥÑĩ ÑĪÐ¸ÑĤÑĮ
Ġantic orrosion
ĠÐ½ÐµÐ¾Ð¿ÑĢ ÐµÐ½Ð¾Ð²ÑĭÐ¹
4 101
t max
ÑĤ Ð¾Ð»
ĠÐ¼ Ð²ÑĤ
Ñı Ð½Ð¸ÑģÑĤÑĭÐ¹
ĠÐ´ Ð¸Ð¿Ð°
Ñĩ Ð°Ñģ
Ð°ÑĤ ÐµÐ»
ĠÐ½ Ð¸Ð¿
Ñħ ÑĥÐ´
Ñħ ÑģÐ½
Ġ2 14
ĠÑĥ ÑħÑĥÐ´
Ġs k
Ġi ng
ÐµÑĤ ÑĥÑĩÐ¸Ð¹
ĠÑį Ð¶
ĠÐ¿ÐµÑĢ ÑģÐ¾Ð½
ĠÐ¿ÑĢÐ¸ Ð·
Ġn ip
Ð±Ð° Ð»Ð»Ð¾Ð½
20 80
ĠÐºÐ¾Ð½ ÑĤÐ°
Ġb ur
Ġb ra
Ð½Ñĥ ÑīÐ¸Ð¹
ÐµÑĢÐ¶ ÐµÐ½Ð½ÑĭÐ¹
Ġ16 4
Ð¿ÑĢ Ð¾Ð¿
ĠÑģÐ¿ Ñģ
ĠÑĨ ÑģÐ¼
in d
Ġk o
Ġ00 2170
ĠÐ²Ð½ÑĥÑĤÑĢ ÑĮ
ÐºÐ¾Ð» Ð»ÐµÐºÑĤÐ¾ÑĢ
ÐºÐ¾Ð» Ð¿Ð°ÑĩÐ¾Ðº
14 32
24 3
11 20
ĠÐ¾Ðº Ð·
ĠÐ¾Ðº Ð±Ð½Ð³
32 7
Ġdi stri
ĠÐ²Ð½ Ðº
ÑĥÑĤ ÐµÐ¿Ð»
ĠÑĤÐµÐ¿Ð»Ð¾ ÑĥÑģÑĤÐ¾Ð¹ÑĩÐ¸Ð²ÑĭÐ¹
Ġ220 51
ar m
ĠÐ²ÑĭÑģÐ¾Ðº Ð¾ÑĤÐ¾ÑĩÐ½ÑĭÐ¹
ĠÑī Ð¼Ð¿
ÐµÑĢÑģ Ð¸Ñı
Ġ28 50
23 9
Ð¾Ñħ Ð½ÑĥÑīÐ¸Ð¹
06 4
ĠÐ³Ð» Ð¸Ð½Ð°
Ġtu be
Ð¾Ð¿Ð¾Ð´ÑĬÑĳÐ¼ Ð½ÑĭÐ¹
ĠÐ¿Ð¾Ð³ Ð»Ð¾ÑĤ
Ð¿ÐºÐ²ÑĤ Ð¿Ð±Ð½Ð³
ÐºÐ¾Ð¼Ð¿Ð»ÐµÐºÑĤ Ð¾Ð²Ð°ÑĤÑĮ
ĠÐµÑĢ ÐºÑĤ
ĠÑĨÐµÐ»ÑĮÐ½ Ð¾Ð»
Ġec op
ĠÐ±ÑĢÐ¾Ð½ Ð·Ð¾Ð²ÑĭÐ¹
ĠÑĤÑĥ Ð°Ð»
ÑĢÐ°Ð¶ Ð¸Ð²Ð°Ð½Ð¸Ðµ
ĠÑĪÑĢ Ñģ
ĠÐºÑĤ Ð·
ĠÑģÐ¼Ðµ ÑīÐµÐ½Ð¸Ðµ
ĠÐ´Ð²ÑĥÑħÐ»Ð° Ð¿ÐºÐ¾Ð²ÑĭÐ¹
ĠÑĢÐµÑģ Ð¸Ð²ÐµÑĢ
ĠÑĪÑĥ Ð¼Ð¾
ÐºÐ¾Ð½ÑĤÐ°ÐºÑĤ Ð½ÑĭÐ¹
Ġproma seal
Ġnsy sp
ĠÐ½Ð°ÑĢÑĥÐ¶ Ð½Ð¸Ð¹
Ġla y
ĠÐ¿ÐµÑģÐºÐ¾ ÑĨÐµÐ¼ÐµÐ½ÑĤÐ½ÑĭÐ¹
ĠÐ°Ð´Ð³ÐµÐ· Ð¸Ð¾Ð½Ð½ÑĭÐ¹
ĠÑĥÐ²ÐµÐ»Ð¸Ñĩ ÐµÐ½Ð¸Ðµ
Ð²Ð¸ÑĤ ÑĢÐ°Ð¶
ĠÐºÐ¸ÑģÐ»Ð¾ÑĤ Ð¾ÑģÑĤÐ¾Ð¹ÐºÐ¸Ð¹
ĠÑĥÑĪ ÐºÐ¾
ĠÑĤÑĥÐ½Ð½ ÐµÐ»ÑĮÐ½ÑĭÐ¹
Ġhoneyw ell
Ð¿ÑĢÑıÐ¼ Ð¸ÑĤÐµÐ»ÑĮ
ĠÐ¾ÑģÑĤÑĢÐ¾Ð² Ð½Ð¾Ð¹
ĠÐ±ÑĭÑģÑĤÑĢÐ¾Ñģ Ð¾ÑħÐ½ÑĥÑīÐ¸Ð¹
rist on
ĠÑģÑĤÐµÐºÐ»Ð¾ÑĦÐ¸Ð±ÑĢ Ð¾Ð±ÐµÑĤÐ¾Ð½Ð½ÑĭÐ¹
Ġdetec tor
ĠÐ½Ð°Ð´Ð¿ Ð¸ÑģÑĮ
ÑĥÐ¿ÑĢÐµÐ¶Ð´ Ð°ÑĤÑĮ
ÑħÑģÐ½ Ð´
ĠÑĥÑħÑĥÐ´ ÑĪÐ°ÑĤÑĮ
ĠÐ¿ÐµÑĢÑģÐ¾Ð½ Ð°Ð»
Ġ002170 53
Ġdistri b
2 13
5 35
5 13
8 40
b h
r ate
u k
Ð¾ ÑĤÑĢ
ÑĢ ÐµÑĨ
Ð¼ Ð´
ĠÐ¼ Ñĩ
ĠÐº Ð¸Ð»
Ð°ÑĤ Ð¸ÑĢÐ¾Ð²Ð°ÑĤÑĮ
ÐµÑĢ Ð¾
Ð¾Ð» Ð¸ÑĩÐµÑģÐºÐ¸Ð¹
ĠÐ¿ÑĢ Ð¸ÑĤÑĮ
ĠÐ° ÑĨ
ĠÐ± Ð¸Ð°
Ġc f
Ġc ÐºÐ¾Ð±
ĠÐ· Ð°Ñģ
Ġa a
ĠÐ» ÐµÑģ
ĠÐ» Ð¼Ñģ
ĠÐ» Ð¾Ð³Ð¸ÑĩÐµÑģÐºÐ¸Ð¹
Ġ6 400
ÑĥÑĢ ÑĮÐ¼
ĠÑĦ Ð°Ð½
ĠÑĦ Ð»ÐµÐº
10 80
ÑĢÑĭ ÑģÐº
Ġ10 90
Ġh or
Ġ12 71
Ð¸Ð´ ÐµÑĢÐ½ÑĭÐ¹
an e
ĠÐºÐ¾Ð¼ Ð¿Ð°Ð½
ĠÐ²Ð¾Ð·Ð´ÑĥÑħ Ð¾ÑĢÐ°Ð·
ĠÐ¿Ð¾Ð´ Ð¾Ð¿Ð¾ÑĢÐ½ÑĭÐ¹
ĠÑĩ ÑĥÑĪÐºÐ°
in a
ĠÐ¿ÐµÑĢÐ¸ Ð¾Ð´
ma t
Ġk k
Ġk ÑĥÐ³
ÑĢÐ°Ð± Ð¾Ð»Ð¸ÑĩÐµÑģÐºÐ¸Ð¹
ÐµÑģÑĤÐ¾Ð¹ ÐºÐ¸Ð¹
ĠÐ¾Ð´Ð½ Ð¾Ð¿ÑĢ
Ġ01 9
Ġ24 50
ĠÐµ ta
ĠÐ¾Ðº ÑģÑĤÐ¼
ĠÐ¿Ð° ÑĢÐ°Ð±Ð¾Ð»Ð¸ÑĩÐµÑģÐºÐ¸Ð¹
ĠÐºÐ¾Ð» Ð¾Ð½ÐºÐ°
17 2
ÐµÑĢÑĤ Ð¾ÑĢÐ½ÑĭÐ¹
ÑĳÑĢ ÑĤ
Ġpl ated
54 29
Ġst st
ĠÐ²Ð¾Ð·Ð² ÑĢÐ°ÑĤ
ĠÐ¾Ð³ ÑĢÐ°Ð¶Ð´Ð°ÑĤÑĮ
ĠÐ°Ðº Ð¿Ñģ
Ġ04 29
ĠÑĢÐ°Ð´Ð¸ Ð¾Ð±Ð»Ð¾Ðº
ÑĭÑĢ ÑĮ
ĠÐ»Ð° Ð¹ÑĤÐ°
Ð±Ð¾ÑĢ ÐºÐ°
ÑĢÐ°Ð¼ ÐºÐ°
ÑĥÑħÐ» Ð·ÑĤÐ¸
Ð¾Ð¾Ð± Ð¼ÐµÐ½
Ġ010 9
Ġgl ims
ÑįÐ»Ð°ÑģÑĤ Ð¸ÑĩÐ½ÑĭÐ¹
ĠÐ»Ð¿ Ð¾
ĠÐ¾ÑĤÐºÑĢÑĭÐ² Ð°ÑĤÑĮÑģÑı
Ġtl b
ĠÐ½Ð¸Ð·Ðº Ð¾Ð¿ÑĢÐ¾ÑĦÐ¸Ð»ÑĮÐ½ÑĭÐ¹
ĠÐ¾Ð¿ÐµÑĢ Ð°ÑĤÐ¸Ð²Ð½ÑĭÐ¹
Ð³Ð¸Ð´ÑĢÐ¾ ÑĦÐ¾Ð±
ĠÐ¾ÑĢÐ³ Ð¿ÑĢÐ¾ÑĤ
ĠÐ·Ð°Ð³ ÑĢÐ°Ð¶Ð´ÐµÐ½Ð¸Ðµ
Ð¿ÑĢÐ¾ÑĤÐ¸Ð² Ð¾Ð¿Ð¾Ð¶Ð°ÑĢÐ½ÑĭÐ¹
ĠÐ½Ð°ÑģÑĭÐ¿ Ð°ÑĤÑĮ
ĠÑįÐºÐ¾Ð» Ð¾Ð³Ð¸ÑĩÐµÑģÐºÐ¸Ð¹
ĠÐ¼Ð½Ð¾Ð³Ð¾ÑģÑĤ Ð²Ð¾ÑĢÑĩÐ°ÑĤÑĭÐ¹
ĠÐ¿ÑĢÐ¸ÑģÐ¾ÐµÐ´Ð¸Ð½ ÑıÑĤÑĮ
ĠÐ°Ð½ÑĤÐ¸ÑģÐµÐ¿ÑĤ Ð¸ÑĢÐ¾Ð²Ð°ÑĤÑĮ
ĠÐ½Ð°Ð³Ð½ ÐµÑĤÐ°Ð½Ð¸Ðµ
ĠÐ¿Ð¾Ð´Ð²ÐµÑĢÐ³ Ð½ÑĥÑĤÑĮ
ĠÐ¿ÑĢÐµÐ¿ ÑıÑĤ
Ġdecont amination
Ġrefriger ant
Ġmes h
Ġalud uct
ĠÑĨÐµÐ»ÑĮÐ½Ð¾Ð» Ð¸ÑĤÑĭÐ¹
ĠÐ±Ð¸Ð° ÐºÑģÐ¸Ð°Ð»ÑĮÐ½ÑĭÐ¹
ÑĥÑĢÑĮÐ¼ ÑıÐ½Ð¸ÑģÑĤÑĭÐ¹
ĠÐ²Ð¾Ð·Ð´ÑĥÑħÐ¾ÑĢÐ°Ð· Ð´Ð°ÑĤÑĮ
ĠÐ¾ÑĢÐ³Ð¿ÑĢÐ¾ÑĤ ÐµÑĩÐºÐ°
3 36
i a
k Ð»Ð°Ð¿Ð°ÑĤÑĮ
m us
w c
Ð¸ ÑĳÐ¼Ð½Ð¸Ðº
Ñģ ÐµÐµ
Ð¼ Ð³
ĠÐ¼ ÑģÑģ
ĠÐ¿ ÑĪ
ĠÐ¿ Ð¾Ð·Ð¸ÑĨÐ¸Ð¾Ð½Ð½ÑĭÐ¹
ĠÐ´ Ð¸Ñģ
Ð°ÑĤ ÑĭÐ²Ð°ÑĤÑĮ
Ð± Ð±ÑĪÐ²Ð½Ð³
ĠÐ¾ Ð¼ÐµÐ´
ĠÐ² Ð°ÑĢ
ĠÐ½ Ð¸ÑĤ
ĠÑĤ Ð¶
Ð¾ÑģÑĤ Ð¾ÑĢÐ¾Ð½Ð½Ð¸Ð¹
ĠÐ¿ÑĢ Ð³
ĠÐ° ÑĥÐ´Ð¸
Ġ4 95
50 4
Ġt re
Ġt Ð¿ÑĥÑģÐº
ĠÑģÑĤ Ð¾Ð»Ñı
ĠÐ» Ð¾Ð´
ĠÑĪ Ð¿Ð°Ð»Ð°
Ð¸Ð· Ð¾Ð²Ð°ÑĤÑĮ
10 50
ÐµÐ¿ ÑĢÐ¾
Ñį ÑĤÐ°
Ð³Ð½ ÐµÐ·Ð´Ð½ÑĭÐ¹
001 7
Ġv vs
ĠÑĨ Ð²
25 3
ĠÐºÑĢ ÑİÐº
18 4
Ġ15 80
Ġk u
ÑĢÐ°Ð± Ð°Ð½
Ġ60 5429
Ġ00 43
ĠÑĢÐ°Ñģ ÑĨ
ÐºÐ»ÑİÑĩ Ð¸ÑĤÑĮ
Ġ18 9
ĠÐ´Ð²ÑĥÑħ Ð³Ð½ÐµÐ·Ð´Ð½ÑĭÐ¹
Ġ05 4
Ġe w
65 2
ĠÐ¿ÑĢÐµÐ´ ÑĥÐ¿ÑĢÐµÐ¶Ð´Ð°ÑĤÑĮ
ĠÐ½Ð°Ð¿ ÑĢÐ°Ð²Ð¸ÑĤÑĮ
Ġ13 10
ĠÐ¾ÑĤÐº ÑĢÑĭÑĤ
Ġpn eu
Ð¾Ð·Ð° Ð³Ð¾ÑĤÐ¾Ð²ÐºÐ°
ĠÑĪÐ° ÑģÑģÐ¸
38 4
ĠÐ¿Ð¾Ð¶Ð°ÑĢ Ð¾ÑģÑĤÐ¾Ð¹ÐºÐ¾ÑģÑĤÑĮ
ĠÐ¿Ð¿ Ð³ÑįÐ½Ð³
ĠÐ°ÑĢÐ¼ Ð¾Ð·Ð°Ð³Ð¾ÑĤÐ¾Ð²ÐºÐ°
110 2
ĠÐ½ÐµÐ¿ ÑĢÐ¾
91 40
Ġ91 40
ĠÑģÑĤÐ°ÑĢ ÑĤÐ¾Ð²ÑĭÐ¹
010 3
ak kuyu
ĠÑĦÐ° ÐºÑĤÐ¾ÑĢ
ÑįÑĤ Ð¸Ð»ÑĨÐµÐ»Ð»Ð¾Ð·Ð¾Ð»ÑĮ
ĠÐ´Ð¸ÑģÐ¿ ÐµÑĤÑĩ
410 40
ĠÑĦÐ¸Ð± ÑĢÐ¾Ð»
Ð¾ÐºÐ° Ñĩ
ĠÐ¾Ð¶ Ð¸Ð´
Ġlt c
Ð¾Ð³Ð½ ÐµÑĤÑĥÑĪÐ¸ÑĤÐµÐ»ÑĮ
Ġlm c
ÐµÐ½Ð· Ð¸Ñı
Ġge ar
ĠÐ´ÐµÑĦÐµÐºÑĤÐ¾ÑģÐº Ð¾Ð¿Ð¸ÑĩÐµÑģÐºÐ¸Ð¹
ĠÐ¸Ñģ ÑħÐ¾Ð´Ð½ÑĭÐ¹
ĠÐ½Ð· Ð»
ĠÑĨÐµÐ¼ ÐµÐ½ÑĤÐ°ÑĨÐ¸Ñı
Ð¼Ð¾Ð½Ð¸ÑĤ Ð¾ÑĢ
ĠÐ¾Ð±ÐµÑģÐ¿ÐµÑĩ Ð¸Ð¹
ĠÑģÐ¿ÑĢ Ð¸Ð½
Ġ357 40880
411 16
Ġpw r
492 144
ĠÐ½Ð¾ÑĢÐ¼Ð°ÑĤ Ð¸Ð²Ð½ÑĭÐ¹
Ð½ÐµÑĢ ÐµÐ³ÑĥÐ»Ð¸ÑĢÑĥÐµÐ¼ÑĭÐ¹
ĠÑĪÐ¿Ð°ÑĤÐ» ÐµÐ²
ĠÐ½ÐµÐ¿Ð¾Ð» Ð¸ÑĢÐ¾Ð²Ð°Ð½Ð½ÑĭÐ¹
ĠÑĢÑĥÐºÐ¾Ð²Ð¾Ð´ Ð¸ÑĤÐµÐ»ÑĮ
ĠÐ¾Ð´Ð½Ð¾Ð¿ÑĢ Ð¾Ð»ÑĳÑĤÐ½ÑĭÐ¹
ĠÐ¾Ð¼ÐµÐ´ Ð½ÑĳÐ½Ð½ÑĭÐ¹
ĠÑģÑĤÐ¾Ð»Ñı ÑĢÐ½ÑĭÐ¹
Ġpneu matic
ĠÑĦÐ¸Ð±ÑĢÐ¾Ð» Ð¸ÑĤÐ¾Ð²ÑĭÐ¹
0 54
4 67
8 37
ÑĤ r
Ñģ ÑĢÐµÐ´
ÑĢ Ð¾Ðº
ÑĢ ÐµÑģÐ½ÑĭÐ¹
ĠÑģ ÑĥÐ³
ĠÑģ orrosion
Ð¿ Ð¾Ð¶Ð°ÑĢÐ½ÑĭÐ¹
ĠÐ´ ÑĥÐ³
Ñĩ Ð¸ÑģÐ»
Ð°ÑĤ Ð¸ÑĤÑĮ
Ġ3 1996
Ð¶ Ð¸Ñı
Ñī Ð°ÑĤÑĮ
Ġi xy
ĠÐ·Ð° Ð·Ð¾ÑĢ
Ġd up
ÐµÑĤ ÐµÐ½Ð¸Ðµ
ĠÐ¾Ð± ÐµÐ´ÐµÐ½Ð½ÑĭÐ¹
ĠÑĪ ÑģÐ¿
Ð¾Ñģ Ð¸Ð³Ð½Ð°
Ġ5 12
ĠÐ°ÑĢ Ð¼Ð¾
ĠÑĢ ÐµÑĩ
Ġ8 35
Ð¸Ð» Ð¾Ð²ÑĭÐ¹
ĠÐ¶ Ð±Ð¸
ĠÐ½Ðµ ÑĪÐ»Ð¸ÑĦ
Ġ16 6
ĠÐ¿Ð¾Ð´ ÑĢÐ°Ð¼
Ġg re
16 9
Ġ32 50
ĠÐ¾Ñģ Ð°
Ġ00 99
Ġ30 7
Ġ30 46
Ð¿ÐµÑĢ ÐµÐ´
24 2
Ġ18 74
11 10
ĠÐ¿ÑĢÑıÐ¼Ð¾ ÑĥÐ³Ð¾Ð»ÑĮ
Ġval tec
Ġ19 8
Ġ13 70
Ġre ver
13 50
Ġ35 1
Ġ110 25
Ġ22 1
ĠÐºÐ¿ ÑįÐ³
Ġgro und
ÑģÐ²ÐµÑĤ Ð¾Ð´Ð¸Ð¾Ð´Ð½ÑĭÐ¹
Ġ38 7
Ġ38 26
Ġ180 2
ĠÐ¾ÑĢ ÐµÐ±ÑĢ
Ġis d
Ġdo k
ĠÑı ÑĢÐ²
ÑįÐ¿ ÑįÐ½Ð³
Ġj h
ĠÑįÐ»Ð°ÑģÑĤ Ð¾Ð¼ÐµÑĢ
Ġ29 3
Ġal umin
ĠÐ²ÑĭÐ²Ð¾Ð´ Ð½Ð¾Ð¹
ĠÐ¿ÑĢÐ¾Ð¿ Ð¸ÑĤÐ¾ÑĩÐ½ÑĭÐ¹
ĠÑģÐ¾Ð½ ÐµÑĤ
ĠÐ¾Ð½ Ð´
Ġout go
ÐºÐ¾Ð¼ Ð°
ĠÐ½ÐµÑĢÐ°Ð· ÑĢÑĥ
ĠÐ°Ð»ÑİÐ¼ Ð¾ÑģÐ¸Ð»Ð¸ÐºÐ°ÑĤÐ½ÑĭÐ¹
Ġps f
ĠÐ²ÐµÑĤÑĢ Ð¾Ð²ÑĭÐ¹
Ð¿Ð¾Ð³ÑĢÑĥ Ð¶Ð½Ð¾Ð¹
Ð¹Ð½ Ð¼ÐµÐ½ÑĤ
ĠÐ¸ÐºÑģÐ» ÑĭÐ¹
ĠÐ¸ÐºÑģÐ» Ð½Ð³
Ð±ÑĢÑĥÑģ ÑĩÐ°ÑĤÐºÐ°
ĠÐ¿Ð°ÑĢÐ¾Ð¿ÑĢÐ¾Ð½Ð¸ÑĨÐ° ÐµÐ¼ÑĭÐ¹
Ð¿Ð»Ð¾Ñģ ÐºÐ¸Ð¹
Ð¼Ð°ÑĢ ÐºÐ¸ÑĢÐ¾Ð²Ð¾ÑĩÐ½ÑĭÐ¹
ĠÑįÐ¼ÑĥÐ»ÑĮÑģ Ð¸Ñı
ĠÑįÐ¼ÑĥÐ»ÑĮÑģ Ð¸Ð¾Ð½Ð½ÑĭÐ¹
Ġmix ed
ĠÐºÐ¿Ð¾ ÑįÐ¿ÑįÐ½Ð³
ĠÐ¼ÑĥÐ»ÑĮÑĤÐ¸Ð¿ Ð¾Ð»
ĠÐºÑĢÐ° ÐµÐ²Ð¾Ð¹
ĠÐ¾Ð±Ð¾ÑĢÐ° Ñĩ
ĠÐºÐ¾Ð½ÑĤÐ° Ð¹Ð½Ð¼ÐµÐ½ÑĤ
ĠÑĤÑĥÐ°Ð» ÐµÑĤÐ½ÑĭÐ¹
ÐµÑĢÐ¾ Ð¸Ð´
ĠÐºÐ¾Ð¼Ð¿Ð°Ð½ Ð¸Ñı
ĠÐ½Ð¸ÑĤ ÐµÐ¿ÑĢÐ¾
ĠÐ»Ð¾Ð´ Ð¶Ð¸Ñı
Ð¾ÐºÐ°Ñĩ ÐµÑģÑĤÐ²ÐµÐ½Ð½ÑĭÐ¹
ĠÐ½ÐµÑĪÐ»Ð¸ÑĦ Ð¾Ð²Ð°Ð½Ð½ÑĭÐ¹
Ġoutgo ing
ĠÐ½Ð¸ÑĤÐµÐ¿ÑĢÐ¾ ÑĪÐ¸Ð²Ð½Ð¾Ð¹
2 17
4 15
m c
Ð½ Ñı
Ð¼ ÑĢ
ĠÑģ ÑģÐ¾
ĠÑģ Ð°Ð´
ĠÑģ ÐµÑĩÑĮ
ĠÑģ ÑĦÐµÑĢÐ¸ÑĩÐµÑģÐºÐ¸Ð¹
Ð² ÑĮ
Ð¿ ÑĦ
ĠÐº a
ĠÐ¿ Ð·
ĠÐ´ Ð²Ð¾
ĠÐ¾ Ñĥ
ĠÐ½ Ðº
ĠÑĤ Ð±Ð¿
Ð¾Ð¿ Ð°ÐºÐµÑĤ
ĠÐ° ir
ĠÑĥ ÐºÐ¾Ð¼Ð¿Ð»ÐµÐºÑĤÐ¾Ð²Ð°ÑĤÑĮ
ĠÑĢÐ° Ð¹
ÑģÑģ Ð¾Ð¾Ð±Ð¼ÐµÐ½
Ġ0 22
Ġ0 29
Ð¾ÑĤ Ð½Ð¸Ðº
ÐµÐ· Ð½Ð¾Ð¹
Ġs Ñģ
Ġa riston
ĠÐ» Ð¾Ñī
ĠÐ¾Ð± Ð¾Ð³
ĠÐºÐ° Ð¼ÐµÑĢÐ½ÑĭÐ¹
ĠÑĪ Ð±
ĠÑĪ ÐºÑĥ
Ġ9 10
ĠÐºÐ³ ÑįÑĪ
or e
ÐµÐ» ÐºÐ°
Ġn Ð½Ð°
ĠÑĢ ÐºÑĥ
Ġq b
Ġ50 3
Ġcl e
ĠÐ¿Ð¾Ð´ Ð»Ð¾Ðº
40 2
ĠÐ¼Ð° ÑıÐº
ÐµÐºÐ°ÑĤ ÐµÐ»ÑĮ
Ġg elios
Ð»ÐµÐºÑĤ Ð¾ÑĢÐ½ÑĭÐ¹
ĠÑĤÐµÐ¿Ð» Ð¾Ð¼Ð°
ĠÑĤÐµÐ¿Ð» Ð¾Ð´ÐµÑĦÐ¾ÑĢÐ¼Ð¸ÑĢÐ¾Ð²Ð°ÑĤÑĮ
ĠÑĤÑĢ ÐµÐ²
Ð°Ð´ ÑĢÐµÑģÐ½ÑĭÐ¹
35 28
Ð½Ð°Ñĩ Ð½ÑĭÐ¹
le s
Ð¼ÐµÑĤ Ð½ÑĭÐ¹
ÑĥÑĪ Ð¸Ð»ÑĮÐ½ÑĭÐ¹
Ġ13 4
ĠÐ°Ð²ÑĤ Ð¾Ð´Ð¾ÑĢÐ¾Ð¶Ð½ÑĭÐ¹
Ð´ÑĢ ÐµÐ½Ð°Ð¶Ð½ÑĭÐ¹
re s
Ð¾Ð·Ð° Ð¿Ð¾ÑĢÐ½ÑĭÐ¹
ĠÑĤÐµÑĢÐ¼ Ð¾Ð·Ð°Ð¿Ð¾ÑĢÐ½ÑĭÐ¹
Ġst d
Ð·ÐµÐ¼ Ð»ÐµÑģ
ĠÑĢÐ°Ð²Ð½ Ð¾Ð±ÐµÐ´ÑĢÐµÐ½Ð½ÑĭÐ¹
38 2
27 00
as ca
04 40
if ication
ĠÑĢÐ°ÑģÑĤ ÑıÐ½ÑĥÑĤÑĮ
ÑĪÐ° ÑİÑīÐ¸Ð¹
op l
ĠÐºÐ¾Ñį ÑĦÐ°
ĠÐ´Ð¾Ð¿ÑĥÑģÑĤ Ð¸Ð¼Ð¾ÑģÑĤÑĮ
ĠÐ´Ð¾Ð± Ð¾ÑĢ
Ġgr anit
212 1
Ġka blo
Ġlimit s
Ġ59 15
Ġam bi
ĠÐ°ÑĥÑģÑĤÐµÐ½ Ð¸Ð·Ð¸ÑĢÐ¾Ð²Ð°ÑĤÑĮ
ĠÐ´Ð¿ Ð½
Ð½Ð°ÑĢ Ñĭ
ĠÐ¿ÑĢÐ°Ð² Ð»ÐµÐ½ÑĭÐ¹
Ð¿Ð¾ÑĢ ÑĥÑĩÐµÐ½ÑĮ
ĠÐ¿ÑĥÑĤ ÐµÐ¿ÑĢÐ¾Ð²Ð¾Ð´
ĠÐ´Ð²ÑĥÑħÐ»Ð° Ð¿ÑĩÐ°ÑĤÑĭÐ¹
ĠÐ²ÑģÐ°Ñģ ÑĭÐ²Ð°Ð½Ð¸Ðµ
ĠÐ²ÐµÑĤÑĢ Ð¾Ð·Ð°ÑīÐ¸ÑĤÐ½ÑĭÐ¹
ĠÐ²ÐµÑĤ Ð²ÑĮ
mas tic
ĠÑĢÐ°Ð·ÑĢÑĥ ÑĪÐ°ÑĤÑĮ
ÑģÐµÐ´ ÑĳÐ»ÐºÐ°
Ġgasket s
ĠÐ±Ð· Ð½
ĠÑģÑĤÑĢÐ¾Ð¿ Ð¸Ð»ÑĮÐ½ÑĭÐ¹
ÑħÑĢ Ð¾Ð½Ð½ÑĭÐ¹
ĠÑĢÐµÐ½ÑĤÐ³ ÐµÐ½
ÑģÑĤÐµÐºÐ» Ð¾Ð¿Ð°ÐºÐµÑĤ
Ġelp br
ÐºÐ¸ÑģÐ» Ð¾ÑĤÐ°
ĠÐ±Ð°ÐºÑĤÐµÑĢ Ð¸ÑĨÐ¸Ð´Ð½ÑĭÐ¹
Ð¾ÑĢÐ¾Ð· ÐµÑĤÐºÐ°
ĠÐ¼Ð°Ð½Ð¸Ð¿Ñĥ Ð»ÑıÑĤÐ¾ÑĢ
Ġbg z
ĠÐ½ÑĥÐ¼ÐµÑĢ Ð°ÑĨÐ¸Ñı
Ġsewer age
ĠÑĤÐ¶ Ð¸Ñĥ
Ġ605429 48
ĠÐ½ÐµÑĢÐ°Ð·ÑĢÑĥ ÑĪÐ°ÑİÑīÐ¸Ð¹
ĠÐ»Ð¾Ñī ÑĳÐ½ÑĭÐ¹
ĠÐ¾Ð±Ð¾Ð³ Ð°ÑĤÐ¸ÑĤÑĮ
ĠÐ¿Ð¾Ð´Ð»Ð¾Ðº Ð¾ÑĤÐ½Ð¸Ðº
ĠÑĤÐµÐ¿Ð»Ð¾Ð¼Ð° ÑģÑģÐ¾Ð¾Ð±Ð¼ÐµÐ½
Ġambi ent
2 150
4 19
4 36
9 9007
c ds
n t
v b
ÑĤ ÐµÐ¹
Ñģ Ð¾ÑĢ
ĠÑģ Ð¾Ð¿
ĠÑģ ÐµÑĥ
00 23
Ð¾Ð² Ð¾Ð»Ð½Ð¾Ð²ÑĭÐ¹
Ð± ÐµÑĢÑĦ
ĠÑĤ Ð¸Ñģ
Ñħ g
ĠÐ° i
ĠÐ° Ð²Ð°
Ġ4 35
Ġ4 31
ĠÑĥ ÑĤÐºÐ°
Ġc v
Ġ0 35
ĠÐ½Ð° Ð³
ĠÐ½Ð° Ð³ÑĢ
Ġs on
Ġm ag
ĠÐ·Ð° Ð¼ÐµÐ½Ð°
Ġt ÑĢ
ĠÐ¾Ð± Ð¾ÑĢÐ¾ÑĤ
Ð¾Ñĩ ÐµÑĢ
Ġ6 15
Ġ6 85
Ð¾Ð± Ð½ÑĭÐ¹
Ġp or
Ġ5 14
er fix
ĠÑĢ Ð¾Ðº
Ġ8 500
Ġ8 600
Ġ8 800
Ġ8 434
Ð»ÐµÑĢ Ð½ÑĭÐ¹
Ġ10 60
ĠÑįÐ»ÐµÐºÑĤÑĢ Ð¾ÑħÐ¸Ð¼
an sion
ĠÂ º
Ġ40 179
Ġ90 4
Ġ90 16
Ġk j
400 5
ĠÐ¾Ñģ Ð½Ð°ÑģÑĤ
14 50
24 6
Ð¾Ñī ÑĮ
ÑģÑĤÐ² Ð¾Ð»
Ġ18 7
ĠÐ½ÐµÑĢÐ¶Ð°Ð² ÑĭÐ¹
ĠÐ¾Ðº Ðº
19 3
Ġ13 80
ol d
ĠÑī Ð²
45 71
28 7
ĠÐºÑĢÐµÐ¼Ð½ÐµÐ· ÑĳÐ¼Ð¸ÑģÑĤÑĭÐ¹
ĠÐ¾Ð¿ÑĤ Ð¸Ð¼
23 3
ĠÑĢÐ°Ð´Ð¸ Ð¾Ð²Ð¾Ð»Ð½Ð¾Ð²ÑĭÐ¹
ĠÐ³ÑĢÐ°Ð½ ÑĳÐ½ÑĭÐ¹
Ġ31 40
ĠÐ¼Ð¿ ÑĤ
Ġtyp dg
ÐºÐ°Ð½Ð° Ð»
Ġap i
ĠÐ°ÑģÐ± Ð»Ð°
ĠÑģÐ²ÐµÑĤÐ¾ Ð¾Ð¿ÑĤÐ¸ÑĩÐµÑģÐºÐ¸Ð¹
Ð½Ð°ÑģÑĤ ÐµÐ½Ð½ÑĭÐ¹
Ð²Ð² ÑįÐ½Ð³
Ġtypdm f
Ġexp ansion
Ġny fg
ĠÐ¿Ð¾Ð¼ Ð¾ÑīÑĮ
ÑĢÐµÐ²Ð¸Ð· Ð¸Ð¾Ð½Ð½ÑĭÐ¹
ĠÐ¾Ð´Ð½Ð¾Ð»Ð° Ð¿ÐºÐ¾Ð²ÑĭÐ¹
ĠÐºÐ¿ÑģÐ² Ð±Ð³Ð°
ĠÐ°Ð°Ð± Ð»Ð°
Ġnm l
ÑģÐµÐ´ ÐµÐ»ÑĮÐ½ÑĭÐ¹
ĠÐ»Ð¸ÑĤ ÐµÑĢÐ½ÑĭÐ¹
ĠÑĤÑĥÐ¿ Ð¾Ð¹
ĠÑĤÑĥÐ¿ Ð¸ÐºÐ¾Ð²ÑĭÐ¹
ĠÑĤÐ²ÐµÑĢ Ð´
ĠÐ²Ð°Ð³ Ð³Ð°
Ġhour s
ect ric
ĠÐ½Ð¸ ÑĤÑĢ
ÑĥÐ´Ð»Ð¸Ð½ Ð¸ÑĤÐµÐ»ÑĮ
Ġ344 9
Ġjota mastic
Ġnsytr v
ĠÐ½Ð¸Ð¿ ÐµÐ»ÑĮ
ĠÑįÐ¶ ÐµÐºÑĨÐ¸Ð¾Ð½Ð½ÑĭÐ¹
ĠÐ¿Ð¾Ð³Ð»Ð¾ÑĤ Ð¸ÑĤÐµÐ»ÑĮ
ÑĢÐµÑĨ Ð¸ÑĢÐºÑĥÐ»ÑıÑĨÐ¸Ð¾Ð½Ð½ÑĭÐ¹
ĠÐ¾Ð¶Ð¸Ð´ Ð°ÑĤÑĮ
ĠÐ¿Ð¾Ð´ÑĢÐ°Ð¼ Ð½Ð¸Ðº
ĠÑģÐ°Ð´ Ð¾Ð²ÑĭÐ¹
Ð±ÐµÑĢÑĦ Ð»ÐµÐºÑģ
Ġ40179 153
Ġnyfg by
3 35
3 96
4 90
8 80
i e
s h
t on
Ñģ Ð¸ÑĦÐ¾Ð½
Ñĭ Ñħ
ĠÑģ ÑĥÐ·
Ñĥ ÑİÑī
ĠÐ¼ Ð±Ð¿
ĠÐ¿ ÑģÐ¾
Ð´ ÑĤ
Ð´ Ð»Ð¾
00 26
ĠÐ¸ ÑĢ
Ð± ÑĥÑĢÐ½ÑĭÐ¹
Ð± ÑĥÐ»ÑĮÐ´Ð¾Ð·ÐµÑĢ
Ġ2 99
ĠÐ³ ÑĤÐº
Ġ4 45
Ġ0 21
Ġs hf
ÑĪ Ð°ÑĤÑĮÑģÑı
ÑĪ ÐµÐ¹Ð½ÑĭÐ¹
Ġd Ð²Ð½
ĠÑį Ð»ÐµÐºÑĤ
ĠÐ¾Ð± ÑĤÑģ
on d
Ð°Ð² Ð¾ÑĩÐ½ÑĭÐ¹
Ġ20 60
Ð¸Ð» Ð»ÐµÑĢ
Ġ10 500
Ġq dr
Ġh alog
Ġ7 500
ĠÐ²Ñĭ Ð·
el ik
ed y
ĠÑĢÐ°Ð± Ð±ÐµÑĢÑĦÐ»ÐµÐºÑģ
om eter
ĠÑĢÐ°ÑģÐ¿ ÑĢÐµÐ´
ĠÑĤÑĢ ÐµÐº
Ġ24 4
ĠÐ²ÑĭÑģÐ¾Ðº Ð¾ÐºÐ°ÑĩÐµÑģÑĤÐ²ÐµÐ½Ð½ÑĭÐ¹
ÐºÑĢ Ð°ÑĤ
Ð¾Ð·Ð² ÐµÐ½Ð½ÑĭÐ¹
Ġ26 2
ĠÐ¿Ñį Ð½
08 4
uc b
ĠÐºÐ¾Ð² Ð°Ð½ÑĭÐ¹
ĠÐ¼Ðµ Ð»Ð°Ð¼Ð¸Ð½
ĠÐ°Ðº Ð»
ĠÐºÐ²Ð² Ð±Ð½
ĠÐºÐ²Ð² Ð±Ð³Ð°
Ġz kb
Ġ34 74
ĠÐ°Ñģ Ð¸Ð½
ĠÐ½Ð°Ñģ ÑĭÑĤ
Ð¾Ð²Ð°ÑĤÐµÐ»ÑĮ Ð½Ð¾
39 111
Ġsw a
ĠÑĦÐ°Ð»ÑĮ ÑĨÐµÐ²
Ġsm d
ĠÑģÐ³ Ð¾Ð½
Ġunit s
ĠÑĢÑĥÐº Ð¾ÑħÐ¾Ð´
Ġon tec
lc u
ĠÐ²Ð¸Ð±ÑĢÐ¾ Ð¸Ð·Ð¾Ð»Ð¸ÑĢÑĥÑİÑīÐ¸Ð¹
Ġ53 36
ĠÑįÐºÑģ ÐºÐ°Ð²Ð°ÑĤÐ¾ÑĢ
Ġ311 3
ĠÐ´Ð¸ÑģÐ¿ Ð»ÐµÐ¹
ĠÑħÐ¾Ð´ Ð¾Ð²Ð¾Ð¹
ÑĤÑĢÐ°Ð½ Ñģ
Ġfas erfix
Ġremo val
Ġep dm
ĠÐ¿Ð°ÑģÑģ Ð¸Ð²
ĠÑĤÐµÑĢÐ¼Ð¾Ð¿Ð»Ð°ÑģÑĤ Ð¸ÑĩÐµÑģÐºÐ¸Ð¹
ĠÑĪÐ² ÐµÐ´ÑģÐºÐ¸Ð¹
ĠÑģÐ»ÐµÐ´ Ð¾Ð²Ð°ÑĤÐµÐ»ÑĮÐ½Ð¾
Ġreduc ing
ĠÑĤÐºÐ°Ð½ ÐµÐ²ÑĭÐ¹
la st
ĠÐºÐ¾Ð· Ð»Ð¾Ð²
ĠÐ¿Ð¸Ð³ ÑĤÐµÐ¹
ĠÑĦÐ± Ñģ
ĠÐ¸Ð·Ð¾Ð» ÑįÐ¿
ĠÑĤÑĢÐ°Ð½Ñģ Ð¸Ð²ÐµÑĢ
ĠÑĤÐ°Ð¼ Ð±ÑĥÑĢÐ½ÑĭÐ¹
Ð´ÑĢÐ¾Ð± ÑĮ
ĠÐ²Ð¾Ð´Ð¾ÑĢÐ°Ð· Ð±Ð¾ÑĢÐ½ÑĭÐ¹
Ġnip ple
Ġdistrib ution
ĠÐ²Ð°ÑĢ Ð¸
ÑģÑĢÐµÐ´ ÑģÑĤÐ²Ð¾
ĠÐ¾Ð±Ð¾ÑĢÐ°Ñĩ Ð¸Ð²Ð°ÐµÐ¼Ð¾ÑģÑĤÑĮ
asca ff
Ġhalog en
ĠÐ½Ð°ÑģÑĭÑĤ Ð¸ÑĤÑĮ
39111 001
ĠÐ¿Ð¸Ð³ÑĤÐµÐ¹ Ð»
4 66
9 75
a erator
g ra
l h
ÑĤ ÐµÐ²Ð¾Ð¹
Ð¸ ÑģÑģ
ÑĢ ÐµÐ³
ÑĢ Ð¾ÑģÐ½ÑĭÐ¹
Ð» ÐµÐ½Ð½ÑĭÐ¹
Ð¿ Ð¾Ñı
Ð´ Ð»
ĠÐ´ n
ĠÐ½ ÑĨ
Ġ2 37
Ð»Ð° Ð¹
ĠÐ¿ÑĢ Ð¾ÐºÐ°Ð»
ĠÐ± ÑĤÐ¼
ĠÐ³ Ð°ÑĢ
Ð¸ÑĤ Ð°ÑĤÐ¾ÑĢ
ĠÑĥ Ð¼ÐµÐ½ÑĮ
ĠÑĥ ÐºÑĢÐµÐ¿Ð»ÐµÐ½Ð¸Ðµ
Ġc th
Ġ0 70
Ġ0 27
ĠÐ· Ð°ÑĢÑıÐ´Ð½ÑĭÐ¹
ĠÐ· Ð·ÑĤ
ÑĪ ÐµÑĢÐ½ÑĭÐ¹
ĠÐ·Ð° Ð¾
Ġd us
ĠÐ¾Ð± Ð¸ÑĤÑĮ
ÐµÐ³Ð¾ÑĢ Ð¸Ð¹
ĠÑĪ Ð»Ð°Ð¼
ĠÐºÐ°ÑĤ Ð°Ð½ÑĭÐ¹
Ñİ Ð¼
Ġ5 16
Ġ5 44
Ġ8 31
Ð¿Ð° Ð»ÑĮÐ½ÑĭÐ¹
Ġ10 12
Ġb us
001 3
001 6
Ġ16 7
Ġl sp
ĠÐ¿Ð¾Ð´ Ð²ÐµÑĪÐ¸Ð²Ð°Ð½Ð¸Ðµ
ĠÑĨ ÑĤ
Ġr l
in sic
ĠÐ¼Ð° ÑĪÐ¸Ð½Ð½ÑĭÐ¹
16 3
ĠÐ²Ð¾Ð´ Ð¾Ñģ
ĠÐ²Ð¾Ð´ Ð¾Ð³ÑĢ
Ġ60 âģ°
Ð¸ÑĨ Ñĭ
Ġip o
Ġas v
Ġde aerator
Ġ18 20
Ġcontrol ler
ĠÐ´Ð²ÑĥÑħ ÑģÐµÐ´ÐµÐ»ÑĮÐ½ÑĭÐ¹
ĠÑģÐ± ÑĢÐ¾ÑģÐ½ÑĭÐ¹
ĠÐ¼Ð¸Ð½ ÑĮ
Ġ13 476
Ġver tical
ĠÐ¿Ð»Ð°ÑģÑĤ Ð¸ÑĦÐ¸ÑĨÐ¸ÑĢÐ¾Ð²Ð°ÑĤÑĮ
ĠÑĤÐµÑĢÐ¼Ð¾ ÑĢÐ°Ð·
ĠÑĪÐ¿ Ð°ÑĤÐ»ÑĳÐ²ÐºÐ°
ĠÑģÐ¿ÐµÑĨ Ð»Ð°Ð½
37 12
ĠÐ¾Ñħ Ð»Ð°Ð´Ð¸ÑĤÐµÐ»ÑĮ
Ġin ox
Ġ240 6
ĠÐ°Ñģ ÑĨ
34 7
Ġsc re
Ġ020 9
Ð¾Ð¼Ð¾Ð³ ÐµÐ½Ð½ÑĭÐ¹
ÑĥÐ· Ð¸Ð¾Ð½Ð½ÑĭÐ¹
ak ing
ĠÑģÐ¸Ð»Ð¸ ÐºÐ°ÑĤ
ĠÐ¿Ð± Ð¿
Ð¾ÑģÑĤÐ¾ ÐµÑĩÐ½ÑĭÐ¹
Ġjo in
Ġover flow
ĠÐ²Ñģ Ñĳ
ĠÐ²ÑĭÑģÐ¾ÐºÐ¾ ÑįÐ»Ð°ÑģÑĤÐ¸ÑĩÐ½ÑĭÐ¹
Ð¾ÑģÐ¿ Ð»Ð°Ð²Ð½ÑĭÐ¹
ron ic
ĠÐºÑĥÐ»Ð° ÑĩÐ¾Ðº
9130 5
ĠÑĢÐ¾ÑģÑģ Ð¸Ð¹ÑģÐºÐ¸Ð¹
Ġkp u
ĠÐ¼Ð°Ñĩ ÑĤÐ¾Ð²ÑĭÐ¹
ĠÐ¿ÐµÑĢÐµÐ¿Ð» ÐµÑĤÐµÐ½Ð¸Ðµ
xs y
Ġpoly mer
Ġbas ed
ĠÐ¿Ð¸ÑģÑģ ÑĥÐ°ÑĢÐ½ÑĭÐ¹
ĠÐ±Ð°Ð»Ð»Ð°ÑģÑĤ Ð¸ÑĢÐ¾Ð²ÐºÐ°
Ð¾Ð²ÐµÐ½ÑĤÐ¸Ð»Ñı ÑĨÐ¸Ð¾Ð½Ð½ÑĭÐ¹
ĠÑģon trol
Ð°ÑĤÐµÐ» ÐµÐ¼
ĠÐ¿ÑĢÑıÐ¼Ð¾ÑĥÐ³Ð¾Ð»ÑĮ Ð½ÑĤÑĮ
ĠÑĤÐ²ÐµÑĢÐ´ Ð¾ÑģÐ¿Ð»Ð°Ð²Ð½ÑĭÐ¹
ÑĥÑİÑī Ð¸Ðµ
Ð¿Ð¾Ñı Ñģ
ĠÐ²Ð¾Ð´Ð¾Ð³ÑĢ ÐµÐ¹Ð½ÑĭÐ¹
% -
2 600
4 18
c om
f p
f orm
l usan
v ic
Ġ ÑĢÐ¾Ð²
ÑĤ Ð·
Ñģ Ð±Ð¾ÑĢÐºÐ°
Ð» Ð¾Ð¼Ð½ÑĭÐ¹
Ð» ÐµÐ½Ð¸ÑĤÑĮ
ĠÑģ h
ĠÑģ Ð°ÑĤ
ĠÑģ Ð¼ÐµÑĤÐ½ÑĭÐ¹
Ð² Ð°Ð½Ð¸Ðµ
Ð»ÑĮ ÑħÐ°
Ð³ ÑĢÐ°Ð½
ĠÐ¾ Ð»ÑĮÑħÐ°
ÑĢÐ° Ð¼Ð½ÑĭÐ¹
Ð¾Ð¿ Ð¾Ð»ÑĮÐ½ÑĭÐ¹
ĠÐ± Ð¸ÑĤ
ĠÐ³ ÑĦ
ĠÐ³ Ð¾Ð¼Ð¾Ð³ÐµÐ½Ð½ÑĭÐ¹
Ð¾Ðº Ð½Ð¾
Ġ4 600
Ġc ÑĤÐ°Ð»ÑĮ
Ġc od
ÑĦ ÑĤÐ°Ð»
Ġm ut
ĠÐ¾ÑĤ ÐºÐ»ÑİÑĩÐ°ÑĤÑĮ
Ġa er
ĠÑģÐ² Ð°Ñı
ĠÐ¿ÐµÑĢ ÐµÐ³Ð¾ÑĢ
ĠÑĢÐ°Ð· ÑĢÐµÐ·Ð°ÑĤÑĮ
Ġo l
ĠÐ¿ÑĢÐ¸ ÑģÐ»
Ð¸Ð· Ð²
ÐµÐ¹ ÑģÑĤÐ¸Ðµ
ĠÐ¼Ð°ÑĢ ÑĤ
ÐµÐ¿ ÐµÑģÑĤÐºÐ¾Ð²ÑĭÐ¹
Ð¸Ð» ÐµÐ½ÑĤ
ÑħÐ¾Ð´ Ð¸ÑĤÑĮ
ĠÑħ Ñħ
ĠÐ½Ðµ ÑĥÑĤÐµÐ¿Ð»
ĠÐ²Ñĭ Ð²Ð¾Ð·
Ġ12 70
Ġ16 000
Ð¿ÑĢ Ð¾Ñģ
Ð¿ÑĢ Ð¾Ð³
Ð¾Ð²Ð¾Ð´ ÑıÐ½Ð¾Ð¹
Ġl km
ĠÐ¿Ð¾Ð´ ÐºÐ»Ð°Ð´ÐºÐ°
ÑĥÑģ ÐºÐ¾ÑĢÐ¸ÑĤÐµÐ»ÑĮ
en a
en o
ĠÐ²Ð¾Ð´ Ð¾ÑĢÐ¾Ð´
ĠÑģÐ¾Ñĩ Ð»ÐµÐ½Ð¸ÑĤÑĮ
ĠÑĢÐµÐ· Ð¸ÑģÑĤÐ¾ÑĢ
Ġ14 10
ĠÐ¾Ð´Ð½ Ð¾Ð»ÐµÑĤÐ½Ð¸Ð¹
Ġ18 1
Ð²Ð¾Ð·Ð´ÑĥÑħ Ð¾Ð¾ÑĤÐ²Ð¾Ð´ÑĩÐ¸Ðº
ĠÐ´Ð²ÑĥÑħ Ð¿ÑĢÐ¾Ð²Ð¾Ð´Ð½Ð¾Ð¹
ĠÐ¿ÑĢÐ¸Ð² Ð°ÑĢÐ¸ÑĤÑĮ
ĠÐ¾Ðº ÑģÐ½
ĠÐ¿Ð° Ð·Ð¾Ð²ÑĭÐ¹
ĠÐ³Ð°Ð· Ð¾ÑģÐ½Ð°Ð±Ð¶ÐµÐ½Ð¸Ðµ
Ġ13 87
ĠÐ·Ð´ Ð¾
Ð°Ð¼ Ð¾ÑĢÑĤÐ¸Ð·Ð°ÑĨÐ¸Ñı
22 23
ĠÐ±Ð° ÑĢÐ°Ð±Ð°Ð½
ĠÐ²Ð¾Ð·Ð´ ÐµÐ¹ÑģÑĤÐ¸Ðµ
ĠÑī ÑĳÑĤÐ¾ÑĩÐ½ÑĭÐ¹
ĠÐ³Ð¾ÑĢÐ¸Ð· Ð¾Ð½
ÐºÑĢ Ðº
ÐºÑĢ ÐµÑģÐ»Ð¾
Ð¸Ñģ ÑĨÐµÐ½ÑĤÐ½ÑĭÐ¹
45 7
ĠÑĤÐµÑĢÐ¼ Ð¾Ð¼
ĠÑĩÐ°Ñģ Ð¾Ð²Ð¾Ð¹
ĠÑĤÑĢÐµÑħ ÑĬÑıÑĢÑĥÑģÐ½ÑĭÐ¹
21 25
ĠÐ¼Ð½Ð¾Ð³ Ð¾Ñģ
29 8
ĠÑĢÐµ ÑĦ
ĠÐ¿Ð¿ Ð²
Ġcool er
ĠÐ·Ð°Ðº ÑĢÑĭÑĤÐ¸Ðµ
pa b
ÑĨÐµÐ¿ ÑĮ
ĠÐ¿Ð°ÑĢ Ð¾Ð¿ÑĢÐ¾Ð²Ð¾Ð´
Ġmin imum
ĠÐ²ÑĭÐ¿ÑĥÑģÐº Ð½Ð¾Ð¹
102 16
Ð¼ÐµÑĤÐ°Ð»Ð» Ð¾ÑĢÑĥÐºÐ°Ð²
ĠÐ±ÑĢÑĥÑģ ÑĩÐ°ÑĤÐºÐ°
ĠÑĥÐ¿Ð°Ðº Ð¾Ð²Ð°ÑĤÑĮ
Ġ002 181
ĠÑįÐ» ÐµÐ³
ĠÐ¿Ð»Ð¸Ð½ÑĤ ÑĥÑģÐ½ÑĭÐ¹
Ġser vic
ĠÐ½ÐµÐ³ Ð¾ÑĦÑĢÐ¸ÑĢÐ¾Ð²Ð°Ð½Ð½ÑĭÐ¹
ĠÑģÐ°Ð¼Ð¾Ð· Ð°Ð¶Ð¸Ð¼Ð½ÑĭÐ¹
Ġrec over
Ð¾Ð³ÑĢÐ°Ð¼ Ð¼
ĠÐ¿ÑģÐ¿ ÐºÑĢÐ°
ĠÐ¸Ð½Ð² ÐµÑĢÑĤÐ¾ÑĢÐ½ÑĭÐ¹
Ġul tra
Ġbt v
Ġspl ice
ĠÐ°Ð¿Ð² Ð¿Ð³
Ġso aking
ĠÐ¾ÐºÑģ Ð½Ð³
Ġsd t
Ġsu sp
ĠÐ³ÐµÐ¾ ÑĥÐ¿Ð»Ð¾ÑĤÐ½Ð¸ÑĤÐµÐ»ÑĮ
ĠÐ²ÐµÐ½ÑĤ ÑĨÐµÐ½ÑĤÑĢ
Ġax c
ĠÐ¿Ð°Ð· Ð¾Ð³ÑĢ
Ġcontain s
ĠÐ¿ÑĢÐ¾ÑĤÐ¸Ð²Ð¾Ð²Ð· Ð»Ð¾Ð¼Ð½ÑĭÐ¹
ĠÑĢÐ°Ð·ÑĢÑĥ ÑĪÐ°ÑĤÑĮÑģÑı
Ġblo om
ĠqÐ½Ð° Ð³ÑĢÐµÐ²
ĠÐ¸Ð·Ð¾Ð» Ð¸ÑĢÐ¾Ð²Ð°Ð½Ð¸Ðµ
Ð½Ð¾Ðº Ð¸ÑģÐ»ÑĭÐ¹
Ġwc b
ĠÐ¼ÑĥÑģÐ¾ÑĢ Ð¾Ð¿ÑĢÐ¾Ð²Ð¾Ð´
ĠÑģÐ¼ÐµÑĪ Ð¸Ð²Ð°Ð½Ð¸Ðµ
ÑĥÐ³Ð» Ð¾Ð²Ð¾Ð¹
ĠÐ´Ð²ÑĥÑħÐ¿ Ð¾Ð·Ð¸ÑĨÐ¸Ð¾Ð½Ð½ÑĭÐ¹
Ġarma tik
ĠÐ²Ð¾Ð·Ð´ÑĥÑħÐ¾Ð¿ÑĢ Ð¸ÑĳÐ¼Ð½ÑĭÐ¹
Ð³Ð¸Ð´ÑĢÐ¾ÑĦÐ¾Ð± Ð¸Ð·Ð¸ÑĢÐ¾Ð²Ð°ÑĤÑĮ
ĠÐ´Ð¸Ñģ ÐºÑĢ
Ġground ing
ÑĤÑĢÐ°Ð½Ñģ Ð¸Ð²ÐµÑĢ
ĠÐ±Ð¸ÑĤ ÑĥÑĢ
Ġmut lusan
ĠÐ¿ÑĢÐ¸ÑģÐ» Ð¾Ð½Ð¸ÑĤÑĮ
ĠÐ½ÐµÑĥÑĤÐµÐ¿Ð» ÑĳÐ½Ð½ÑĭÐ¹
Ð¿ÑĢÐ¾Ð³ Ð¾Ð½
ĠÐ¾ÐºÑģÐ½ Ð¼
Ġ002181 18
Ġservic ing
Ġrecover y
ĠÐ¿Ð°Ð·Ð¾Ð³ÑĢ ÐµÐ±
0 117
4 35
9 80
b l
g y
h one
o us
u j
ÑĢ Ñģ
ÑĢ Ð¸ÑĤÐ¾ÑĢ
Ðº Ð»Ð¸Ð½
Ðº Ð¾Ð¶ÑĥÑħ
Ðº Ð»ÐµÑĢÐ½ÑĭÐ¹
Ñĭ Ð»ÐµÐ½Ð¸Ðµ
ĠÑģ Ð¸Ð³
ĠÑģ ÑĩÑĳÑĤ
ĠÑģ ÑħÐ²
ĠÑģ ÑĭÐ¿
ĠÑģ ÑĥÐ¿Ð¿Ð¾ÑĢÑĤ
Ð² ÑģÑĤ
Ð² ÐµÐ¼Ð¾ÑģÑĤÑĮ
ÑģÑĤ ÑĢÐ¾ÐµÐ½Ð¸Ðµ
Ð´ Ñİ
Ð¾Ð² Ð°ÑĢÐ½ÑĭÐ¹
ĠÐ´ ÑĪ
Ð°ÑĤ Ð¸Ð²
ĠÐ¾ ÐºÑĤ
ĠÐ² ÑģÐ»
ĠÐ½ ÑģÐ¾
ĠÐ½ ÐºÑĥ
ĠÑĤ ÑģÑģ
ĠÑĤ ÑĢÐ¾
ĠÑĤ Ð¾Ð²Ð°ÑĢÐ½ÑĭÐ¹
ĠÐ¸Ð· Ð»Ð¸ÑĤÑĮ
ĠÐ° Ð°ÑĪ
ĠÐ± ÑĢÐ¾
Ġc re
Ð°Ð½ Ð¾Ð²
ĠÑĢÐ° ÐºÑĥÑĪ
Ð¾ÑĤ Ð¸Ð¿
ÐµÐ· Ð´
50 5
50 6
Ġm x
Ġi m
ĠÑģÑĤ Ð¼
ÐµÑĤ Ð¸Ð¹
ĠÑį Ð»Ð°
Ð¾Ð± Ð»ÑĥÑĩÐ°ÑĤÐµÐ»ÑĮ
Ġ5 13
ti es
ĠÐ¿ÑĢÐ¸ ÐºÐ»ÐµÐ¹ÐºÐ°
Ð¸Ð· Ð¾Ð½ÑĤÐ°Ð»ÑĮÐ½ÑĭÐ¹
Ġii Ð¼ÑĤÑĮ
ĠÑĦ Ð¿
ĠÑĢ ÑģÐ²
Ġ20 7
Ġ8 90
10 20
Ġ100 80
Ġf p
ĠÐ¿Ð¾Ð» Ð¾ÑĤÐ½
Ġq Ð°
al e
Ð¾Ð¶ ÐºÐ°
ĠÐ¿Ð» Ð³
ĠÐ¿Ð¾Ð´ Ð´ÐµÑĢÐ¶ÐºÐ°
Ð¾Ð³ Ð½ÑĥÑĤÑĮ
30 6
Ġk or
ĠÐ»Ñİ ÐºÑģ
ĠÑĤÑĢ ÐµÑĤÐ¸Ð¹
Ġ60 13
Ġ00 00
Ġ14 90
Ġ30 34
75 3
75 5
Ġ01 10
ĠÑĤÐµÑĢ ÑĢÐ¸ÑĤÐ¾ÑĢ
Ġ18 80
ĠÐºÐ¾Ð½ÑĤÑĢ Ð¾Ð³Ð°
03 3
ĠÑĥÐ½ Ð¸Ð²
Ġ08 8
ĠÑģÐ» Ð¸Ð²Ð°
68 5
ĠÐ¿Ð° Ð¼
32 2
ĠÐ¿Ð¾Ð»Ð¸ÑįÑĤ Ð¸Ð»ÐµÐ½ÑĤ
19 9
ĠÐ¾ÑĤÐº Ð¾Ñģ
Ġre actor
osi t
ĠÐ¿ÑĢÑıÐ¼ Ð¾ÑģÑĤÐ¾ÐµÑĩÐ½ÑĭÐ¹
Ġ89 2
17 1
17 7
Ġpro fi
Ġpl astic
ĠÐ¼Ð½Ð¾Ð³ Ð¾Ð»ÐµÑĤÐ½Ð¸Ð¹
Ġ48 5
Ġ001 5
ĠÑĢÐ°Ð´Ð¸ Ð°ÑĤÐ¾ÑĢ
ĠÐ°ÑĢÐ¼ ÑģÑĤÑĢ
Ð³ÑĢÑĥÐ½ÑĤ Ð¾Ð²Ð°ÑĤÑĮ
ĠÐ¿Ð°ÑĢ ÐºÐ¾Ð²ÑĭÐ¹
iii Ð±
Ġic osit
ĠÑĢÐµÐ³ÑĥÐ»Ð¸ÑĢÐ¾Ð² Ð¾ÑĩÐ½ÑĭÐ¹
ĠÐºÑĥÐ¿ ÑįÐ²
Ġtyp dw
ĠÑĦÐ¸ÐºÑģ Ð°ÑĤÐ¾ÑĢÐ½ÑĭÐ¹
ĠÑĩÐµÑĤÑĭÑĢÐµÑħ Ð»
Ġdan tex
ÐµÑĢÐ°Ð· Ð¼ÐµÑĢ
Ġcondens er
ĠÐ³Ð¸Ð¿Ñģ Ð¾Ð²Ð¾Ð»Ð¾Ðº
ĠÐ²Ð¾ÑĢ Ñģ
Ġpol t
Ġanalog ue
im et
Ð³ÑĢÑıÐ· ÐµÐ²Ð¸Ðº
Ġes co
ĠÐ»Ð¾Ðº ÑĤÐµÐ²Ð¾Ð¹
Ġgri l
Ġsplit ter
ĠÑĦÐ°ÐºÑĤ ÑĥÑĢÐ°
ax ial
Ð»Ð°Ð³ Ð±Ð°
ÑħÐ¾Ð»Ð¾Ð´ Ð¸Ð»ÑĮÐ½ÑĭÐ¹
ĠÑĥÐ¿Ð»Ð¾ÑĤÐ½ ÑıÑĤÑĮ
ĠÐ¼ÑĢÐ¿ ÐµÑĤÑĮ
ĠÐ²Ð¾Ð´Ð¾Ð½ÐµÐ¿ÑĢ Ð¾Ð½Ð¸ÑĨ
ĠÐ½Ð¾Ñģ Ð¸Ðº
Ġbur c
ĠÑĤÑĢÐµÐº Ð¸Ð½Ð³
ĠÐ³Ð¾ÑĢÐ¸Ð·Ð¾Ð½ ÑĤÐ°Ð»ÑĮ
ĠÑģÐ¸Ð³ Ð¼Ð°
ĠÑģÑħÐ² Ð°ÑĤÑĭÐ²Ð°Ð½Ð¸Ðµ
ĠÐ°Ð°ÑĪ Ð²Ð°
ĠÑĢÐ°ÐºÑĥÑĪ ÐµÑĩÐ½Ð¸Ðº
ĠÑĤÐµÑĢÑĢÐ¸ÑĤÐ¾ÑĢ Ð¸Ñı
ĠÐºÐ¾Ð½ÑĤÑĢÐ¾Ð³Ð° Ð¹ÐºÐ°
ĠÐ°ÑĢÐ¼ÑģÑĤÑĢ Ð¾Ð½Ð³
ĠÐ²Ð¾Ð´Ð¾Ð½ÐµÐ¿ÑĢÐ¾Ð½Ð¸ÑĨ Ð²ÐµÐ¼Ð¾ÑģÑĤÑĮ
0 93
3 14
4 200
6 90
6 32
7 25
8 300
b p
t Ð°
u gh
x a
Ð¾ Ñį
Ð° ÐºÐ°
ÑĤ ÑĥÑĢÐ°
Ð½ Ð¸ÑĤÐºÐ°
Ð½ Ð¸ÑĨÑĭ
Ñģ Ð½Ñĥ
ÑĢ Ð¾Ð³
Ð¼ ÐµÐ½ÑĤÐ½ÑĭÐ¹
Ñĥ Ð¾
Ð¿ ÐºÐ¸Ð¹
ĠÐ¿ Ð¶
Ð»ÑĮ Ð¿Ð°Ð½
Ñĩ ÐµÐ½Ð¸Ðµ
ĠÐ¾ Ð³ÑĢÑĥÐ½ÑĤÐ¾Ð²Ð°ÑĤÑĮ
ĠÐ² t
ĠÐ¿ÑĢ Ð¾Ð¶
ĠÐ± ÑĤ
Ð°ÑĢ Ð¼Ð°
Ð¸ÑĤ ÐºÐ¾Ð²ÑĭÐ¹
Ġ4 46
Ġc g
Ð¾ÑĤ Ð±Ð¾ÑĢÐ½ÑĭÐ¹
Ð¸Ð² Ð°Ð½
Ġs um
ÐµÐ´ ÐµÐ½
ĠÐ¾ÑĤ ÑģÐµÐº
ĠÐ¾ÑĤ Ð»Ð¸ÑĩÐ½ÑĭÐ¹
ÐµÑĤ Ð»Ð¸ÑĤÑĮ
ĠÐ¾Ð± Ð¶ÐµÑĩÑĮ
ĠÐºÐ° Ðº
Ġ6 55
ĠÑĪ Ðº
Ð¾Ð± ÑĢ
Ġ9 13
Ð¸Ð¿ ÑĢ
Ġp ack
ĠÑĦ ÑĢÐ½
Ġn ed
Ñį Ð¸Ð´
Ġ7 65
ss ible
ĠÐ²Ñĭ ÐºÐ»ÑİÑĩ
ĠÐ¾Ð¿ ÑĤÐ¾Ð²ÑĭÐ¹
Ð¸Ð´ Ð¸ÑĤÑĮ
ro f
ĠÐºÐ¾Ð¼ ÑĦÐ¾ÑĢ
30 8
ri fication
80 7
ĠÑģÐ¾ Ð°Ñģ
ĠÑģÐ¾ Ð¾ÑģÐ½ÑĭÐ¹
Ġ14 80
Ð¸ÑĤÐ° Ð½Ð½ÑĭÐ¹
Ð¾ÑģÐ¾Ð± Ð½Ð¾ÑģÑĤÑĮ
Ġ30 74
Ġde m
Ġper mi
35 2
ĠÐ¿ÑĢÑıÐ¼Ð¾ ÑĥÐ³Ð¾Ð»ÑĮÐ½Ð¸Ðº
ĠÑĥÐ½ ÑĤ
ĠÑĢÐ°ÑģÐ¿ÑĢ Ð¾ÑģÑĤÑĢÐ°Ð½
68 8
32 9
Ġ17 4
Ġ70 35
ĠÐ½Ð°Ð¿ Ð¾Ð»Ð½ÐµÐ½Ð¸Ðµ
il ity
Ġco axial
Ð¸Ð³ Ð¼ÐµÐ½ÑĤ
ĠÑģÐµÑĢ Ð²ÐµÑĢÐ½ÑĭÐ¹
ĠÑģÑĤÑĢ ÐµÐ»Ð°
ÑĢÐ¾Ð¿ Ð¸ÑĤÐ°Ð½Ð½ÑĭÐ¹
ĠÐºÐ¿ Ð³Ñģ
Ġin tr
120 105
ĠÐ»Ð°ÑĤ ÐµÐºÑģ
96 4
ĠÐºÑģ ÑĦ
42 8080
ĠÑĤÑĢÐµÐ± Ð¾Ð²Ð°ÑĤÑĮ
Ġhe ad
ĠÐ½ÐµÐ¿ ÑĢÐ¾Ð¿Ð¸ÑĤÐ°Ð½Ð½ÑĭÐ¹
ĠÑĤÐ¾ÑĢ ÑĪÐµÑĢÐ½ÑĭÐ¹
ĠÑīÐ¸ÑĤ Ð¾Ð²Ð¾Ð¹
ĠÑģÑĤÑĭÐº Ð¾Ð²Ð°ÑĤÑĮ
ĠÐ¿Ð¾Ð³ÑĢÑĥ Ð·ÐºÐ°
ĠÐ¿Ð¾Ð³ÑĢÑĥ Ð·ÑĩÐ¸Ðº
ĠÐ¼ÐµÐ» ÐºÐ¾
ĠÐ»ÑİÐ¼Ð¸Ð½ Ð¸ÑģÑĨÐµÐ½ÑĤÐ½ÑĭÐ¹
ĠÐ¾Ð³ÑĢÐ°Ð½Ð¸Ñĩ Ð¸ÑĤÑĮ
ĠÐ½ÐµÐ» ÐµÑĤÑĥÑĩÐ¸Ð¹
Ġ410 9
Ġflu e
mm et
ĠÐ¿Ð¾Ð»Ð¸ÐºÐ°ÑĢÐ±Ð¾Ð½ Ð°ÑĤÐ½ÑĭÐ¹
ĠÑĨÐ° Ð¿ÐºÐ¸Ð¹
Ġid c
ÑĳÐ» Ð¾Ð±
ĠÐ°Ð± ÑĢÐ¸Ñģ
ĠÑģÐ±Ð² Ð±Ð±ÑĪÐ²Ð½Ð³
Ð»ÐµÑģÑĤÐ½ Ð¸ÑĩÐ½ÑĭÐ¹
Ð¿Ð¾Ð´Ð²ÐµÑģ ÐºÐ°
Ġpu rification
Ġbat ter
ĠÐºÐ¿ÑģÐ² Ð²Ð½Ð³
Ġfdb z
ĠÐ²Ð± Ð±ÑĪÐ²Ð°
Ġpre par
ĠÑĦÐ¾Ð½ Ð°ÑĢÑĮ
ĠÐºÐ²Ð²Ð³ Ñį
ĠÐ¿ÑĢÐ¾ÑĦÐ¸Ð» ÐµÑĢÐ°Ð·Ð¼ÐµÑĢ
ĠÐ¼Ð°ÑĤÑĢ Ð¸ÑĩÐ½ÑĭÐ¹
Ġchil led
ĠÐ¿Ð²Ñģ Ð½Ð³
478 71
Ġtest s
ĠÑĥÐ³Ð¾Ð»ÑĮ Ð½Ð¸Ðº
Ġtel ep
ĠÐ·Ð°ÐºÐ° Ð»Ð¸ÑĤÑĮ
ĠaÑĢ Ð¼Ð°ÑĤ
ĠÐ¿Ð°ÑĢÐ°Ð»Ð»ÐµÐ»ÑĮ Ð½Ð¾
ĠÑĤÑİ Ð»ÑĮÐ¿Ð°Ð½
Ġecop last
ĠÐ¿ÑĢÐµÐ¿ÑıÑĤ ÑģÑĤÐ²Ð¾Ð²Ð°ÑĤÑĮ
ĠÑĢÐ°Ð¹ Ð¾Ð½
ĠÑĤÑĢÐµÐ² Ð¾Ð¶Ð½ÑĭÐ¹
ĠÐ¼ÐµÐ»Ð°Ð¼Ð¸Ð½ Ð¾Ð²ÑĭÐ¹
ĠÐ¿Ð¾Ð»Ð¾ÑĤÐ½ ÑıÐ½ÑĭÐ¹
ĠÐ³Ð¸Ð¿ÑģÐ¾Ð²Ð¾Ð»Ð¾Ðº Ð½Ð¸ÑģÑĤÑĭÐ¹
ĠÐ¿ÑĢÐ¾Ð¶ ÐµÐºÑĤÐ¾ÑĢÐ½ÑĭÐ¹
ĠÑĦÑĢÐ½ Ðº
Ġpermi ssible
Ġintr insic
Ġprepar ation
3 741
a max
l ine
p roof
s q
s an
z ent
ÑĤ Ñĥ
Ð½ Ð°ÑĤÑĢ
Ð¸ ÐµÐ½ÑĤÐ½ÑĭÐ¹
ÑĢ Ð¾Ð¶
ĠÑģ ÑĨÐµÐ¿
ĠÑģ ÑĨÐ±
ĠÐ¼ Ñĭ
00 99
ĠÐ´ ÐµÐ¶
ÐµÑĢ Ð±
ĠÑĤ Ð¼Ð¼
ĠÑĤ ÑįÑģ
ĠÐ¸Ð· Ð±Ð°
Ð¾Ð¿ Ð»ÐµÐºÑģ
Ð¾Ðº Ð¾ÑĢ
Ð¾Ðº Ð»Ð°Ð²Ð½ÑĭÐ¹
Ġ4 14
Ð¶ ÑĳÐ»Ð¾Ð±
Ð°Ð½ ÐºÐ°
Ġ0 38
Ð¾ÑĤ Ð¾ÑĢÐ½ÑĭÐ¹
ĠÐ´Ð¸Ð° Ð¼ÐµÐ½
Ġs nom
Ð¾Ð¼ ÑĭÑĪÐ»ÐµÐ½Ð½ÑĭÐ¹
ĠÐ¾ÑĤ Ð±
ĠÑį ÑĢ
ĠÐ±ÐµÐ· Ð´Ð¾Ð±
ĠÑĪ Ñħ
ĠÑĪ Ð¸Ð½ÑĭÐ¹
ĠÐºÐ°ÑĤ ÐµÐ³Ð¾ÑĢ
Ġp Ð·Ð°ÐºÑĢ
Ġ5 33
ĠÐ¿ÑĢÐ¸ ÐºÐ°Ð·
ĠÐ¿ÑĢÐ¸ ÐºÐ»Ðµ
ĠÑĢ Ð½Ð°Ð¿Ð¾ÑĢ
20 70
ĠÑħ Ñģ
ĠÑħ Ð¿Ñģ
