{
  "version": "1.0",
  "truncation": null,
  "padding": null,
  "added_tokens": [
    {
      "id": 0,
      "content": "<pad>",
      "single_word": false,
      "lstrip": false,
      "rstrip": false,
      "normalized": true,
      "special": true
    },
    {
      "id": 1,
      "content": "<s>",
      "single_word": false,
      "lstrip": false,
      "rstrip": false,
      "normalized": true,
      "special": true
    },
    {
      "id": 2,
      "content": "</s>",
      "single_word": false,
      "lstrip": false,
      "rstrip": false,
      "normalized": true,
      "special": true
    },
    {
      "id": 3,
      "content": "<unk>",
      "single_word": false,
      "lstrip": false,
      "rstrip": false,
      "normalized": true,
      "special": true
    },
    {
      "id": 4,
      "content": "<mask>",
      "single_word": false,
      "lstrip": true,
      "rstrip": false,
      "normalized": false,
      "special": true
    }
  ],
  "normalizer": null,
  "pre_tokenizer": {
    "type": "ByteLevel",
    "add_prefix_space": false,
    "trim_offsets": true,
    "use_regex": true
  },
  "post_processor": {
    "type": "RobertaProcessing",
    "sep": [
      "</s>",
      2
    ],
    "cls": [
      "<s>",
      1
    ],
    "trim_offsets": true,
    "add_prefix_space": false
  },
  "decoder": {
    "type": "ByteLevel",
    "add_prefix_space": true,
    "trim_offsets": true,
    "use_regex": true
  },
  "model": {
    "type": "BPE",
    "dropout": null,
    "unk_token": null,
    "continuing_subword_prefix": "",
    "end_of_word_suffix": "",
    "fuse_unk": false,
    "byte_fallback": false,
    "ignore_merges": false,
    "vocab": {
      "<pad>": 0,
      "<s>": 1,
      "</s>": 2,
      "<unk>": 3,
      "<mask>": 4,
      "!": 5,
      "\"": 6,
      "#": 7,
      "$": 8,
      "%": 9,
      "&": 10,
      "'": 11,
      "(": 12,
      ")": 13,
      "*": 14,
      "+": 15,
      ",": 16,
      "-": 17,
      ".": 18,
      "/": 19,
      "0": 20,
      "1": 21,
      "2": 22,
      "3": 23,
      "4": 24,
      "5": 25,
      "6": 26,
      "7": 27,
      "8": 28,
      "9": 29,
      ":": 30,
      ";": 31,
      "<": 32,
      "=": 33,
      ">": 34,
      "?": 35,
      "@": 36,
      "A": 37,
      "B": 38,
      "C": 39,
      "D": 40,
      "E": 41,
      "F": 42,
      "G": 43,
      "H": 44,
      "I": 45,
      "J": 46,
      "K": 47,
      "L": 48,
      "M": 49,
      "N": 50,
      "O": 51,
      "P": 52,
      "Q": 53,
      "R": 54,
      "S": 55,
      "T": 56,
      "U": 57,
      "V": 58,
      "W": 59,
      "X": 60,
      "Y": 61,
      "Z": 62,
      "[": 63,
      "\\": 64,
      "]": 65,
      "^": 66,
      "_": 67,
      "`": 68,
      "a": 69,
      "b": 70,
      "c": 71,
      "d": 72,
      "e": 73,
      "f": 74,
      "g": 75,
      "h": 76,
      "i": 77,
      "j": 78,
      "k": 79,
      "l": 80,
      "m": 81,
      "n": 82,
      "o": 83,
      "p": 84,
      "q": 85,
      "r": 86,
      "s": 87,
      "t": 88,
      "u": 89,
      "v": 90,
      "w": 91,
      "x": 92,
      "y": 93,
      "z": 94,
      "{": 95,
      "|": 96,
      "}": 97,
      "~": 98,
      "¡": 99,
      "¢": 100,
      "£": 101,
      "¤": 102,
      "¥": 103,
      "¦": 104,
      "§": 105,
      "¨": 106,
      "©": 107,
      "ª": 108,
      "«": 109,
      "¬": 110,
      "®": 111,
      "¯": 112,
      "°": 113,
      "±": 114,
      "²": 115,
      "³": 116,
      "´": 117,
      "µ": 118,
      "¶": 119,
      "·": 120,
      "¸": 121,
      "¹": 122,
      "º": 123,
      "»": 124,
      "¼": 125,
      "½": 126,
      "¾": 127,
      "¿": 128,
      "À": 129,
      "Á": 130,
      "Â": 131,
      "Ã": 132,
      "Ä": 133,
      "Å": 134,
      "Æ": 135,
      "Ç": 136,
      "È": 137,
      "É": 138,
      "Ê": 139,
      "Ë": 140,
      "Ì": 141,
      "Í": 142,
      "Î": 143,
      "Ï": 144,
      "Ð": 145,
      "Ñ": 146,
      "Ò": 147,
      "Ó": 148,
      "Ô": 149,
      "Õ": 150,
      "Ö": 151,
      "×": 152,
      "Ø": 153,
      "Ù": 154,
      "Ú": 155,
      "Û": 156,
      "Ü": 157,
      "Ý": 158,
      "Þ": 159,
      "ß": 160,
      "à": 161,
      "á": 162,
      "â": 163,
      "ã": 164,
      "ä": 165,
      "å": 166,
      "æ": 167,
      "ç": 168,
      "è": 169,
      "é": 170,
      "ê": 171,
      "ë": 172,
      "ì": 173,
      "í": 174,
      "î": 175,
      "ï": 176,
      "ð": 177,
      "ñ": 178,
      "ò": 179,
      "ó": 180,
      "ô": 181,
      "õ": 182,
      "ö": 183,
      "÷": 184,
      "ø": 185,
      "ù": 186,
      "ú": 187,
      "û": 188,
      "ü": 189,
      "ý": 190,
      "þ": 191,
      "ÿ": 192,
      "Ā": 193,
      "ā": 194,
      "Ă": 195,
      "ă": 196,
      "Ą": 197,
      "ą": 198,
      "Ć": 199,
      "ć": 200,
      "Ĉ": 201,
      "ĉ": 202,
      "Ċ": 203,
      "ċ": 204,
      "Č": 205,
      "č": 206,
      "Ď": 207,
      "ď": 208,
      "Đ": 209,
      "đ": 210,
      "Ē": 211,
      "ē": 212,
      "Ĕ": 213,
      "ĕ": 214,
      "Ė": 215,
      "ė": 216,
      "Ę": 217,
      "ę": 218,
      "Ě": 219,
      "ě": 220,
      "Ĝ": 221,
      "ĝ": 222,
      "Ğ": 223,
      "ğ": 224,
      "Ġ": 225,
      "ġ": 226,
      "Ģ": 227,
      "ģ": 228,
      "Ĥ": 229,
      "ĥ": 230,
      "Ħ": 231,
      "ħ": 232,
      "Ĩ": 233,
      "ĩ": 234,
      "Ī": 235,
      "ī": 236,
      "Ĭ": 237,
      "ĭ": 238,
      "Į": 239,
      "į": 240,
      "İ": 241,
      "ı": 242,
      "Ĳ": 243,
      "ĳ": 244,
      "Ĵ": 245,
      "ĵ": 246,
      "Ķ": 247,
      "ķ": 248,
      "ĸ": 249,
      "Ĺ": 250,
      "ĺ": 251,
      "Ļ": 252,
      "ļ": 253,
      "Ľ": 254,
      "ľ": 255,
      "Ŀ": 256,
      "ŀ": 257,
      "Ł": 258,
      "ł": 259,
      "Ń": 260,
      "ĠÐ": 261,
      "Ð¾": 262,
      "Ð°": 263,
      "Ðµ": 264,
      "ÑĤ": 265,
      "Ð½": 266,
      "Ð¸": 267,
      "Ñģ": 268,
      "ÑĢ": 269,
      "Ð¾Ð": 270,
      "Ð»": 271,
      "Ð¹": 272,
      "Ðº": 273,
      "ÑĮ": 274,
      "Ñĭ": 275,
      "Ð¼": 276,
      "ÑĭÐ¹": 277,
      "ĠÑģ": 278,
      "Ñĥ": 279,
      "Ð½ÑĭÐ¹": 280,
      "Ð²": 281,
      "Ð¿": 282,
      "ĠÐ¼": 283,
      "ĠÐº": 284,
      "ĠÐ¿": 285,
      "ÑģÑĤ": 286,
      "Ð·": 287,
      "ÐµÐ½": 288,
      "Ð»ÑĮ": 289,
      "Ñı": 290,
      "Ġ-": 291,
      "Ð¸Ðµ": 292,
      "Ð´": 293,
      "00": 294,
      "Ð¾Ð²": 295,
      "ĠÐ´": 296,
      "Ñĩ": 297,
      "Ð°ÑĤ": 298,
      "Ð³": 299,
      "ÐµÑĢ": 300,
      "Ġ1": 301,
      "ĠÐ¸": 302,
      "Ð±": 303,
      "ÑĤÐ°": 304,
      "Ð¾Ð»": 305,
      "ĠÐ¾": 306,
      "ÑĢÐ°": 307,
      "Ð¾Ð¹": 308,
      "ĠÐ²": 309,
      "ĠÐ½": 310,
      "ÐºÐ°": 311,
      "ĠÐ¼Ð¼": 312,
      "ÐµÐ½Ð¸Ðµ": 313,
      "Ð¾ÑĢ": 314,
      "ĠÑĤ": 315,
      "Ñħ": 316,
      "Ð¾Ð´": 317,
      "Ð¸Ð½": 318,
      "Ġ2": 319,
      "Ð¾ÑģÑĤ": 320,
      "Ð»Ð°": 321,
      "ĠÐ¿ÑĢ": 322,
      "ÑĨ": 323,
      "Ð¸Ð¹": 324,
      "ÑĤÑĢ": 325,
      "Ð¾Ð½": 326,
      "ĠÑ": 327,
      "ĠÐ¸Ð·": 328,
      "Ð¾Ð¿": 329,
      "ĠÐ°": 330,
      "ÑĤÐ°Ð»ÑĮ": 331,
      "ĠÐ±": 332,
      "Ð°ÑĢ": 333,
      "ÐµÐ»ÑĮ": 334,
      "ÐµÑģ": 335,
      "ĠÐ³": 336,
      "Ð¾Ðº": 337,
      "Ð¸ÑĤ": 338,
      "Ġ3": 339,
      "Ġ4": 340,
      "ĠÑĥ": 341,
      "Ð¶": 342,
      "ÐºÐ¸Ð¹": 343,
      "Ð¾ÑģÑĤÑĮ": 344,
      "Ð¼Ðµ": 345,
      "Ð¸Ñı": 346,
      "Ñī": 347,
      "Ġc": 348,
      "ĠÑģÑĤÐ°Ð»ÑĮ": 349,
      "Ð°Ð½": 350,
      "ĠÑĢÐ°": 351,
      "ÑģÑģ": 352,
      "Ð¸Ð°": 353,
      "ÑĦ": 354,
      "ÑĢÑĥ": 355,
      "Ð»Ñı": 356,
      "Ġ.": 357,
      "Ġ0": 358,
      "Ð¸Ð½Ð°": 359,
      "ĠÐºÐ»Ð°": 360,
      "Ð¾ÑĤ": 361,
      "ĠÐ½Ð°": 362,
      "Ð¸Ð²": 363,
      "Ð¼ÐµÑĤÑĢ": 364,
      "ÐµÐ·": 365,
      "Ð¸Ñĩ": 366,
      "ĠÐ´Ð¸Ð°": 367,
      "50": 368,
      "ĠÐ·": 369,
      "Ġs": 370,
      "ĠÐ´Ð¸Ð°Ð¼ÐµÑĤÑĢ": 371,
      "Ð°ÑĤÑĮ": 372,
      "ÐµÐº": 373,
      "ĠÐºÐ»Ð°ÑģÑģ": 374,
      "Ð½Ð¾Ð¹": 375,
      "Ġm": 376,
      "Ð½Ð¾ÑģÑĤÑĮ": 377,
      "ÐµÐ´": 378,
      "Ġi": 379,
      "Ð¾Ð¼": 380,
      "ĠÐ´Ð»Ñı": 381,
      "ÑĪ": 382,
      "Ð»ÐµÐ½Ð¸Ðµ": 383,
      "Ð°Ñģ": 384,
      "ÐµÐ³": 385,
      "Ð¸ÑģÑĤ": 386,
      "ĠÐ·Ð°": 387,
      "Ġd": 388,
      "Ġt": 389,
      "ĠÑģÑĤ": 390,
      "ÑĢÐ¾Ð²": 391,
      "Ð¸ÑĩÐµÑģ": 392,
      "Ð¸ÑĩÐµÑģÐºÐ¸Ð¹": 393,
      "ĠÐ¾ÑĤ": 394,
      "ÐµÑĤ": 395,
      "Ġa": 396,
      "ĠÑį": 397,
      "ĠÐ»": 398,
      "ĠÐ±ÐµÐ·": 399,
      "Ð¾Ð·": 400,
      "ĠÐ¾Ð±": 401,
      "Ð¾Ð½Ð½ÑĭÐ¹": 402,
      "Ð¸ÑĤÑĮ": 403,
      "ÐµÐ³Ð¾ÑĢ": 404,
      "ĠÐºÐ°": 405,
      "Ð¾Ñĩ": 406,
      "Ġ6": 407,
      "ĠÑĪ": 408,
      "ĠÐºÐ°ÑĤ": 409,
      "Ñĳ": 410,
      "Ð¼Ð°ÑĤ": 411,
      "ÑģÐ¿": 412,
      "ÐµÑĩ": 413,
      "ÐµÐ³Ð¾ÑĢÐ¸Ñı": 414,
      "Ð¾Ð±": 415,
      "on": 416,
      "ĠÐºÐ°ÑĤÐµÐ³Ð¾ÑĢÐ¸Ñı": 417,
      "ÐºÐ»Ð°": 418,
      "Ġ9": 419,
      "Ð¾Ñģ": 420,
      "Ð¾Ð²Ð¾Ð¹": 421,
      "ÑĨÐ¸Ñı": 422,
      "Ð¸Ð¿": 423,
      "Ġp": 424,
      "ĠÑģÐ²": 425,
      "Ñİ": 426,
      "ĠÑĤÐ¾Ð»": 427,
      "Ð±ÐµÐ»ÑĮ": 428,
      "Ð½Ð°": 429,
      "Ġ5": 430,
      "Ð¾Ð¿Ð°Ñģ": 431,
      "ĠÑĤÐ¾Ð»Ñī": 432,
      "Ð¾Ð¿Ð°ÑģÐ½Ð¾ÑģÑĤÑĮ": 433,
      "Ð°Ð²": 434,
      "ÐµÐ¼": 435,
      "ĠÐ¿ÐµÑĢ": 436,
      "Ð»ÑĮÐ½ÑĭÐ¹": 437,
      "ĠÑĤÐ¾Ð»ÑīÐ¸Ð½Ð°": 438,
      "Ð»Ð¸": 439,
      "ĠÐ±ÐµÐ·Ð¾Ð¿Ð°ÑģÐ½Ð¾ÑģÑĤÑĮ": 440,
      "ÑĤÑĮ": 441,
      "ĠÑĢÐ°Ð·": 442,
      "ĠÑĤÐ¸Ð¿": 443,
      "ti": 444,
      "Ð¾Ð²ÑĭÐ¹": 445,
      "er": 446,
      "ĠÐºÐ³": 447,
      "Ġo": 448,
      "ĠÐ¿ÑĢÐ¸": 449,
      "ĠÑĥÐ³": 450,
      "or": 451,
      "Ð¸Ð·": 452,
      "ÐµÐ¹": 453,
      "Ġii": 454,
      "Ð»ÐµÐº": 455,
      "ÑĥÑĢ": 456,
      "Ð¾ÑģÑĤÐ¾Ð¹": 457,
      "ÐµÐ»": 458,
      "ĠÑĦ": 459,
      "Ġn": 460,
      "ĠÐ°ÑĢ": 461,
      "Ð¼ÐµÑĢ": 462,
      "ÐµÑģÑĤ": 463,
      "ĠÑĢ": 464,
      "ÑģÐ¼": 465,
      "ĠÐ´Ð¾": 466,
      "Ġ20": 467,
      "Ð¸Ðº": 468,
      "ÐºÐ»Ð°Ð´": 469,
      "Ġ8": 470,
      "ÑĥÑħ": 471,
      "Ð±Ð°": 472,
      "Ð¿Ð°": 473,
      "10": 474,
      "Ġ100": 475,
      "ÐºÐ¾ÑģÑĤÑĮ": 476,
      "ĠÐ°ÑĢÐ¼Ð°ÑĤ": 477,
      "Ð½ÐµÐ½Ð¸Ðµ": 478,
      "ÐµÑĩÐµÐ½Ð¸Ðµ": 479,
      "Ð¸ÑĤÐµÐ»ÑĮ": 480,
      "ĠÐ¼Ð°ÑĢ": 481,
      "te": 482,
      "ĠÑĤÑĢÑĥ": 483,
      "ÐµÐ½ÑĤ": 484,
      "ÐµÐ¿": 485,
      "20": 486,
      "ÐµÑĤÐ°": 487,
      "Ð¸Ð»": 488,
      "ÑħÐ¾Ð´": 489,
      "ĠÐ¼Ð°ÑĢÐº": 490,
      "ÑĢÑĭ": 491,
      "ÐµÐ¹ÑģÐ¼": 492,
      "Ð¸Ð»ÑĮ": 493,
      "ĠÐºÐ°Ð±ÐµÐ»ÑĮ": 494,
      "ĠÑģÐµÐ¹ÑģÐ¼": 495,
      "ÑĨÐ¸Ð½": 496,
      "Ġf": 497,
      "Ð»ÐµÑĢ": 498,
      "Ð¸ÑĢÐ¾Ð²": 499,
      "Ð¿Ð°Ð½": 500,
      "ĠÑģÐµÐ¹ÑģÐ¼Ð¾ÑģÑĤÐ¾Ð¹": 501,
      "ÑĨÐ¸Ð½Ðº": 502,
      "Ð¾Ð²Ð°ÑĤÑĮ": 503,
      "ĠÐºÐ¾Ð½": 504,
      "ĠÑħ": 505,
      "Ġ10": 506,
      "Ñį": 507,
      "ĠÐ¿ÑĢÐ¾": 508,
      "ĠÐ¶": 509,
      "ĠÐ¿Ð¾Ð»": 510,
      "Ð¾Ð·Ð´": 511,
      "Ġq": 512,
      "Ġh": 513,
      "Ð¾Ð»ÑĮ": 514,
      "500": 515,
      "ÐµÑĢÐ°": 516,
      "ĠÐ½Ðµ": 517,
      "al": 518,
      "ĠÑĤÐ°": 519,
      "Ġ7": 520,
      "ĠÐ¿Ð¾": 521,
      "Ð¾ÐºÐ°ÑĤ": 522,
      "Ð»ÐµÐºÑĤÑĢ": 523,
      "ÑĨÐ¸Ð½ÐºÐ¾Ð²Ð°ÑĤÑĮ": 524,
      "ÐµÐ²": 525,
      "Ð¶Ð½ÑĭÐ¹": 526,
      "ĠÑĢÐ°Ð·Ð¼ÐµÑĢ": 527,
      "Ġb": 528,
      "ÑĥÑĢÐ½ÑĭÐ¹": 529,
      "ÐµÑĤÐ°Ð»ÑĮ": 530,
      "ĠÐ¾ÑĤÐ²": 531,
      "ĠÑįÐ»ÐµÐºÑĤÑĢ": 532,
      "ĠÑģÑĤÐ°Ð»ÑĮÐ½Ð¾Ð¹": 533,
      "ss": 534,
      "Ð½Ñĥ": 535,
      "ĠÐ¾ÑĨÐ¸Ð½ÐºÐ¾Ð²Ð°ÑĤÑĮ": 536,
      "tion": 537,
      "Ð¾Ð·Ð´ÑĥÑħ": 538,
      "Ð²Ð¾": 539,
      "ĠÐ²Ñĭ": 540,
      "Ð¸Ð²Ð¾Ð´": 541,
      "Ð½Ð°Ñı": 542,
      "ĠÐ¸ÑģÐ¿": 543,
      "Ð¸Ð¾Ð½Ð½ÑĭÐ¹": 544,
      "Ð¸ÑģÑĤÑĭÐ¹": 545,
      "Ð¾Ð¶": 546,
      "ĠÑģÐ²Ð°ÑĢ": 547,
      "Ð»Ð»": 548,
      "ĠÐ°ÑĢÐ¼Ð°ÑĤÑĥÑĢÐ½ÑĭÐ¹": 549,
      "Ð¾ÑĩÐ½ÑĭÐ¹": 550,
      "ÑģÐ»": 551,
      "Ġiii": 552,
      "ÑĢÐµÐ´": 553,
      "ĠÐ·Ð°ÐºÐ»Ð°Ð´": 554,
      "ĠÐ³Ð¾ÑĢ": 555,
      "000": 556,
      "ĠÑģÐµÐ¹ÑģÐ¼Ð¾ÑģÑĤÐ¾Ð¹ÐºÐ¾ÑģÑĤÑĮ": 557,
      "Ð»ÐµÑĢÐ¾Ð´": 558,
      "ĠÐ³Ð°": 559,
      "ate": 560,
      "Ð¾Ð»Ð½ÐµÐ½Ð¸Ðµ": 561,
      "ÐµÑģÑĮ": 562,
      "ÑĥÑĦ": 563,
      "ĠÑĥÐ³Ð»ÐµÑĢÐ¾Ð´": 564,
      "Ð¸ÑģÑĤÐ¾Ð²Ð¾Ð¹": 565,
      "ĠÐ¾Ð´": 566,
      "Ð³Ð½": 567,
      "ÑĢÐ°Ð½": 568,
      "Ð¾Ð¿ÑĢ": 569,
      "001": 570,
      "ÑıÑĩ": 571,
      "ĠÐ¸ÑģÐ¿Ð¾Ð»Ð½ÐµÐ½Ð¸Ðµ": 572,
      "ĠÐ¾Ð¿": 573,
      "ÐµÐ´Ð¸Ð½": 574,
      "Ġ12": 575,
      "ĠÐ·Ð°ÐºÐ»Ð°Ð´Ð½Ð°Ñı": 576,
      "ÐµÑĢÐ¶": 577,
      "ÑģÐ¾": 578,
      "ÐµÐ½ÑĮ": 579,
      "ĠÑĥÐ³Ð»ÐµÑĢÐ¾Ð´Ð¸ÑģÑĤÑĭÐ¹": 580,
      "Ġv": 581,
      "ÐµÑĨ": 582,
      "ÑĢÐ¾Ð²Ð¾Ð´": 583,
      "Ġ16": 584,
      "ÑĢÐ°Ð²": 585,
      "Ð¸Ð´": 586,
      "Ð½Ð¸Ð¹": 587,
      "Ð½Ð¾": 588,
      "Ġof": 589,
      "ro": 590,
      "Ð¾ÑĢÐ½ÑĭÐ¹": 591,
      "el": 592,
      "Ġ50": 593,
      "ĠÐ¿ÑĢÐ¾ÐºÐ°ÑĤ": 594,
      "et": 595,
      "si": 596,
      "Ð°Ð²Ð»ÐµÐ½Ð¸Ðµ": 597,
      "ĠÐ¼ÐµÑĤÐ°": 598,
      "Ð¿ÑĢ": 599,
      "Ð»Ñİ": 600,
      "Ð¸ÑĢÐ¾Ð²Ð°ÑĤÑĮ": 601,
      "ĠÐ´Ð°Ð²Ð»ÐµÐ½Ð¸Ðµ": 602,
      "ĠÐ¼ÐµÑĤÐ°Ð»Ð»": 603,
      "ÑĢÑĭÑĤ": 604,
      "Ð¾Ð²Ð¾Ð´": 605,
      "ĠÐ¶Ð¸ÑĤÑĮ": 606,
      "Ġw": 607,
      "an": 608,
      "ĠÐºÐ¾Ð¼": 609,
      "Ð¾Ð¿ÑĢÐ¾Ð²Ð¾Ð´": 610,
      "ĠÂ": 611,
      "Ð¾Ð»Ñı": 612,
      "ĠÐ´Ð²": 613,
      "ed": 614,
      "ĠÑģÑĢÐµÐ´": 615,
      "ÐµÑģÑĤÐ²Ð¾": 616,
      "Ð°Ð½Ð¸Ðµ": 617,
      "ĠÐ¿Ð»": 618,
      "Ð°ÑĢÐ½ÑĭÐ¹": 619,
      "ory": 620,
      "gory": 621,
      "ategory": 622,
      "ĠÑĢÐ°Ð±": 623,
      "Ð¼Ð°": 624,
      "ĠÐºÐ°Ð±ÐµÐ»ÑĮÐ½ÑĭÐ¹": 625,
      "ĠÑĥÐ¿": 626,
      "Ġl": 627,
      "Ð¼Ð¾": 628,
      "Ġcategory": 629,
      "ĠÐºÐ¾ÑĢ": 630,
      "ĠÂ°": 631,
      "Ġcl": 632,
      "ĠÐºÐ²": 633,
      "Ġmm": 634,
      "ĠÑģÐ¿": 635,
      "ĠÐ²Ð¾Ð·Ð´ÑĥÑħ": 636,
      "ÑıÐ¶": 637,
      "ĠÐ¿Ð¾Ð´": 638,
      "Ð¾Ð³": 639,
      "ÑĨÐ¸Ð¾Ð½Ð½ÑĭÐ¹": 640,
      "Ġ25": 641,
      "ĠÑĨ": 642,
      "Ġqa": 643,
      "Ġ97": 644,
      "ĠÐºÐ°Ñĩ": 645,
      "Ġdn": 646,
      "Ð¸ÑĤÐµÐ»ÑĮÐ½ÑĭÐ¹": 647,
      "ĠÑĩ": 648,
      "ÑĢÐ°Ð²Ð»ÐµÐ½Ð¸Ðµ": 649,
      "25": 650,
      "Ġ200": 651,
      "ĠÐ½Ð¿": 652,
      "ĠÐºÑĢ": 653,
      "ÐµÐµ": 654,
      "ĠÑģÑĤÐµÐ½": 655,
      "ĠÑĤÑĢÑĥÐ±": 656,
      "ve": 657,
      "ĠÑģÐµÑĩÐµÐ½Ð¸Ðµ": 658,
      "ÑĢÑĭÑĤÐ¸Ðµ": 659,
      "ĠÐºÐ°ÑĩÐµÑģÑĤÐ²Ð¾": 660,
      "Ġr": 661,
      "ĠÐ¼Ð¿Ð°": 662,
      "ÐºÐ°Ð±ÐµÐ»ÑĮ": 663,
      "ÑīÐ¸Ð¹": 664,
      "Ð¼ÐµÐ½": 665,
      "ÑĥÑĦÑĤÐ°": 666,
      "ĠÐ½Ð°ÑĢ": 667,
      "om": 668,
      "ĠÐ¾Ð±ÐµÑģ": 669,
      "in": 670,
      "Ġcon": 671,
      "ÑĥÑĢÐ°": 672,
      "ĠÐ½Ð¾Ð¼": 673,
      "40": 674,
      "ĠÐ±ÐµÑĤ": 675,
      "ĠÐ¼Ð°": 676,
      "ĠÑĥÑģÐ»": 677,
      "ÑĦÐ¸Ð»ÑĮ": 678,
      "ĠÑĥÐ¿ÑĢÐ°Ð²Ð»ÐµÐ½Ð¸Ðµ": 679,
      "ĠÐ¿ÐµÑĢÐ¸": 680,
      "30": 681,
      "Ð½Ð¸Ðº": 682,
      "Ð»Ð°Ð½": 683,
      "ÐµÐºÐ°ÑĤ": 684,
      "18": 685,
      "ĠÐ¾Ð±ÐµÑģÐ¿": 686,
      "ÑıÑĩÐµÐºÐ°ÑĤ": 687,
      "ĠÐ¾Ð±ÐµÑģÐ¿ÐµÑĩÐµÐ½Ð¸Ðµ": 688,
      "ĠÐ½Ð¾Ð¼Ð¸Ð½Ð°": 689,
      "ĠÐ½Ð¾Ð¼Ð¸Ð½Ð°Ð»ÑĮÐ½ÑĭÐ¹": 690,
      "Ð¾Ð¶Ð°ÑĢÐ½ÑĭÐ¹": 691,
      "ĠÐ½Ð°ÑĢÑĥ": 692,
      "ĠÐ¿Ð¾Ðº": 693,
      "it": 694,
      "ĠÑģÑĢÐµÐ´Ð°": 695,
      "ĠÑĥÑģÐ»Ð¾Ð²": 696,
      "ĠÑĤÑĢÑĥÐ±Ð°": 697,
      "ĠÐºÐ¾Ð¼Ð¿": 698,
      "ĠÑģÐ¼": 699,
      "ĠÐ°ÑĤ": 700,
      "ĠÑģÐ²Ð°ÑĢÐºÐ°": 701,
      "ĠÐ¼ÐµÐ´": 702,
      "ĠÐ´ÐµÑĤÐ°Ð»ÑĮ": 703,
      "ĠÐºÐ»Ð°Ð¿Ð°Ð½": 704,
      "ĠÐ¸Ð·Ð³": 705,
      "ÑĥÑģ": 706,
      "ĠÐ½Ð°ÑĢÑĥÐ¶Ð½ÑĭÐ¹": 707,
      "Ð¾ÑĤÐ¾Ð²": 708,
      "ÑĤÑĢÑĥ": 709,
      "Ð¾ÑĤÐ¸Ð²": 710,
      "Ġg": 711,
      "Ð°ÑĤÐµÐ»ÑĮ": 712,
      "ri": 713,
      "ÐµÐ´Ð¸Ð½ÐµÐ½Ð¸Ðµ": 714,
      "Ð¸ÑĢ": 715,
      "ĠÑģÑĤÐµÐ½ÐºÐ°": 716,
      "ĠÐ¿Ð¾ÐºÑĢÑĭÑĤÐ¸Ðµ": 717,
      "Ð°Ð½Ð½ÑĭÐ¹": 718,
      "ĠÑĪÑĤ": 719,
      "ĠÐ¼ÐµÐ´Ð½ÑĭÐ¹": 720,
      "Ð¾Ð»ÑĮÐ½ÑĭÐ¹": 721,
      "Ð¸ÑĤÐ½ÑĭÐ¹": 722,
      "ÐµÐ½Ð½ÑĭÐ¹": 723,
      "ĠÐ¿ÑĢÐ¸Ð¼ÐµÐ½": 724,
      "ÐºÐ»Ð°Ð¿Ð°Ð½": 725,
      "ĠÐ¸Ð·Ð³Ð¾ÑĤÐ¾Ð²": 726,
      "Ġ15": 727,
      "ĠÐ¿ÑĢÐ¸Ð¼ÐµÐ½ÐµÐ½Ð¸Ðµ": 728,
      "Ð¼Ð°ÑĤÐ¸ÑĩÐµÑģÐºÐ¸Ð¹": 729,
      "Ð½Ð¸Ðµ": 730,
      "15": 731,
      "ĠÐºÐ»Ð¸": 732,
      "Ð¾Ð»Ð¾Ðº": 733,
      "ĠÐ³ÑĢÑĥ": 734,
      "Ð¾ÑģÑĤÐ°Ð²": 735,
      "ĠÑĤÐ°Ðº": 736,
      "ĠÐºÐ»Ð¸Ð¼Ð°ÑĤÐ¸ÑĩÐµÑģÐºÐ¸Ð¹": 737,
      "Ġop": 738,
      "ĠÐ´Ð»": 739,
      "Ġ40": 740,
      "ĠÐ¿Ð¾Ð»Ð¸": 741,
      "ÑĨÐµÐ²": 742,
      "ĠÐ¾ÑĤÐ²ÐµÑĢ": 743,
      "ĠÐ¿ÑĢÐ¾ÑĦÐ¸Ð»ÑĮ": 744,
      "Ð»Ð¾Ðº": 745,
      "ÐµÑħ": 746,
      "Ð´ÐµÐ»ÑĮ": 747,
      "Ġ90": 748,
      "ĠÐ¸Ð»Ð¸": 749,
      "ÐºÑĤ": 750,
      "Ġu": 751,
      "ÑģÑĤÐ¸Ðµ": 752,
      "ĠÐ¾ÑĤÐ²ÐµÑĢÑģÑĤÐ¸Ðµ": 753,
      "ÑģÑģÐ°": 754,
      "Ð¾Ð²ÐºÐ°": 755,
      "100": 756,
      "ĠÐ´Ð»Ð¸Ð½Ð°": 757,
      "ĠÑĢÑĥ": 758,
      "sp": 759,
      "16": 760,
      "Ġ250": 761,
      "ÑīÐµÐ½Ð¸Ðµ": 762,
      "ag": 763,
      "Ġ400": 764,
      "80": 765,
      "ĠÐ»Ð¸ÑģÑĤÐ¾Ð²Ð¾Ð¹": 766,
      "Ð»ÑıÑĤÑĮ": 767,
      "ma": 768,
      "ÑĥÐ³": 769,
      "Ð·Ð°": 770,
      "ĠÐ¸Ð·Ð³Ð¾ÑĤÐ¾Ð²Ð¸ÑĤÑĮ": 771,
      "Ð¹ÐºÐ°": 772,
      "ĠÐ¾Ð´Ð¸Ð½": 773,
      "ĠÑĤÑĢÑĥÐ±Ð¾Ð¿ÑĢÐ¾Ð²Ð¾Ð´": 774,
      "ec": 775,
      "Ð¾Ð²Ñĭ": 776,
      "Ġk": 777,
      "ĠÑģÐ¾": 778,
      "ĠÐ¾Ð³Ð½": 779,
      "ĠÑĦÐ»Ð°Ð½": 780,
      "ĠÐ¿ÑĢÐ¾ÑĤÐ¸Ð²": 781,
      "Ġ300": 782,
      "ĠÐ¿ÑĢÐ¸Ð²Ð¾Ð´": 783,
      "Ð¾Ð»ÑıÑĨÐ¸Ñı": 784,
      "ÑĢÐ°Ð±": 785,
      "ÑĳÐ¼": 786,
      "en": 787,
      "ÐµÐ¿Ð»": 788,
      "ir": 789,
      "ÑĢÐ¾": 790,
      "Ð»ÑĭÐ¹": 791,
      "Ð¾Ð¿Ð¾Ð¶Ð°ÑĢÐ½ÑĭÐ¹": 792,
      "Ġ500": 793,
      "ĠÐ¿ÑĢÐ¾ÑĤÐ¸Ð²Ð¾Ð¿Ð¾Ð¶Ð°ÑĢÐ½ÑĭÐ¹": 794,
      "ĠÑĥÑģÑĤ": 795,
      "12": 796,
      "Ð¾ÑģÑĦ": 797,
      "Ð»ÐµÐºÑĤ": 798,
      "ÑĢÐ¾Ð·": 799,
      "ÑģÑĤÑĢÑĥ": 800,
      "ĠÐ½Ð¸Ð·": 801,
      "ĠÐ»Ñİ": 802,
      "Ġ%": 803,
      "Ð¾Ð¿ÑĢÐ¸Ð²Ð¾Ð´": 804,
      "ĠÑįÐ»ÐµÐºÑĤÑĢÐ¾Ð¿ÑĢÐ¸Ð²Ð¾Ð´": 805,
      "ÑĤÐ¾Ð²ÑĭÐ¹": 806,
      "pe": 807,
      "ÐµÐ¼ÐµÐ½ÑĤ": 808,
      "ei": 809,
      "ĠÐ½Ð°ÐºÐ»Ð°Ð´": 810,
      "ĠÑģÐ¸Ð»": 811,
      "ĠÐ³Ð½Ñĥ": 812,
      "Ð¿Ð¿Ð°": 813,
      "ĠÐ±ÐµÑĤÐ¾Ð½Ð½ÑĭÐ¹": 814,
      "ass": 815,
      "ĠÑĢÐ°Ð·Ð¼Ðµ": 816,
      "ĠÑģÐ¸Ð»Ð¾Ð²Ð¾Ð¹": 817,
      "Ġ32": 818,
      "ĠÐ²Ð¾Ð´": 819,
      "Ð¸Ð²ÐºÐ°": 820,
      "ĠÐ¿ÑĢÑı": 821,
      "60": 822,
      "Ġclass": 823,
      "ĠÐ°ÑĤÐ¼": 824,
      "Ð°ÑĤÐ½ÑĭÐ¹": 825,
      "Ð²Ð¾Ð´": 826,
      "ĠÐ½Ð°ÐºÐ»Ð°Ð´Ð½ÑĭÐ¹": 827,
      "ĠÐ±Ð¾Ð»": 828,
      "400": 829,
      "Ġ1000": 830,
      "ĠÑĢÐ°ÑģÐ¿": 831,
      "ĠÐ·Ð°Ð¿": 832,
      "Ð»Ð¸Ñĩ": 833,
      "ĠÑģÐ²ÐµÑĢ": 834,
      "ĠÐ°Ð½": 835,
      "ÑģÐ¾ÐµÐ´Ð¸Ð½ÐµÐ½Ð¸Ðµ": 836,
      "Ð¾ÑģÑĤÐ°Ð²Ð»ÑıÑĤÑĮ": 837,
      "ĠÐ¿ÑĢÐ¾Ð±": 838,
      "ĠÐ½Ð¸Ð·ÐºÐ¸Ð¹": 839,
      "ĠÑħÑĢÐ°": 840,
      "ĠÐ³Ð¾ÑģÑĤ": 841,
      "ÑıÐ¶ÐµÐ½Ð¸Ðµ": 842,
      "ĠÑĤÐµÐ¿Ð»": 843,
      "Ð»Ð°Ð´": 844,
      "ÑİÑīÐ¸Ð¹": 845,
      "ĠÐ°ÑĤÐ¼Ð¾ÑģÑĦ": 846,
      "ĠÐ²ÐµÑģÑĮ": 847,
      "Ð½ÑĥÑĤÑĢ": 848,
      "Ġ150": 849,
      "um": 850,
      "Ð±Ð¾Ð¹": 851,
      "ĠÐ¾Ñģ": 852,
      "ĠÐ¾ÑĤÐ´ÐµÐ»ÑĮ": 853,
      "ĠÑĤÑĢ": 854,
      "ĠÑĥÑģÐ»Ð¾Ð²Ð¸Ðµ": 855,
      "Ð°Ð½ÑĭÐ¹": 856,
      "Ð´ÐµÑĤÐ°Ð»ÑĮ": 857,
      "tor": 858,
      "ĠÐ¿Ð¾ÑģÑĤÐ°Ð²Ð»ÑıÑĤÑĮ": 859,
      "ĠÐ°ÑĢÐ¼Ð°ÑĤÑĥÑĢÐ°": 860,
      "ÑĤÑĮÑĳ": 861,
      "Ġty": 862,
      "ĠÐ½Ð°Ð¿ÑĢ": 863,
      "ĠÐ»ÑİÐ±Ð¾Ð¹": 864,
      "ĠÐ°ÑĤÐ¼Ð¾ÑģÑĦÐµÑĢÐ°": 865,
      "ĠÐ¼ÐµÑĤÐ°Ð»Ð»Ð¸ÑĩÐµÑģÐºÐ¸Ð¹": 866,
      "ĠÑģÐ²ÐµÑĢÐ»ÐµÐ½Ð¸Ðµ": 867,
      "ĠÑįÑĤ": 868,
      "ÑıÑĤÑĮ": 869,
      "ĠÐ¼Ð°ÑģÑģÐ°": 870,
      "600": 871,
      "ĠÐ½Ð°Ð»Ð¸Ñĩ": 872,
      "ĠÐ³Ð½ÑĥÑĤÑĮÑĳ": 873,
      "ĠÐ½Ð°Ð»Ð¸ÑĩÐ¸Ðµ": 874,
      "ĠÐ½Ð°Ð¿ÑĢÑıÐ¶ÐµÐ½Ð¸Ðµ": 875,
      "ĠÐ¾ÑĤÐ´ÐµÐ»ÑĮÐ½Ð¾": 876,
      "ĠÐ¿ÑĢÐ¾Ð±Ð¸Ð²ÐºÐ°": 877,
      "ĠÐ¼ÑĥÑĦÑĤÐ°": 878,
      "ĠÑħÑĢÐ°Ð½ÐµÐ½Ð¸Ðµ": 879,
      "90": 880,
      "ÐµÑĢÐ°ÑĨÐ¸Ñı": 881,
      "ĠÐ¾Ð¿ÐµÑĢÐ°ÑĨÐ¸Ñı": 882,
      "ĠÑįÑĤÐ¾ÑĤ": 883,
      "ce": 884,
      "ÐµÑĤÐ°Ð½Ð¸Ðµ": 885,
      "ĠÑģÐ¾Ñĩ": 886,
      "ÑĤÑĢÑĥÐ±Ð°": 887,
      "ĠÐ¸Ð·Ð¾Ð»ÑıÑĨÐ¸Ñı": 888,
      "Ġdri": 889,
      "ĠÑģÐ¾ÑĩÐµÑĤÐ°Ð½Ð¸Ðµ": 890,
      "Ġdrive": 891,
      "ÐµÑĩÐµÐ½ÑĮ": 892,
      "ĠÐ¿ÐµÑĢÐµÑĩÐµÐ½ÑĮ": 893,
      "ĠÑĢÐ°Ð·Ð¼ÐµÑīÐµÐ½Ð¸Ðµ": 894,
      "ĠÑĢÐµÐ·": 895,
      "Ġ60": 896,
      "ĠÐ¼Ð°ÑĤ": 897,
      "200": 898,
      "Ġsa": 899,
      "ÐºÐ¾Ð½": 900,
      "Ð¸Ð°Ð»": 901,
      "Ġ00": 902,
      "ĠÐ²Ð½ÑĥÑĤÑĢ": 903,
      "Ġ14": 904,
      "ÐµÑĢÐ¸Ð°Ð»": 905,
      "ĠÐ³ÑĢÑĥÐ¿Ð¿Ð°": 906,
      "ĠÐ²ÑĤ": 907,
      "Ð¸ÑĨ": 908,
      "ÐµÐ½ÑĤÐ¸": 909,
      "Ð»ÑİÑĩ": 910,
      "ĠÐ·Ð°Ñī": 911,
      "ÐºÐ¾Ð»": 912,
      "Ġnp": 913,
      "Ġtype": 914,
      "ÐµÐ½Ð½Ð¸Ð¹": 915,
      "ĠÑĢÑĥÑĩ": 916,
      "Ð¸ÑĦ": 917,
      "Ġsaf": 918,
      "ety": 919,
      "Ġsafety": 920,
      "ĠÐ²Ð½ÑĥÑĤÑĢÐµÐ½Ð½Ð¸Ð¹": 921,
      "ĠÑĥÑģÑĤÐ°Ð½": 922,
      "ĠÐºÐ¾Ð¼Ð¿Ð»ÐµÐºÑĤ": 923,
      "ĠÐºÑĢÑĥ": 924,
      "Ð¸ÑĤÐ°": 925,
      "Ð¾ÑģÐ¾Ð±": 926,
      "Ġip": 927,
      "ĠÐ±Ð¾Ð»ÐµÐµ": 928,
      "ÐµÐ½ÑĤÐ¸Ð»Ñı": 929,
      "ĠÑģÑĤÐ°": 930,
      "ÑĬ": 931,
      "Ð´ÐµÐ»": 932,
      "ĠÑĢÐ°Ñģ": 933,
      "ĠÑģÐ¿Ð¾ÑģÐ¾Ð±": 934,
      "ium": 935,
      "Ġas": 936,
      "ur": 937,
      "Ġmed": 938,
      "ic": 939,
      "ĠÐ¿ÑĢÐ¾ÑħÐ¾Ð´": 940,
      "ÑĢÐ°Ñģ": 941,
      "Ġmedium": 942,
      "Ġ30": 943,
      "Ð¼Ð¸Ð½": 944,
      "ĠÐ¼Ð°ÑĤÐµÑĢÐ¸Ð°Ð»": 945,
      "ÐµÑĪ": 946,
      "ÑĢÐ°ÑĤÐ½ÑĭÐ¹": 947,
      "Ð¿ÐµÑĢ": 948,
      "Ġ600": 949,
      "ĠÑĢÑĥÑĩÐ½Ð¾Ð¹": 950,
      "ÑĤÐ¾ÑĢ": 951,
      "ĠÐ½ÐµÑĢÐ¶": 952,
      "ÐºÐ»ÑİÑĩ": 953,
      "Ð°Ð´": 954,
      "mo": 955,
      "Ð¸Ð±": 956,
      "Ð½Ð¾Ð²": 957,
      "ĠÐ³Ð°Ð¹ÐºÐ°": 958,
      "ĠÑĤÐ¾Ð½": 959,
      "ĠÐºÑĢÐµÐ¿": 960,
      "ÑıÑĩÐµÐºÐ°ÑĤÐ°Ð½ÑĭÐ¹": 961,
      "Ð¸Ð¼": 962,
      "ĠÐ²Ð¾Ð·Ð´ÑĥÑħÐ¾Ð²Ð¾Ð´": 963,
      "Ġde": 964,
      "14": 965,
      "Ġoper": 966,
      "Ð¸Ð»ÐµÐ½": 967,
      "Ġmp": 968,
      "ÐµÑħÐ¾Ð´": 969,
      "Ġper": 970,
      "Ð½Ð³": 971,
      "35": 972,
      "ĠÐ¼Ð¾Ð½": 973,
      "Ġ80": 974,
      "Ð¿Ñģ": 975,
      "Ð¾ÑĢÐ°": 976,
      "Ð¾ÑĩÐºÐ°": 977,
      "ĠÐ¿Ð»Ð¾Ñģ": 978,
      "Ð³Ð¾ÑĢ": 979,
      "ĠÑĪÐ¸ÑĢ": 980,
      "ĠÐ²ÐµÑģ": 981,
      "75": 982,
      "ls": 983,
      "Ġma": 984,
      "ÑĪÐºÐ°": 985,
      "ÐµÑģÑĤÐ¾Ð¹": 986,
      "ĠÐ¾Ð³Ð½ÐµÑģÑĤÐ¾Ð¹": 987,
      "ÐºÐ¾Ð»Ð¸ÑģÑĤÐ¾Ð²Ð¾Ð¹": 988,
      "ĠÑĤÐ¾Ð½ÐºÐ¾Ð»Ð¸ÑģÑĤÐ¾Ð²Ð¾Ð¹": 989,
      "Ð»Ð°ÑģÑĤ": 990,
      "ÐºÐµÑĢ": 991,
      "ĠÐ¾Ð´Ð½": 992,
      "ĠÑĥÑģÑĤÐ°Ð½Ð¾Ð²ÐºÐ°": 993,
      "ÑĤÐºÐ°": 994,
      "ÑĬÑĳÐ¼": 995,
      "ĠÐ¼Ð¾Ð½ÑĤÐ°": 996,
      "Ġ01": 997,
      "24": 998,
      "Ð¾ÑĤÐ¾Ðº": 999,
      "ĠÐ¾Ð±Ð¾Ð»": 1000,
      "ĠÐ¾Ð±Ð¾Ð»Ð¾ÑĩÐºÐ°": 1001,
      "ĠÐ¿Ð»Ð¾ÑģÐºÐ¸Ð¹": 1002,
      "ĠÐ¿ÐµÑĢÐ¸Ð¼ÐµÑĤÑĢ": 1003,
      "ÑģÐ¾ÑĤÐ°": 1004,
      "ĠÐ²ÑĭÑģÐ¾ÑĤÐ°": 1005,
      "ÑĥÐ¶": 1006,
      "ĠÐºÐ»": 1007,
      "Ð»ÐµÐ¼ÐµÐ½ÑĤ": 1008,
      "Ð²ÐµÑĤ": 1009,
      "ual": 1010,
      "Ð¾Ð´Ð¸ÑĩÐµÑģÐºÐ¸Ð¹": 1011,
      "Ð¾Ñī": 1012,
      "Ġâ": 1013,
      "ÐµÑİÑīÐ¸Ð¹": 1014,
      "ÑĥÐ½": 1015,
      "ÑĪÑĤ": 1016,
      "ance": 1017,
      "ĠÑĤÐµÑĢ": 1018,
      "Ð´ÐµÐ»Ð¸Ðµ": 1019,
      "Ð³Ð½Ð³": 1020,
      "ÑģÑĤÐ²": 1021,
      "ĠÐ¿ÐµÑĢÐ¸Ð¾Ð´Ð¸ÑĩÐµÑģÐºÐ¸Ð¹": 1022,
      "ĠÐ²ÐµÐ½ÑĤÐ¸Ð»Ñı": 1023,
      "Ð½Ð°Ñĩ": 1024,
      "Ġ18": 1025,
      "le": 1026,
      "ĠÐ½ÐµÑĢÐ¶Ð°Ð²": 1027,
      "Ð¼ÐµÑĢÐ½ÑĭÐ¹": 1028,
      "ĠÑĦÐ»Ð°Ð½ÐµÑĨ": 1029,
      "ĠÐ½ÐµÑĢÐ¶Ð°Ð²ÐµÑİÑīÐ¸Ð¹": 1030,
      "Ð¸ÐºÐ°": 1031,
      "70": 1032,
      "ĠÐ¿Ð¾Ð²": 1033,
      "ĠÐ°Ð»Ñİ": 1034,
      "ssur": 1035,
      "Ð²Ð¸": 1036,
      "Ġnom": 1037,
      "Ð°Ð»": 1038,
      "Ð½Ð°ÑĩÐµÐ½Ð¸Ðµ": 1039,
      "Ġ24": 1040,
      "Ð¾ÑģÑĤÑĢÐ°Ð½": 1041,
      "ĠÑĢÐµÐ·ÑĮ": 1042,
      "ĠÐ¿ÐµÑĢÐµÑħÐ¾Ð´": 1043,
      "ĠÐ°Ð»ÑİÐ¼Ð¸Ð½": 1044,
      "ĠÑįÐ»ÐµÐ¼ÐµÐ½ÑĤ": 1045,
      "Ð¾Ð½Ð°": 1046,
      "300": 1047,
      "gn": 1048,
      "ÑıÑĩÐµÐºÐ°ÑĤÐ°Ð½Ð½ÑĭÐ¹": 1049,
      "Ð°Ð½Ð¸ÑĩÐµÑģÐºÐ¸Ð¹": 1050,
      "Ð°ÑĢÐºÐ°": 1051,
      "Ð²ÑĤ": 1052,
      "Ð¸ÑĢÐ¾Ð²Ð°Ð½Ð½ÑĭÐ¹": 1053,
      "ity": 1054,
      "Ð°Ð»ÑĮ": 1055,
      "tro": 1056,
      "tic": 1057,
      "11": 1058,
      "ÐºÑĨÐ¸Ñı": 1059,
      "ĠÐºÐ¾Ð½ÑĤÑĢ": 1060,
      "sign": 1061,
      "ĠÑĥÐ³Ð¾Ð»Ð¾Ðº": 1062,
      "ĠÐ¾ÑģÐ½Ð¾Ð²": 1063,
      "Ð¼ÐµÑĤ": 1064,
      "ÑĥÐ¿": 1065,
      "ĠÑģÐ¼ÐµÑģÑĮ": 1066,
      "ĠÐ·Ð°Ð¼": 1067,
      "her": 1068,
      "Ġat": 1069,
      "Ð¾ÑģÑĤÐ¾Ð¹ÐºÐ¸Ð¹": 1070,
      "ÐµÑĢÐ¼ÐµÑĤ": 1071,
      "ĠÐºÐ¾Ð½ÑģÑĤÑĢÑĥ": 1072,
      "ÐºÑĢÐ°Ð½": 1073,
      "ĠÐ³Ð¾ÑĢÐµÐ½Ð¸Ðµ": 1074,
      "Ð¾Ð²Ð½ÑĭÐ¹": 1075,
      "ĠÐ¿Ð²": 1076,
      "Ġdesign": 1077,
      "ĠÐ²Ð²": 1078,
      "ĠÐ¿ÑĢÑıÐ¼Ð¾": 1079,
      "ĠÐºÐ¾ÑĢÑĢÐ¾Ð·": 1080,
      "Ð²ÑĭÐ¹": 1081,
      "ĠÑģÐµÐ¹ÑģÐ¼Ð¾ÑģÑĤÐ¾Ð¹ÐºÐ¸Ð¹": 1082,
      "trol": 1083,
      "sm": 1084,
      "di": 1085,
      "01": 1086,
      "Ð¾ÑģÑĤÑĢÐ°Ð½ÑıÑĤÑĮ": 1087,
      "Ġcontrol": 1088,
      "03": 1089,
      "ĠÐ¿Ð¾Ð»Ð¸Ñį": 1090,
      "Ġqual": 1091,
      "Ġquality": 1092,
      "ĠÐµ": 1093,
      "Ġassur": 1094,
      "Ġassurance": 1095,
      "ÑĪÐ¾Ð²Ð½ÑĭÐ¹": 1096,
      "st": 1097,
      "Ð¿ÑĥÑģ": 1098,
      "Ġair": 1099,
      "ĠÐºÑĢÑĥÐ³": 1100,
      "ĠÐ½Ð°Ð·": 1101,
      "ĠÑĥÐ½": 1102,
      "ĠÑĢÐ°ÑģÐ¿ÑĢ": 1103,
      "ĠÐ½Ð°Ð·Ð½Ð°ÑĩÐµÐ½Ð¸Ðµ": 1104,
      "ÐµÑħÐ°Ð½Ð¸ÑĩÐµÑģÐºÐ¸Ð¹": 1105,
      "ĠÐ¿ÑĢÐ¸ÑģÐ¾ÐµÐ´Ð¸Ð½ÐµÐ½Ð¸Ðµ": 1106,
      "eism": 1107,
      "eismic": 1108,
      "ĠÑĢÐ°ÑģÐ¿ÑĢÐ¾ÑģÑĤÑĢÐ°Ð½ÑıÑĤÑĮ": 1109,
      "Ġseismic": 1110,
      "Ġ08": 1111,
      "Ð¸ÐµÐ²ÑĭÐ¹": 1112,
      "Ð²Ð¾Ð·Ð´ÑĥÑħ": 1113,
      "ĠÑĦÐ°Ñģ": 1114,
      "ĠÑĤÐ¾Ðº": 1115,
      "ng": 1116,
      "ĠÑģÐ»": 1117,
      "ĠÐ´Ð²ÑĥÑħ": 1118,
      "Ð¼ÑĥÑĦÑĤÐ°": 1119,
      "Ġ45": 1120,
      "ÑĦÐ¾ÑĢ": 1121,
      "Ġval": 1122,
      "Ð¸Ð´Ð½ÑĭÐ¹": 1123,
      "Ð¸Ð¾Ð½": 1124,
      "ĠÐ²Ð¾Ð´Ð°": 1125,
      "ÑĥÐ»": 1126,
      "68": 1127,
      "od": 1128,
      "ĠÐ¿ÑĢÐ¸Ð²": 1129,
      "Ġvalve": 1130,
      "age": 1131,
      "ĠÑĢÐ°ÑģÑħÐ¾Ð´": 1132,
      "ĠÑĤÐ¾ÑĤ": 1133,
      "Ġfor": 1134,
      "ĠÐºÐ³Ñģ": 1135,
      "Ð²Ð¾Ð·Ð´ÑĥÑħÐ¾Ð²Ð¾Ð´": 1136,
      "ĠÐ±Ð»Ð¾Ðº": 1137,
      "ĠÐ°Ð»ÑİÐ¼Ð¸Ð½Ð¸ÐµÐ²ÑĭÐ¹": 1138,
      "ing": 1139,
      "matic": 1140,
      "ĠÐ¾Ðº": 1141,
      "ĠÐºÑĢÑĥÐ³Ð»ÑĭÐ¹": 1142,
      "Ð±Ð»Ð¾Ðº": 1143,
      "ĠÑģÑĤÐ¾Ð¹": 1144,
      "ÐµÐ¼Ð°": 1145,
      "Ġcli": 1146,
      "Ð²ÐµÐ»": 1147,
      "ĠÐ¼ÐµÐ½": 1148,
      "Ġkw": 1149,
      "ĠÐ¼ÐµÐ½ÐµÐµ": 1150,
      "Ġmet": 1151,
      "Ġclimatic": 1152,
      "ÐºÐ¾Ð²ÑĭÐ¹": 1153,
      "ĠÑģÐ²Ð°ÑĢÐ½Ð¾Ð¹": 1154,
      "250": 1155,
      "Ġatmo": 1156,
      "here": 1157,
      "ĠÐ¿Ð°": 1158,
      "Ġatmosp": 1159,
      "Ġatmosphere": 1160,
      "ĠÑĢÐµÐ·ÑĮÐ±Ð°": 1161,
      "ĠÐ·Ð°Ð¿Ð¾ÑĢÐ½ÑĭÐ¹": 1162,
      "Ġstor": 1163,
      "dition": 1164,
      "ĠÑĪÐ¸ÑĢÐ¸Ð½Ð°": 1165,
      "Ð¾Ð´Ñĥ": 1166,
      "ÐµÑĤÐºÐ°": 1167,
      "Ġstorage": 1168,
      "nom": 1169,
      "Ð²ÐµÐ»Ð»ÐµÑĢ": 1170,
      "Ġcondition": 1171,
      "ÐµÐ»ÑĮÐ½ÑĭÐ¹": 1172,
      "ÑĨÐµÐ²ÑĭÐ¹": 1173,
      "Ġconditions": 1174,
      "32": 1175,
      "Ġmpag": 1176,
      "Ð³ÑĢ": 1177,
      "Ð¸Ð·Ð¾Ð»Ñı": 1178,
      "ĠÐ·Ð°ÑīÐ¸ÑĤÐ°": 1179,
      "Ġ800": 1180,
      "ĠÐ³ÐµÑĢÐ¼ÐµÑĤ": 1181,
      "ĠÐ³Ð¾ÑĢÑıÑĩÐµÐºÐ°ÑĤÐ°Ð½ÑĭÐ¹": 1182,
      "ĠÑĥÐ³Ð¾Ð»": 1183,
      "Ġmeth": 1184,
      "ÑĦÐ¾Ð½Ð½ÑĭÐ¹": 1185,
      "ĠÐºÐ¾Ð»": 1186,
      "150": 1187,
      "ĠÐ¾ÑĤÐ²ÐµÑĤ": 1188,
      "Ġ05": 1189,
      "Ð±Ð°ÑĢ": 1190,
      "ection": 1191,
      "Ð¸Ð»ÐµÐ½Ð¾Ð²ÑĭÐ¹": 1192,
      "ĠÐ·Ð°Ð¼Ð¾Ðº": 1193,
      "ĠÐ³Ð°Ð·": 1194,
      "Ð¸ÑĩÐ½ÑĭÐ¹": 1195,
      "Ð¸ÑģÑĤÐµÐ¼Ð°": 1196,
      "ĠÐ¼Ð¾Ð½ÑĤÐ°Ð¶Ð½ÑĭÐ¹": 1197,
      "Ġmethod": 1198,
      "ĠÐ¿Ð¾ÑĢ": 1199,
      "Ġ11": 1200,
      "ĠÑģÐ±": 1201,
      "Ġ17": 1202,
      "ĠÑģÑĤÐµÐº": 1203,
      "Ð¾Ð¿Ð¾Ð»": 1204,
      "ĠÑĥÐ³Ð»": 1205,
      "Ġe": 1206,
      "ÑģÑı": 1207,
      "Ð¾ÑĩÐ¸Ð¹": 1208,
      "ĠÑģÑĤÐ°Ð½": 1209,
      "Ð»Ð¾Ð³": 1210,
      "ĠÐ²Ð²Ð³Ð½Ð³": 1211,
      "ĠÐ°Ð½ÐºÐµÑĢ": 1212,
      "Ð¸Ð²Ð½ÑĭÐ¹": 1213,
      "Ð°Ð»ÑĮÐ½ÑĭÐ¹": 1214,
      "65": 1215,
      "xl": 1216,
      "ÐºÐ¾ÑĢ": 1217,
      "ĠÐ¿Ð¾Ð»Ð¸ÑįÑĤ": 1218,
      "Ġ19": 1219,
      "ĠÐ¿ÑĢÐµÐ´": 1220,
      "ĠÐ¼Ð¸Ð½": 1221,
      "ĠÑģÐ¸ÑģÑĤÐµÐ¼Ð°": 1222,
      "Ð¾ÑĤÐºÐ°": 1223,
      "ÑĢÐ¾ÑģÑģ": 1224,
      "Ð¿ÐµÑĢÐ°ÑĤ": 1225,
      "ĠÐ¼ÑĥÑĦ": 1226,
      "ĠÐ±ÐµÑģ": 1227,
      "ÐµÐ¼Ð¿ÐµÑĢÐ°ÑĤ": 1228,
      "ĠÐ¼ÑĥÑĦÑĤÐ¾Ð²ÑĭÐ¹": 1229,
      "ÑĥÐ»ÐºÐ°": 1230,
      "ĠÐ¿Ð¾Ð»Ð¸Ð¼ÐµÑĢÐ½ÑĭÐ¹": 1231,
      "sion": 1232,
      "ÑĳÑĤÐºÐ°": 1233,
      "19": 1234,
      "Ġ70": 1235,
      "Ð¾Ð´ÐµÑĢÐ¶": 1236,
      "Ð³Ð¾ÑĢÑıÑĩÐµÐºÐ°ÑĤÐ°Ð½Ð½ÑĭÐ¹": 1237,
      "ĠÐ¾ÑĤÐ²Ð¾Ð´": 1238,
      "ÑĥÑĪ": 1239,
      "ction": 1240,
      "Ð¾Ð²Ð°Ð½Ð¸Ðµ": 1241,
      "ĠÐ½Ð°Ð¿": 1242,
      "ĠÐ´Ñĭ": 1243,
      "Ġ13": 1244,
      "ĠÐ´Ð²ÐµÑĢ": 1245,
      "ĠÑģÐº": 1246,
      "Ġdi": 1247,
      "ĠÐ¾ÑĤÐº": 1248,
      "ĠÑĪÐ²ÐµÐ»Ð»ÐµÑĢ": 1249,
      "Ð°ÑĢÐ½Ð¾Ð¹": 1250,
      "Ð¾ÐºÐ»Ð°Ð´": 1251,
      "ĠÐ½Ð¾ÑĢ": 1252,
      "Ð¸Ð·Ð¾Ð»ÑıÑĨÐ¸Ð¾Ð½Ð½ÑĭÐ¹": 1253,
      "ĠÑĤÐµÐ¼Ð¿ÐµÑĢÐ°ÑĤ": 1254,
      "ĠÑĢÐ°Ð´": 1255,
      "Ð¾Ð²ÑĭÑı": 1256,
      "ĠÐ½Ð°Ðº": 1257,
      "Ð±Ð°ÑĢÐ¸ÑĤÐ½ÑĭÐ¹": 1258,
      "ĠÐ·Ð´": 1259,
      "hf": 1260,
      "ĠÐ²ÑĤÑĥÐ»ÐºÐ°": 1261,
      "Ð°Ð¼": 1262,
      "ĠÑģÑĤÐµÐºÐ»": 1263,
      "Ð¶Ð´": 1264,
      "ÑĥÐ³Ð¾Ð»ÑĮÐ½ÑĭÐ¹": 1265,
      "ĠÐºÐ¾Ð½ÑĨÐµÐ²": 1266,
      "ÐºÐ»ÑİÑĩÐ°ÑĤÐµÐ»ÑĮ": 1267,
      "ĠÐ²Ð½": 1268,
      "ĠÑģÐ»Ð¾Ð¹": 1269,
      "ĠÐºÐ¾ÑĢÐ¿ÑĥÑģ": 1270,
      "ĠÐ¸Ð·Ð´ÐµÐ»Ð¸Ðµ": 1271,
      "Ġre": 1272,
      "22": 1273,
      "Ð¸Ð¾Ð½Ð½": 1274,
      "ÐµÑĪÑĳÑĤÐºÐ°": 1275,
      "Ð¾ÑĢÐ¾ÑĤ": 1276,
      "ĠÑĥÑģÐ»Ð¾Ð²Ð½ÑĭÐ¹": 1277,
      "ter": 1278,
      "ĠÐ¶ÐµÐ»": 1279,
      "ĠÐ¾Ð¿Ð¾ÑĢÐ°": 1280,
      "Ð¸Ð¾Ð½Ð½Ð¾ÑģÑĤÐ¾Ð¹ÐºÐ¸Ð¹": 1281,
      "osi": 1282,
      "ĠÐ¾Ð³Ð½ÐµÑģÑĤÐ¾Ð¹ÐºÐ¾ÑģÑĤÑĮ": 1283,
      "Ġcxl": 1284,
      "ÑĤÐ½ÑĭÐ¹": 1285,
      "ĠÐ¶ÐµÐ»ÐµÐ·": 1286,
      "ĠÐ¿ÑĢÑıÐ¼Ð¾ÑĥÐ³Ð¾Ð»ÑĮÐ½ÑĭÐ¹": 1287,
      "Ð°ÑģÑĤ": 1288,
      "ĠÐºÐ¾ÑĢÐ¾Ð±": 1289,
      "ĠÐ±Ð°": 1290,
      "ĠÐ»Ð¾ÑĤÐ¾Ðº": 1291,
      "ĠÐ¾Ð±ÑĬÑĳÐ¼": 1292,
      "ÑģÐ¼ÐµÑģÑĮ": 1293,
      "ĠÐ¿ÑĢÐ¾ÐºÐ»Ð°Ð´": 1294,
      "ĠÑģÐ¾ÑĢ": 1295,
      "Ð¸Ð´Ð½Ð¾Ð¹": 1296,
      "il": 1297,
      "ĠÐ¿ÑĢÐ¾ÑħÐ¾Ð´ÐºÐ°": 1298,
      "Ð»Ð¸ÑĤÐ°": 1299,
      "ting": 1300,
      "ĠÐ²ÐµÐ½ÑĤÐ¸Ð»ÑıÑĨÐ¸Ð¾Ð½Ð½ÑĭÐ¹": 1301,
      "ĠÐ°Ð½ÑĤ": 1302,
      "Ð¾Ð±ÐµÑĤ": 1303,
      "ĠÐ±ÐµÑģÑĪÐ¾Ð²Ð½ÑĭÐ¹": 1304,
      "ÐºÐ¼": 1305,
      "ĠÑĤÐµÐ¼Ð¿ÐµÑĢÐ°ÑĤÑĥÑĢÐ°": 1306,
      "ĠÐ±ÐµÑĤÐ¾Ð½": 1307,
      "Ġ2000": 1308,
      "ĠÐ³Ð¸Ð´": 1309,
      "ĠÐ±ÑĥÑĢ": 1310,
      "dg": 1311,
      "Ð¾Ð´Ð½ÑĭÐ¹": 1312,
      "Ð»Ñĥ": 1313,
      "ÑıÐ·": 1314,
      "ĠÑĤÑıÐ¶": 1315,
      "13": 1316,
      "Ð²Ð°": 1317,
      "ĠÑĦÐ»Ð°Ð½ÑĨÐµÐ²ÑĭÐ¹": 1318,
      "Ġtd": 1319,
      "ÐµÐ³Ñĥ": 1320,
      "ĠÐºÑĢÐµÐ¿Ð»ÐµÐ½Ð¸Ðµ": 1321,
      "Ġ35": 1322,
      "Ġco": 1323,
      "Ġel": 1324,
      "ĠÐ²ÑģÑĤ": 1325,
      "ÐºÐ¾ÑĢÐ¾Ð±": 1326,
      "ÑĳÐ»ÑĭÐ¹": 1327,
      "ĠÑģÐ¸Ð»ÑĮ": 1328,
      "ĠÑĤÑıÐ¶ÑĳÐ»ÑĭÐ¹": 1329,
      "ÑħÐ»": 1330,
      "ĠÑģÐ¸Ð»ÑĮÑĦÐ¾Ð½Ð½ÑĭÐ¹": 1331,
      "Ð¾Ð¹Ð½Ð¸Ðº": 1332,
      "Ð½Ð½ÑĭÐ¹": 1333,
      "ĠÐ½Ð¾ÑĢÐ¼Ð°": 1334,
      "Ġpn": 1335,
      "ÑĥÑģÑĤ": 1336,
      "ĠÑģÐ²ÐµÑĤ": 1337,
      "ÐµÐ±": 1338,
      "Ð´Ðµ": 1339,
      "ĠÑĢÐ°Ð±Ð¾ÑĩÐ¸Ð¹": 1340,
      "ith": 1341,
      "ĠÐ¿Ð°ÑĢÐ°": 1342,
      "Ð¾Ð±ÐµÑĤÐ¾Ð½Ð½ÑĭÐ¹": 1343,
      "Ð¸Ð²Ð°": 1344,
      "ĠÐ¿Ð»Ð¾ÑĤ": 1345,
      "ĠÑģÐ¾ÐµÐ´Ð¸Ð½": 1346,
      "ÑģÐ½ÑĭÐ¹": 1347,
      "ĠÐºÐ°Ð½": 1348,
      "Ð¿Ð¾Ð»": 1349,
      "ÑģÑĤÐ²Ð¾": 1350,
      "ĠÐ´Ð²ÐµÑĢÐ½Ð¾Ð¹": 1351,
      "Ġver": 1352,
      "Ġwith": 1353,
      "ÑģÑĤÐ°Ð»ÑĮ": 1354,
      "ÑĥÑĤ": 1355,
      "ÐºÑģ": 1356,
      "ĠÑģÐ¾Ð´ÐµÑĢÐ¶": 1357,
      "Ð²Ð¾ÑĢ": 1358,
      "ĠÐ¿Ð»Ð°ÑģÑĤ": 1359,
      "Ġversion": 1360,
      "Ð¾Ð¼Ð½ÑĭÐ¹": 1361,
      "ĠÐºÐ²ÑĤ": 1362,
      "ĠâĦ": 1363,
      "ĠâĦĸ": 1364,
      "ĠÐ¿ÑĢÑıÐ¼": 1365,
      "ÑĭÑĪ": 1366,
      "all": 1367,
      "ĠÐ½Ð°ÐºÐ¸Ð´Ð½Ð¾Ð¹": 1368,
      "ÑĤÑĢÑĥÐ±": 1369,
      "Ð»Ð¸ÑĢÐ¾Ð²": 1370,
      "ĠÑĤÐµÐ¿Ð»Ð¾": 1371,
      "Ġpi": 1372,
      "ĠÐ°Ð²ÑĤ": 1373,
      "ĠÐ´Ñĥ": 1374,
      "74": 1375,
      "ĠÐ¾ÑģÐ½Ð¾Ð²Ð°": 1376,
      "Ġ220": 1377,
      "Ð¸ÑĨÐ°": 1378,
      "ĠÐ¿Ð¾Ð²Ð¾ÑĢÐ¾ÑĤ": 1379,
      "ĠÑįÐ»ÐµÐºÑĤÑĢÐ¾Ð¼": 1380,
      "ĠÐ±ÑĥÑĢÑĤ": 1381,
      "ĠÐ¾Ð±ÑĢÐ°ÑĤÐ½ÑĭÐ¹": 1382,
      "ĠÐ³Ð¸Ð±": 1383,
      "ÑģÐ¾Ðº": 1384,
      "Ġak": 1385,
      "ĠÐºÐ¾ÑĢÑĢÐ¾Ð·Ð¸Ð¾Ð½Ð½Ð¾ÑģÑĤÐ¾Ð¹ÐºÐ¸Ð¹": 1386,
      "Ġ380": 1387,
      "Ġan": 1388,
      "Ð´ÐµÐ»ÐµÐ½Ð¸Ðµ": 1389,
      "ÑģÐ¿ÐµÑĨ": 1390,
      "ÑĢÐ°Ð´": 1391,
      "ĠÐ¿Ð»Ð¾ÑĤÐ½Ð¾ÑģÑĤÑĮ": 1392,
      "Ð¾Ð·Ð¸": 1393,
      "ĠÐ³Ð¾ÑĢÑıÑĩ": 1394,
      "ĠÐ¶ÐµÐ»ÐµÐ·Ð¾Ð±ÐµÑĤÐ¾Ð½Ð½ÑĭÐ¹": 1395,
      "ĠÐ±ÑĥÑĢÑĤÐ¾Ð²ÑĭÑı": 1396,
      "ÑģÐ¿ÐµÑĨÑģÐ¾ÐµÐ´Ð¸Ð½ÐµÐ½Ð¸Ðµ": 1397,
      "ĠÐ¿ÑĢÑıÐ¼Ð¾Ð¹": 1398,
      "ĠÑĦÐ°ÑģÐ¾Ð½Ð½ÑĭÐ¹": 1399,
      "ar": 1400,
      "ĠÐ·Ð´Ð°Ð½Ð¸Ðµ": 1401,
      "ĠÑĤÐµÑĢÐ¼Ð¾": 1402,
      "ÑĢÐ¾ÑģÑģÐµÐ»ÑĮ": 1403,
      "ÐµÐ¿ÐµÐ½ÑĮ": 1404,
      "ĠÑģÑĤÐµÐ¿ÐµÐ½ÑĮ": 1405,
      "ĠÐ²Ð¾Ð·Ð´": 1406,
      "Ð²Ð¸Ð¶": 1407,
      "ÑĢÐ°Ð»ÑĮÐ½ÑĭÐ¹": 1408,
      "Ð¾Ð²ÑĭÐ´ÐµÐ»ÐµÐ½Ð¸Ðµ": 1409,
      "ĠÑįÐ¿": 1410,
      "osition": 1411,
      "Ð³Ð°": 1412,
      "ĠÐ¿Ð²Ñħ": 1413,
      "ĠÑĪÐ¿": 1414,
      "ÐµÐ¼ÑĭÐ¹": 1415,
      "44": 1416,
      "ÐµÐ·Ð°": 1417,
      "Ġ75": 1418,
      "ĠÐ´ÑĭÐ¼Ð¾": 1419,
      "Ð°ÑĤÐ°": 1420,
      "max": 1421,
      "Ð¸ÐºÐ¾ÑĢ": 1422,
      "ol": 1423,
      "Ð¾ÑģÐ²": 1424,
      "Ġ110": 1425,
      "ĠÐ¼Ð¾Ð´Ñĥ": 1426,
      "ÑĢÐ°Ð·": 1427,
      "ÑĢÐ°Ð±Ð¾ÑĤÐºÐ°": 1428,
      "ĠÐ¿ÑĢÐ¸Ð²Ð°ÑĢÐºÐ°": 1429,
      "ĠÐ¼Ð¸Ð½ÐµÑĢÐ°": 1430,
      "Ð¸Ð³": 1431,
      "ĠÐ³Ð°Ð±Ð°ÑĢÐ¸ÑĤÐ½ÑĭÐ¹": 1432,
      "ÑĢÑĭÑĪÐºÐ°": 1433,
      "Ġmo": 1434,
      "ĠÐ°Ð½ÑĤÐ¸ÐºÐ¾ÑĢ": 1435,
      "Ð¾Ð¿ÑĢÐ¾ÐºÐ°ÑĤ": 1436,
      "Ð²ÐµÑģ": 1437,
      "ĠÐ¼ÐµÑĤÐ°Ð»Ð»Ð¾Ð¿ÑĢÐ¾ÐºÐ°ÑĤ": 1438,
      "ĠÐ²ÑĭÑģÐ¾Ðº": 1439,
      "Ġaku": 1440,
      "Ġdisp": 1441,
      "ĠÐ°Ð½ÑĤÐ¸ÐºÐ¾ÑĢÑĢÐ¾Ð·": 1442,
      "ĠÑī": 1443,
      "Ġdisposition": 1444,
      "ÐµÑĢÑħ": 1445,
      "ĠÐ½Ð¶": 1446,
      "Ð¾Ð·Ð¸ÑĨÐ¸Ñı": 1447,
      "ĠÐ°ÑĤÐ¾Ð¼Ð½ÑĭÐ¹": 1448,
      "ĠÐºÑĢÐµÐ¿Ñĳ": 1449,
      "ÑĩÐ°ÑĤ": 1450,
      "66": 1451,
      "ĠÐ°Ð²ÑĤÐ¾Ð¼": 1452,
      "ĠÐ¼ÐµÑħÐ°Ð½Ð¸ÑĩÐµÑģÐºÐ¸Ð¹": 1453,
      "Ġ89": 1454,
      "ÑĤÐ°Ð»ÑĮÐ½ÑĭÐ¹": 1455,
      "Ð´ÑĢ": 1456,
      "Ð¸Ð²Ð°ÑĤÑĮ": 1457,
      "ĠÐ±ÑģÑĤ": 1458,
      "Ð°Ð¶": 1459,
      "Ð¾Ð½ÑĤÐ°Ð»ÑĮÐ½ÑĭÐ¹": 1460,
      "ĠÐ²ÑĭÐºÐ»ÑİÑĩÐ°ÑĤÐµÐ»ÑĮ": 1461,
      "ĠÑĪÐ°ÑĢ": 1462,
      "800": 1463,
      "ÐµÑĢÑģ": 1464,
      "ĠÐ³Ð¾ÑĢÐ¸Ð·": 1465,
      "Ġ22": 1466,
      "ÑĥÐ´": 1467,
      "fr": 1468,
      "Ð¸Ð»ÑĮÐ½Ð¸Ðº": 1469,
      "un": 1470,
      "ĠÐ³Ð¸Ð±ÐºÐ¸Ð¹": 1471,
      "ĠÐ³Ð°Ð·Ð¾Ð²ÑĭÐ´ÐµÐ»ÐµÐ½Ð¸Ðµ": 1472,
      "Ġ120": 1473,
      "Ġ068": 1474,
      "Ð´Ð²Ð¸Ð¶": 1475,
      "ĠÐºÐ¾Ð½ÑĤÑĢÐ¾Ð»ÑĮÐ½ÑĭÐ¹": 1476,
      "Ð³ÑĢÑĥ": 1477,
      "Ð¸ÑĦÐ¸ÑĨ": 1478,
      "ĠÐ³Ð¾ÑĢÐ¸Ð·Ð¾Ð½ÑĤÐ°Ð»ÑĮÐ½ÑĭÐ¹": 1479,
      "Ð¾ÑīÐ°Ð´": 1480,
      "ĠÐ¼Ð¾Ñī": 1481,
      "ĠÐ¼Ð¾ÑīÐ½Ð¾ÑģÑĤÑĮ": 1482,
      "17": 1483,
      "Ð¶Ð¸Ð¼": 1484,
      "ĠÑģÐ¾ÐµÐ´Ð¸Ð½ÐµÐ½Ð¸Ðµ": 1485,
      "Ð¸Ð½ÑĤ": 1486,
      "ÑĢÑĭÐ²": 1487,
      "ĠÑģÑĤÐµÑĢÐ¶": 1488,
      "Ð¸ÑĦÐ¸ÑĨÐ¸ÑĢÐ¾Ð²Ð°ÑĤÑĮ": 1489,
      "ĠÐ¿Ð¾Ð¶Ð°ÑĢÐ½ÑĭÐ¹": 1490,
      "ent": 1491,
      "ĠÑįÐºÑĢÐ°Ð½": 1492,
      "ĠÑĢÐ°Ð´Ð¸Ð°": 1493,
      "ĠÐºÑĢÐµÐ¼": 1494,
      "ilti": 1495,
      "ine": 1496,
      "Ġhilti": 1497,
      "Ð°ÑĤÐ¾ÑĢ": 1498,
      "Ġmotor": 1499,
      "Ġpro": 1500,
      "re": 1501,
      "ire": 1502,
      "Ð°Ðº": 1503,
      "ĠÐ¿Ð»Ð¾ÑīÐ°Ð´": 1504,
      "ĠÐ¿Ð¾Ð»Ð¸ÑįÑĤÐ¸Ð»ÐµÐ½Ð¾Ð²ÑĭÐ¹": 1505,
      "Ġtmax": 1506,
      "ĠÑģÑĤÐµÑĢÐ¶ÐµÐ½ÑĮ": 1507,
      "Ð»Ð¸ÑĢÐ¾Ð²Ð°ÑĤÑĮ": 1508,
      "Ð¾Ð·Ð°": 1509,
      "ĠÑĤÐµÐ¿Ð»Ð¾Ð²Ð¾Ð¹": 1510,
      "ÑĥÐ¼": 1511,
      "ĠÐ¿ÐµÑĢÐµÑħÐ¾Ð´Ð½ÑĭÐ¹": 1512,
      "ĠÑĥÐ´": 1513,
      "ĠÑģÐµÐº": 1514,
      "Ð¾Ð¹ÐºÐ°": 1515,
      "Ð¾Ð»Ð¾ÐºÐ°": 1516,
      "ĠÑĥÐ½Ð¸ÑĦÐ¸ÑĨÐ¸ÑĢÐ¾Ð²Ð°ÑĤÑĮ": 1517,
      "ÐºÑĢ": 1518,
      "Ġei": 1519,
      "Ð¾Ð¹Ð½ÑĭÐ¹": 1520,
      "ĠÑĤÑĢÐ°": 1521,
      "dr": 1522,
      "ÑĩÐ°ÑĤÑĭÐ¹": 1523,
      "Ġ28": 1524,
      "Ð¸ÑģÐ»": 1525,
      "ĠÐ¾Ð±ÑīÐ¸Ð¹": 1526,
      "Ġhdg": 1527,
      "Ġ160": 1528,
      "Ġsection": 1529,
      "ĠÐ»Ð¸ÑģÑĤ": 1530,
      "Ġfire": 1531,
      "Ð¾Ð¿Ð¾ÑĢÐ½ÑĭÐ¹": 1532,
      "Ð¾Ð¼Ð¿": 1533,
      "ĠÐ¾ÐºÑĢÐ°Ñģ": 1534,
      "ĠÑĢÐµÐ³Ñĥ": 1535,
      "ĠÐºÐ¿Ñģ": 1536,
      "Ð¸Ñģ": 1537,
      "Ġcro": 1538,
      "ĠÑģÐµÑĢ": 1539,
      "ĠÐ·Ð°ÑīÐ¸ÑĤÐ½ÑĭÐ¹": 1540,
      "ĠÑĥÐ³Ð»Ð¾Ð²Ð¾Ð¹": 1541,
      "Ġcross": 1542,
      "ĠÑĨÐµÐ½ÑĤ": 1543,
      "ĠÑĨÐµÐ½ÑĤÑĢÐ°Ð»ÑĮÐ½ÑĭÐ¹": 1544,
      "up": 1545,
      "Ð½ÑĤ": 1546,
      "ĠÑģÐµÑĤÐºÐ°": 1547,
      "ĠÐ°Ð²ÑĤÐ¾Ð¼Ð°ÑĤ": 1548,
      "45": 1549,
      "ĠÑĤÐµÑĢÐ¼": 1550,
      "ÐµÐ²Ð¾Ð¹": 1551,
      "Ð¿Ð»Ð¸ÑĤÐ°": 1552,
      "ÐµÐ¼ÐµÐ½Ð½ÑĭÐ¹": 1553,
      "Ġbel": 1554,
      "ÑģÐ²": 1555,
      "1000": 1556,
      "ĠÐ²Ð¾Ð·Ð´ÑĥÑĪ": 1557,
      "ĠÑģÑĤÐ°ÑĤÑĮ": 1558,
      "ĠÑģÐ²ÑıÐ·": 1559,
      "ĠÑģÐ¾ÐµÐ´Ð¸Ð½Ð¸ÑĤÐµÐ»ÑĮÐ½ÑĭÐ¹": 1560,
      "ĠÑģÑĤÐ¾Ð¿Ð¾ÑĢÐ½ÑĭÐ¹": 1561,
      "Ð¾ÑĪ": 1562,
      "Ġpip": 1563,
      "ĠÐºÐ¾Ð½ÑģÑĤÑĢÑĥÐºÑĤ": 1564,
      "ÐµÑĤÑĮ": 1565,
      "28": 1566,
      "ĠÐ¿Ð¾Ð»Ð¸Ð²": 1567,
      "Ð¸Ð»Ð¸Ð½": 1568,
      "ĠÑģÐ¾ÑĢÑĤÐ¾Ð²ÑĭÐ¹": 1569,
      "ÑĢÑĭÑĤÑĮ": 1570,
      "ĠÐ¿ÑĢÐ¾Ð²Ð¾Ð´": 1571,
      "Ġta": 1572,
      "Ð¸Ð½Ð¸Ð»": 1573,
      "Ð¸Ð»Ð¸Ð½Ð´ÑĢ": 1574,
      "ÐµÐ½ÑĤÐ°": 1575,
      "Ð¾ÑĤÐ²Ð¾Ð´": 1576,
      "ĠÐ¼Ð¸Ð½ÐµÑĢÐ°Ð»ÑĮÐ½ÑĭÐ¹": 1577,
      "ĠÑģÐ¿ÐµÑĨ": 1578,
      "ĠÐ²Ð¾Ð·Ð´ÑĥÑĪÐ½ÑĭÐ¹": 1579,
      "Ġ3000": 1580,
      "Ġ\"": 1581,
      "Ġth": 1582,
      "ĠÐ¿ÑĢÐ¾Ð²": 1583,
      "Ġste": 1584,
      "ĠÐ¾Ð³Ð½ÐµÑģÑĤÐ¾Ð¹ÐºÐ¸Ð¹": 1585,
      "Ð°Ð·": 1586,
      "eline": 1587,
      "ĠÑģÑĤÑĢ": 1588,
      "Ġpipeline": 1589,
      "ii": 1590,
      "ĠÐ²Ð°ÑĤÐ°": 1591,
      "ÑħÐ»Ð¾ÑĢ": 1592,
      "ĠÐ¿ÑĢÐµÐ´ÐµÐ»": 1593,
      "Ġ140": 1594,
      "ĠÐ³Ð°Ð»Ð¾Ð³": 1595,
      "36": 1596,
      "Ð¾ÑĤÐ°": 1597,
      "ĠÐ¿ÑĢÑĥÐ¶": 1598,
      "ĠÐ³Ð°Ð»Ð¾Ð³ÐµÐ½": 1599,
      "ÑģÐ¾Ð»ÑĮ": 1600,
      "ĠÐ¿Ð¾Ð»Ð¸Ð²Ð¸Ð½Ð¸Ð»": 1601,
      "ĠÐ³Ð¸Ð´ÑĢÐ¾": 1602,
      "ĠÑģÑĢÐµÐ´Ð½Ð¸Ð¹": 1603,
      "ĠÐ¾ÐºÑĢÐ°ÑģÐ¸ÑĤÑĮ": 1604,
      "ating": 1605,
      "ĠÐºÐ¾Ð¼Ð¿Ð¾Ð·Ð¸ÑĨÐ¸Ñı": 1606,
      "ĠÐ¿Ð¾Ð»Ð¸Ð²Ð¸Ð½Ð¸Ð»ÑħÐ»Ð¾ÑĢ": 1607,
      "Ð¾ÑģÐ²Ð°ÑĢÐ½Ð¾Ð¹": 1608,
      "ĠÑģÐ±Ð¾ÑĢ": 1609,
      "55": 1610,
      "ĠÐ¿Ð¾Ð½": 1611,
      "Ġconn": 1612,
      "Ð°ÑĤÐ²Ð¾ÑĢ": 1613,
      "ÐµÐ¾Ð±": 1614,
      "Ġca": 1615,
      "ÑģÑĤÐ¾Ð¹ÐºÐ°": 1616,
      "ĠÐ¿ÐµÑĢÐµÐ¼ÐµÐ½Ð½ÑĭÐ¹": 1617,
      "ĠÑĤÐµÐ¿Ð»Ð¾Ð¸Ð·Ð¾Ð»ÑıÑĨÐ¸Ð¾Ð½Ð½ÑĭÐ¹": 1618,
      "ÑĥÐ¶ÐµÐ½Ð¸Ðµ": 1619,
      "Ġsdr": 1620,
      "ÑĢÐµÐ´ÐµÐ»": 1621,
      "Ð¸Ð½Ð¾Ð²ÑĭÐ¹": 1622,
      "ĠÐ°Ð½ÑĤÐ¸ÐºÐ¾ÑĢÑĢÐ¾Ð·Ð¸Ð¾Ð½Ð½ÑĭÐ¹": 1623,
      "Ð´Ð°ÑĢ": 1624,
      "Ġ63": 1625,
      "26": 1626,
      "ĠÐºÐ»ÐµÐ¼": 1627,
      "Ð¾Ð¹ÑģÑĤÐ²Ð¾": 1628,
      "ĠÑĤÐµÑĢÐ¼Ð¾ÑĥÑģ": 1629,
      "Ð°Ð²ÐºÐ°": 1630,
      "Ġelec": 1631,
      "Ð¾ÑĩÐ½Ð¾ÑģÑĤÑĮ": 1632,
      "ĠÑĩÐ°Ñģ": 1633,
      "ally": 1634,
      "Ð¾ÑĢÑĥÐ¶ÐµÐ½Ð¸Ðµ": 1635,
      "Ġ57": 1636,
      "Ġto": 1637,
      "Ð¾ÐºÑģ": 1638,
      "Ð¾Ñı": 1639,
      "ĠÐ¿Ð¾Ð»Ð¸Ð²Ð¸Ð½Ð¸Ð»ÑħÐ»Ð¾ÑĢÐ¸Ð´Ð½ÑĭÐ¹": 1640,
      "ĠÑģÑĤÐµÐºÐ»Ð¾Ð¿": 1641,
      "ĠÐºÑĢÐµÐ¿ÑĳÐ¶": 1642,
      "ÐµÑĢÑĤ": 1643,
      "ĠpÑĢÐ°Ð±": 1644,
      "37": 1645,
      "ĠÐ¾Ñħ": 1646,
      "ĠÐ¿Ð»Ð¾ÑīÐ°Ð´ÑĮ": 1647,
      "ĠÐ¾Ð±ÑĢÐ°Ð±Ð¾ÑĤÐºÐ°": 1648,
      "Ġ36": 1649,
      "ĠÑįÐ»ÐµÐºÑĤÑĢÐ¾ÑģÐ²Ð°ÑĢÐ½Ð¾Ð¹": 1650,
      "ÐµÐ½ÑĤÑĢ": 1651,
      "ric": 1652,
      "ÑĤÑĢÑĥÐ±Ð¾Ð¿ÑĢÐ¾Ð²Ð¾Ð´": 1653,
      "Ġsteel": 1654,
      "ĠÑģÐ¾Ð¾ÑĢÑĥÐ¶ÐµÐ½Ð¸Ðµ": 1655,
      "Ġand": 1656,
      "ĠÑĤÐµÑĢÐ¼Ð¾ÑĥÑģÐ°Ð¶": 1657,
      "Ð¸Ð³Ð½Ð°": 1658,
      "Ð¸Ð·Ð¸ÑĤÑĮ": 1659,
      "ĠÑģÐ¾Ð´ÐµÑĢÐ¶Ð°ÑĤÑĮ": 1660,
      "ĠÐ²Ð²Ð¾Ð´": 1661,
      "Ġac": 1662,
      "ĠÐ¿Ð¾Ð½Ð¸Ð·Ð¸ÑĤÑĮ": 1663,
      "420": 1664,
      "ÐºÐ¾Ð¼Ð¿": 1665,
      "ÑĢÐ¾Ð¿": 1666,
      "ĠÐ±Ð°Ð·Ð°": 1667,
      "ÐµÑĪÐ½Ð¸Ð¹": 1668,
      "Ð½ÑĥÑĢ": 1669,
      "ĠÐ·Ð¾Ð½Ð°": 1670,
      "ÑĳÑĢ": 1671,
      "ĠÑģÑĤÐ°Ð½Ð´Ð°ÑĢ": 1672,
      "ĠÐºÐ°ÑĢÐºÐ°": 1673,
      "ĠÐ¿ÑĢÐ¾ÐºÐ»Ð°Ð´ÐºÐ°": 1674,
      "ĠÑģÐ¸Ð³Ð½Ð°": 1675,
      "ĠÐ¾ÑĤÐ²ÐµÑĤÐ½ÑĭÐ¹": 1676,
      "ĠÐ²Ð½ÐµÑĪÐ½Ð¸Ð¹": 1677,
      "02": 1678,
      "Ġsp": 1679,
      "031": 1680,
      "ÑģÑĤÑĢÑĥÐºÑĨÐ¸Ñı": 1681,
      "Ð½ÐµÐ·": 1682,
      "Ġpl": 1683,
      "ÑĢÐµÐ·": 1684,
      "54": 1685,
      "ÐµÑħÐ½": 1686,
      "Ð¸Ð²Ð°ÐµÐ¼ÑĭÐ¹": 1687,
      "ĠÐ¿ÑĢÐµÐ¾Ð±": 1688,
      "Ð³Ð¾ÑĢÑıÑĩÐµÐºÐ°ÑĤÐ°Ð½ÑĭÐ¹": 1689,
      "Ġsh": 1690,
      "ÑĳÐ¼Ð½ÑĭÐ¹": 1691,
      "ÐµÐ½ÑĤÐ½ÑĭÐ¹": 1692,
      "ĠÑĪÐ°": 1693,
      "Ġ350": 1694,
      "ĠÑĤÐµÑĢÐ¼Ð¾ÑĥÑģÐ°Ð¶Ð¸Ð²Ð°ÐµÐ¼ÑĭÐ¹": 1695,
      "Ġ27": 1696,
      "Ð²Ðµ": 1697,
      "ĠÑħÐ¾Ð»": 1698,
      "ÑĢÐ¾Ð¹ÑģÑĤÐ²Ð¾": 1699,
      "ĠÑĤÑĢÐ°ÑģÑģÐ°": 1700,
      "ĠÐ»Ð¸Ð½": 1701,
      "ĠÑĩÐ°ÑģÑĤ": 1702,
      "Ġelect": 1703,
      "ĠÐºÐ¿": 1704,
      "ĠÐ¿ÐµÐ½": 1705,
      "Ð¸Ð·Ð²Ð¾Ð´": 1706,
      "Ġfl": 1707,
      "Ð·ÐºÐ°": 1708,
      "Ð»Ð°Ð¶Ð´": 1709,
      "ÑĥÐ½Ð½ÑĭÐ¹": 1710,
      "ĠÐ¿Ð¾Ð»Ð¸Ð¿": 1711,
      "Ð¸Ð»ÑĮÐºÐ°": 1712,
      "ĠÑģÑĤÐ¾Ð¹ÐºÐ¸Ð¹": 1713,
      "ĠÐ¿Ð°Ð½": 1714,
      "ĠÐ¿ÑĢÐ¾Ð²Ð¾Ð»Ð¾ÐºÐ°": 1715,
      "ĠÑĢÐ°ÑģÐ¿ÑĢÐµÐ´ÐµÐ»": 1716,
      "ĠÐºÐ¾Ð½ÑģÑĤÑĢÑĥÐºÑĨÐ¸Ñı": 1717,
      "ĠÐ¿Ð¾Ð»Ð¸Ð¿ÑĢÐ¾Ð¿": 1718,
      "ĠÐºÐ°ÑĢÐºÐ°Ñģ": 1719,
      "Ġelectric": 1720,
      "Ð¸Ð²ÐµÑĢÑģ": 1721,
      "Ġprote": 1722,
      "Ġst": 1723,
      "ĠÑĨÐ²ÐµÑĤ": 1724,
      "Ġresp": 1725,
      "Ð¸Ð²ÐµÑĢÑģÐ°Ð»ÑĮÐ½ÑĭÐ¹": 1726,
      "Ð·ÐµÐ¼": 1727,
      "Ġin": 1728,
      "Ð¸Ð»ÑĮÐ½ÑĭÐ¹": 1729,
      "Ð»ÑĮÐ½Ð¾": 1730,
      "Ð¾Ð·Ð²": 1731,
      "ÑĭÐº": 1732,
      "ĠÐºÐ¼": 1733,
      "Ġ21": 1734,
      "ĠÐºÐ¾ÑĢÐ¾Ð±ÐºÐ°": 1735,
      "Ð¾ÑħÐ¾Ð´": 1736,
      "Ð·ÐµÐ»": 1737,
      "ĠâĢ": 1738,
      "Ġmax": 1739,
      "ĠÑĤÑĢÐµÑħ": 1740,
      "ĠÑĥÐ½Ð¸Ð²ÐµÑĢÑģÐ°Ð»ÑĮÐ½ÑĭÐ¹": 1741,
      "ÐºÐ°Ð½": 1742,
      "ĠÑĪÐ°ÑĢÐ¾Ð²Ð¾Ð¹": 1743,
      "Ġprotection": 1744,
      "ĠÐ¿Ð»Ð°ÑģÑĤÐ¸Ðº": 1745,
      "eld": 1746,
      "ow": 1747,
      "71": 1748,
      "Ð»Ð¸Ð½": 1749,
      "ĠÐµÐ´": 1750,
      "ÑĤÑĢÐ¾Ð¹Ð½Ð¸Ðº": 1751,
      "Ð¸Ð·Ð´ÐµÐ»Ð¸Ðµ": 1752,
      "ĠÐ´Ð²Ð°": 1753,
      "Ġfun": 1754,
      "ĠÑĪÐ½ÑĥÑĢ": 1755,
      "ÑĥÑĩ": 1756,
      "ĠÑįÐ¿Ð¾ÐºÑģ": 1757,
      "63": 1758,
      "ÑĢÐ¾Ð¼": 1759,
      "ÐµÑĢÐ½ÑĭÐ¹": 1760,
      "ĠÐ¿ÑĢÐ¾Ð¸Ð·Ð²Ð¾Ð´": 1761,
      "Ġfunction": 1762,
      "ÑĤÑĭÐ¹": 1763,
      "ÐµÐ¼ÐµÐ½ÑĤÐ½ÑĭÐ¹": 1764,
      "ĠÑĨÐ¸Ð½Ðº": 1765,
      "ÑİÑĩ": 1766,
      "ĠÑįÐ»ÐµÐºÑĤÑĢÐ¸ÑĩÐµÑģÐºÐ¸Ð¹": 1767,
      "ĠÐºÑĢÑĭÑĪÐºÐ°": 1768,
      "ÑģÑĤÐ²Ð¾ÑĢ": 1769,
      "ĠÑģÑĤÑĢÐ¾": 1770,
      "ĠÐ¾ÑħÐ»Ð°Ð¶Ð´": 1771,
      "Ð¶ÐµÐ½Ð¸Ðµ": 1772,
      "ÐµÑĩÐ½Ð¸Ðº": 1773,
      "ĠÑģÑĢ": 1774,
      "Ð³ÑĢÐµÐ²": 1775,
      "ÐºÐ·": 1776,
      "ĠÐ¿Ð¾Ð²Ñĭ": 1777,
      "ĠÑģÐ¾Ð¿ÑĢ": 1778,
      "Ð³ÑĢÑĥÐ·ÐºÐ°": 1779,
      "ĠÐ¸ÑĤ": 1780,
      "Ġunom": 1781,
      "Ġwa": 1782,
      "Ð²Ð½": 1783,
      "ĠÑĢÐµÐ³ÑĥÐ»Ð¸ÑĢÐ¾Ð²Ð°ÑĤÑĮ": 1784,
      "ÐµÑģÑģ": 1785,
      "ÑģÐº": 1786,
      "ĠÑĢÐµÑĪÑĳÑĤÐºÐ°": 1787,
      "ĠÐ½Ð°Ð³ÑĢÑĥÐ·ÐºÐ°": 1788,
      "ĠÐ½Ð¾ÑĢÐ¼Ð°Ð»ÑĮÐ½Ð¾": 1789,
      "ĠÑįÐ»ÐµÐºÑĤÑĢÐ¾Ð¼ÐµÑħÐ°Ð½Ð¸ÑĩÐµÑģÐºÐ¸Ð¹": 1790,
      "Ġpf": 1791,
      "ĠÑģÑĤÐ°Ð½ÑĨÐ¸Ñı": 1792,
      "ÑĢÑĭÑĤÑĭÐ¹": 1793,
      "ĠÐ³ÑĢÐ°Ð´": 1794,
      "ac": 1795,
      "ĠÑģÑĤÐ°Ð½Ð´Ð°ÑĢÑĤÐ½ÑĭÐ¹": 1796,
      "ÑĪÐµÐ½Ð½ÑĭÐ¹": 1797,
      "Ð¾ÑĤÐ¸Ð²Ð»ÐµÐ½Ð¸Ðµ": 1798,
      "ĠÑģÐ¾ÑģÑĤÐ°Ð²": 1799,
      "Ġweld": 1800,
      "Ð¾Ð»Ð¾ÑĩÐ½ÑĭÐ¹": 1801,
      "Ġnnom": 1802,
      "Ġgro": 1803,
      "Ð°Ð½ÐºÐµÑĢ": 1804,
      "ĠÐ¼Ð½": 1805,
      "ÐµÐ»Ðµ": 1806,
      "ĠÑģÐ¾Ð¿ÑĢÐ¾ÑĤÐ¸Ð²Ð»ÐµÐ½Ð¸Ðµ": 1807,
      "Ð»Ð¾Ð½": 1808,
      "Ġ65": 1809,
      "ĠÐ·Ð°Ð¿Ð°Ñģ": 1810,
      "ĠâĢĵ": 1811,
      "ĠÐ²ÐµÑĢÑĤ": 1812,
      "ĠÑĢÐ°ÑģÐ¿ÑĢÐµÐ´ÐµÐ»Ð¸ÑĤÐµÐ»ÑĮÐ½ÑĭÐ¹": 1813,
      "ÐµÐ¹Ð½": 1814,
      "ÑĥÐº": 1815,
      "Ð¸ÑĤÐµÐ»ÑĮÐ½Ð¾ÑģÑĤÑĮ": 1816,
      "Ġbe": 1817,
      "21": 1818,
      "Ð´Ð²Ð¸Ð¶ÐºÐ°": 1819,
      "ĠÑĢÐ°Ð²Ð½": 1820,
      "and": 1821,
      "Ġgroup": 1822,
      "ÐµÑĦÐ¾ÑĢ": 1823,
      "ĠÐ²ÐµÑĢÑĤÐ¸ÐºÐ°": 1824,
      "Ð³Ð»Ñĥ": 1825,
      "Ġcom": 1826,
      "Ð¿Ð½Ð³": 1827,
      "ÑĤÐ°ÐºÑĤ": 1828,
      "ĠÐ²Ð¾Ð·Ð²": 1829,
      "Ð³Ð»ÑĥÑĪÐºÐ°": 1830,
      "Ð»Ð¸Ð·Ð°": 1831,
      "ĠÐºÑĢÐµÐ¼Ð½ÐµÐ·": 1832,
      "ĠÑįÐ¿Ð¾ÐºÑģÐ¸Ð´Ð½ÑĭÐ¹": 1833,
      "ĠÐ¾Ð´Ð½Ð¾Ðº": 1834,
      "ut": 1835,
      "ĠÐ¿ÑĢÐµÐ¾Ð±Ð»Ð°Ð´": 1836,
      "Ġ95": 1837,
      "ated": 1838,
      "ĠÐ¿ÑĢÐµÐ¾Ð±Ð»Ð°Ð´Ð°Ð½Ð¸Ðµ": 1839,
      "ĠÐ¿ÑĢÑĥÐ¶Ð¸Ð½Ð°": 1840,
      "ÑĢÐµÑĪÑĳÑĤÐºÐ°": 1841,
      "ÑİÑĩÐ¸Ð¹": 1842,
      "ĠÐºÑĢÐµÐ¼Ð½ÐµÐ·ÑĳÐ¼Ð½ÑĭÐ¹": 1843,
      "38": 1844,
      "ĠÐ¿Ð¾ÑĢÐ¾ÑĪ": 1845,
      "ĠÐ²Ð¾Ð·Ð²ÑĢÐ°ÑĤÐ½ÑĭÐ¹": 1846,
      "ĠÐ¸Ð½": 1847,
      "Ġ26": 1848,
      "ĠÐ²ÐµÑĢÑĤÐ¸ÐºÐ°Ð»ÑĮÐ½ÑĭÐ¹": 1849,
      "ang": 1850,
      "Ġ1600": 1851,
      "ĠÐ°Ð²ÑĤÐ¾Ð¼Ð°ÑĤÐ¸ÑĩÐµÑģÐºÐ¸Ð¹": 1852,
      "ĠÐ¿Ð¾Ð²ÐµÑĢÑħ": 1853,
      "ÑģÐ²ÐµÑĤ": 1854,
      "Ð¾Ð¼ÑĥÑĤ": 1855,
      "Ġwater": 1856,
      "Ð¸Ð¹Ð½ÑĭÐ¹": 1857,
      "Ð¾Ð»Ð½": 1858,
      "Ġch": 1859,
      "Ġwelded": 1860,
      "Ð¿Ðº": 1861,
      "Ð¸ÑģÐ»Ð¾": 1862,
      "Ġen": 1863,
      "Ġconnection": 1864,
      "ĠÐ½Ð°ÑģÑĤ": 1865,
      "ĠÑĩÐ¸ÑģÐ»Ð¾": 1866,
      "Ð¸Ð²Ð½Ð¾Ð¹": 1867,
      "ÑĭÑĪÐµ": 1868,
      "am": 1869,
      "ation": 1870,
      "ĠÑģÐ²Ð¾Ð±": 1871,
      "ĠÑģÐ²ÑĭÑĪÐµ": 1872,
      "Ġkg": 1873,
      "Ġcomp": 1874,
      "ÑģÐºÐ¸Ð¹": 1875,
      "ĠÐ¼Ð¾Ð½ÑĤÐ°Ð¶": 1876,
      "ĠÐ´ÑĢ": 1877,
      "ÐºÐ¾Ð½ÑģÑĤÑĢÑĥÐºÑĨÐ¸Ñı": 1878,
      "ĠÐ³Ð»Ð°Ð´": 1879,
      "Ð¸ÑĤÐ¾ÑĩÐ½ÑĭÐ¹": 1880,
      "Ð¾Ð¼Ðµ": 1881,
      "ÐµÑģÑĤÐ½": 1882,
      "Ġmpa": 1883,
      "ĠÐ³Ð»Ð°Ð´ÐºÐ¸Ð¹": 1884,
      "ĠÐ¾Ð¿ÑĤ": 1885,
      "Ð»Ð¾ÑĤÐ¾Ðº": 1886,
      "ÑİÑģÐ½ÑĭÐ¹": 1887,
      "Ð¸Ð¼Ð°": 1888,
      "ÑģÐ»Ð¾Ð¹Ð½ÑĭÐ¹": 1889,
      "ĠÐ²ÐµÐ½ÑĤÐ¸Ð»ÑıÑĤÐ¾ÑĢ": 1890,
      "Ġhz": 1891,
      "ÐµÑĩÐ°": 1892,
      "Ð¸ÑĩÐ½Ð¾ÑģÑĤÑĮ": 1893,
      "ĠÐ¿Ñį": 1894,
      "ĠÐ¸ÑĤÑĤ": 1895,
      "imo": 1896,
      "da": 1897,
      "ĠÑģÐ°Ð¼": 1898,
      "ĠÐ¼Ð½Ð¾Ð³": 1899,
      "Ġbelimo": 1900,
      "ĠÐ½ÐµÐ³Ð¾ÑĢ": 1901,
      "41": 1902,
      "ĠÐ½ÐµÐ³Ð¾ÑĢÑİÑĩÐ¸Ð¹": 1903,
      "ĠÐ¾Ð´Ð½Ð¾Ð¿": 1904,
      "27": 1905,
      "ĠÐ²ÑĭÑģÐ¾ÐºÐ¸Ð¹": 1906,
      "ĠÑĩÑĥÐ³": 1907,
      "ĠÐ³ÐµÑĢÐ¼ÐµÑĤÐ¸Ð·": 1908,
      "Ġ1200": 1909,
      "29": 1910,
      "Ġbeing": 1911,
      "ĠÐ¿ÐµÑĢÐµÐº": 1912,
      "Ġ450": 1913,
      "ĠÐºÐ¾Ð½ÑĤÐ°ÐºÑĤ": 1914,
      "ÑįÐ½Ð³": 1915,
      "Ð¾ÑĢÐ¾Ð¶": 1916,
      "Ġle": 1917,
      "ÑĥÐ¿Ð¾ÑĢÐ½ÑĭÐ¹": 1918,
      "ÐµÑĦÐ¾ÑĢÐ¼": 1919,
      "ĠÐºÐ¾ÑĢÑĢÐ¾Ð·Ð¸Ð¾Ð½Ð½ÑĭÐ¹": 1920,
      "ĠÐ¼ÐºÐ¼": 1921,
      "ÑĨÐ¾": 1922,
      "ÑĥÑħÐ¾Ð¹": 1923,
      "43": 1924,
      "Ġ48": 1925,
      "Ð¾Ð»ÑĮÑĨÐ¾": 1926,
      "Ð¸Ð¼Ð°Ð»ÑĮÐ½ÑĭÐ¹": 1927,
      "ÑĢÐ°Ð·Ð½ÑĭÐ¹": 1928,
      "ÑĩÐ¸Ðº": 1929,
      "frls": 1930,
      "Ġlo": 1931,
      "ĠÑĥÑģ": 1932,
      "ĠÑĥÐ´Ð»Ð¸Ð½": 1933,
      "ĠÐ´ÑĢÐ¾ÑģÑģÐµÐ»ÑĮ": 1934,
      "ĠÑĥÑģÑĤÑĢÐ¾Ð¹ÑģÑĤÐ²Ð¾": 1935,
      "ĠÐºÑĢÑĥÐ¿": 1936,
      "ĠÐ¿Ð°Ð½ÐµÐ»ÑĮ": 1937,
      "Ð¾Ð´Ð°": 1938,
      "ÑĳÐ½Ð½ÑĭÐ¹": 1939,
      "ĠÐ¾Ð³Ð½Ðµ": 1940,
      "Ð¾ÑĦ": 1941,
      "Ð»Ðµ": 1942,
      "Ð¾ÑĢÑĥÐ´": 1943,
      "Ð¾Ð»Ð¸ÑĢÐ¾Ð²Ð°ÑĤÑĮ": 1944,
      "Ġ125": 1945,
      "ĠÐ¾Ð±ÐµÑĩÐ°": 1946,
      "ĠÐ¾Ð±ÐµÑĩÐ°Ð¹ÐºÐ°": 1947,
      "Ġ37": 1948,
      "Ð¸Ð·Ð¾Ð»ÑıÑĨÐ¸Ñı": 1949,
      "ÑģÐ²ÐµÑĤÐ¸Ð»ÑĮÐ½Ð¸Ðº": 1950,
      "ĠÐ¿Ð¾ÑĢÐ¾Ð´Ð°": 1951,
      "ĠÐ¾Ð³Ð½ÐµÑĥÐ¿Ð¾ÑĢÐ½ÑĭÐ¹": 1952,
      "ĠÐ»Ð¸Ð½Ð¸Ñı": 1953,
      "ĠÑĤÑĢÑĥÐ±Ð½ÑĭÐ¹": 1954,
      "ÐµÐ¹ÐºÐ°": 1955,
      "ÑĥÑĤÑĮ": 1956,
      "ÑģÑĤÐ¾Ð»": 1957,
      "ĠÑĪÐ¿Ð¸Ð»ÑĮÐºÐ°": 1958,
      "ĠÐºÐ¾Ð¼Ð±": 1959,
      "Ð¾Ð½ÑĪÑĤ": 1960,
      "Ð¾Ð½ÑĪÑĤÐµÐ¹Ð½": 1961,
      "ĠÑģÑĢÑį": 1962,
      "ĠÐ¾ÑĤÐºÑĢÑĭÑĤÑĮ": 1963,
      "ĠÑĤÐµÑħÐ½": 1964,
      "ĠÐ¼Ð¾Ð´ÑĥÐ»ÑĮ": 1965,
      "Ġ1500": 1966,
      "ĠÑĤÐ²": 1967,
      "ÑĩÑĳ": 1968,
      "Ð´ÑĢÐ¾ÑģÑģÐµÐ»ÑĮ": 1969,
      "Ġspb": 1970,
      "ĠÐµÐ´Ð¸Ð½": 1971,
      "ĠÐµÐ´Ð¸Ð½Ð¸ÑĨÐ°": 1972,
      "120": 1973,
      "Ð»Ð°Ð²": 1974,
      "Ð¸ÑģÐºÐ¾Ð²ÑĭÐ¹": 1975,
      "ĠÐ¿Ð¾Ð´Ð²ÐµÑģ": 1976,
      "ĠÐ²Ð¸Ð´": 1977,
      "ĠÑģÐ°": 1978,
      "Ð¸ÑĢÐ¾Ð²Ð¾ÑĩÐ½ÑĭÐ¹": 1979,
      "ĠÑģÐ±Ð¾ÑĢÐ¾ÑĩÐ½ÑĭÐ¹": 1980,
      "23": 1981,
      "ĠÐ²Ð¾Ð»Ð¾Ðº": 1982,
      "Ð°ÑĨÐ¸Ñı": 1983,
      "ĠÑģÑĢÐ°Ð±": 1984,
      "Ð½Ð°Ñį": 1985,
      "ĠÐºÐ¾Ð½ÑģÑĤÑĢÑĥÐºÑĤÐ¸Ð²Ð½ÑĭÐ¹": 1986,
      "ĠÑĤÑĢÐ¾Ð¹Ð½Ð¸Ðº": 1987,
      "Ð¾Ð¿Ð¾Ð»Ð¸": 1988,
      "Ð³Ð°Ð½": 1989,
      "ĠÐ¿ÑĢÐ¸Ð²Ð°ÑĢÐ½Ð¾Ð¹": 1990,
      "ĠÐ¼Ð¾Ð´ÑĥÐ»ÑĮÐ½ÑĭÐ¹": 1991,
      "ÑģÐ¾ÐµÐ´Ð¸Ð½": 1992,
      "Ð¾Ð¹Ð½Ð¾Ð¹": 1993,
      "95": 1994,
      "ĠÐ¿Ð½Ð°Ñį": 1995,
      "de": 1996,
      "ĠÐ¿Ð¾Ð»Ð¸Ð¿ÑĢÐ¾Ð¿Ð¸Ð»ÐµÐ½Ð¾Ð²ÑĭÐ¹": 1997,
      "Ġsn": 1998,
      "05": 1999,
      "Ġls": 2000,
      "Ġun": 2001,
      "ĠÐ¾Ð¿ÑĤÐ¸ÑĩÐµÑģÐºÐ¸Ð¹": 2002,
      "ÐºÐ¾ÑĢÐ¾Ð±ÐºÐ°": 2003,
      "Ð¸Ð¼ÑĭÐ¹": 2004,
      "08": 2005,
      "ĠÐ¿ÑĢÐ¾ÑĩÐ½Ð¾ÑģÑĤÑĮ": 2006,
      "ÐºÐ¾Ð½ÐµÑĩÐ½Ð¸Ðº": 2007,
      "Ð¾Ñħ": 2008,
      "Ġ374": 2009,
      "ĠÐ¾Ð±Ð¾ÑĢÑĥÐ´": 2010,
      "Ð»Ð¸Ð²": 2011,
      "ĠÐ±Ð°Ð·Ð°Ð»ÑĮ": 2012,
      "ĠÑģÐµÐºÑĤÐ¾ÑĢ": 2013,
      "Ð¸ÑĦÐ¸ÐºÐ°": 2014,
      "Ð¸ÑĩÐµÑģÑĤÐ²Ð¾": 2015,
      "Ð³Ð½Ð¸ÑĤÐ½ÑĭÐ¹": 2016,
      "ĠÐ¿Ð¾Ð¶": 2017,
      "ĠÐ¼Ð°ÐºÑģ": 2018,
      "ĠÐºÐ¾Ð»Ð¸ÑĩÐµÑģÑĤÐ²Ð¾": 2019,
      "ĠÑĢÐµ": 2020,
      "Ġoperating": 2021,
      "ÐºÐ¿": 2022,
      "31": 2023,
      "Ġ008": 2024,
      "ment": 2025,
      "ĠÐ·Ð°Ð·ÐµÐ¼": 2026,
      "tr": 2027,
      "ĠÐ²Ð·": 2028,
      "Ð¸ÐºÑģ": 2029,
      "as": 2030,
      "ĠÐºÐ²Ð°Ð´": 2031,
      "ĠÑĪÐ¸ÑĢÐ¸Ð½": 2032,
      "ĠÐ·Ð°ÑĤÐ²Ð¾ÑĢ": 2033,
      "Ð´Ð²": 2034,
      "ĠÐ²ÐºÐ»ÑİÑĩ": 2035,
      "Ġ900": 2036,
      "ÑĭÑĪÐ»": 2037,
      "Ð¹Ð±Ð°": 2038,
      "ĠÐ¿Ð¾Ð¶Ð°ÑĢ": 2039,
      "ĠÑĢÐ°Ð¼Ð°": 2040,
      "ĠÐ¿ÑĢÐ¾ÑĦ": 2041,
      "ĠÐ»Ð°ÑĤ": 2042,
      "ĠÐ¿Ð¾Ð»Ð¸ÑįÑĤÐ¸Ð»ÐµÐ½": 2043,
      "Ð¼Ð½ÑĭÐ¹": 2044,
      "ÑĨÐ¸Ð»Ð¸Ð½Ð´ÑĢ": 2045,
      "Ð¾ÑģÑĤÑĥÐ¿": 2046,
      "Ġ108": 2047,
      "ĠÑģÑĤÑĢÐ¾Ð¸ÑĤÐµÐ»ÑĮÐ½ÑĭÐ¹": 2048,
      "ÑĭÑĪÐ»ÐµÐ½Ð½ÑĭÐ¹": 2049,
      "ĠÑĩÐ°ÑģÑĤÑĮ": 2050,
      "ĠÐ¾ÑĤÐºÑĢÑĭÑĤÑĭÐ¹": 2051,
      "uc": 2052,
      "Ð¾Ð´Ð²Ð¸": 2053,
      "ĠÐ¾ÑģÐ²Ðµ": 2054,
      "ĠÐ±Ð°Ð·Ð°Ð»ÑĮÑĤÐ¾Ð²ÑĭÐ¹": 2055,
      "ĠÐ´Ð²Ð¾Ð¹Ð½Ð¾Ð¹": 2056,
      "ĠÐ»ÐµÐ½ÑĤÐ°": 2057,
      "Ġ700": 2058,
      "Ġ02": 2059,
      "Ð¿ÑĢÐ¾ÐºÐ°ÑĤ": 2060,
      "ĠÐ¾ÑģÐ²ÐµÑīÐµÐ½Ð¸Ðµ": 2061,
      "Ð¿Ð¼": 2062,
      "ÑĢÐµÐ·Ð½Ð¾Ð¹": 2063,
      "ĠÐ¿ÑĢÐ¸ÑĤÐ¾ÑĩÐ½ÑĭÐ¹": 2064,
      "Ð´ÐµÐ»ÑĮÐ½ÑĭÐ¹": 2065,
      "Ð·Ð°Ð´Ð²Ð¸Ð¶ÐºÐ°": 2066,
      "ĠÐ¶Ñĳ": 2067,
      "ÐµÑĤÐ¸ÑĩÐµÑģÐºÐ¸Ð¹": 2068,
      "ĠÑģÐ²Ð¾Ð±Ð¾Ð´Ð½ÑĭÐ¹": 2069,
      "ĠÐ²ÑģÐ¿": 2070,
      "Ð¸ÑĤÐ¾Ðº": 2071,
      "ĠÐ°Ð½ÐºÐµÑĢÑĥÑĤÑĮ": 2072,
      "ĠÐµÐº": 2073,
      "ĠÐºÐ²Ð°Ð´ÑĢÐ°ÑĤÐ½ÑĭÐ¹": 2074,
      "ĠÐ¿ÑĢÐ¾Ð¸Ð·Ð²Ð¾Ð´Ð¸ÑĤÐµÐ»ÑĮÐ½Ð¾ÑģÑĤÑĮ": 2075,
      "ĠÐ»ÐµÑģÑĤÐ½": 2076,
      "ÐµÐ»ÑĭÐ¹": 2077,
      "ĠÐºÐ½": 2078,
      "Ġ54": 2079,
      "ĠÑĨÐµÐ¼ÐµÐ½ÑĤÐ½ÑĭÐ¹": 2080,
      "900": 2081,
      "Ð°ÐºÐµÑĤ": 2082,
      "ÑģÐµÐº": 2083,
      "275": 2084,
      "ĠÐ´Ð¾ÑģÑĤÑĥÐ¿": 2085,
      "ĠÐ¿Ð¾ÑĤ": 2086,
      "ĠÐ¿Ð¾Ð²ÐµÑĢÑħÐ½Ð¾ÑģÑĤÑĮ": 2087,
      "Ġ001": 2088,
      "Ð²Ð½Ð³": 2089,
      "es": 2090,
      "ÐºÑĤÐ¸Ð²": 2091,
      "ĠÐºÑĢÑĥÐ¿Ð½Ð¾ÑģÑĤÑĮ": 2092,
      "Ð¾Ð»Ð½Ð¸ÑĤÐµÐ»ÑĮ": 2093,
      "Ð¸Ñī": 2094,
      "ĠÐ¾Ð±Ð¾ÑĢÑĥÐ´Ð¾Ð²Ð°Ð½Ð¸Ðµ": 2095,
      "Ð¾Ð¿ÑĢÐ¾ÑħÐ¾Ð´": 2096,
      "per": 2097,
      "ĠÐ¼Ð¸Ð½Ð°": 2098,
      "Ð°Ð³Ð½Ð¸ÑĤÐ½ÑĭÐ¹": 2099,
      "ÑģÐ´": 2100,
      "96": 2101,
      "ÑĭÐ²": 2102,
      "Ð²ÐµÐ½ÑĤÐ¸Ð»Ñı": 2103,
      "ĠÐ¾Ð³": 2104,
      "ÑĩÐ°": 2105,
      "ĠÐºÑĢÐ°Ð½": 2106,
      "ÑģÑĤÐ²Ð¸Ðµ": 2107,
      "Ð½Ð¾Ñģ": 2108,
      "ĠÐ°ÑĢÑĤ": 2109,
      "ĠÑģÑĤÐµÐºÐ»Ð¾Ð¿Ð°ÐºÐµÑĤ": 2110,
      "ĠÑįÐ»ÐµÐºÑĤÑĢÐ¾Ð¼Ð°Ð³Ð½Ð¸ÑĤÐ½ÑĭÐ¹": 2111,
      "orm": 2112,
      "ÐµÑģÑĤÐ¸": 2113,
      "ĠÑģÐ¼Ð¾": 2114,
      "ĠÐ³ÐµÑĢÐ¼ÐµÑĤÐ¸ÑĩÐ½ÑĭÐ¹": 2115,
      "ĠÑĢÐ°Ð´Ð¸Ð°Ð»ÑĮÐ½ÑĭÐ¹": 2116,
      "ĠÐ¿Ð¿": 2117,
      "ĠÐºÐ¾Ð²": 2118,
      "ĠÐ¿Ð°ÑĢÐ°Ð»Ð»": 2119,
      "Ġpe": 2120,
      "Ð²ÐµÐ½ÑĤÐ¸Ð»ÑıÑĤÐ¾ÑĢ": 2121,
      "Ġmaa": 2122,
      "ÑģÐ¾Ð½": 2123,
      "Ġpa": 2124,
      "gh": 2125,
      "ĠÐ¿ÑĢÐ¾Ð¼": 2126,
      "ĠÐ´ÐµÐ·Ð°": 2127,
      "ĠÐºÐ°Ð½Ð°Ð»": 2128,
      "ÑĥÐ½Ð´": 2129,
      "ĠÐ¼Ð°ÐºÑģÐ¸Ð¼Ð°Ð»ÑĮÐ½ÑĭÐ¹": 2130,
      "ÑĪÐ¸ÑĢÐ¾Ð²Ð°ÑĤÑĮ": 2131,
      "ÑĪÐµÐ½Ð¸Ðµ": 2132,
      "ÐµÐ½Ñģ": 2133,
      "Ġ23": 2134,
      "Ð¾Ð·Ð°Ñī": 2135,
      "Ð¿Ð¿": 2136,
      "ĠÑģÐµÑĢÐ¸Ñı": 2137,
      "Ġnorm": 2138,
      "ĠÐ½Ð°Ð¿Ð¾ÑĢÐ½ÑĭÐ¹": 2139,
      "ĠÐ¿Ð°ÑĢÐ°Ð»Ð»ÐµÐ»ÑĮÐ½ÑĭÐ¹": 2140,
      "ÐºÐ»ÑİÑĩÐµÐ½Ð¸Ðµ": 2141,
      "Ġflang": 2142,
      "ĠÐ³ÑĢÑĥÐ·": 2143,
      "ĠÑģÐ¼Ð¾ÑĤÑĢ": 2144,
      "ch": 2145,
      "ĠÐ¿Ð¾Ð²ÑĭÑĪÐµÐ½Ð½ÑĭÐ¹": 2146,
      "ÐµÐ±ÐµÐ½ÑĮ": 2147,
      "ÐµÑĤÐ°Ð½": 2148,
      "Ð½Ð¸ÑĤÐµÐ»ÑĮÐ½ÑĭÐ¹": 2149,
      "ĠÐ½Ð°Ð²ÐµÑģ": 2150,
      "Ġfr": 2151,
      "ÑĥÑĢÐµÑĤÐ°Ð½": 2152,
      "ace": 2153,
      "Ġ33": 2154,
      "Ġbl": 2155,
      "ÑĥÑģÐº": 2156,
      "Ð¾ÑĤÐ½ÑĭÐ¹": 2157,
      "Ġts": 2158,
      "Ð¾ÑĦÐ¸Ð»ÑĮ": 2159,
      "ĠÑħÐ¾Ð»Ð¾Ð´": 2160,
      "ÑĦÐ»Ð°Ð½": 2161,
      "ÑĦÐ¾ÑĢÐ¸ÑĢÐ¾Ð²Ð°Ð½Ð½ÑĭÐ¹": 2162,
      "Ð°ÑĤÐµÐ»ÑĮÐ½ÑĭÐ¹": 2163,
      "ÑĥÐ·ÐµÐ»": 2164,
      "99": 2165,
      "ĠÐ¾ÑĤÑĢÐ°Ñģ": 2166,
      "ÐºÑĤÐ¸Ð²Ð¸ÑĢÐ¾Ð²Ð°ÑĤÑĮ": 2167,
      "ĠÐ¾ÑĤÑĢÐ°ÑģÐ»ÑĮ": 2168,
      "ĠÐ¿ÐµÑĢÐµÐºÑĢÑĭÑĤÐ¸Ðµ": 2169,
      "ÐºÐ°ÑĢ": 2170,
      "Ð¿Ð¾Ð»Ð½": 2171,
      "ĠÐºÑģ": 2172,
      "Ð¾ÑĤÐ´ÐµÐ»ÑĮÐ½ÑĭÐ¹": 2173,
      "ĠÐ´ÐµÐ·Ð°ÐºÑĤÐ¸Ð²Ð¸ÑĢÐ¾Ð²Ð°ÑĤÑĮ": 2174,
      "Ð¾Ð²Ð¾ÑĩÐ½ÑĭÐ¹": 2175,
      "ĠÐ¼Ðµ": 2176,
      "ĠÐ´Ð¾Ð¿": 2177,
      "Ð¾ÑĨÐ¸Ð½ÐºÐ¾Ð²Ð°ÑĤÑĮ": 2178,
      "ĠÑģÑĤÐ¾Ð¹ÐºÐ¾ÑģÑĤÑĮ": 2179,
      "ĠÑĤÑĢÑĥÐ±ÐºÐ°": 2180,
      "42": 2181,
      "Ð¿ÑĢÐ¾ÑĦÐ¸Ð»ÑĮ": 2182,
      "Ð¿Ð»": 2183,
      "ĠÐ³Ð¾ÑĢÑıÑĩÐµÐºÐ°ÑĤÐ°Ð½Ð½ÑĭÐ¹": 2184,
      "ĠÑĨÐµÐ½ÑĤÑĢ": 2185,
      "Ġplace": 2186,
      "Ġplacement": 2187,
      "ĠÐ°Ðº": 2188,
      "ÐµÐ¹ÑģÑĤÐ²Ð¸Ðµ": 2189,
      "ĠÑģÐ±Ð¾ÑĢÐ½ÑĭÐ¹": 2190,
      "Ġnormally": 2191,
      "ĠÐºÑĢÐ°Ñģ": 2192,
      "Ġcool": 2193,
      "ĠÐ¾Ð±ÑĢÐ°Ð·Ð½ÑĭÐ¹": 2194,
      "ÑĥÑĤÐ°": 2195,
      "ĠÑĪÐ¸Ð½Ð°": 2196,
      "Ð¾Ð¿Ð¸ÑĩÐµÑģÐºÐ¸Ð¹": 2197,
      "Ð¾ÑĢÐ¾Ð½Ð°": 2198,
      "ÑĳÐ½ÑĭÐ¹": 2199,
      "Ð¾ÑģÑĤÐ¾Ð¹ÐºÐ¾ÑģÑĤÑĮ": 2200,
      "ĠÑħÐ²": 2201,
      "06": 2202,
      "ĠÐ³Ð¸Ð´ÑĢÐ¾Ð¸Ð·Ð¾Ð»ÑıÑĨÐ¸Ð¾Ð½Ð½ÑĭÐ¹": 2203,
      "ĠÑĥÐº": 2204,
      "ĠÑģÑĤÐ¾ÑĢÐ¾Ð½Ð°": 2205,
      "ÐµÑģÑĤÑĮ": 2206,
      "ÑĥÑİÑīÐ¸Ð¹": 2207,
      "ĠÐ³ÑĢÑĥÐ½ÑĤ": 2208,
      "ĠÑĦÐ¾Ð»ÑĮ": 2209,
      "Ð¿Ð¾Ð»ÑİÑģÐ½ÑĭÐ¹": 2210,
      "Ð¿ÐºÐ¼": 2211,
      "Ð»Ð¸ÑĨ": 2212,
      "ÑĥÐ»ÑĮ": 2213,
      "ĠÐ¿ÑĢÑıÐ¼Ð¾ÑĪÐ¾Ð²Ð½ÑĭÐ¹": 2214,
      "ÐºÐ²Ð°": 2215,
      "ĠÐ¿Ð¾Ð»Ð¾Ñģ": 2216,
      "ĠÐ·Ð°ÐºÐ»Ð°Ð´Ð½Ð¾Ð¹": 2217,
      "ĠÐ¾Ð»": 2218,
      "ĠÐ¿Ð¾Ñģ": 2219,
      "Ð¸Ð½Ð½ÑĭÐ¹": 2220,
      "ĠÐ°Ð½ÐºÐµÑĢÐ½ÑĭÐ¹": 2221,
      "ĠÐ¿Ð½": 2222,
      "Ð»Ð¾ÑĤ": 2223,
      "Ð¸Ð½ÑĤÐµÑĤÐ¸ÑĩÐµÑģÐºÐ¸Ð¹": 2224,
      "ĠÐ¿ÐµÐ½Ð¾Ð¿Ð¾Ð»Ð¸": 2225,
      "ĠÐ·Ð°Ð¶Ð¸Ð¼": 2226,
      "Ð¾ÑĢÐ¾Ð¶Ð½ÑĭÐ¹": 2227,
      "ÐºÐ¾Ð½ÑģÐ¾Ð»ÑĮ": 2228,
      "ÑĤÑĥÑĢ": 2229,
      "Ð²Ñĭ": 2230,
      "ĠÑģÐ¸Ð½ÑĤÐµÑĤÐ¸ÑĩÐµÑģÐºÐ¸Ð¹": 2231,
      "ÑģÐµÐºÑĨÐ¸Ñı": 2232,
      "ÐµÐ¼Ð¾ÑģÑĤÑĮ": 2233,
      "id": 2234,
      "ÐµÑĩÐ½ÑĭÐ¹": 2235,
      "ĠÑıÑĩ": 2236,
      "Ð¾Ð½ÐµÐ½ÑĤÐ½ÑĭÐ¹": 2237,
      "Ġ560": 2238,
      "ĠÐ²ÑĭÑħÐ¾Ð´": 2239,
      "Ð¾Ð¿Ð¾ÑĢÐ°": 2240,
      "vel": 2241,
      "Ð¾Ð´Ð¸": 2242,
      "ĠÐ½Ð°ÐºÐ¾Ð½ÐµÑĩÐ½Ð¸Ðº": 2243,
      "Ð¾ÑĦÑĢ": 2244,
      "ĠÑģÐ¾Ð±": 2245,
      "Ð¸Ð°Ð»ÑĮÐ½ÑĭÐ¹": 2246,
      "ĠÐ¼ÐµÑģÑĤ": 2247,
      "Ġdm": 2248,
      "ae": 2249,
      "ĠÐ¼Ð¾Ð¼": 2250,
      "ÐµÐºÑĤ": 2251,
      "ÑĨÐµÐ²Ð¾Ð¹": 2252,
      "Ġ42": 2253,
      "ÑĩÐ¸ÑģÑĤ": 2254,
      "Ġpp": 2255,
      "Ġhand": 2256,
      "ĠÑģÐ¾Ð´ÐµÑĢÐ¶Ð°Ð½Ð¸Ðµ": 2257,
      "Ġ4000": 2258,
      "Ð¾Ð¿Ð¾Ð»Ð¾ÑĩÐ½ÑĭÐ¹": 2259,
      "Ġlevel": 2260,
      "ĠÐºÐ¾Ð½ÑģÐ¾Ð»ÑĮ": 2261,
      "ĠÐ½Ð°Ð²ÐµÑģÐ½ÑĭÐ¹": 2262,
      "ĠÐ¿Ð¾Ð´ÐºÐ»ÑİÑĩÐµÐ½Ð¸Ðµ": 2263,
      "ĠÑĢÐ°ÑģÑĤÐ²Ð¾ÑĢ": 2264,
      "ĠÐ½Ð°Ð³ÑĢÐµÐ²": 2265,
      "ĠÐºÐ¾Ð½ÑĤÑĢÐ¾Ð»ÑĮ": 2266,
      "Ð¸ÑĤÐ°Ð½Ð¸Ðµ": 2267,
      "Ð¾Ð´Ð²Ð¸Ð³": 2268,
      "ĠÐ±ÐµÐ»ÑĭÐ¹": 2269,
      "ĠÑħÐ¾Ð¼ÑĥÑĤ": 2270,
      "ĠÐºÐ»Ð¸Ð½Ð¾Ð²ÑĭÐ¹": 2271,
      "Ð°ÑģÐ»Ð¾Ð½": 2272,
      "ĠÐºÐ²Ð²": 2273,
      "Ġ149": 2274,
      "ĠÑįÐ»ÐµÐºÑĤÑĢÐ¾Ð´Ð²Ð¸Ð³": 2275,
      "Ġ07": 2276,
      "Ð¾ÑģÐ½Ð°": 2277,
      "Ð¼Ð°Ð»ÑĮ": 2278,
      "Ð°ÑģÐ»Ð¾Ð½ÐºÐ°": 2279,
      "ck": 2280,
      "ĠÑģÑĤÐµÐ½Ð°": 2281,
      "04": 2282,
      "ĠÑĢÐ°Ð·ÑĢÑĭÐ²": 2283,
      "ĠÑįÐ»ÐµÐºÑĤÑĢÐ¾Ð´Ð²Ð¸Ð³Ð°ÑĤÐµÐ»ÑĮ": 2284,
      "ĠÐºÐ¾": 2285,
      "ĠÐ²Ð¾Ð»Ð¾ÐºÐ½Ð¾": 2286,
      "ĠÐ³Ð¾ÑĦÑĢ": 2287,
      "ĠÐ¶ÑĳÑģÑĤ": 2288,
      "Ð¿ÑĢÐ¾Ð²Ð¾Ð´": 2289,
      "ĠÐºÐ¾Ð½ÐµÑĨ": 2290,
      "ĠÑģÐ¸Ð³Ð½Ð°Ð»ÑĮÐ½ÑĭÐ¹": 2291,
      "005": 2292,
      "ÑĥÐ²": 2293,
      "Ġoperated": 2294,
      "ble": 2295,
      "ĠÐ¿Ð¾Ð·Ð°": 2296,
      "ĠÐ½ÐµÑĢ": 2297,
      "Ġ38": 2298,
      "Ġopen": 2299,
      "ÑģÑĤÐ°": 2300,
      "Ġx": 2301,
      "ĠÐ³Ð¾ÑĢÑıÑĩÐ¸Ð¹": 2302,
      "Ġ180": 2303,
      "ĠÑģÐ°Ð¼Ð¾": 2304,
      "ÑĢÑĥÐ¿": 2305,
      "ÐºÐ»": 2306,
      "ĠÐ²ÑĢ": 2307,
      "ĠÐ¾Ð±Ð»Ð¸ÑĨ": 2308,
      "ÐºÑĢÑĭÑĪÐºÐ°": 2309,
      "ĠÐºÐ¾Ð»ÑĮÑĨÐ¾": 2310,
      "Ġ660": 2311,
      "ght": 2312,
      "Ð¾Ð±Ð°": 2313,
      "ĠÐ³Ð»": 2314,
      "180": 2315,
      "ÑĳÑĢÐ´": 2316,
      "ĠÐ¾Ð»Ð¿Ð¿Ð°": 2317,
      "ĠÐ¿Ð¸ÑĤÐ°Ð½Ð¸Ðµ": 2318,
      "ÑĤÐ°ÑĨÐ¸Ñı": 2319,
      "frhf": 2320,
      "ĠÑģÐ²ÐµÑĤÐ¸Ð»ÑĮÐ½Ð¸Ðº": 2321,
      "ĠÑĥÑĤ": 2322,
      "ÐºÐ°Ð²": 2323,
      "Ġ14918": 2324,
      "Ġ04": 2325,
      "ĠÑĢÐ°Ð´Ð¸": 2326,
      "Ð»Ð¾": 2327,
      "ĠÑĪÐ°Ð¹Ð±Ð°": 2328,
      "ĠÑĤÑĢÐ¾Ð¿Ð¸ÑĩÐµÑģÐºÐ¸Ð¹": 2329,
      "ĠÐºÐ»ÐµÐ¼Ð¼Ð°": 2330,
      "ĠÐ¾Ð´Ð½Ð¾Ð¿Ð¾Ð»ÑĮÐ½ÑĭÐ¹": 2331,
      "Ġss": 2332,
      "Ð¾ÑģÑĤÐ¾Ñı": 2333,
      "ĠÐ¿Ð¾Ð²Ð¾ÑĢÐ¾ÑĤÐ½ÑĭÐ¹": 2334,
      "ĠÐ²Ð·ÑĢÑĭÐ²": 2335,
      "Ġz": 2336,
      "ĠÐ·Ð°Ð¿Ð¾Ð»Ð½Ð¸ÑĤÐµÐ»ÑĮ": 2337,
      "ĠÐºÐ¾Ð½ÑĤÐ°ÐºÑĤÐ½ÑĭÐ¹": 2338,
      "Ġmade": 2339,
      "ĠÑĤÐ²ÑĳÑĢÐ´": 2340,
      "Ð¾Ð¿Ð¾Ð´": 2341,
      "ÐµÑĢÐ¶Ð¸Ð²Ð°ÑĤÑĮ": 2342,
      "ĠÑĦÐ¾Ð»ÑĮÐ³Ð°": 2343,
      "ĠÑĥÑģÐ¸Ð»": 2344,
      "ln": 2345,
      "160": 2346,
      "Ð¸ÑĦÐ¸ÐºÐ°ÑĨÐ¸Ñı": 2347,
      "tt": 2348,
      "ĠÐ¿Ð»Ð¸ÑĤÐ°": 2349,
      "Ð¾Ð·Ð°ÑīÐ¸Ñī": 2350,
      "Ġbf": 2351,
      "ĠÐ¸Ð·Ð³Ð¾ÑĤÐ¾Ð²Ð»ÐµÐ½Ð¸Ðµ": 2352,
      "Ġrf": 2353,
      "ÐµÑĦÐ¾ÑĢÐ¼Ð¸ÑĢÐ¾Ð²Ð°ÑĤÑĮ": 2354,
      "Ġmda": 2355,
      "Ð³Ð°Ð¹ÐºÐ°": 2356,
      "ĠÐ½Ð°ÑģÑĤÐµÐ½Ð½ÑĭÐ¹": 2357,
      "Ð¸ÐºÐ¾Ð²ÑĭÐ¹": 2358,
      "ree": 2359,
      "Ð²ÐµÑĤÐ²": 2360,
      "ĠÐ±Ñĭ": 2361,
      "ĠÐ´Ð¾Ðº": 2362,
      "ĠÐ»ÐµÐ³": 2363,
      "ĠÑģÐ½": 2364,
      "ÐµÐ·Ð°Ñī": 2365,
      "ĠÑĤÑĢÐ°Ð½": 2366,
      "ĠÐ¿ÐµÑĢÑĦÐ¾ÑĢÐ¸ÑĢÐ¾Ð²Ð°Ð½Ð½ÑĭÐ¹": 2367,
      "ĠÐ¿Ð¾Ð»ÐºÐ°": 2368,
      "ĠÑĢÐµÐ·Ð¸Ð½Ð¾Ð²ÑĭÐ¹": 2369,
      "ĠÑģÐ²ÑıÐ·ÑĥÑİÑīÐ¸Ð¹": 2370,
      "ĠÐºÐ»ÐµÐ¼Ð¼Ð½ÑĭÐ¹": 2371,
      "ĠÐºÐ¾Ð²ÑĪ": 2372,
      "007": 2373,
      "ĠÐ°Ð²": 2374,
      "ĠÐ¾ÑĢ": 2375,
      "Ð¸Ð²Ð°Ð½Ð¸Ðµ": 2376,
      "ys": 2377,
      "Ġ315": 2378,
      "Ġ76": 2379,
      "Ð¿ÐµÑĢÐµÑħÐ¾Ð´": 2380,
      "ÐµÐ½Ð°": 2381,
      "48": 2382,
      "Ð»Ð¸Ð·Ð°ÑĨÐ¸Ñı": 2383,
      "ĠÐ¿ÐµÑģ": 2384,
      "ĠÐ²Ð¸Ð½ÑĤ": 2385,
      "ĠÑĤÐ¾Ð»ÑģÑĤÐ¾Ð»": 2386,
      "ĠÑĤÐ¾Ð»ÑģÑĤÐ¾Ð»Ð¸ÑģÑĤÐ¾Ð²Ð¾Ð¹": 2387,
      "ĠÐ¾ÐºÐ¾Ð½Ð½ÑĭÐ¹": 2388,
      "se": 2389,
      "ĠÑħÐ¾Ð»Ð¾Ð´Ð½": 2390,
      "ĠÐ´Ð¾Ð»": 2391,
      "Ð¸ÑĢÐ¾Ð²Ð°ÑĤÑĮÑģÑı": 2392,
      "ĠÐ°Ð½Ð°": 2393,
      "Ð°Ð»ÐµÐµ": 2394,
      "ÑĳÐ½": 2395,
      "33": 2396,
      "Ġacti": 2397,
      "Ð¾Ð·Ð°ÑīÐ¸ÑīÑĳÐ½Ð½ÑĭÐ¹": 2398,
      "ÑıÐ´": 2399,
      "ĠÐ¸Ð·Ð¼ÐµÑĢ": 2400,
      "ĠtÑģ": 2401,
      "ĠÑģÐ²ÐµÑĤÐ¾Ð´Ð¸": 2402,
      "ÐºÐ°ÑĢÐºÐ°": 2403,
      "ĠÑĤÑĢÐµÐ±": 2404,
      "ĠÐ»Ð°ÑĤÑĥÐ½Ð½ÑĭÐ¹": 2405,
      "Ð´Ð°": 2406,
      "ÐµÐ´ÐµÑĦÐ¾ÑĢÐ¼Ð¸ÑĢÐ¾Ð²Ð°ÑĤÑĮ": 2407,
      "ĠÐ³Ð¾ÑĢÑıÑĩÐµÐ´ÐµÑĦÐ¾ÑĢÐ¼Ð¸ÑĢÐ¾Ð²Ð°ÑĤÑĮ": 2408,
      "ĠÑģÐ¿ÐµÑĨÐ¸ÑĦÐ¸ÐºÐ°ÑĨÐ¸Ñı": 2409,
      "ÐºÑĥ": 2410,
      "ĠtÑģÑĢÐ°Ð±": 2411,
      "ÑģÑĤÐ²ÐµÐ½Ð½ÑĭÐ¹": 2412,
      "240": 2413,
      "ĠÐ±ÑĢ": 2414,
      "ĠÐ³ÑĢÐ°Ð½": 2415,
      "ĠÐ¿ÑĢÐ¾Ð´": 2416,
      "Ġhst": 2417,
      "245": 2418,
      "69": 2419,
      "us": 2420,
      "ĠÐ¾Ð±Ñī": 2421,
      "ĠÑĢÐ°Ð´Ð¸Ð°ÑĨÐ¸Ð¾Ð½Ð½ÑĭÐ¹": 2422,
      "ĠÐ³ÑĢ": 2423,
      "ÑĦÐ¸ÐºÑģ": 2424,
      "Ð³ÑįÐ½Ð³": 2425,
      "Ġdriven": 2426,
      "ĠÑĢÐ°Ð²Ð½Ð¾Ð¿Ð¾Ð»Ð¾ÑĩÐ½ÑĭÐ¹": 2427,
      "ÐºÐ°ÑĢÐºÐ°Ñģ": 2428,
      "ĠÑģÑĤÐ¾Ð¹ÐºÐ°": 2429,
      "Ð´Ð²Ð¸Ð¶Ð½Ð¾Ð¹": 2430,
      "ĠÑħÑĢÐ¾Ð¼": 2431,
      "Ð¾Ð¶ÑĥÑħ": 2432,
      "Ð»Ð¾Ð½Ð½ÑĭÐ¹": 2433,
      "ĠÐ°Ð¼": 2434,
      "ĠÐ³Ð¾ÑĦÑĢÐ¸ÑĢÐ¾Ð²Ð°Ð½Ð½ÑĭÐ¹": 2435,
      "ĠÐ±Ð¾Ð»ÑĤ": 2436,
      "ĠÐ³Ð¾ÑĢÑıÑĩÐµ": 2437,
      "min": 2438,
      "ĠÐ²Ð·ÑĢÑĭÐ²Ð¾Ð·Ð°ÑīÐ¸ÑīÑĳÐ½Ð½ÑĭÐ¹": 2439,
      "Ð¸Ð¶": 2440,
      "ÑıÐ¶Ð½Ð¾Ð¹": 2441,
      "ĠÐ³ÐµÑĢÐ¼ÐµÑĤÐ¸Ð·Ð°ÑĨÐ¸Ñı": 2442,
      "me": 2443,
      "Ġ55": 2444,
      "Ġ230": 2445,
      "uct": 2446,
      "ÑıÑīÐ¸Ð¹": 2447,
      "2100": 2448,
      "ĠÑĩÑĥÐ³ÑĥÐ½Ð½ÑĭÐ¹": 2449,
      "Ġtu": 2450,
      "ĠÐ³Ð¾ÑĢÑıÑĩÐµÐ¾ÑĨÐ¸Ð½ÐºÐ¾Ð²Ð°ÑĤÑĮ": 2451,
      "ĠÑģÐ¼Ð¾ÑĤÑĢÐµÑĤÑĮ": 2452,
      "ĠÑĨÐ¸Ð»Ð¸Ð½Ð´ÑĢ": 2453,
      "Ġresi": 2454,
      "ĠÐ¿ÑĢÐ¾Ð´Ð¾Ð»ÑĮÐ½ÑĭÐ¹": 2455,
      "Ġelectrically": 2456,
      "ÐµÐ¿ÑĢ": 2457,
      "ĠÑĥÐ¿Ð»Ð¾ÑĤ": 2458,
      "ĠÐ¿Ð¾ÑĢÐ¾ÑĪÐºÐ¾Ð²ÑĭÐ¹": 2459,
      "Ð¿Ð¾Ð»Ð½Ð¸ÑĤÑĮ": 2460,
      "ĠÐ¾ÑħÐ»Ð°Ð¶Ð´ÐµÐ½Ð¸Ðµ": 2461,
      "ĠÐ»ÐµÐ³Ð¸ÑĢÐ¾Ð²Ð°ÑĤÑĮ": 2462,
      "Ġ56": 2463,
      "ka": 2464,
      "ĠÐ¸Ð·Ð¾Ð»Ð¸ÑĢÐ¾Ð²Ð°ÑĤÑĮ": 2465,
      "ĠÐ°Ð½Ð°Ð»Ð¾Ð³": 2466,
      "ĠÑįÐº": 2467,
      "ĠÑħÐ°": 2468,
      "ĠÐ´Ð°Ð»ÐµÐµ": 2469,
      "Ð¾Ð¿Ð¾Ð´ÑĬÑĳÐ¼": 2470,
      "ĠÐ°Ñį": 2471,
      "ĠÐ°ÑģÐ²": 2472,
      "Ġ03": 2473,
      "ĠÐºÐ°Ð½Ð°": 2474,
      "Ġresist": 2475,
      "Ġ219": 2476,
      "ÑĢÑĥÐ³": 2477,
      "ĠÐ·Ð°Ð·ÐµÐ¼Ð»ÐµÐ½Ð¸Ðµ": 2478,
      "iz": 2479,
      "jr": 2480,
      "ÑĢÑĥÑģÐ½ÑĭÐ¹": 2481,
      "ÑĩÐ¸ÑģÑĤÐºÐ°": 2482,
      "ĠÐ°ÑģÐ²Ñģ": 2483,
      "Ð¾ÑĢÐ¾Ð½": 2484,
      "Ġ1471": 2485,
      "ĠÐºÐ¾Ð¶ÑĥÑħ": 2486,
      "ÐµÑĢÐ¼": 2487,
      "ĠÑģÑĥÑħÐ¾Ð¹": 2488,
      "ÑĨÐµÐ½ÑĤÑĢ": 2489,
      "ÐµÑī": 2490,
      "Ð¸Ð½Ð´ÐµÐ»ÑĮ": 2491,
      "Ġ3742": 2492,
      "ĠÐ´Ð²ÑĥÑħÐºÐ¾Ð¼Ð¿": 2493,
      "Ð·Ð¾Ð½": 2494,
      "ÐºÐ·Ñģ": 2495,
      "ĠÐ·ÑģÐ´": 2496,
      "Ġhe": 2497,
      "ĠÑĤÑĢÐµÐ±Ð¾Ð²Ð°Ð½Ð¸Ðµ": 2498,
      "ĠÑĪÐ¿Ð¸Ð½Ð´ÐµÐ»ÑĮ": 2499,
      "Ð»ÐµÐºÑĤÐ¾ÑĢ": 2500,
      "ĠÐ¼ÐµÑĤ": 2501,
      "Ð¼ÐµÐ½ÑĤÐ°ÑĨÐ¸Ñı": 2502,
      "ÑĪÐ¿": 2503,
      "ÑĥÐ¼ÐµÐ½ÑĤÐ°ÑĨÐ¸Ñı": 2504,
      "ĠÑģÐºÑĢÑĥ": 2505,
      "ĠÐ´Ð¾ÐºÑĥÐ¼ÐµÐ½ÑĤÐ°ÑĨÐ¸Ñı": 2506,
      "Ð¾Ð¿Ð¾Ð´ÑĬÑĳÐ¼Ð½Ð¾ÑģÑĤÑĮ": 2507,
      "Ð»ÑĥÐ±": 2508,
      "Ð»Ð°ÑģÑĤÐ¸ÐºÐ¾Ð²ÑĭÐ¹": 2509,
      "Ð¾ÑĢÑģÐºÐ¸Ð¹": 2510,
      "ĠÐ³ÑĢÑĥÐ·Ð¾Ð¿Ð¾Ð´ÑĬÑĳÐ¼Ð½Ð¾ÑģÑĤÑĮ": 2511,
      "ĠÑıÑĩÐµÐ¹ÐºÐ°": 2512,
      "Ġsys": 2513,
      "ĠÐ²ÑĭÑĢÐµÐ·Ð½Ð¾Ð¹": 2514,
      "ĠÐºÐ¾Ð½ÑģÑĤÑĢÑĥÐºÑĤÐ¾ÑĢÑģÐºÐ¸Ð¹": 2515,
      "Ð±Ð¾Ð»": 2516,
      "ĠÐ²Ð²Ð¾Ð´Ð½ÑĭÐ¹": 2517,
      "ĠÑĥÑħÐ»": 2518,
      "Ð»Ð¸Ð²Ð¾ÑĩÐ½ÑĭÐ¹": 2519,
      "ĠÐºÐ°ÑĪÐ¸ÑĢÐ¾Ð²Ð°ÑĤÑĮ": 2520,
      "ĠÑĪÐ¸Ð±": 2521,
      "Ð¾Ð½Ð¸Ðº": 2522,
      "ÑĪÐºÐ°ÑĦ": 2523,
      "88": 2524,
      "ÑĩÑĳÑĤ": 2525,
      "ĠÐ½Ð°Ð´": 2526,
      "Ġduct": 2527,
      "ĠÐ¿Ð¾Ð³": 2528,
      "Ð¿ÑĥÑģÐº": 2529,
      "Ġ630": 2530,
      "ÐµÐ·Ð°ÑīÐ¸ÑĤÐ½ÑĭÐ¹": 2531,
      "068": 2532,
      "ĠÐ»Ð°Ð¼": 2533,
      "Ð»ÐµÑĢÐ°Ð·": 2534,
      "ĠÑģÑĤÐ°Ð»ÐµÑĢÐ°Ð·": 2535,
      "ĠÑģÑĤÐ°Ð»ÐµÑĢÐ°Ð·Ð»Ð¸Ð²Ð¾ÑĩÐ½ÑĭÐ¹": 2536,
      "Ð²ÑĭÐºÐ»ÑİÑĩÐ°ÑĤÐµÐ»ÑĮ": 2537,
      "Ð¾Ð»Ð¾Ð²ÐºÐ°": 2538,
      "ĠÑĪÐ¸Ð±ÐµÑĢÐ½ÑĭÐ¹": 2539,
      "ĠÐ´Ð¿Ð¼": 2540,
      "ĠÐ½Ð³": 2541,
      "Ð¾Ð¾Ð¿Ð°ÑģÐ½Ð¾ÑģÑĤÑĮ": 2542,
      "ĠÐ¿ÑĢÐ¾ÑĦÐ¸Ð»ÑĮÐ½ÑĭÐ¹": 2543,
      "ĠÑħÐ°ÑĢÐ°": 2544,
      "ĠÐ¾Ð´Ð½Ð¾": 2545,
      "ĠÑĦÐ¸Ð»ÑĮ": 2546,
      "ĠÐ¿Ð¾Ð¶Ð°ÑĢÐ¾Ð¾Ð¿Ð°ÑģÐ½Ð¾ÑģÑĤÑĮ": 2547,
      "ĠÐ·Ð°Ðº": 2548,
      "Ð±Ð¾Ð»ÑĤ": 2549,
      "700": 2550,
      "Ð²ÑĢ": 2551,
      "350": 2552,
      "Ġns": 2553,
      "Ġ34": 2554,
      "ĠÑģÐ°Ð¼Ð¾ÑĦÐ¸ÐºÑģ": 2555,
      "ĠÑģÐ°Ð¼Ð¾ÑĦÐ¸ÐºÑģÐ¸ÑĢÐ¾Ð²Ð°ÑĤÑĮÑģÑı": 2556,
      "ĠÐºÑĢÐ¾Ð½ÑĪÑĤÐµÐ¹Ð½": 2557,
      "ĠÐºÐ¾Ð½Ð´": 2558,
      "low": 2559,
      "Ð¾ÑĢÑĤ": 2560,
      "ĠÐ¾ÑĤÐ¾Ð¿": 2561,
      "ĠÐ´Ð¸ÑģÐºÐ¾Ð²ÑĭÐ¹": 2562,
      "Ð¼ÐµÑĢÐ°": 2563,
      "ĠÐ¾ÑģÐ½Ð¾Ð²Ð°Ð½Ð¸Ðµ": 2564,
      "Ġ240": 2565,
      "ĠÑĦÐ°ÑģÐºÐ°": 2566,
      "ÑĥÐ±": 2567,
      "ÑĩÐ¾Ðº": 2568,
      "Ð·Ð°Ð³Ð»ÑĥÑĪÐºÐ°": 2569,
      "Ð¾Ð¿ÑĢÐ¾ÑħÐ¾Ð´Ð½Ð°Ñı": 2570,
      "ĠÐ¾ÑħÐ»Ð°Ð¶Ð´Ð°ÑĤÑĮ": 2571,
      "92": 2572,
      "Ð¸ÑĤÑĥÐ¼": 2573,
      "hdg": 2574,
      "Ð°Ð»ÑĮÐ½Ð¸Ðº": 2575,
      "ĠÐºÐ°Ð½Ð°Ð»ÑĮÐ½ÑĭÐ¹": 2576,
      "if": 2577,
      "ĠÐ½Ð¾": 2578,
      "ÑĪÐ½ÑĭÐ¹": 2579,
      "ĠÐ¾Ð±ÑĭÐº": 2580,
      "ĠÑĪÐºÐ°": 2581,
      "Ð½Ð¾Ð²ÐµÐ½Ð½ÑĭÐ¹": 2582,
      "ĠÐ¾Ð±ÑĭÐºÐ½Ð¾Ð²ÐµÐ½Ð½ÑĭÐ¹": 2583,
      "Ð¾ÑĢÐ¾Ð½Ð½Ð¸Ð¹": 2584,
      "Ð±Ð¶ÐµÐ½Ð¸Ðµ": 2585,
      "ÐºÑĤÐµÑĢ": 2586,
      "Ð¾ÑģÐ½Ð°Ð±Ð¶ÐµÐ½Ð¸Ðµ": 2587,
      "ĠÑĤÐµÐ»Ðµ": 2588,
      "ÑĢÐ¾ÑģÑģÐµÐ»ÑĮÐ½ÑĭÐ¹": 2589,
      "ĠÐ¾Ð¿Ð¾ÑĢÐ½ÑĭÐ¹": 2590,
      "Ġsyste": 2591,
      "ĠÑĥÑĩ": 2592,
      "Ð¸Ð»ÑĮÐ·Ð°": 2593,
      "ĠÐ»Ð°Ð¼Ð¿Ð°": 2594,
      "ĠÐºÑĢÐµÐ¼Ð½Ð¸Ð¹": 2595,
      "ĠÑĦÐ¸Ð»ÑĮÑĤÑĢ": 2596,
      "ĠÐ»Ð°Ðº": 2597,
      "Ġshe": 2598,
      "ÑĢÐ°Ð¶Ð´": 2599,
      "ÑģÑģÐ¾Ð²ÑĭÐ¹": 2600,
      "85": 2601,
      "ized": 2602,
      "Ġpnae": 2603,
      "ĠÑģÐµÐºÑĨÐ¸Ñı": 2604,
      "ĠÐ¾ÑģÑĤ": 2605,
      "ĠÑģÐ²ÐµÑĤÐ¾Ð´Ð¸Ð¾Ð´Ð½ÑĭÐ¹": 2606,
      "Ġthe": 2607,
      "ÑĭÑĢ": 2608,
      "Ð³ÑĢÐ°ÑĤÑĮ": 2609,
      "ĠÐ²Ð½Ðµ": 2610,
      "ĠÐ²ÑģÑĤÐ°Ð²ÐºÐ°": 2611,
      "ĠÐ´Ð¾ÑĢÐ¾Ð¶Ð½ÑĭÐ¹": 2612,
      "Ġsheet": 2613,
      "ĠÐ½Ð¾ÑĢÐ¼Ð°Ð»ÑĮÐ½ÑĭÐ¹": 2614,
      "ĠÑĪÐºÐ°ÑĦ": 2615,
      "Ġ159": 2616,
      "235": 2617,
      "Ġhs": 2618,
      "ĠÐºÑĢÐ¾Ð²": 2619,
      "ul": 2620,
      "ĠÐ¿Ð»Ð°ÑģÑĤÐ¸ÐºÐ°ÑĤ": 2621,
      "ÑĥÑĢÐµÑĤÐ°Ð½Ð¾Ð²ÑĭÐ¹": 2622,
      "Ġblf": 2623,
      "115": 2624,
      "Ð°ÑĤÑĮÑģÑı": 2625,
      "ĠÐ´Ð¾Ð»Ð¶Ð½ÑĭÐ¹": 2626,
      "ĠÐ³ÑĨ": 2627,
      "ĠÐ·Ð°Ð³Ð»ÑĥÑĪÐºÐ°": 2628,
      "ĠÐ½ÐµÐ¾Ð±": 2629,
      "ÑĦÐ»Ð°Ð½ÐµÑĨ": 2630,
      "ĠÐ°Ñģ": 2631,
      "ĠÐ¿Ð»Ð°ÑģÑĤÐ¸ÐºÐ¾Ð²ÑĭÐ¹": 2632,
      "ÑĢÐ°Ð¶Ð´ÐµÐ½Ð¸Ðµ": 2633,
      "ĠÐ¼Ð°ÑĢÐºÐ¸ÑĢÐ¾Ð²Ð¾ÑĩÐ½ÑĭÐ¹": 2634,
      "ĠÐºÑĢÐ°ÑģÐ½ÑĭÐ¹": 2635,
      "ĠÑĢÐ°Ð±Ð¾ÑĤÐ°": 2636,
      "ĠÑĢÐ°Ð·Ð¼ÐµÑī": 2637,
      "Ð·Ð°ÑĤÐ²Ð¾ÑĢ": 2638,
      "Ġman": 2639,
      "ĠÐ¿ÐµÑĢÑĦ": 2640,
      "ant": 2641,
      "ĠÐ¾ÑĤÐ²ÐµÑĤÐ²": 2642,
      "Ġis": 2643,
      "ĠÐ¼Ñĥ": 2644,
      "ÐµÐ½Ð¸ÑĤÑĮ": 2645,
      "Ð½ÑĥÑĤÑĭÐ¹": 2646,
      "ĠÑģÐ²ÑıÐ·ÑĮ": 2647,
      "Ð°ÑĤÑĩÐ¸Ðº": 2648,
      "ĠÐ±Ð¸ÑĤÑĥÐ¼": 2649,
      "Ð¸ÑĤÐºÐ°": 2650,
      "ĠÑģÑĤÐµÐºÐ»Ð¾Ð¿Ð»Ð°ÑģÑĤÐ¸ÐºÐ¾Ð²ÑĭÐ¹": 2651,
      "ĠÐ°ÑĢÐ¼": 2652,
      "Ġ72": 2653,
      "ÑĨÐµÐ½ÑĤÑĢÐ¸ÑĩÐµÑģÐºÐ¸Ð¹": 2654,
      "ĠÐ¿Ð¾ÑģÐ»Ðµ": 2655,
      "ÐºÑĤÐµÑĢÐ¸ÑģÑĤ": 2656,
      "110": 2657,
      "Ġdo": 2658,
      "ÐºÑĤÐµÑĢÐ¸ÑģÑĤÐ¸ÐºÐ°": 2659,
      "ĠÐ»Ð°": 2660,
      "ĠÐ´ÑĭÐ¼": 2661,
      "ÑĥÑĢÑĥÐ¿": 2662,
      "ÐµÐ²ÑĭÐ¹": 2663,
      "ĠÐ¾Ð³Ð½ÐµÐ·Ð°ÑīÐ¸ÑĤÐ½ÑĭÐ¹": 2664,
      "Ð¾Ð¿ÑĢÐ¾Ð²Ð¾Ð´Ð½Ð¾ÑģÑĤÑĮ": 2665,
      "ĠÐ°Ð·": 2666,
      "0001": 2667,
      "ĠÑı": 2668,
      "ĠÑĤÐµÐ¿Ð»Ð¾Ð¿ÑĢÐ¾Ð²Ð¾Ð´Ð½Ð¾ÑģÑĤÑĮ": 2669,
      "34": 2670,
      "Ð°ÑĢÐ¼Ð°ÑĤ": 2671,
      "Ġmanual": 2672,
      "ÑĥÐ´Ð°": 2673,
      "Ð¿Ð²": 2674,
      "Ð¾ÑģÑĤÐ¾ÑıÐ½Ð½ÑĭÐ¹": 2675,
      "ĠÑĢÐ°ÑģÑĤ": 2676,
      "ĠÐ²ÑĭÐ´Ð²Ð¸Ð¶Ð½Ð¾Ð¹": 2677,
      "ĠÐ´Ð²ÑĥÑħÐºÐ¾Ð¼Ð¿Ð¾Ð½ÐµÐ½ÑĤÐ½ÑĭÐ¹": 2678,
      "ÐºÐ¾": 2679,
      "Ð±Ð¾ÑĢ": 2680,
      "Ġ58": 2681,
      "ĠÑīÐµÐ±ÐµÐ½ÑĮ": 2682,
      "ĠÐ¼ÑĥÐ»Ð»": 2683,
      "ĠÐ¿Ð¾ÑģÑĤÐ¾ÑıÐ½Ð½ÑĭÐ¹": 2684,
      "ÑĢÐ°Ð¼": 2685,
      "ĠÐ¿ÐµÑģÑĩ": 2686,
      "ĠÑĤÐ¾ÐºÐ¾Ð¿ÑĢÐ¾Ð²Ð¾Ð´": 2687,
      "ĠÐ½Ð¸Ð¶": 2688,
      "ĠÑģÐ½ÑıÑĤÑĮ": 2689,
      "Ð¾Ð¼ÐµÑĤÑĢ": 2690,
      "Ġhf": 2691,
      "0004": 2692,
      "ĠÐ½Ð¸Ð¶Ð½Ð¸Ð¹": 2693,
      "Ð´ÐµÐ»ÐºÐ°": 2694,
      "ĠÑĤÐµÑĢÐ¼Ð¾ÑģÑĤÐ¾Ð¹ÐºÐ¾ÑģÑĤÑĮ": 2695,
      "ĠÑĪÐµÑģÑĤÐ¸": 2696,
      "Ġdam": 2697,
      "Ġfe": 2698,
      "ĠÑħÐ¸Ð¼": 2699,
      "ĠÐ½ÐµÐ¿": 2700,
      "ĠÑĦÐ¾ÑģÑĦ": 2701,
      "Ð´ÐµÐ½Ð¸Ðµ": 2702,
      "ÑįÐ»ÐµÐºÑĤÑĢ": 2703,
      "ĠÐ¿Ð½Ð°ÑįÐ³": 2704,
      "th": 2705,
      "ĠÐ³Ð¾Ð»Ð¾Ð²ÐºÐ°": 2706,
      "ÑģÑĤÐ°ÐºÐ°Ð½": 2707,
      "Ġbellow": 2708,
      "ÑĥÐ²ÑģÑĤÐ²": 2709,
      "ĠÐ¾ÑĨÐ¸Ð½Ðº": 2710,
      "Ġ88": 2711,
      "ĠÑĤÐµÐ»ÐµÑĦÐ¾Ð½Ð½ÑĭÐ¹": 2712,
      "ĠÑĤÐ¾ÐºÐ¾Ð¿ÑĢÐ¾Ð²Ð¾Ð´ÑıÑīÐ¸Ð¹": 2713,
      "Ġbellows": 2714,
      "ĠÐ³Ð¸Ð»ÑĮÐ·Ð°": 2715,
      "Ð±Ð¾Ð²Ð¾Ð¹": 2716,
      "Ð°Ð±Ð°ÑĢÐ¸ÑĤÐ½ÑĭÐ¹": 2717,
      "ĠÐ´ÑĢÐ¾ÑģÑģÐµÐ»ÑĮÐ½ÑĭÐ¹": 2718,
      "Ġdamper": 2719,
      "Ð»Ð¸Ð·": 2720,
      "Ð¼ÐµÐ½ÑĤ": 2721,
      "ĠÑĪÐµÑģÑĤÐ¸Ð³ÑĢÐ°ÑĤÑĮ": 2722,
      "ÐºÐ²ÑĤ": 2723,
      "ĠÐ¿ÐµÑģÑĩÐ°Ð½ÑĭÐ¹": 2724,
      "Ð´Ð¾Ñģ": 2725,
      "ĠÑĤÐ¾Ð»ÑīÐ°": 2726,
      "ĠÐ¼Ð°Ð»Ð¾Ð³": 2727,
      "Ð°Ð»Ñİ": 2728,
      "ost": 2729,
      "ĠÑĤÐµÐº": 2730,
      "ĠÐ¼Ð°Ð»Ð¾Ð³Ð°Ð±Ð°ÑĢÐ¸ÑĤÐ½ÑĭÐ¹": 2731,
      "Ð³ÑĢÑĥÐ½ÑĤ": 2732,
      "ĠÐ½Ð°Ñģ": 2733,
      "ĠÑģÐºÑĢÑĥÑĤÐºÐ°": 2734,
      "ral": 2735,
      "ĠÑĢÐµÐ·ÑĮÐ±Ð¾Ð²Ð¾Ð¹": 2736,
      "Ġoff": 2737,
      "ĠÑĥÐ´Ð»Ð¸Ð½ÐµÐ½Ð¸Ðµ": 2738,
      "125": 2739,
      "ĠÑħÐ°ÑĢÐ°ÐºÑĤÐµÑĢÐ¸ÑģÑĤÐ¸ÐºÐ°": 2740,
      "ĠÐ²ÑģÐ¿ÐµÐ½Ð¸ÑĤÑĮ": 2741,
      "ĠÐ´Ð²ÑĥÑħÑģÐ»Ð¾Ð¹Ð½ÑĭÐ¹": 2742,
      "pa": 2743,
      "ĠÑĦÐ¾ÑģÑĦÐ¾ÑĢ": 2744,
      "Ð¾Ð»Ð°": 2745,
      "ĠÐ°ÑģÐ¿": 2746,
      "Ð¾Ð¶ÐµÐ½Ð¸Ðµ": 2747,
      "Ġ2010": 2748,
      "ĠÐ¼Ð½Ð¾Ð³Ð¾Ð¿": 2749,
      "ĠÐ»ÐµÑģÑĤÐ½Ð¸ÑĩÐ½ÑĭÐ¹": 2750,
      "ĠÐºÐ¾Ð¼Ð±Ð¸Ð½": 2751,
      "lex": 2752,
      "ÑĢÐ¾Ð²Ð¾Ð»Ð¾ÑĩÐ½ÑĭÐ¹": 2753,
      "Ð¾Ð»ÑĮÐ·": 2754,
      "Ð¼Ðº": 2755,
      "ÑįÐ¿": 2756,
      "ĠÐ¿Ð»Ð°ÑģÑĤÐ¼Ð°": 2757,
      "ver": 2758,
      "Ð³ÐºÐ¸Ð¹": 2759,
      "91": 2760,
      "ÑģÐ¾ÐµÐ´Ð¸Ð½Ð¸ÑĤÐµÐ»ÑĮÐ½ÑĭÐ¹": 2761,
      "Ġj": 2762,
      "ĠÐ¼Ð°ÑĢÐ³Ð°Ð½": 2763,
      "ĠÐ¿ÑĢÐ¸Ð¼": 2764,
      "Ġresistance": 2765,
      "Ð¾ÑĢÐ°ÑĨÐ¸Ñı": 2766,
      "ĠÑĤÐ¾ÑĩÐ½Ð¾ÑģÑĤÑĮ": 2767,
      "ĠÐºÐ¾Ð¼Ð±Ð¸Ð½Ð¸ÑĢÐ¾Ð²Ð°Ð½Ð½ÑĭÐ¹": 2768,
      "tm": 2769,
      "ÑĦÑĦ": 2770,
      "Ð»Ð¾Ð²": 2771,
      "ĠÐ¿ÐµÑĢÑĦÐ¾ÑĢÐ°ÑĨÐ¸Ñı": 2772,
      "ĠÐ½ÐµÐ¾Ð±ÑħÐ¾Ð´": 2773,
      "Ð¾Ð¿ÐµÑĢ": 2774,
      "ĠÐ½Ð°Ð¿ÑĢÐ°Ð²Ð»ÐµÐ½Ð¸Ðµ": 2775,
      "ĠÑĤÐµÑħÐ½Ð¸ÑĩÐµÑģÐºÐ¸Ð¹": 2776,
      "ĠÐ±Ð°Ð»": 2777,
      "ĠÐ¼Ð°ÑĢÐ³Ð°Ð½ÐµÑĨ": 2778,
      "ĠÐ²Ð¸Ð½ÑĤÐ¾Ð²Ð¾Ð¹": 2779,
      "Ġshut": 2780,
      "Ġ273": 2781,
      "ÑıÑĢÑĥÑģÐ½ÑĭÐ¹": 2782,
      "Ð¸Ð½Ð°ÑĨÐ¸Ñı": 2783,
      "ĠÐ½ÐµÐ¾Ð±ÑħÐ¾Ð´Ð¸Ð¼ÑĭÐ¹": 2784,
      "ĠÑĤÐ¾ÑĢ": 2785,
      "Ġ91": 2786,
      "ĠÐºÐ¾Ð¼Ð±Ð¸Ð½Ð°ÑĨÐ¸Ñı": 2787,
      "ĠÑĢÐ°Ð·ÑĢÐ°Ð±Ð¾ÑĤÐºÐ°": 2788,
      "52": 2789,
      "Ð¾Ð´ÐºÐ°": 2790,
      "Ġ1100": 2791,
      "ĠÑīÐ¸ÑĤ": 2792,
      "Ġopened": 2793,
      "Ġgost": 2794,
      "Ð²Ð°Ñı": 2795,
      "ĠÐ³Ð¸Ð´ÑĢÐ¾Ð¸Ð·Ð¾Ð»ÑıÑĨÐ¸Ñı": 2796,
      "101": 2797,
      "ÑģÐ²Ð°Ñı": 2798,
      "Ð°Ð¼ÐµÑĢÐ½ÑĭÐ¹": 2799,
      "ÐµÐ¿ÑĢÐ¾Ð¼": 2800,
      "Ð¾ÐºÑĢÐ°Ñģ": 2801,
      "ÐµÐ¿ÑĢÐ¾Ð¼ÑĭÑĪÐ»ÐµÐ½Ð½ÑĭÐ¹": 2802,
      "ÑįÐ¿Ð½Ð³": 2803,
      "Ġ06": 2804,
      "Ġsc": 2805,
      "ĠÐ¾Ð´Ð½Ð¾ÐºÐ°Ð¼ÐµÑĢÐ½ÑĭÐ¹": 2806,
      "Ð°ÑĢÑĮ": 2807,
      "ĠÐ¾Ð±ÑīÐµÐ¿ÑĢÐ¾Ð¼ÑĭÑĪÐ»ÐµÐ½Ð½ÑĭÐ¹": 2808,
      "ÑĭÑĤ": 2809,
      "Ð¾ÑģÐ½ÑĭÐ¹": 2810,
      "ĠÐ»Ð°ÐºÐ¾ÐºÑĢÐ°Ñģ": 2811,
      "ĠÑģÑĤÑĭÐº": 2812,
      "Ð±ÑĢÐ°": 2813,
      "Ð¸ÑĤÐµÐ»ÑĮÐ½Ð¾": 2814,
      "Ð¸ÑĦÑĥÐ³": 2815,
      "ĠÐ²ÑģÑĤÑĢÐ¾": 2816,
      "ĠÑĨÐµÐ½ÑĤÑĢÐ¸ÑĦÑĥÐ³": 2817,
      "ÐµÑĦ": 2818,
      "Ġsf": 2819,
      "ĠÑĦÑĢÐ°": 2820,
      "ĠÑĨÐµÐ½ÑĤÑĢÐ¸ÑĦÑĥÐ³Ð¸ÑĢÐ¾Ð²Ð°ÑĤÑĮ": 2821,
      "ĠÑģÐ¸": 2822,
      "ÑĤÑĢÑĥÐ±ÐºÐ°": 2823,
      "ĠÐ²ÑģÑĤÑĢÐ¾Ð¸ÑĤÑĮ": 2824,
      "ÑĪÐ°": 2825,
      "2000": 2826,
      "ĠÑįÐ»Ð°ÑģÑĤ": 2827,
      "ĠÐ°Ð³ÑĢ": 2828,
      "Ġ020": 2829,
      "98": 2830,
      "ĠÑĥÐ·ÐµÐ»": 2831,
      "ĠÐºÐ¾Ð»Ð»ÐµÐºÑĤÐ¾ÑĢ": 2832,
      "ÑĳÑĢÐ½ÑĭÐ¹": 2833,
      "ÑĥÑĤÐ°Ð²ÑĢ": 2834,
      "Ġ1990": 2835,
      "ĠÐ²ÑĭÑĤ": 2836,
      "ĠÑģÐ¿Ð»Ð°Ð²": 2837,
      "Ð»Ð¸Ð·Ð°ÑĨÐ¸Ð¾Ð½Ð½ÑĭÐ¹": 2838,
      "ÑĢÑĥÐ±": 2839,
      "Ġ1700": 2840,
      "ĠÐ¿ÑĢÐ¾ÐºÐ»Ð°Ð´Ð¾ÑĩÐ½ÑĭÐ¹": 2841,
      "ĠÐºÐ¼Ð´": 2842,
      "ĠÐ¾ÑĤÐ½Ð¾Ñģ": 2843,
      "Ð»Ð¸ÑĩÐµÑģÐºÐ¸Ð¹": 2844,
      "Ġ325": 2845,
      "ĠÐºÑĢÐµÐ¿ÑĳÐ¶Ð½ÑĭÐ¹": 2846,
      "at": 2847,
      "ĠÐ²ÐµÑĢÑħ": 2848,
      "Ð¸ÑĦÑĦ": 2849,
      "Ð°Ð»ÑİÐ·": 2850,
      "ĠÐ¶Ð°Ð»ÑİÐ·": 2851,
      "ĠÑĨÐ¸Ðº": 2852,
      "Ð»ÐµÐ½ÑĤÐ°": 2853,
      "Ð»Ð¸ÑĢÑĥ": 2854,
      "ĠÐºÐ°Ð½Ð°Ð»Ð¸Ð·Ð°ÑĨÐ¸Ð¾Ð½Ð½ÑĭÐ¹": 2855,
      "ĠÐºÐ¾Ð½Ð¸ÑĩÐ½Ð¾ÑģÑĤÑĮ": 2856,
      "62": 2857,
      "ÐµÐ¹Ð½ÑĭÐ¹": 2858,
      "ĠÐ¿Ð¾Ð³ÑĢÑĥ": 2859,
      "ÑĥÑĩÐµÑģÑĤÑĮ": 2860,
      "ĠÐ¿Ð¾Ð´Ð²ÐµÑģÐºÐ°": 2861,
      "72": 2862,
      "ain": 2863,
      "ĠÐ³Ð½ÑĥÑĤÑĭÐ¹": 2864,
      "Ġ31": 2865,
      "ĠÑĦÑĢÐ°ÐºÑĨÐ¸Ñı": 2866,
      "ĠÐ²Ð¸Ð±": 2867,
      "ĠÐ±Ð¸ÑĤÑĥÐ¼Ð½ÑĭÐ¹": 2868,
      "ĠÑģÑĤÐ°ÑĢ": 2869,
      "ĠÑĤÐµÐºÑĥÑĩÐµÑģÑĤÑĮ": 2870,
      "ĠÐ¿Ð»Ð°ÑģÑĤÐ¼Ð°ÑģÑģÐ¾Ð²ÑĭÐ¹": 2871,
      "Ð¾ÑħÑĢÐ°Ð½": 2872,
      "ÑįÐ½": 2873,
      "ÑĬÑĳÐ¼Ð½ÑĭÐ¹": 2874,
      "ĠÐ¿Ð¾ÑĢÐ¾ÑĪÐº": 2875,
      "Ġ2009": 2876,
      "ĠÐºÐ¾Ð¼Ð¿Ð»": 2877,
      "ĠÑģÐ¾ÑĢÑĤ": 2878,
      "Ġcar": 2879,
      "ĠÐ²ÐµÑĢÑħÐ½Ð¸Ð¹": 2880,
      "Ġ29": 2881,
      "ĠÐ¿Ð¾ÑĤÐ¾Ð»Ð¾ÑĩÐ½ÑĭÐ¹": 2882,
      "eck": 2883,
      "ĠÐ¾Ð´Ð½Ð¾ÑģÑĤ": 2884,
      "ĠÑĨÐ¸Ð½ÐºÐ¾Ð½Ð°": 2885,
      "nc": 2886,
      "ÑıÐ¶ÐºÐ°": 2887,
      "ĠÑħÐ¾Ð»Ð¾Ð´Ð½ÑĭÐ¹": 2888,
      "ÑĥÐ³Ð¾Ð»": 2889,
      "Ð³ÑĢÐµÐ²Ð°ÑĤÐµÐ»ÑĮ": 2890,
      "Ð¾Ð¿Ð¾Ð»Ð½Ð¸ÑĤÐµÐ»ÑĮÐ½ÑĭÐ¹": 2891,
      "ĠÐ¼Ð°Ð½": 2892,
      "64": 2893,
      "Ġal": 2894,
      "Ð¸Ð²Ð°ÐµÐ¼Ð¾ÑģÑĤÑĮ": 2895,
      "Ġ003": 2896,
      "op": 2897,
      "ĠÐ¾ÑĩÐ¸ÑģÑĤÐºÐ°": 2898,
      "ÐµÐºÑĤÐ¾ÑĢ": 2899,
      "ĠÑĤÑĢÐµÑħÑģÐ»Ð¾Ð¹Ð½ÑĭÐ¹": 2900,
      "Ġdmf": 2901,
      "ĠÐ¿Ð°ÑĤ": 2902,
      "47": 2903,
      "Ġ2400": 2904,
      "Ð¾Ð¿ÑĢÐ¾Ð²Ð¾Ð´Ð½ÑĭÐ¹": 2905,
      "ÐµÐ³ÑĥÐ»Ð¸ÑĢÑĥ": 2906,
      "ÑĳÐ½ÐºÐ°": 2907,
      "ĠÐºÐ´": 2908,
      "Ð¸ÑĢÐ¾Ð²Ð°Ð½Ð¸Ðµ": 2909,
      "ĠÑĩÐµÑĤ": 2910,
      "Ġsi": 2911,
      "Ġ2008": 2912,
      "bon": 2913,
      "ĠÐ´Ð¾Ð¿Ð¾Ð»Ð½Ð¸ÑĤÐµÐ»ÑĮÐ½ÑĭÐ¹": 2914,
      "Ġpipe": 2915,
      "Ð¾Ð¿ÑĢÐ¾ÑĩÐ½ÑĭÐ¹": 2916,
      "Ð·Ð°Ð¶Ð¸Ð¼": 2917,
      "ĠÑħÐ¸Ð¼Ð¸ÑĩÐµÑģÐºÐ¸Ð¹": 2918,
      "ne": 2919,
      "Ð¾Ð½Ð°Ð³ÑĢÐµÐ²Ð°ÑĤÐµÐ»ÑĮ": 2920,
      "Â±": 2921,
      "ÐµÑĤÑĩÐ°ÑĤÑĭÐ¹": 2922,
      "Ð¿Ð°Ð·Ð¾Ð½": 2923,
      "ĠÑĨÐ¾Ðº": 2924,
      "Ð¾Ð´ÐµÑĨ": 2925,
      "ĠÐ´Ð¸Ð°Ð¿Ð°Ð·Ð¾Ð½": 2926,
      "Ġ135": 2927,
      "ÐµÑĢÐ°Ð¼": 2928,
      "ÑĨÐµÐ¿": 2929,
      "ĠÐ¼ÐµÐ»": 2930,
      "Ð¼ÐµÑĤÐºÐ°": 2931,
      "ĠÐ¿ÑĢÐ¸ÑģÐ¾ÐµÐ´Ð¸Ð½Ð¸ÑĤÐµÐ»ÑĮÐ½ÑĭÐ¹": 2932,
      "07": 2933,
      "Ġcarbon": 2934,
      "ĠÐ³ÐµÑĢÐ¼ÐµÑĤÐ¸ÑĩÐ½Ð¾ÑģÑĤÑĮ": 2935,
      "49": 2936,
      "Ð»Ð¸ÑģÑĤ": 2937,
      "Ġ130": 2938,
      "ĠÐºÑĥÐ³": 2939,
      "ĠÐ´Ð¸ÑģÑĤ": 2940,
      "ack": 2941,
      "ĠiÐ½": 2942,
      "ĠÐ¼ÑĥÐ»Ð»Ð¸ÑĤÐ¾Ðº": 2943,
      "ĠÑģÐ²Ð°ÑĢÐ¸Ð²Ð°ÐµÐ¼Ð¾ÑģÑĤÑĮ": 2944,
      "51": 2945,
      "ÐºÐ±": 2946,
      "ÑĥÐ½Ð´Ð°Ð¼": 2947,
      "Ð°ÑĤÐ¸Ð²Ð½ÑĭÐ¹": 2948,
      "Ġang": 2949,
      "ĠÑģÐ¿Ð»": 2950,
      "Ð²ÐµÐ½Ð½ÑĭÐ¹": 2951,
      "ĠÑĦÐ°ÑģÐ°Ð´": 2952,
      "ĠÐ·Ð°ÑģÐ»Ð¾Ð½ÐºÐ°": 2953,
      "ĠÐ¾ÑĤÐ½Ð¾ÑģÐ¸ÑĤÐµÐ»ÑĮÐ½ÑĭÐ¹": 2954,
      "ĠÐ²ÑĭÑĤÑıÐ¶Ð½Ð¾Ð¹": 2955,
      "ĠÐºÐµÑĢÐ°Ð¼": 2956,
      "Ġ41": 2957,
      "ÑģÐºÐ¾Ð±Ð°": 2958,
      "ÑģÐ¾ÐµÐ´Ð¸Ð½Ð¸ÑĤÐµÐ»ÑĮ": 2959,
      "450": 2960,
      "ÐµÐ½Ð¸Ñı": 2961,
      "Ġangle": 2962,
      "ÐµÐ·ÐºÐ°": 2963,
      "ÐºÑĤÐ¸Ð²Ð½ÑĭÐ¹": 2964,
      "Ð²ÐµÑĢ": 2965,
      "ĠÐ¿Ð¾Ð»Ð½": 2966,
      "Ð¼Ð¾Ð´Ñĥ": 2967,
      "ĠÐ¾ÑĤÐ¼ÐµÑĤÐºÐ°": 2968,
      "Ð¸ÑĢÐ¾Ð²ÐºÐ°": 2969,
      "355": 2970,
      "ĠÑĨÐ¸Ð½ÐºÐ¾Ð²ÑĭÐ¹": 2971,
      "ied": 2972,
      "ÑīÐ°ÑĤÐµÐ»ÑĮ": 2973,
      "ĠÑįÐ¼Ð°Ð»ÑĮ": 2974,
      "Ġ2016": 2975,
      "Ð½ÑĥÑĤÑĮ": 2976,
      "ĠÐ²ÐºÐ»ÑİÑĩÐ°ÑĤÑĮ": 2977,
      "ĠÐ´Ð¸Ð°Ð¼": 2978,
      "ĠÐ°Ð»ÑİÐ¼Ð¸Ð½Ð¸Ð¹": 2979,
      "ts": 2980,
      "vation": 2981,
      "ÐµÑĢÐµÐ²": 2982,
      "73": 2983,
      "ĠÑĨÐ¾ÐºÐ¾Ð»ÑĮ": 2984,
      "ĠÑģÐ¶": 2985,
      "ĠÐ¾ÑĢÐ³Ð°Ð½": 2986,
      "ĠÐºÑĢÐ¾Ð²ÐµÐ»ÑĮÐ½ÑĭÐ¹": 2987,
      "Ð»ÑıÑĤÐ¾ÑĢ": 2988,
      "Ð²ÐµÑīÐ°ÑĤÐµÐ»ÑĮ": 2989,
      "ÐµÐ³ÑĥÐ»Ð¸ÑĢÑĥÐµÐ¼ÑĭÐ¹": 2990,
      "ĠÑĨÐ²ÐµÑĤÐ½Ð¾Ð¹": 2991,
      "Ð½Ð¶": 2992,
      "ĠÑģÑĤÐµÐ½Ð¾Ð²ÑĭÐ¹": 2993,
      "irc": 2994,
      "kc": 2995,
      "Ġ280": 2996,
      "ÐºÐ»Ð°Ð´ÐºÐ°": 2997,
      "Ġcheck": 2998,
      "Ð¾ÑģÐ¸ÑĤÐµÐ»ÑĮ": 2999,
      "ĠÑĢÐµÐ»Ðµ": 3000,
      "ÐµÐºÐ¾ÑĢ": 3001,
      "ĠÐ°Ð½ÑĤÐ¸ÐºÐ¾ÑĢÑĢÐ¾Ð·Ð¸Ð¹Ð½ÑĭÐ¹": 3002,
      "Ð¼Ð¾Ð´ÑĥÐ»ÑĮ": 3003,
      "ĠÐ½Ð¸Ðº": 3004,
      "Ġpnk": 3005,
      "ĠÑĤÑĭ": 3006,
      "ĠÐ¿ÑĢÐ¾ÑĳÐ¼": 3007,
      "ĠÑģÐ¸Ð³Ð½Ð°Ð»Ð¸Ð·Ð°ÑĨÐ¸Ñı": 3008,
      "ified": 3009,
      "Ġlock": 3010,
      "ĠÑĨÐ¸Ð½ÐºÐ¾Ð½Ð°Ð¿Ð¾Ð»Ð½Ð¸ÑĤÑĮ": 3011,
      "cs": 3012,
      "ÑģÑĤÑĢÑĥÐ±": 3013,
      "ĠÐ¸Ð½Ð´": 3014,
      "ĠÐ¿Ð¾Ð´Ð²ÐµÑģÐ½Ð¾Ð¹": 3015,
      "ĠÐ´ÐµÑĢÐµÐ²": 3016,
      "ÐµÐ³Ð¾ÑĢÐ¾Ð´ÐºÐ°": 3017,
      "ĠÐºÐ¾Ð½ÑĤÑĥÑĢ": 3018,
      "Ð³ÑĢÑĥÐ½ÑĤÐ¾Ð²ÐºÐ°": 3019,
      "Ġqnc": 3020,
      "ĠÐ±ÑĭÑĤÑĮ": 3021,
      "ĠÑĪÐ¾Ð²": 3022,
      "Ð¿ÐºÐ²ÑĤ": 3023,
      "ĠÐ³Ð»ÑĥÑħÐ¾Ð¹": 3024,
      "ĠÐ²Ð»Ð°": 3025,
      "Ð°ÑĩÐ°": 3026,
      "Ġex": 3027,
      "ĠÐ·Ðº": 3028,
      "ĠÐ¼ÐµÑģÑĤÐ¾": 3029,
      "ĠÐ´Ð²ÑĥÑħÐºÐ°": 3030,
      "Ð¶Ðµ": 3031,
      "ĠÐ¿ÑĢÐµÐ´Ð¾ÑħÑĢÐ°Ð½": 3032,
      "ÑĦÑĤ": 3033,
      "ĠÑĩÑĳÑĢÐ½ÑĭÐ¹": 3034,
      "ĠÐ¿ÑĢÐ¾Ð¼ÑĭÑĪÐ»ÐµÐ½Ð½ÑĭÐ¹": 3035,
      "Ġhsl": 3036,
      "ĠÐ½ÐµÑģ": 3037,
      "ÐºÑĢÐ¾Ð½ÑĪÑĤÐµÐ¹Ð½": 3038,
      "ĠÑĤÐ°ÐºÐ¶Ðµ": 3039,
      "Ð¾ÐºÐ¾Ð²": 3040,
      "ĠÐ´ÐµÐºÐ¾ÑĢ": 3041,
      "ĠÑĤÐ·": 3042,
      "ÑĥÐ½ÐºÑĤ": 3043,
      "ÐµÑĢÐ¶Ð°ÑĤÐµÐ»ÑĮ": 3044,
      "Ð¿ÑĢÐ¾ÑħÐ¾Ð´": 3045,
      "ĠÐ²Ð¾Ð·Ð´ÐµÐ¹ÑģÑĤÐ²Ð¸Ðµ": 3046,
      "ĠÐ¿Ð°ÑĢ": 3047,
      "ĠÐ½ÐµÑĢÐµÐ³ÑĥÐ»Ð¸ÑĢÑĥÐµÐ¼ÑĭÐ¹": 3048,
      "ÑĳÐ³ÐºÐ¸Ð¹": 3049,
      "ĠÐ½Ð°ÑĢÐµÐ·ÐºÐ°": 3050,
      "ÑĨÐµÐ½ÑĤÐ½ÑĭÐ¹": 3051,
      "Ð¾Ð¿Ð°Ð»": 3052,
      "ĠÑĩÑĥÐ³ÑĥÐ½": 3053,
      "ÑĪÐ¸ÑĤÑĮ": 3054,
      "Ġcent": 3055,
      "ĠÐ±Ð¾ÐºÐ¾Ð²": 3056,
      "lete": 3057,
      "Ð»Ð¾Ð²Ð°ÑĤÐ½ÑĭÐ¹": 3058,
      "Ð·Ð¾Ð²ÑĭÐ¹": 3059,
      "Ġcomplete": 3060,
      "ÑıÐ½Ð½ÑĭÐ¹": 3061,
      "Ð¾Ð¿Ð°Ð»ÑĥÐ±": 3062,
      "Ð¸ÐµÐ½ÑĤ": 3063,
      "Ġunified": 3064,
      "57": 3065,
      "Ð»Ð¾ÑĩÐ½ÑĭÐ¹": 3066,
      "Ġcentral": 3067,
      "ĠÐºÐ¾Ñį": 3068,
      "Ð¿ÑĢÐ¾ÑħÐ¾Ð´ÐºÐ°": 3069,
      "Ð»ÑıÑĤ": 3070,
      "Ð°ÑĢÑĮÐµÑĢ": 3071,
      "Ġ190": 3072,
      "ĠÐ²Ð¾Ð´Ð¾": 3073,
      "ĠÑĤÐ²ÑĳÑĢÐ´Ð¾ÑģÑĤÑĮ": 3074,
      "ĠÐ¾Ð´Ð½Ð¾ÑıÑĢÑĥÑģÐ½ÑĭÐ¹": 3075,
      "ÑĢÑĥÐ±Ð¾Ðº": 3076,
      "ÐµÑĢÐ²": 3077,
      "Ġ105": 3078,
      "ĠÐ¼Ð»": 3079,
      "ĠÐ¾ÐºÐ¾Ð½": 3080,
      "ssure": 3081,
      "ressure": 3082,
      "ĠÐºÐ²Ð²Ð³ÑįÐ½Ð³": 3083,
      "ĠÐ¶ÑĳÑģÑĤÐºÐ¾ÑģÑĤÑĮ": 3084,
      "ĠÑĤÑĥÑĢ": 3085,
      "Ġ2001": 3086,
      "93": 3087,
      "Ġ015": 3088,
      "ÑģÑĦÐ¾ÑĢ": 3089,
      "ĠÐºÐ¾Ð½ÑĨÐµÐ½ÑĤÑĢÐ¸ÑĩÐµÑģÐºÐ¸Ð¹": 3090,
      "ĠÐ½Ð°Ð¿Ð¾Ð»ÑĮÐ½ÑĭÐ¹": 3091,
      "Ð¿Ð°ÑĩÐ¾Ðº": 3092,
      "Ġcs": 3093,
      "Ð°Ð½Ð¸Ñı": 3094,
      "Ġ2014": 3095,
      "Ð°ÑĢÐ¼Ð°ÑĤÑĥÑĢÐ½ÑĭÐ¹": 3096,
      "ĠÐ³ÐµÑĢÐ¼ÐµÑĤÐ¸Ð·Ð¸ÑĢÐ¾Ð²Ð°ÑĤÑĮ": 3097,
      "ĠÐ´ÐµÐ¹ÑģÑĤÐ²Ð¸Ðµ": 3098,
      "ĠÑĤd": 3099,
      "ĠÐ¼Ð¸Ð½ÐµÑĢÐ°Ð»Ð¾Ð²Ð°ÑĤÐ½ÑĭÐ¹": 3100,
      "Ġ46": 3101,
      "ĠÐ¼ÐµÐ¶": 3102,
      "ĠÐ¾Ð±Ð»Ð¸ÑĨÐ¾Ð²ÐºÐ°": 3103,
      "ĠÐ»ÑĳÐ³ÐºÐ¸Ð¹": 3104,
      "ĠÑĦÐ¾ÑĢ": 3105,
      "ĠÐ¼Ð¸Ð½ÑĥÑģ": 3106,
      "ÐµÐ½ÑĨ": 3107,
      "Ġgal": 3108,
      "ĠÑĢÐµÐ¶Ð¸Ð¼": 3109,
      "ĠÐ²ÐºÐ»ÑİÑĩÐ¸ÑĤÐµÐ»ÑĮÐ½Ð¾": 3110,
      "ĠÐ±ÐµÐ·Ð¾Ð¿Ð°Ñģ": 3111,
      "ĠÑĢÐ°ÑģÑĤÑĢÑĥÐ±": 3112,
      "ÑħÐ°": 3113,
      "ÑīÐ¸Ðº": 3114,
      "ge": 3115,
      "ĠÑĥÑģÐ¸Ð»Ð¸ÑĤÑĮ": 3116,
      "ÑĭÐ²Ð°ÑĤÑĮ": 3117,
      "53": 3118,
      "ĠÑģÐ°Ð»ÑĮÐ½Ð¸Ðº": 3119,
      "Ġflanges": 3120,
      "ĠÑģÐµÑĤÑĮ": 3121,
      "Ð±Ð°Ð²ÐºÐ°": 3122,
      "ÑĪÐ¸ÑĢ": 3123,
      "ĠÑĨÐµÐ»ÑĮ": 3124,
      "ĠÐ²ÑĭÑģÐ¾ÐºÐ¾Ð¿ÑĢÐ¾ÑĩÐ½ÑĭÐ¹": 3125,
      "ĠÑĢÐ°Ð·Ð²ÐµÑĤÐ²": 3126,
      "Ð½Ð¾ÑģÑĤ": 3127,
      "Ġsol": 3128,
      "ÑĥÑħÐ»": 3129,
      "ĠÑįÐ»Ð°ÑģÑĤÐ¸ÑĩÐ½ÑĭÐ¹": 3130,
      "Ð¸ÑĨÐ¸ÐµÐ½ÑĤ": 3131,
      "ÑģÑĦÐ¾ÑĢÐ¼Ð°ÑĤ": 3132,
      "Ġ09": 3133,
      "036": 3134,
      "ĠÑģÑĤÐµÐºÐ»Ð¾": 3135,
      "ĠÐ¿Ð¾Ð»Ð¾ÑģÐ¾Ð²Ð¾Ð¹": 3136,
      "ĠÐºÐ¾ÑįÑĦÑĦ": 3137,
      "Ð½ÑĮ": 3138,
      "ÑĥÐ¿Ð¾Ð»ÑĮÐ½ÑĭÐ¹": 3139,
      "ĠÑĢÐ°Ð´Ð¸ÑĥÑģ": 3140,
      "Ð²Ð½ÑĥÑĤÑĢ": 3141,
      "ĠÐºÐ¾ÑįÑĦÑĦÐ¸ÑĨÐ¸ÐµÐ½ÑĤ": 3142,
      "Ð¾ÑĩÐ½": 3143,
      "84": 3144,
      "van": 3145,
      "ĠÐ´Ð¾Ð¿ÑĥÑģÐº": 3146,
      "Ġcirc": 3147,
      "ĠÐ¿ÑĢÑĥÐ¶Ð¸Ð½Ð½ÑĭÐ¹": 3148,
      "Ġct": 3149,
      "ĠÐ´Ð¾Ð¿ÑĥÑģÑĤ": 3150,
      "ĠÑĥÑĤÐµÐ¿Ð»": 3151,
      "ÑĭÑĩ": 3152,
      "ĠÐ¾ÑģÐ½Ð¾Ð²Ð½Ð¾Ð¹": 3153,
      "ĠÐ¾Ð¿Ð°Ñģ": 3154,
      "ĠÐ¿ÐµÑĢÐµ": 3155,
      "67": 3156,
      "Ġgalvan": 3157,
      "ĠÐ¿ÑĢÐ¾Ð²Ð¾Ð´ÐºÐ°": 3158,
      "ĠÐºÐ¾ÑĢÐ¾ÑĤ": 3159,
      "Ð°ÑģÑĤÑĮ": 3160,
      "iii": 3161,
      "ĠÑĤÑĢÐ°Ð½ÑģÐ¿": 3162,
      "ĠÐ¿Ð¾Ð²ÑĭÑģ": 3163,
      "ĠÐ¾Ð¿Ð°ÑģÐ½Ð¾ÑģÑĤÑĮ": 3164,
      "ĠÐºÐ¾Ð»Ð¿Ð°ÑĩÐ¾Ðº": 3165,
      "ĠÐ¾ÐºÐ¾Ð½ÑĨÐµÐ²": 3166,
      "ĠÐ¿Ð¾Ð²ÑĭÑģÐ¸ÑĤÑĮ": 3167,
      "ÑĥÑĪÐ¸ÑĤÐµÐ»ÑĮ": 3168,
      "Ġgalvanized": 3169,
      "ĠÐ¸Ð·Ð³Ð¸Ð±": 3170,
      "Ġ708": 3171,
      "ÑħÐ¾Ð¼ÑĥÑĤ": 3172,
      "ĠÐ¾ÐºÐ¾Ð½ÑĨÐµÐ²Ð°Ð½Ð¸Ñı": 3173,
      "Ð¾Ð²Ð°ÑĤÐµÐ»ÑĮ": 3174,
      "Ð³ÑĢÐ°Ð´": 3175,
      "ĠÐ»ÑİÐ¼Ð¸Ð½": 3176,
      "ĠÑĤÑĢÐµÑī": 3177,
      "Ġ87": 3178,
      "ÑĥÐ³Ð¾Ð»Ð¾Ðº": 3179,
      "ÑįÐ²Ð½Ð³": 3180,
      "ĠÑĩÐµÑĤÑĭÑĢ": 3181,
      "ĠÐ´ÐµÐºÐ¾ÑĢÐ°ÑĤÐ¸Ð²Ð½ÑĭÐ¹": 3182,
      "Ġ2500": 3183,
      "ĠÐ²ÑħÐ¾Ð´": 3184,
      "ĠÐºÐ¾Ð¼Ð¼": 3185,
      "ĠÐ¼Ð¾Ð¼ÐµÐ½ÑĤ": 3186,
      "ÐµÑģÑĨÐµÐ½ÑĤÐ½ÑĭÐ¹": 3187,
      "ÐºÐ°Ð½Ð°ÑĤ": 3188,
      "Ġ1250": 3189,
      "ĠÐ´Ð¸ÑĦÑĦ": 3190,
      "ĠÐ¿Ð¾Ð»Ð¾ÑģÐ°": 3191,
      "ĠÑĢÐ¾Ð·": 3192,
      "Ð¼Ð°Ð·": 3193,
      "Ġ2015": 3194,
      "eight": 3195,
      "ĠÐ»ÐµÑģÑĤÐ½Ð¸ÑĨÐ°": 3196,
      "Ð¼Ñģ": 3197,
      "ĠÑĤÑĢÐµÑīÐ¸Ð½Ð°": 3198,
      "010": 3199,
      "ÑıÑĤÑĮÑģÑı": 3200,
      "ÑīÐ¸ÑĤ": 3201,
      "ÑĨÐµÐ¼ÐµÐ½ÑĤÐ½ÑĭÐ¹": 3202,
      "ĠÐ¿Ð²Ð¿Ð½Ð³": 3203,
      "Ġthro": 3204,
      "ĠÐ²ÑĢÐµÐ¼": 3205,
      "ĠÐ·Ð°ÐºÑĢÑĭÑĤÑĮ": 3206,
      "Ġdin": 3207,
      "Ġheight": 3208,
      "248": 3209,
      "ÑĢÐ°ÑĤÑĮ": 3210,
      "161": 3211,
      "Ð¿ÑĢÐ¾Ð²": 3212,
      "ĠÐºÐ¾Ð¿": 3213,
      "Ġ750": 3214,
      "Ð³Ð¾ÑĤÐ¾Ð²": 3215,
      "ĠÑĢÐµÐ·ÐµÑĢÐ²": 3216,
      "Ġ114": 3217,
      "eral": 3218,
      "Ð¿Ð°Ð½ÐµÐ»ÑĮ": 3219,
      "ĠÐ´Ð¾Ð¿ÑĥÑģÑĤÐ¸Ð¼ÑĭÐ¹": 3220,
      "Ġ343": 3221,
      "ÐµÑģÑģÐ¸Ð²Ð½ÑĭÐ¹": 3222,
      "Ð¿ÑĢÐ¾Ð²Ð¾Ð»Ð¾ÐºÐ°": 3223,
      "Ġmin": 3224,
      "Ġlen": 3225,
      "265": 3226,
      "ns": 3227,
      "Ġ1400": 3228,
      "ĠÐºÐ¾ÑĢÐ¾ÑĤÐºÐ¸Ð¹": 3229,
      "ÐºÐ¾ÑģÑĤ": 3230,
      "Ð¾Ð³Ð°Ð·": 3231,
      "ĠÐ¿Ð¾Ð»Ð¸Ð¿ÑĢÐ¾Ð¿Ð¸Ð»ÐµÐ½": 3232,
      "Ġic": 3233,
      "ÑĢÐ°Ð´Ð¸": 3234,
      "ÑĢÐ°Ð½Ð¸Ñĩ": 3235,
      "Ð½Ð°Ñģ": 3236,
      "Ð¾Ð½Ð¾ÑģÐ¸ÑĤÐµÐ»ÑĮ": 3237,
      "ĠÐ»ÑİÐ¼Ð¸Ð½ÐµÑģÑĨÐµÐ½ÑĤÐ½ÑĭÐ¹": 3238,
      "Ġcooling": 3239,
      "ÑĤÐ¾": 3240,
      "ÐºÑĢÐµÐ¿": 3241,
      "ĠÐ³ÑĢÐ°Ð½Ð¸ÑĤÐ½ÑĭÐ¹": 3242,
      "ra": 3243,
      "ĠÑĪÑĤÑĥ": 3244,
      "wo": 3245,
      "Ð¼Ð¿": 3246,
      "ĠÐ´Ð²ÑĥÐ¿Ð¾Ð»ÑĮÐ½ÑĭÐ¹": 3247,
      "Ġse": 3248,
      "Ġmt": 3249,
      "Ð¾Ð¼Ð¾Ð³": 3250,
      "ĠÐºÐ°ÑĥÑĩ": 3251,
      "ÑĢÑıÐ´": 3252,
      "ÑıÐ³": 3253,
      "Ġ2013": 3254,
      "ĠÑģÐ¼Ð¾Ð»Ð°": 3255,
      "ĠÐ´Ð°ÑĤÑĩÐ¸Ðº": 3256,
      "Ġ52": 3257,
      "ÐµÑħÐ½Ð¸ÑĩÐµÑģÐºÐ¸Ð¹": 3258,
      "ĠÐ´Ð²ÑĥÑħÐºÐ°Ð¼ÐµÑĢÐ½ÑĭÐ¹": 3259,
      "Ġthrott": 3260,
      "Ð»ÐºÐ°": 3261,
      "ĠÐ½Ð°Ð´Ð±Ð°Ð²ÐºÐ°": 3262,
      "ĠÐ´ÐµÑĢÐµÐ²ÑıÐ½Ð½ÑĭÐ¹": 3263,
      "Ð°ÑĢÐ¸Ð¹Ð½ÑĭÐ¹": 3264,
      "Ð¾ÑıÐ½Ð¸Ðµ": 3265,
      "ĠÑģÐ¾Ð±ÑĢÐ°ÑĤÑĮ": 3266,
      "ĠÐ´Ð²ÑĥÑħÐ¿Ð¾Ð»ÑİÑģÐ½ÑĭÐ¹": 3267,
      "ÑģÐµÑĤÐºÐ°": 3268,
      "ĠÐ¿Ð»ÑĳÐ½ÐºÐ°": 3269,
      "ÑİÐ±ÐµÐ»ÑĮ": 3270,
      "ĠÑĪÐ°Ñħ": 3271,
      "Ġdoka": 3272,
      "ÑģÑĤÐ¾ÑıÐ½Ð¸Ðµ": 3273,
      "ĠÐ¾ÑĤÐ²ÐµÑĤÐ²Ð¸ÑĤÐµÐ»ÑĮÐ½ÑĭÐ¹": 3274,
      "ĠÐºÑĢÑĭ": 3275,
      "Ġli": 3276,
      "Ġro": 3277,
      "Ð¼Ð¿Ð°": 3278,
      "ĠÐ²Ð°": 3279,
      "Ð¾Ð´ÐµÑĦÐ¾ÑĢÐ¼": 3280,
      "ĠÑĢÐ°ÑģÑģÑĤÐ¾ÑıÐ½Ð¸Ðµ": 3281,
      "ĠÑħÐ¾Ð»Ð¾Ð´Ð½Ð¾Ð´ÐµÑĦÐ¾ÑĢÐ¼": 3282,
      "ĠÐ¿Ð¾ÑĤÐ¾Ðº": 3283,
      "Ð¾ÐºÐ¾Ð½": 3284,
      "Ġball": 3285,
      "ÐºÐ¾Ð¼Ð¿Ð»ÐµÐºÑĤ": 3286,
      "ÐµÐ½ÑģÐ°ÑĤÐ¾ÑĢ": 3287,
      "Ð¸ÑĤÑĮÑģÑı": 3288,
      "Ġ537": 3289,
      "Ġfree": 3290,
      "ĠÑħÐ¾Ð»Ð¾Ð´Ð½Ð¾Ð´ÐµÑĦÐ¾ÑĢÐ¼Ð¸ÑĢÐ¾Ð²Ð°Ð½Ð½ÑĭÐ¹": 3291,
      "ÑĪÐ²ÐµÐ»Ð»ÐµÑĢ": 3292,
      "ĠÐ»ÐºÐ¼": 3293,
      "94": 3294,
      "ÐµÐ½Ð½Ð¾Ð¹": 3295,
      "ĠÑĤÐµÐ¿Ð»Ð¾Ð½Ð¾ÑģÐ¸ÑĤÐµÐ»ÑĮ": 3296,
      "ĠÐ°Ð²Ð°ÑĢÐ¸Ð¹Ð½ÑĭÐ¹": 3297,
      "Ð¸ÑĤÐ°Ð½": 3298,
      "ÑĢÐ°Ð·Ð¾Ð²Ð°ÑĤÐµÐ»ÑĮ": 3299,
      "ĠÑģÐµÑĢÐ´": 3300,
      "ĠÑģÐ´": 3301,
      "ĠÐºÐ´Ð²": 3302,
      "Ð¾Ð¾Ð±": 3303,
      "ÑĨÐµÑĢ": 3304,
      "Ġ98": 3305,
      "ĠÐºÐ¸ÑģÐ»": 3306,
      "ÑĪÐ¸Ð²Ð½Ð¾Ð¹": 3307,
      "ÑĦÐ¸Ð»ÑĮÑĤÑĢ": 3308,
      "po": 3309,
      "ÐµÐ³Ð¸ÑĢÐ¾Ð²Ð°Ð½Ð½ÑĭÐ¹": 3310,
      "ĠÑĢÐ¾Ð·ÐµÑĤÐºÐ°": 3311,
      "ĠÐºÐ¾Ð»Ð¾Ð´ÐµÑĨ": 3312,
      "Ġsup": 3313,
      "Ð¸ÑĢÐ½ÑĭÐ¹": 3314,
      "ĠÐ³Ð¸Ð´ÑĢÐ°Ð²": 3315,
      "ĠÐºÐ·": 3316,
      "os": 3317,
      "Ġ550": 3318,
      "Ġ185": 3319,
      "ĠÐ³Ð»ÑĥÐ±": 3320,
      "ĠÐ»Ñģ": 3321,
      "ĠÑĨÐµÐ¿": 3322,
      "Ġ0208": 3323,
      "Ð¿ÑĥÐ½ÐºÑĤ": 3324,
      "Ð¾ÑģÑĤÐ¾Ð²": 3325,
      "Ġ69": 3326,
      "Ġcable": 3327,
      "ĠÑĥÑĩÐ°ÑģÑĤ": 3328,
      "ĠÑĢÐµÐ³ÑĥÐ»Ð¸ÑĢÐ¾Ð²": 3329,
      "Ġcor": 3330,
      "ĠÐ½ÐµÐ¾Ðº": 3331,
      "ĠÑĢÐ°ÑģÐ¿Ð¾ÑĢÐ½ÑĭÐ¹": 3332,
      "ĠÐ´Ð²ÐµÑĢÑĮ": 3333,
      "ĠÑģÐ¾ÐµÐ´Ð¸Ð½Ð¸ÑĤÐµÐ»ÑĮ": 3334,
      "Ð»Ð¸ÑĤÑĮ": 3335,
      "Ð´Ð¼": 3336,
      "ĠÐ¿ÑĢÐ¾Ð¼ÐºÐ¾Ð½": 3337,
      "Ġame": 3338,
      "ĠÑħÑĢÐ°Ð½Ð°": 3339,
      "ĠÐ¶ÑĳÑģÑĤÐºÐ¸Ð¹": 3340,
      "ÐµÐ½Ð°Ð¶Ð½ÑĭÐ¹": 3341,
      "ĠÐ¿Ð°ÑĤÑĢÑĥÐ±Ð¾Ðº": 3342,
      "Ġ4180": 3343,
      "ĠÑĨÐ¸ÐºÐ»": 3344,
      "ĠÐºÐ°ÑĥÑĩÑĥÐº": 3345,
      "ĠÐ¿ÑĢÐ¾Ð¼ÐºÐ¾Ð½ÑĤÑĥÑĢ": 3346,
      "ta": 3347,
      "Ð¾Ð¼Ð¾Ð³Ð°ÑĤÐµÐ»ÑĮÐ½ÑĭÐ¹": 3348,
      "Ġind": 3349,
      "Ð²Ð¾Ð»": 3350,
      "ÐµÑģÑĤÐ²ÐµÐ½Ð½ÑĭÐ¹": 3351,
      "ĠÑģÐ²Ð¸Ð²ÐºÐ°": 3352,
      "Ġ74": 3353,
      "56": 3354,
      "ĠÐ¿Ð°ÑĢÐ½ÑĭÐ¹": 3355,
      "ÑįÐ»ÐµÐ¼ÐµÐ½ÑĤ": 3356,
      "Ð¸Ð·Ð¾Ð»ÑıÑĤÐ¾ÑĢ": 3357,
      "ox": 3358,
      "tp": 3359,
      "ÑĢÐ¾ÑĤ": 3360,
      "Ð¿Ð¾Ð´": 3361,
      "Ġ53769": 3362,
      "ution": 3363,
      "ĠÐ¿Ð¾Ð»Ð¸ÑĥÑĢÐµÑĤÐ°Ð½Ð¾Ð²ÑĭÐ¹": 3364,
      "ÑĢÐ°ÑĪÐµÐ½Ð½ÑĭÐ¹": 3365,
      "ĠÐºÐ»Ðµ": 3366,
      "ĠÐ³Ð¸Ð´ÑĢÐ°Ð²Ð»Ð¸ÑĩÐµÑģÐºÐ¸Ð¹": 3367,
      "ĠÐ½ÐµÐ¾ÐºÑĢÐ°ÑĪÐµÐ½Ð½ÑĭÐ¹": 3368,
      "ÑĢÐ°Ð´Ð¸Ð°ÑĤÐ¾ÑĢ": 3369,
      "ĠÐ²Ð¾Ð´Ð¾ÑģÐ½Ð°Ð±Ð¶ÐµÐ½Ð¸Ðµ": 3370,
      "39": 3371,
      "Ð½Ð¸ÑģÑĤÑĭÐ¹": 3372,
      "ÐµÐ³Ð°ÑĤ": 3373,
      "ÑĩÑĳÑĤÐ½ÑĭÐ¹": 3374,
      "Ð¾Ð½ÐºÐ°": 3375,
      "ĠÑĢÑĥÐ»Ð¾Ð½Ð½ÑĭÐ¹": 3376,
      "ĠÐ²ÑģÐ¿Ð¾Ð¼Ð¾Ð³Ð°ÑĤÐµÐ»ÑĮÐ½ÑĭÐ¹": 3377,
      "Ġthrottle": 3378,
      "Ð·ÐµÐ¼Ð½ÑĭÐ¹": 3379,
      "ĠÐ¾Ð³ÑĢÐ°Ð½Ð¸Ñĩ": 3380,
      "Ð±ÑĢÐ°Ð½Ð°": 3381,
      "ĠÑĨÐµÐ¿ÑĮ": 3382,
      "Ġsw": 3383,
      "ÐµÑĩÑĮ": 3384,
      "ĠÐ¾Ð±Ð»Ð¸ÑĨÐ¾Ð²Ð¾ÑĩÐ½ÑĭÐ¹": 3385,
      "ĠÐ¿ÑĢÐ¾ÑĪÐ¸Ð²Ð½Ð¾Ð¹": 3386,
      "ĠÐ¼ÐµÐ´ÑĮ": 3387,
      "Ð³ÐµÑĢÐ¼ÐµÑĤ": 3388,
      "3000": 3389,
      "Ð¸ÑĢÐºÐ°": 3390,
      "Ġdeg": 3391,
      "ÑĢÐµÐ´Ð°": 3392,
      "ĠÐµÑĢ": 3393,
      "025": 3394,
      "ĠÐ¼Ð°Ñģ": 3395,
      "ĠÐ»Ðº": 3396,
      "ĠÐ±ÐºÐ·": 3397,
      "ĠÑģÐ²Ð°ÑĢÐ¸ÑĤÑĮ": 3398,
      "ĠÐ´Ð²ÑĥÑĤÐ°Ð²ÑĢ": 3399,
      "Ð¸ÑģÑĤÐ¸ÑĢ": 3400,
      "rosion": 3401,
      "Ġconnec": 3402,
      "Ġdegree": 3403,
      "Ð´Ð²Ð¸Ñĩ": 3404,
      "ĠÑģÐ²ÑıÐ·Ð°ÑĤÑĮ": 3405,
      "Ð°Ð´ÐºÐ°": 3406,
      "nsn": 3407,
      "194": 3408,
      "ĠÑĢÐµÐ´": 3409,
      "ĠÐ¿ÑĢÐ¾ÑħÐ¾Ð´Ð½Ð°Ñı": 3410,
      "Ð²Ð½ÑĥÑĤÑĢÐ¾": 3411,
      "220": 3412,
      "ĠÑĥÐ¿Ð»Ð¾ÑĤÐ½Ð¸ÑĤÐµÐ»ÑĮÐ½ÑĭÐ¹": 3413,
      "ĠÑģÐµÑĢÑĭÐ¹": 3414,
      "Ġra": 3415,
      "Ð¾ÑĤÐºÐ°Ð½ÑĮ": 3416,
      "Ð´Ð½ÑĭÐ¹": 3417,
      "ĠÑģÑĤÐ²Ð¾Ð»": 3418,
      "ĠÐ¾Ð´Ð½Ð¾ÑģÑĤÐ¾ÑĢÐ¾Ð½Ð½Ð¸Ð¹": 3419,
      "ĠÑĢÐ°ÑģÑĩÑĳÑĤÐ½ÑĭÐ¹": 3420,
      "mair": 3421,
      "ÑĨÐµÐ¿Ð¸ÑĤÐµÐ»ÑĮ": 3422,
      "ĠÐ°Ð¼Ð°": 3423,
      "ĠÐ¾Ð¿Ñģ": 3424,
      "ĠÐ´ÑĢÐµÐ½Ð°Ð¶Ð½ÑĭÐ¹": 3425,
      "ster": 3426,
      "ÑĥÐ²ÑģÑĤÐ²Ð¸ÑĤÐµÐ»ÑĮÐ½ÑĭÐ¹": 3427,
      "pl": 3428,
      "Ð¾Ð»Ð¸ÑĤÑĮ": 3429,
      "ĠÐ°Ð³ÑĢÐµÑģÑģÐ¸Ð²Ð½ÑĭÐ¹": 3430,
      "ĠÐ¿ÐµÑĢÐµÐ´": 3431,
      "ĠÐ¿Ð¿Ð³Ð½Ð³": 3432,
      "ÑįÐ½Ð´Ð²Ð¸Ñĩ": 3433,
      "ÑģÑĤÐ¸ÐºÐ°": 3434,
      "ust": 3435,
      "Ġter": 3436,
      "ÑģÐ»ÑĥÐ¶": 3437,
      "ĠÐ¾Ð¿Ð°": 3438,
      "Ð¾Ð½Ð¸ÑĨÐ°": 3439,
      "ĠÐºÐ¾Ð½ÑĤÑĢÐ³Ð°Ð¹ÐºÐ°": 3440,
      "ĠÐ²Ð²ÐµÑĢÑħ": 3441,
      "46": 3442,
      "ĠÐºÑĥÐ¿": 3443,
      "Ð¼Ð°ÑĤÐµÑĢÐ¸Ð°Ð»": 3444,
      "ĠÑĢÐ°ÑģÑĨÐµÐ¿Ð¸ÑĤÐµÐ»ÑĮ": 3445,
      "ÐºÐ¾Ð»ÑĮÑĨÐ¾": 3446,
      "rom": 3447,
      "ÑĥÐ»ÑĮÑĤ": 3448,
      "Ġsystemair": 3449,
      "ÑĪÐ¿Ð¸Ð»ÑĮÐºÐ°": 3450,
      "ĠÑĨÐ¸Ð½": 3451,
      "Ð¿Ð¿Ð°ÑĢ": 3452,
      "ĠÐ¿Ð¾Ð»Ð½Ð¾Ð¿ÑĢÐ¾ÑħÐ¾Ð´Ð½Ð°Ñı": 3453,
      "ĠÐ¿Ð¾Ð¿ÐµÑĢ": 3454,
      "Ð¸Ð½ÐµÐ»": 3455,
      "is": 3456,
      "ĠÐºÐ»Ð°Ð´": 3457,
      "Ð¾Ð¼Ð¾Ð´": 3458,
      "ĠÑĩÐ°ÑģÑĤÐ¾ÑĤÐ°": 3459,
      "Ġflex": 3460,
      "ÑĥÐ·": 3461,
      "Ġpipelines": 3462,
      "Ġloe": 3463,
      "Ð´ÐµÑĢÐ¶Ð¸Ð²Ð°ÑĤÑĮ": 3464,
      "Ð¾ÑĤÐ¾Ð²ÑĭÐ¹": 3465,
      "ĠÐºÐ¾Ð½ÑģÑĤÑĢÑĥÐº": 3466,
      "ÑĥÐ¼Ñĥ": 3467,
      "Ð¼ÐµÐ½ÑĮ": 3468,
      "Ð°ÑĤÐ¸ÑĩÐµÑģÐºÐ¸Ð¹": 3469,
      "ĠÑĢÐ¿": 3470,
      "Ġfrom": 3471,
      "ĠÑĢÑĥÑĩÐºÐ°": 3472,
      "less": 3473,
      "ja": 3474,
      "ard": 3475,
      "ak": 3476,
      "Ġback": 3477,
      "ĠÐ±ÑĢÐ¸Ð½ÐµÐ»": 3478,
      "ĠÐ±ÑĢÐ¸Ð½ÐµÐ»Ð»Ñı": 3479,
      "003": 3480,
      "ĠÑģÑĤÐ´": 3481,
      "Ġwid": 3482,
      "Ð¾Ð³Ð½ÑĥÑĤÑĭÐ¹": 3483,
      "Ġwidth": 3484,
      "Ġy": 3485,
      "Ð»Ð¸Ð²Ð°ÑĤÑĮ": 3486,
      "ÑĥÑģÑĤÑĢÐ¾Ð¹ÑģÑĤÐ²Ð¾": 3487,
      "ÐºÑĢÐ¸Ð»": 3488,
      "ĠÐ³ÑĢÐµÑĤÑĮ": 3489,
      "ĠÐ¿Ð¾ÑĢÑĤ": 3490,
      "ĠÐ±Ñģ": 3491,
      "26161": 3492,
      "end": 3493,
      "ĠÑģÐ¿Ð»Ð¾ÑĪ": 3494,
      "ĠÐºÐµÑĢÐ°Ð¼Ð¸ÑĩÐµÑģÐºÐ¸Ð¹": 3495,
      "ĠÑģÑĤÐµÐºÐ»Ð¾ÑĤÐºÐ°Ð½ÑĮ": 3496,
      "ĠÑĤÐ²ÑĳÑĢÐ´ÑĭÐ¹": 3497,
      "ÑĢÐ¾Ð·ÐµÑĤÐºÐ°": 3498,
      "90194": 3499,
      "ĠÑĪÐ°ÑĢÐ¾Ð²ÑĭÑı": 3500,
      "ĠÐ¿Ð¾Ð·Ð¸ÑĨÐ¸Ñı": 3501,
      "ĠÑĦÑĥÐ½Ð´Ð°Ð¼": 3502,
      "ĠÐ³ÐµÑĢÐ¼ÐµÑĤÐ¸Ðº": 3503,
      "ÑįÐ¼Ð°Ð»ÑĮ": 3504,
      "ĠÐ¾Ð±ÐµÑģÑģ": 3505,
      "ĠÐ¼ÐµÑĤÐ¸Ð·": 3506,
      "ĠrÐ²Ð½ÑĥÑĤÑĢÐ¾": 3507,
      "ĠÐºÐ¾Ð½ÑģÑĤÑĢÑĥÐºÑĨÐ¸Ð¾Ð½Ð½ÑĭÐ¹": 3508,
      "Ð½Ð°Ð¿": 3509,
      "Ð·Ð°ÑģÐ»Ð¾Ð½ÐºÐ°": 3510,
      "Ð¸ÑĨÐ¸Ð¾Ð½": 3511,
      "ĠÐºÐ¿Ñĥ": 3512,
      "Ġpressure": 3513,
      "ÐµÐ´Ð¸Ð½Ð¸ÑĤÐµÐ»ÑĮ": 3514,
      "ĠÑĥÐ´Ð»Ð¸Ð½Ð¸ÑĤÑĮ": 3515,
      "ĠÑģÐ¸Ð»Ð¸": 3516,
      "ĠÐ¾ÑĤÐ¾Ð¿Ð»ÐµÐ½Ð¸Ðµ": 3517,
      "ÑĤÐ°Ð½Ð¸Ðµ": 3518,
      "ĠÑĦÐ°Ð»ÑĮ": 3519,
      "Ġ34390194": 3520,
      "ĠÑĦÐ»Ð¾Ðº": 3521,
      "Ġ133": 3522,
      "ĠÐ¾Ð±ÐµÑģÑģÐ¾Ð»Ð¸ÑĤÑĮ": 3523,
      "ÐµÐ½Ð¾Ñĩ": 3524,
      "Ð¾Ð²Ð¾Ð´Ð¾Ðº": 3525,
      "ĠÐ¿Ð¾Ð²Ð¾Ð´Ð¾Ðº": 3526,
      "Ð»Ð¸ÑĦ": 3527,
      "ĠÐ¿ÑĢÐ¸Ð»": 3528,
      "Ġsolution": 3529,
      "Ġ050": 3530,
      "Ġ102": 3531,
      "ĠÐ¸Ð·Ð¼ÐµÑĢÐµÐ½Ð¸Ðµ": 3532,
      "1200": 3533,
      "ĠÑĤÐ¾ÑĢÑĨÐµÐ²Ð¾Ð¹": 3534,
      "ĠÑĦÐ»Ð¾ÐºÐµÐ½Ð¾Ñĩ": 3535,
      "ĠÐ¾Ð±ÑģÐ»ÑĥÐ¶": 3536,
      "015": 3537,
      "Ð¾ÑĤÐ²ÐµÑĤ": 3538,
      "ĠÐ¾ÑĢÐ¾": 3539,
      "Ġrw": 3540,
      "ÑĢÑĥÑģ": 3541,
      "704": 3542,
      "Ð±ÑĪ": 3543,
      "Ð¾Ð¿Ð»Ð°ÑģÑĤ": 3544,
      "ĠÐ¾Ð³ÑĢÐ°Ð½Ð¸ÑĩÐµÐ½Ð¸Ðµ": 3545,
      "ĠÑģÑĪÐ¸ÑĤÑĮ": 3546,
      "Ð¼Ð°Ð·Ð¾ÑĩÐ½ÑĭÐ¹": 3547,
      "Ġtg": 3548,
      "Ġ010": 3549,
      "ĠcÑĢÐµÐ´Ð°": 3550,
      "ĠÐ¾ÑĢÐ¾ÑĪÐµÐ½Ð¸Ðµ": 3551,
      "ĠÐ¼Ð¿": 3552,
      "ĠÐ´ÑĢÐµÐ²": 3553,
      "76": 3554,
      "ÑĬÐµÐ´Ð¸Ð½Ð¸ÑĤÐµÐ»ÑĮ": 3555,
      "Ġmaster": 3556,
      "Ð¸ÑĤÐ¾Ð²ÑĭÐ¹": 3557,
      "ĠÐ»Ð¸Ð½ÐµÐ¹Ð½ÑĭÐ¹": 3558,
      "ĠÑĦÐ°ÑģÐ°Ð´Ð½ÑĭÐ¹": 3559,
      "ĠÑĨÐµÐ»ÑĮÐ½": 3560,
      "ĠÑĳ": 3561,
      "ĠÐ°ÐºÐº": 3562,
      "der": 3563,
      "Ð¼Ð¾ÑĤÐºÐ°": 3564,
      "Ð¸Ð·Ð¾Ð³Ð½ÑĥÑĤÑĭÐ¹": 3565,
      "Ð¼ÐµÑģÑĤ": 3566,
      "ĠÐºÑĢÑĥÑĤÐ¾": 3567,
      "ĠÐºÑĢÑĥÑĤÐ¾Ð¸Ð·Ð¾Ð³Ð½ÑĥÑĤÑĭÐ¹": 3568,
      "ĠÐ´ÐµÑĦ": 3569,
      "ÑģÑĦÐ¾ÑĢÐ¼Ð°ÑĤÐ¾ÑĢ": 3570,
      "Ġflanged": 3571,
      "ĠÐ»Ð°ÐºÐ¾ÐºÑĢÐ°ÑģÐ¾ÑĩÐ½": 3572,
      "ĠÐ²Ð½Ð¸Ð·": 3573,
      "ĠÐ¾Ð±ÑģÐ»ÑĥÐ¶Ð¸Ð²Ð°Ð½Ð¸Ðµ": 3574,
      "of": 3575,
      "ÑĥÐ°Ð»ÑĮÐ½ÑĭÐ¹": 3576,
      "Ð¾ÑĤÐ°ÑĤÑĮ": 3577,
      "ÐºÐ¸": 3578,
      "ĠÐ¸Ð·Ð±": 3579,
      "ĠÑĤÑĢÑĥÐ±ÑĩÐ°ÑĤÑĭÐ¹": 3580,
      "ĠÑĥÑĩÐ°ÑģÑĤÐ¾Ðº": 3581,
      "ĠÐ¿ÑĢÐ¾Ð²Ð¾Ð´Ð½Ð¸Ðº": 3582,
      "ĠÑĢÑĢ": 3583,
      "Ð°ÑİÑīÐ¸Ð¹": 3584,
      "ÑĭÑĤÐ°Ð½Ð¸Ðµ": 3585,
      "Ð¸ÑĢÐ°ÑĤÑĮ": 3586,
      "ĠÑģÐ¾ÑĢÑĤÐ°": 3587,
      "ÑĥÐ½Ð´Ð¾Ð²ÑĭÐ¹": 3588,
      "Ġte": 3589,
      "ÑĢÐ°ÑģÐºÐ°": 3590,
      "ÑĭÑĤÐ¾ÑĩÐ½ÑĭÐ¹": 3591,
      "ĠÐ¸Ð·Ð±ÑĭÑĤÐ¾ÑĩÐ½ÑĭÐ¹": 3592,
      "Ð¿ÑĢÐµÑģÑģ": 3593,
      "itch": 3594,
      "ÐºÑĤÐ¾ÑĢ": 3595,
      "ĠÑģÐ¾Ð¾ÑĤÐ²ÐµÑĤ": 3596,
      "ĠÐ¾ÑĤÐ¾Ð¿Ð¸ÑĤÐµÐ»ÑĮÐ½ÑĭÐ¹": 3597,
      "Ġcorrosion": 3598,
      "ĠÑģÐ¿Ð»Ð¾ÑĪÐ½Ð¾Ð¹": 3599,
      "ĠÐ´ÑĢÐµÐ²ÐµÑģ": 3600,
      "ĠÐ²Ð¾Ð´Ð¾Ð³Ð°Ð·": 3601,
      "Ġ355": 3602,
      "Ġdkc": 3603,
      "ĠÐ½Ð°ÑģÐ¾Ñģ": 3604,
      "ainless": 3605,
      "ĠÐ²Ð¾Ð´Ð¾Ð³Ð°Ð·Ð¾Ð¿ÑĢÐ¾Ð²Ð¾Ð´Ð½ÑĭÐ¹": 3606,
      "ĠÑĢÐµÑĪ": 3607,
      "ĠÑĢÐ¸ÑĦ": 3608,
      "ĠÑģÐ¾ÑĢÑĤÐ°Ð¼ÐµÐ½ÑĤ": 3609,
      "ĠÐ¾ÑĤÐ´ÐµÐ»ÐºÐ°": 3610,
      "Ġstainless": 3611,
      "ĠÑĥÑģÐ¸Ð»Ð¸Ðµ": 3612,
      "ial": 3613,
      "ÐµÐ½Ð¾": 3614,
      "ĠÐ¸Ð·Ð¼ÐµÑĢÐ¸ÑĤÐµÐ»ÑĮÐ½ÑĭÐ¹": 3615,
      "ĠÑģÐ¿ÐµÑĨÐ¸Ð°Ð»ÑĮÐ½ÑĭÐ¹": 3616,
      "Ð²ÐµÐºÑĤÐ¾ÑĢ": 3617,
      "Ð¾Ð³ÑĢÐ°Ð¶Ð´ÐµÐ½Ð¸Ðµ": 3618,
      "ÐºÐ°Ð¼ÐµÑĢÐ°": 3619,
      "Ġ225": 3620,
      "140": 3621,
      "ĠÑĦÐ°": 3622,
      "Ġswitch": 3623,
      "ÑĢÑĥÐºÐ°Ð²": 3624,
      "ĠÐ°Ð²ÑĤÐ¾Ð¼Ð¾Ð±": 3625,
      "Ð¼ÐµÑĤÐ°": 3626,
      "ĠÐºÐ¾Ð¼Ð¿Ð»ÐµÐº": 3627,
      "ĠÐ¿Ð¾Ð³ÑĢÑĥÐ¶ÐµÐ½Ð¸Ðµ": 3628,
      "Ġlocking": 3629,
      "Ġtermin": 3630,
      "ĠÑĢÐµÑĪÐµÑĤÑĩÐ°ÑĤÑĭÐ¹": 3631,
      "ĠÐ¼Ð¾ÑģÑĤ": 3632,
      "103": 3633,
      "Ð»Ð¸ÑĩÐ½ÑĭÐ¹": 3634,
      "Ð¾Ð¿Ð¾Ð»ÑİÑģÐ½ÑĭÐ¹": 3635,
      "ĠÑĪÑĥÑĢÑĥÐ¿": 3636,
      "ĠÐ½Ð¾Ð¼ÐµÑĢ": 3637,
      "ĠÑħÐ²Ð¾ÑģÑĤÐ¾Ð²": 3638,
      "Ð»Ð¸Ð·Ð¾Ð²Ð°ÑĤÑĮ": 3639,
      "ĠÑħÐ²Ð¾ÑģÑĤÐ¾Ð²Ð¸Ðº": 3640,
      "315": 3641,
      "ÐºÐ°ÑĤ": 3642,
      "Ð¸Ð·Ð½Ð°": 3643,
      "urpo": 3644,
      "Ġpo": 3645,
      "ĠÐ±Ð°Ð»ÐºÐ°": 3646,
      "urpose": 3647,
      "ĠÐ¾Ð±Ð¾Ð·": 3648,
      "ĠÑĨÐµÐ¼ÐµÐ½ÑĤ": 3649,
      "dm": 3650,
      "ĠÐ¿ÑĢÐ¾Ð½Ð¸Ðº": 3651,
      "58": 3652,
      "ĠÑģÐ¿Ð¸": 3653,
      "Ġ1800": 3654,
      "ĠÐ¾Ð´Ð½Ð¾Ð¿Ð¾Ð»ÑİÑģÐ½ÑĭÐ¹": 3655,
      "osite": 3656,
      "Ġcomposite": 3657,
      "ĠÐ¼ÐµÑĤÐ¾Ð´": 3658,
      "ĠÐ¿ÑĢÐ¾ÑĤ": 3659,
      "ÑĨÐ¸Ð¾Ð½Ð½Ð¾ÑģÑĤÐ¾Ð¹ÐºÐ¸Ð¹": 3660,
      "Ð»ÑİÑĩÐ°ÑĤÐµÐ»ÑĮ": 3661,
      "ĠÐ¾Ð±Ð¾Ð·Ð½Ð°ÑĩÐµÐ½Ð¸Ðµ": 3662,
      "ĠÐ¿Ð¾Ð¼Ðµ": 3663,
      "Ð°Ð½Ð¾Ð²ÐºÐ°": 3664,
      "ĠÐ¿ÑĢÐµÐ´Ð½Ð°": 3665,
      "Ð¾ÐºÑĢÑĭÑĤÐ¸Ðµ": 3666,
      "Ġ64": 3667,
      "ĠÑģÐ°Ð¼Ð¾ÑĢ": 3668,
      "ĠÐ°ÑĢÐºÑĤ": 3669,
      "Ð¾Ð´ÐµÑĢÐ¶Ð°ÑĤÑĮ": 3670,
      "Ð½Ð°Ðº": 3671,
      "ĠÐ¿ÑĢÐ¾ÑģÑĤÑĢÐ°Ð½": 3672,
      "Ġitr": 3673,
      "Ð¸ÑĤÑĮÐµÐ²Ð¾Ð¹": 3674,
      "Ġral": 3675,
      "Ð¸ÑģÑĤÐ¸ÑĢÐ¾Ð»": 3676,
      "Ð¾Ð½ÐµÐ¿ÑĢ": 3677,
      "Ð¸Ð¿Ð¿": 3678,
      "ĠÐ±Ð°ÑĢÑĮÐµÑĢ": 3679,
      "ĠÐ³Ð°Ð·Ð¾Ð²ÑĭÐ¹": 3680,
      "Ġterminal": 3681,
      "Ġ62": 3682,
      "Ġ10000": 3683,
      "ĠÐºÐ¾Ð½ÑĤÑĢÐ¾Ð»Ð¸ÑĢÐ¾Ð²Ð°ÑĤÑĮ": 3684,
      "ĠÐ¶Ð°Ð»ÑİÐ·Ð¸Ð¹Ð½ÑĭÐ¹": 3685,
      "ĠÐ¿Ð¾Ð¼ÐµÑīÐµÐ½Ð¸Ðµ": 3686,
      "Ġsm": 3687,
      "ann": 3688,
      "ub": 3689,
      "Ð½Ð°ÑģÐ¾Ñģ": 3690,
      "ĠÐ´Ð¸": 3691,
      "ĠÂł": 3692,
      "ĠÐ¿Ð»Ð¾ÑīÐ°Ð´ÐºÐ°": 3693,
      "ers": 3694,
      "ĠÑĥÐ´Ð°ÑĢÐ½ÑĭÐ¹": 3695,
      "ĠÐ¸Ð½ÐµÑĢ": 3696,
      "Ð´Ð¾ÑģÐºÐ°": 3697,
      "ĠÐ¾Ð¿Ð°Ð»ÑĥÐ±": 3698,
      "ĠÑģÑĤÐ°ÐºÐ°Ð½": 3699,
      "ÑĥÑģÑĤÐ¾ÑĤÐ½ÑĭÐ¹": 3700,
      "Ð¸Ð²Ð¸Ð´": 3701,
      "ĠÐ²ÑĭÐ¿ÑĥÑģÐº": 3702,
      "ÐºÐ¾Ð½ÑģÑĤÑĢÑĥ": 3703,
      "ĠÐ°Ð´": 3704,
      "ÐµÐ»ÑĮÑģ": 3705,
      "ĠÐ¾ÑĨ": 3706,
      "ĠÐ·Ð°Ð´Ð²Ð¸Ð¶ÐºÐ°": 3707,
      "ĠÐºÐ°Ð¶Ð´": 3708,
      "Ð¾Ð±Ð»Ð¾Ðº": 3709,
      "ĠÐºÐ°Ð¶Ð´ÑĭÐ¹": 3710,
      "Ð¸Ð»Ð¸ÑĢÐ¾Ð²Ð°ÑĤÑĮ": 3711,
      "ÐºÐ²ÑĤÐ¿": 3712,
      "Ð²ÑĥÐº": 3713,
      "ÐµÑĢÐµÐ½ÑĨ": 3714,
      "ĠÑĪÐ°ÑħÑĤÐ°": 3715,
      "Ð¸Ð²Ð¸Ð´ÑĥÐ°Ð»ÑĮÐ½ÑĭÐ¹": 3716,
      "78": 3717,
      "ÐºÐ°Ð½Ð¸Ðµ": 3718,
      "ĠÐ²ÑĭÐ²Ð¾Ð´": 3719,
      "ÑĭÑĩÐºÐ°": 3720,
      "ÐºÐ¾Ð½ÑģÑĤÑĢÑĥÐºÑĤÐ¸Ð²Ð½ÑĭÐ¹": 3721,
      "ÑħÐ¾Ð»": 3722,
      "Ġiv": 3723,
      "ĠÑĤÑĢÑĥÐ±Ð¾Ð¿ÑĢÐ¾Ð²Ð¾Ð´Ð½ÑĭÐ¹": 3724,
      "ĠÐ¾Ð´Ð½Ð¾Ð¿ÑĢÐ¾Ð²Ð¾Ð»Ð¾ÑĩÐ½ÑĭÐ¹": 3725,
      "ĠÐ³ÑĢÑĥÐ½ÑĤÐ¾Ð²ÐºÐ°": 3726,
      "ĠÐ³Ðµ": 3727,
      "Ġ85": 3728,
      "Ð°Ð»Ð¾Ð³": 3729,
      "ĠÐºÐ¾Ð½Ð´ÐµÐ½Ñģ": 3730,
      "Ð¼Ð°Ð½": 3731,
      "ĠÐ´Ð¾Ð±": 3732,
      "ĠÐºÑĢÐ¸Ð²Ð°": 3733,
      "Ġkv": 3734,
      "ĠÐºÑĢÐ¸Ð²Ð°Ñı": 3735,
      "ÐµÐ¼ÑĭÑĩÐºÐ°": 3736,
      "Ġno": 3737,
      "ĠÑĤÑĭÑģ": 3738,
      "230": 3739,
      "Ġactivation": 3740,
      "ĠÐ°Ð¼Ð¿Ð»": 3741,
      "Ð¾ÐºÐ¾Ð½ÑģÑĤÑĢÑĥÐºÑĨÐ¸Ñı": 3742,
      "ĠÐ²Ðº": 3743,
      "Ġ44": 3744,
      "ĠÐ¾Ð³Ð½ÐµÐ·": 3745,
      "ĠÐ°ÐºÑĢÐ¸Ð»": 3746,
      "ĠÑģÑĤÐ²Ð¾ÑĢ": 3747,
      "ĠÐ°Ð¼Ð¿Ð»Ð¸ÑĤ": 3748,
      "ĠÐ¿Ð¾Ð·": 3749,
      "ÑīÐµÐ±ÐµÐ½ÑĮ": 3750,
      "Ð°Ð´ÐµÑĢÐ¶Ð¸Ð²Ð°ÑĤÑĮ": 3751,
      "Ð²Ð¸ÑĪÐ½ÑĭÐ¹": 3752,
      "ĠÐ¿Ð¸ÑĤÑĮÐµÐ²Ð¾Ð¹": 3753,
      "ĠÑĤÑĢÐµÑħÐ¿Ð¾Ð»ÑİÑģÐ½ÑĭÐ¹": 3754,
      "Ġsystem": 3755,
      "ĠÑģÑĤÐ²Ð¾ÑĢÐºÐ°": 3756,
      "Ð±Ð¾": 3757,
      "ĠÐ³Ð²": 3758,
      "Ð¾Ð·ÐµÑĢ": 3759,
      "ĠÐ¿Ð¾Ð´ÑĬÑĳÐ¼": 3760,
      "ĠÐ¿Ð¾Ð»Ð½ÑĭÐ¹": 3761,
      "ĠÑģÐºÐ¾Ð±Ð°": 3762,
      "Ð¿Ð¾ÐºÑĢÑĭÑĤÐ¸Ðµ": 3763,
      "Ġ426": 3764,
      "ĠÑģÐ²Ð°ÑĢÐ¾ÑĩÐ½ÑĭÐ¹": 3765,
      "Ð´Ð¸ÑĢÐ¾Ð²Ð°ÑĤÑĮ": 3766,
      "ĠÐ°Ð¼Ð¿Ð»Ð¸ÑĤÑĥÐ´Ð°": 3767,
      "ĠÐ¸Ð³": 3768,
      "Ġup": 3769,
      "ÑģÑĤÐ²Ð¾Ð²Ð°ÑĤÑĮ": 3770,
      "ĠÐ¿Ð¾Ð»Ð¸ÑįÑĦ": 3771,
      "Ð¾ÑĢÑĥÐ½Ð´Ð¾Ð²ÑĭÐ¹": 3772,
      "ĠÐ¼ÑĥÐ»Ð»Ð¸ÑĤÐ¾ÐºÐ¾ÑĢÑĥÐ½Ð´Ð¾Ð²ÑĭÐ¹": 3773,
      "ĠÐ¸Ð½Ð´Ð¸Ð²Ð¸Ð´ÑĥÐ°Ð»ÑĮÐ½ÑĭÐ¹": 3774,
      "Ġab": 3775,
      "uit": 3776,
      "1600": 3777,
      "ĠÑģÐµÑĢÐ´ÐµÑĩÐ½Ð¸Ðº": 3778,
      "Ġ2200": 3779,
      "Ð¾Ð»ÑĮÑĨÐµÐ²Ð¾Ð¹": 3780,
      "Ġcol": 3781,
      "ĠÐ¿ÑĢÐµÐ´Ð¾ÑħÑĢÐ°Ð½Ð¸ÑĤÐµÐ»ÑĮÐ½ÑĭÐ¹": 3782,
      "ĠÐ¾Ð³Ð½ÐµÐ·Ð°Ð´ÐµÑĢÐ¶Ð¸Ð²Ð°ÑĤÑĮ": 3783,
      "ĠÐºÑĢÐ¸Ð²": 3784,
      "ĠÑģÑĥ": 3785,
      "ĠÐ´Ð²ÑĥÑģÑĤ": 3786,
      "ĠÐºÑĢÐµÑģÑĤ": 3787,
      "Ð¸ÑģÐº": 3788,
      "ĠÑģÐ¾Ð³": 3789,
      "ÑıÐ½Ð¾Ð¹": 3790,
      "ĠÑįÐºÑģÑĤÑĢÑĥ": 3791,
      "ĠÐ°ÐºÐºÑĥÐ¼Ñĥ": 3792,
      "ĠÐ¼ÐµÑħ": 3793,
      "ÑĢÐ°Ð½Ð½ÑĭÐ¹": 3794,
      "ĠÐ½Ð°Ð³ÑĢÐµÐ²Ð°ÑĤÑĮ": 3795,
      "Ġcircuit": 3796,
      "ĠÑįÐºÑģÐ¿": 3797,
      "ÑģÑĤÐµÑĢ": 3798,
      "ĠÐ¿Ð°Ð½ÐµÐ»ÑĮÐ½ÑĭÐ¹": 3799,
      "ĠÐ¼Ð½Ð¾Ð³Ð¾Ð¿ÑĥÑģÑĤÐ¾ÑĤÐ½ÑĭÐ¹": 3800,
      "ĠÐ¸Ð°": 3801,
      "ĠÐ°Ð²ÑĤÐ¾Ð¼Ð°ÑĤÐ¸ÐºÐ°": 3802,
      "tra": 3803,
      "ĠÑĥÑĤÐµÐ¿Ð»Ð¸ÑĤÐµÐ»ÑĮ": 3804,
      "ĠÑĪÑĤÑĥÑĨÐµÑĢ": 3805,
      "Ġton": 3806,
      "ĠÐ¿ÑĢÐ¾Ð½Ð¸ÐºÐ°ÑĤÑĮ": 3807,
      "ĠÐ¾Ð´Ð½Ð¾Ð¼Ð¾Ð´": 3808,
      "ĠÐºÐ¾Ð»ÑĮÑĨÐµÐ²Ð¾Ð¹": 3809,
      "ÑģÑĤÐ°Ð²ÐºÐ°": 3810,
      "Ð¾Ð¿ÑĢÐ¾ÑħÐ¾Ð´Ð½ÑĭÐ¹": 3811,
      "ÐµÑĢÐµÐ½ÑĨÐ¸Ð°Ð»ÑĮÐ½ÑĭÐ¹": 3812,
      "Ġset": 3813,
      "Ġ530": 3814,
      "ĠÑĤÑĢÐµÐ½Ð¸Ðµ": 3815,
      "Ġec": 3816,
      "ĠÐ¸ÑģÐ¿Ð¾Ð»ÑĮÐ·": 3817,
      "Ġ19903": 3818,
      "ĠÐ²ÑĢÐµÐ¼ÐµÐ½Ð½Ð¾Ð¹": 3819,
      "ÑĪÑĥÑĢÑĥÐ¿": 3820,
      "Ð¾Ð½ÐµÐ¿ÑĢÐ¾Ð½Ð¸ÑĨÐ°": 3821,
      "09": 3822,
      "ĠÐ¿Ð¾Ð»Ð¸Ð¼ÐµÑĢ": 3823,
      "ĠÑĤÐµÑĢÐ¼Ð¸ÑĩÐµÑģÐºÐ¸Ð¹": 3824,
      "ÑĩÐ½ÑĭÐ¹": 3825,
      "ĠÑģÐ°Ð¼Ð¾ÑĢÐµÐ·Ð°": 3826,
      "Ġ96": 3827,
      "ĠÐ¸ÑģÐ¿ÑĭÑĤÐ°Ð½Ð¸Ðµ": 3828,
      "ÑĢÐ°ÑģÑĤÐ²Ð¾ÑĢ": 3829,
      "Ð¿Ð¿Ð°ÑĢÐ°ÑĤ": 3830,
      "ĠÐ¿ÑĢÐ¾Ð¿": 3831,
      "Ġrs": 3832,
      "ĠÑģÐ²ÐµÑĢÑħ": 3833,
      "Ġindust": 3834,
      "Ð²ÑįÐ²Ð½Ð³": 3835,
      "ĠÐ¿Ñģ": 3836,
      "Ð¾ÑĤÐ½Ð¾": 3837,
      "Ġdis": 3838,
      "Ġtonne": 3839,
      "Ð¼ÐºÐ¾ÑģÑĤÑĮ": 3840,
      "ĠÐ´Ð»Ð¸Ð½Ð½ÑĭÐ¹": 3841,
      "ĠÑĳÐ¼ÐºÐ¾ÑģÑĤÑĮ": 3842,
      "ÐºÑĢÐ°ÑģÐºÐ°": 3843,
      "ĠÑĤÑĤÐ°": 3844,
      "ĠÑĢÐ°Ð²Ð½Ð¾Ð¿ÑĢÐ¾ÑħÐ¾Ð´Ð½Ð°Ñı": 3845,
      "Ġpnaeg": 3846,
      "ĠÑĢÐ°Ð·ÑĬÐµÐ´Ð¸Ð½Ð¸ÑĤÐµÐ»ÑĮ": 3847,
      "Ð¾Ð³Ð¸ÑĩÐµÑģÐºÐ¸Ð¹": 3848,
      "Ð¿ÑįÐ¿Ð½Ð³": 3849,
      "Ð´Ð°ÑĩÐ°": 3850,
      "vi": 3851,
      "ĠÐ°ÑĢÐºÑĤÐ¾Ñģ": 3852,
      "ĠÐºÑĥ": 3853,
      "Ġtm": 3854,
      "Ð¾ÑĩÐ½Ð¸Ðº": 3855,
      "ĠÐ¾Ð´Ð¸Ð½Ð°ÑĢÐ½ÑĭÐ¹": 3856,
      "ĠÐ´ÑĢÑĥÐ³": 3857,
      "ĠÐ´ÑĢÑĥÐ³Ð¾Ð¹": 3858,
      "Ð³ÑĨ": 3859,
      "165": 3860,
      "Ġelb": 3861,
      "Ġstop": 3862,
      "ÐºÐ°Ð·": 3863,
      "Ġar": 3864,
      "ĠÐ¾Ð³ÑĢÐ°Ð¶Ð´ÐµÐ½Ð¸Ðµ": 3865,
      "sv": 3866,
      "ĠÐ´Ð¸ÑĦÑĦÐµÑĢÐµÐ½ÑĨÐ¸Ð°Ð»ÑĮÐ½ÑĭÐ¹": 3867,
      "Ġelbow": 3868,
      "61": 3869,
      "Ð¼Ð½Ð¸Ðº": 3870,
      "ĠÐ¿Ð¾ÐºÐ°Ð·": 3871,
      "ĠÐ¾Ð¿Ð°Ð»ÑĥÐ±ÐºÐ°": 3872,
      "ÑĨÐ°": 3873,
      "ÑĥÑĪÐµÐ½Ð¸Ðµ": 3874,
      "Ġlenght": 3875,
      "ÑģÑĤÐ°Ð½": 3876,
      "ĠÑĢÐº": 3877,
      "ĠÐ½Ð¾ÑĢÐ¼Ð°Ð»Ð¸Ð·Ð¾Ð²Ð°ÑĤÑĮ": 3878,
      "ĠÐ¸Ð½ÐµÑĢÑĨÐ¸Ñı": 3879,
      "ĠÑįÐºÑģÐ¿Ð»Ñĥ": 3880,
      "Ġ310": 3881,
      "Ġ15150": 3882,
      "ĠÐ»Ð°ÐºÐ¾Ð²ÑĭÐ¹": 3883,
      "ÑıÐ³Ð¸Ð²Ð°ÑĤÑĮ": 3884,
      "ĠÐ¼ÐµÑħÐ°Ð½": 3885,
      "Ð°Ð½ÐµÑĢÐ°": 3886,
      "0002": 3887,
      "ÐºÐ¾Ð½Ð²ÐµÐºÑĤÐ¾ÑĢ": 3888,
      "ĠÑĢÐ°ÑģÑĤÑıÐ³Ð¸Ð²Ð°ÑĤÑĮ": 3889,
      "ĠÐ±ÐµÐ·Ð¾Ð¿Ð°ÑģÐ½Ð¾Ñģ": 3890,
      "Ð´Ð¸ÑĤÐµÐ»ÑĮ": 3891,
      "ĠÐ·Ð°Ð¿Ð¾Ð»Ð½ÐµÐ½Ð¸Ðµ": 3892,
      "ÐºÐ¾Ð½ÑĤÑĢ": 3893,
      "ĠÑĢÐ°Ð·Ð²ÐµÑĤÐ²Ð¸ÑĤÐµÐ»ÑĮÐ½ÑĭÐ¹": 3894,
      "fl": 3895,
      "xh": 3896,
      "ĠÑģÐ¾Ð½": 3897,
      "Ġutp": 3898,
      "Ġcoating": 3899,
      "ĠÐ±ÑĢÐ¾Ð½": 3900,
      "77": 3901,
      "89": 3902,
      "ĠÐºÐ¼Ð¿": 3903,
      "ĠÐºÐ²Ð²Ð³Ð½Ð³": 3904,
      "ĠÐ½Ð»": 3905,
      "Ð¸ÑĨÐ¸Ð¾Ð½ÐµÑĢ": 3906,
      "ĠÑĦÐ°Ð»ÑĮÑĨÐµÐ²ÑĭÐ¹": 3907,
      "Ð²ÑıÐ·": 3908,
      "ĠÐ¾Ð±Ð¼Ð°Ð·Ð¾ÑĩÐ½ÑĭÐ¹": 3909,
      "Ġ1020": 3910,
      "ĠÑģÐ³": 3911,
      "ÑĳÐ¶": 3912,
      "Ġfan": 3913,
      "ĠÑĢÐ°Ð´Ð¸Ð°ÑĨÐ¸Ð¾Ð½Ð½Ð¾ÑģÑĤÐ¾Ð¹ÐºÐ¸Ð¹": 3914,
      "Ð¿ÐºÐ²ÑĤÐ½Ð³": 3915,
      "ĠÐ¿Ð±": 3916,
      "Ġ2003": 3917,
      "Ð¾ÑĤÐ´Ð°ÑĩÐ°": 3918,
      "ÑĢÐ¾Ð²Ð¾Ð¹": 3919,
      "Ġ1770": 3920,
      "ĠÐ½ÐµÑĦÑĤ": 3921,
      "ĠÐºÐ¾Ð¼Ð¿Ð»ÐµÐºÑĤÐ½ÑĭÐ¹": 3922,
      "ĠÑĤÐ¸ÑĤÐ°Ð½": 3923,
      "ÑĦÐ»Ð°Ð½ÑĨÐµÐ²ÑĭÐ¹": 3924,
      "ĠÐ¿Ð¸ÑĤ": 3925,
      "ÑĢÐ°ÑĩÐ½ÑĭÐ¹": 3926,
      "ĠÐ½Ð°ÑĤ": 3927,
      "ÐµÑģÐ½ÑĭÐ¹": 3928,
      "Ġinom": 3929,
      "102": 3930,
      "Ġgate": 3931,
      "Ð±Ð¾ÑĢÐ½ÑĭÐ¹": 3932,
      "Ð°Ñı": 3933,
      "Ġgr": 3934,
      "Ġ5632": 3935,
      "Ð¼ÐµÑĤÐ°Ð»Ð»": 3936,
      "ĠÐ½Ð¸ÐºÐµÐ»ÑĮ": 3937,
      "Ð¼Ð¼": 3938,
      "Ġ850": 3939,
      "Ġ146": 3940,
      "Ð°Ð´Ð¾ÑĩÐ½ÑĭÐ¹": 3941,
      "ĠÑĪÐ°Ð³": 3942,
      "ĠÑģÑĤÑĢÐ¾Ð¸ÑĤÐµÐ»ÑĮ": 3943,
      "Ð»Ð°Ñģ": 3944,
      "Ġ025": 3945,
      "Ġ99": 3946,
      "seal": 3947,
      "Ġther": 3948,
      "ÑĭÐºÐ°Ð½Ð¸Ðµ": 3949,
      "Ð¾ÑĤÑĥÑĪÐµÐ½Ð¸Ðµ": 3950,
      "ĠÐ»Ð¾Ð¿": 3951,
      "ĠÑħÐ¾Ð»Ð¾Ð´Ð½Ð¾ÐºÐ°ÑĤ": 3952,
      "ĠÑģÐ»Ñİ": 3953,
      "ĠÐ°Ð´ÑĢ": 3954,
      "ĠÐ¿Ð¾Ð¶Ð°ÑĢÐ¾ÑĤÑĥÑĪÐµÐ½Ð¸Ðµ": 3955,
      "ĠÐ´Ð¸ÑģÑĤÐ¸Ð»": 3956,
      "Ġmater": 3957,
      "ÐºÐ·ÑģÐ±": 3958,
      "0010": 3959,
      "Ġcold": 3960,
      "ĠÑįÐºÑģÐ¿Ð»ÑĥÐ°ÑĤÐ°": 3961,
      "Ġmaterial": 3962,
      "Ð¼Ð¸Ð½ÐµÑĢÐ°": 3963,
      "ĠÐ¿Ð¾Ð»Ð¸ÑįÑģÑĤÐµÑĢ": 3964,
      "ĠÐ´ÑĢÐµÐ²ÐµÑģÐ¸Ð½Ð°": 3965,
      "Ð´Ð¸ÑģÐºÐ¾Ð²ÑĭÐ¹": 3966,
      "Ġ10704": 3967,
      "ĠÐ½Ð°ÑĢÑĥÑĪÐµÐ½Ð¸Ðµ": 3968,
      "Ġunit": 3969,
      "ÑĥÐ´Ð°Ð»ÐµÐ½Ð¸Ðµ": 3970,
      "ĠÐ¿ÐµÑĢÐ¸ÐºÐ»Ð°": 3971,
      "ĠÑĢÐ°ÑģÑĤÑĢÑĥÐ±Ð½ÑĭÐ¹": 3972,
      "Ð¸Ð¿Ð¿ÐµÐ»ÑĮ": 3973,
      "ĠÑĤÑĢÐ°Ð¿": 3974,
      "ĠÐ·Ð°Ð·ÐµÐ¼Ð»ÑıÑĤÑĮ": 3975,
      "ÑĥÑģÑĤÐ°Ð½Ð¾Ð²ÐºÐ°": 3976,
      "035": 3977,
      "ĠÑħÐ»": 3978,
      "ĠÐ¿Ð¾Ð´Ð²Ð¾Ð´": 3979,
      "750": 3980,
      "ds": 3981,
      "Ð¸ÑĦÐ¸ÐºÐ°ÑĨÐ¸Ð¾Ð½Ð½ÑĭÐ¹": 3982,
      "Ð¾Ð·ÐµÑĢÐ½Ð¸ÑģÑĤÑĭÐ¹": 3983,
      "ĠÑģÐ¾ÐµÐ´Ð¸Ð½ÑıÑĤÑĮ": 3984,
      "ÑģÐ²Ð¾Ð±": 3985,
      "Ġ573": 3986,
      "ĠÐ²ÑıÐ·": 3987,
      "ĠÐ±Ð»Ð¾ÑĩÐ½ÑĭÐ¹": 3988,
      "Ġbox": 3989,
      "ĠÐ³Ð°Ð±Ð°ÑĢ": 3990,
      "Ġ2005": 3991,
      "ĠÐ³Ð¸Ð´ÑĢÐ¾ÑĤ": 3992,
      "ÐµÑĢÐ¼Ñĭ": 3993,
      "ĠÐºÐ¾Ð½Ð´ÐµÐ½ÑģÐ°ÑĤ": 3994,
      "82": 3995,
      "ĠÐºÐ¾ÑĢÐ¿ÑĥÑģÐ½ÑĭÐ¹": 3996,
      "ĠÐ·ÐºÐ´": 3997,
      "ĠÑģÐ»ÑİÐ´Ð¾Ñģ": 3998,
      "ĠÐ¿ÐµÑĢÐ¸ÐºÐ»Ð°Ð·Ð¾Ð²ÑĭÐ¹": 3999,
      "ĠÑĪÐ»Ð¸ÑĦ": 4000,
      "ens": 4001,
      "ĠÐ²Ð¾Ð»Ð¾ÐºÐ¾Ð½Ð½ÑĭÐ¹": 4002,
      "630": 4003,
      "ĠÐºÐ¾Ð¼Ð¼ÑĥÑĤÐ°": 4004,
      "ĠÐ´ÐµÑĦÐµÐºÑĤ": 4005,
      "ĠÑģÐ»ÑİÐ´Ð¾ÑģÐ¾Ð´ÐµÑĢÐ¶Ð°ÑĤÑĮ": 4006,
      "Ġdp": 4007,
      "Ġ2006": 4008,
      "ĠÐ·Ð°Ð¼ÑĭÐºÐ°Ð½Ð¸Ðµ": 4009,
      "Ġbfl": 4010,
      "ĠÐ³Ð°Ð±Ð°ÑĢÐ¸ÑĤ": 4011,
      "ÐºÐ½": 4012,
      "ĠÐ¼ÐµÐ¼": 4013,
      "Ð¶Ð½Ð¾ÑģÑĤÑĮ": 4014,
      "ĠÑĤÐµÐ¿Ð»Ð¾Ð¾ÑĤÐ´Ð°ÑĩÐ°": 4015,
      "ģ°": 4016,
      "ÑĤÐµÑĢ": 4017,
      "Ð°ÑĢÑĦÐ¾ÑĢ": 4018,
      "ĠÐ´ÑĭÐ¼Ð¾ÑĥÐ´Ð°Ð»ÐµÐ½Ð¸Ðµ": 4019,
      "ĠÐ½Ð°Ð½": 4020,
      "ĠÐ±Ð¾ÑĢÐ½ÑĭÐ¹": 4021,
      "Ð¶ÐµÑĤÐ°": 4022,
      "Ġsch": 4023,
      "Ð¾Ð´ÑĥÐºÑĤ": 4024,
      "Ġthin": 4025,
      "ĠÐ´Ð¾Ð»Ñı": 4026,
      "Ð¾Ð»Ñĳ": 4027,
      "Ġtyp": 4028,
      "ĠÐ¾ÐºÐ¾Ð»": 4029,
      "Ġ3200": 4030,
      "Ð°ÑĢÑĦÐ¾ÑĢÐ¾Ð²ÑĭÐ¹": 4031,
      "ĠÐ¾ÐºÐ¾Ð»Ð¾": 4032,
      "ĠÐ¿Ð»Ð°Ð½": 4033,
      "Ð»ÐµÐºÑģ": 4034,
      "ÑĨÐ±": 4035,
      "Ġ2007": 4036,
      "ĠÑĨÐ¸Ð½ÑįÐ¿": 4037,
      "ĠÐºÐ»Ð°ÑģÑģÐ¸ÑĦÐ¸ÐºÐ°ÑĨÐ¸Ð¾Ð½Ð½ÑĭÐ¹": 4038,
      "Ð°Ð²Ð»Ð¸Ð²Ð°ÑĤÑĮ": 4039,
      "ĠhÑģÐ²Ð¾Ð±": 4040,
      "Ġlc": 4041,
      "ĠÐ¿ÑĢÐ¾ÑĦÐ¸Ð»Ð¸ÑĢÐ¾Ð²Ð°ÑĤÑĮ": 4042,
      "Ġindustri": 4043,
      "Ð²ÑıÐ·ÐºÐ°": 4044,
      "ĠÑĢÑĥÐºÐ°Ð²": 4045,
      "ĠÐ¿ÐµÐ½Ð¾Ð¿Ð¾Ð»Ð¸ÑĥÑĢÐµÑĤÐ°Ð½Ð¾Ð²ÑĭÐ¹": 4046,
      "ĠÐ¸ÑģÐ¿Ð¾Ð»ÑĮÐ·Ð¾Ð²Ð°Ð½Ð¸Ðµ": 4047,
      "Ġindustrial": 4048,
      "ĠÑĢÐ²": 4049,
      "ĠÐ¾ÑĤÐ²ÐµÑĢÐ¶": 4050,
      "ĠÑģÐ°Ð¼Ð¾Ðº": 4051,
      "ĠÐ°ÑįÑģ": 4052,
      "ÐµÑģÐ¸ÑĤÐµÐ»ÑĮ": 4053,
      "til": 4054,
      "Ð»Ð°Ð´Ð¸ÑĤÐµÐ»ÑĮ": 4055,
      "ĠÐ½Ð°ÑģÑĤÐ¸Ð»": 4056,
      "ĠÐ´Ð¾Ð¿ÑĥÑģÐºÐ°ÑĤÑĮÑģÑı": 4057,
      "ĠÑģÑįÐ½Ð´Ð²Ð¸Ñĩ": 4058,
      "ĠÑĦÐ¸ÐºÑģ": 4059,
      "ĠÑĨÐ¸Ð»Ð¸Ð½Ð´ÑĢÐ¸ÑĩÐµÑģÐºÐ¸Ð¹": 4060,
      "Ð¼Ð¸Ð½ÐµÑĢÐ°Ð»ÑĮÐ½ÑĭÐ¹": 4061,
      "ip": 4062,
      "Ð¾ÑģÐ½Ð¾Ð²": 4063,
      "ĠÑĥÑģÑĤÐ°Ð½Ð°Ð²Ð»Ð¸Ð²Ð°ÑĤÑĮ": 4064,
      "ĠÐ½Ð¾ÑĢÐ¼": 4065,
      "ÑģÑĢ": 4066,
      "ĠÐ¼ÐµÐ¶ÑĦÐ»Ð°Ð½ÑĨÐµÐ²ÑĭÐ¹": 4067,
      "ĠÑģÐ¾Ð¾ÑĤÐ²ÐµÑĤÑģÑĤÐ²Ð¾Ð²Ð°ÑĤÑĮ": 4068,
      "Ð¾Ð±Ðµ": 4069,
      "Ð¿Ð°Ð´": 4070,
      "ĠÐºÐ·Ð¾": 4071,
      "ĠÑģÐ¾Ð³Ð»Ð°Ñģ": 4072,
      "ks": 4073,
      "ĠÑĤÐµÑħ": 4074,
      "ÑįÑĤ": 4075,
      "ĠÑĩÐµÑĢ": 4076,
      "Ð¾ÑģÐ²Ð°ÑĢÐ½ÑĭÐ¹": 4077,
      "Ð¾ÑģÐ»": 4078,
      "ĠÑģÑĤÑĢÐ¾Ð¸ÑĤÐµÐ»ÑĮÑģÑĤÐ²Ð¾": 4079,
      "ĠÑĢÐ°Ð·ÑĢÑıÐ´": 4080,
      "ĠÑīÐ¸ÑĤÐ¾Ðº": 4081,
      "ĠÐ¼Ð½Ð¾Ð³Ð¾Ð¿ÑĢÐ¾Ð²Ð¾Ð»Ð¾ÑĩÐ½ÑĭÐ¹": 4082,
      "ĠÐºÑĥÐ³Ð¿ÑįÐ¿Ð½Ð³": 4083,
      "fo": 4084,
      "xtra": 4085,
      "Ð¾Ð»ÑĮÐ¶ÐµÐ½Ð¸Ðµ": 4086,
      "Ð¾Ð¿Ð°Ð»ÑĥÐ±ÐºÐ°": 4087,
      "ĠÑĩÐµÑĤÑĭÑĢÐµÑħ": 4088,
      "59": 4089,
      "ĠÐ±ÑĢÑĥÑģ": 4090,
      "ĠÑĢn": 4091,
      "ÐµÐ²ÐµÑĢÑģ": 4092,
      "Ġdextra": 4093,
      "ĠÑģÐºÐ¾Ð»ÑĮÐ¶ÐµÐ½Ð¸Ðµ": 4094,
      "ÑĢÐµÐ·ÐºÐ°": 4095,
      "ĠÐ¼ÐµÐ»Ðº": 4096,
      "ĠÐ¿ÑĢÐ¾ÑģÑĤÑĢÐ°Ð½ÑģÑĤÐ²ÐµÐ½Ð½ÑĭÐ¹": 4097,
      "ĠÐ³Ð¸Ð´ÑĢÐ¾ÑĤÐµÑħÐ½Ð¸ÑĩÐµÑģÐºÐ¸Ð¹": 4098,
      "014": 4099,
      "con": 4100,
      "ĠÐ½Ð°Ð¿Ð¾ÑĢ": 4101,
      "ĠÐ±Ð°Ð»Ð»": 4102,
      "ĠÐ¿Ð¾Ð»Ð¸ÑįÑĦÐ¸ÑĢÐ½ÑĭÐ¹": 4103,
      "ĠÐºÑĢÐ¸Ð²Ð¸Ð·Ð½Ð°": 4104,
      "ĠÐ¾Ð±ÐºÐ»Ð°Ð´ÐºÐ°": 4105,
      "ÑĥÑģÐºÐ½Ð¾Ð¹": 4106,
      "Ð¸Ð½Ð³": 4107,
      "ĠÑĤÑĥ": 4108,
      "Ð¸Ð²Ð°ÑĤÑĮÑģÑı": 4109,
      "por": 4110,
      "ÑĢÐ°Ð¶": 4111,
      "ĠÐ¿ÐµÑĢÐµÐ³Ð¾ÑĢÐ¾Ð´ÐºÐ°": 4112,
      "ĠÐºÐ¿Ð¿": 4113,
      "ÑĢÐ½": 4114,
      "ÑĪÐ¸Ð½Ð°": 4115,
      "ĠÐ´Ð¸ÑģÑĤÐ¸Ð»Ð»ÑıÑĤ": 4116,
      "ĠÑģÐµÑĢÐ°": 4117,
      "ĠÐ³Ð¾ÑĤÐ¾Ð²ÑĭÐ¹": 4118,
      "Ġ5000": 4119,
      "Ġ78": 4120,
      "ĠÐ¸Ð·Ð¾Ð»Ñı": 4121,
      "ĠÑģÑĤÐ¾Ð»": 4122,
      "ĠÐ¿Ð¾Ð¿ÐµÑĢÐµÑĩÐ½ÑĭÐ¹": 4123,
      "ĠÑĨÐµÐ»ÑĮÐ½Ð¾ÑģÐ²Ð°ÑĢÐ½ÑĭÐ¹": 4124,
      "Ð»ÑĮÑĤ": 4125,
      "Ð»ÑıÐ½Ð½ÑĭÐ¹": 4126,
      "ĠÑģÐ²ÐµÑĤÐ¾Ð²Ð¾Ð¹": 4127,
      "ÐºÑĥÐ»Ñı": 4128,
      "ĠÐ´Ð½": 4129,
      "ĠÐ¾Ð½": 4130,
      "ĠÑĥÑģÑĤÐ°Ð½Ð¾Ð²": 4131,
      "Ð¸Ð³ÐµÐ»ÑĮ": 4132,
      "225": 4133,
      "ĠÐºÐ¾Ð²Ð°ÑĤÑĮ": 4134,
      "Ġ650": 4135,
      "Ġ51": 4136,
      "Ð¸Ð¼Ð¾ÑģÑĤÑĮ": 4137,
      "bc": 4138,
      "Ġ1050": 4139,
      "ĠÐ¼ÐµÑĤÐ°Ð»Ð»Ð¾ÐºÐ¾Ð½ÑģÑĤÑĢÑĥÐºÑĨÐ¸Ñı": 4140,
      "ĠÐ³Ð¸Ð±ÐºÐ¾ÑģÑĤÑĮ": 4141,
      "ÑĩÑĳÑĤÑĩÐ¸Ðº": 4142,
      "212": 4143,
      "ĠÐ¸Ð½ÑĤ": 4144,
      "ĠÑģÐ°Ð¼Ð¾Ð½": 4145,
      "ÐµÐ²ÐµÑĢÑģÐ¸Ð²Ð½ÑĭÐ¹": 4146,
      "ĠÑĤÑı": 4147,
      "ĠÐ¾Ð±Ð²ÑıÐ·ÐºÐ°": 4148,
      "ÑĢÐ°Ð²Ð¸Ð¹": 4149,
      "Ġ1570": 4150,
      "ÐºÐ¾Ð²": 4151,
      "ÐºÐ°ÑĤÐ½ÑĭÐ¹": 4152,
      "Ð¾Ð»Ð¾Ð³Ð¸ÑĩÐµÑģÐºÐ¸Ð¹": 4153,
      "Ð¾Ð·Ð¸ÑĤÐ½ÑĭÐ¹": 4154,
      "ĠÐ´ÑĭÐ¼Ð¾Ð²Ð¾Ð¹": 4155,
      "Â²": 4156,
      "Ð¸ÑĢÐºÑĥÐ»Ñı": 4157,
      "ĠÑĥÐ¿Ð»Ð¾ÑĤÐ½ÐµÐ½Ð¸Ðµ": 4158,
      "ĠÐ°Ð´ÑĢÐµÑģÐ½ÑĭÐ¹": 4159,
      "ĠÑĪÑĥÐ¼": 4160,
      "Ð¾Ð»ÑĮÑĪ": 4161,
      "ĠÑģÐºÐ¾Ð»ÑĮÐ·": 4162,
      "002": 4163,
      "ĠÐ·ÐµÑĢ": 4164,
      "ĠÐºÐ½Ð¾Ð¿": 4165,
      "ĠÑĢÐ°Ð·Ð¼ÐµÑīÐµÐ½Ð¸Ñı": 4166,
      "Ġsuppor": 4167,
      "ĠÐ¿ÐµÑĢÐµÐ¿Ð°Ð´": 4168,
      "ÐºÐ°ÑĪÐ¸ÑĢÐ¾Ð²Ð°ÑĤÑĮ": 4169,
      "ĠÐ½ÐµÐºÐ°ÑĪÐ¸ÑĢÐ¾Ð²Ð°ÑĤÑĮ": 4170,
      "ĠÑĩÐµÑĢÑĤ": 4171,
      "ÑĦÐ¾ÑĢÐ¼Ð°": 4172,
      "ĠÑĤÑĢÐ°Ð½ÑģÐ¿Ð¾ÑĢÑĤ": 4173,
      "ĠÑĩÐµÑĢÑĤÑĳÐ¶": 4174,
      "ÐºÐ»ÐµÐ¼": 4175,
      "Ġ115": 4176,
      "Ð¸Ð¿Ñģ": 4177,
      "Ð¸Ð·Ð¾Ð»": 4178,
      "ĠÑģÐºÐ¾Ð»ÑĮÐ·Ð¸ÑĤÑĮ": 4179,
      "co": 4180,
      "ÑģÑĤÑĢ": 4181,
      "ÐµÑĤÐ½ÑĭÐ¹": 4182,
      "Ġbend": 4183,
      "ÑĢÐ°Ð±Ð¾ÑĩÐ¸Ð¹": 4184,
      "ĠÐ´Ð²ÑĥÑħÐ´Ð¸ÑģÐºÐ¾Ð²ÑĭÐ¹": 4185,
      "ĠÐºÐ¾ÑĢÐ¾Ð±ÑĩÐ°ÑĤÑĭÐ¹": 4186,
      "ÑĥÑīÐ¸Ð¹": 4187,
      "art": 4188,
      "Ð¾ÑħÐ»Ð°Ð´Ð¸ÑĤÐµÐ»ÑĮ": 4189,
      "ÑĪÐ°Ð¹Ð±Ð°": 4190,
      "ĠÑĢÑĥÐº": 4191,
      "ĠÑįÐ¿ÑĢÐ°": 4192,
      "ĠÐºÑĢÐ°ÑģÐºÐ°": 4193,
      "ĠiÐ½Ð¾Ð¼": 4194,
      "ĠÐºÑĢÑĭÑĪÐ½ÑĭÐ¹": 4195,
      "Ð¾Ð¾Ð±ÑĢÐ°Ð·Ð½ÑĭÐ¹": 4196,
      "Ġon": 4197,
      "ĠÐ¸Ñı": 4198,
      "ĠÑĪÑĤÐ¾Ðº": 4199,
      "ĠÑĤÐµÑħÐ½Ð¾Ð½Ð¸Ðº": 4200,
      "ĠÐ¿ÐµÐ½Ð¾Ð¿Ð¾Ð»Ð¸Ð¼ÐµÑĢ": 4201,
      "Ð»ÑĥÑĪÐ¸ÑĤÐµÐ»ÑĮ": 4202,
      "Ġcp": 4203,
      "ĠÑĤÐµÑħÐ½Ð¾Ð½Ð¸ÐºÐ¾Ð»ÑĮ": 4204,
      "ĠÐ¿ÐµÐ½Ð¾Ð¿Ð¾Ð»Ð¸Ð¼ÐµÑĢÐ¼Ð¸Ð½ÐµÑĢÐ°Ð»ÑĮÐ½ÑĭÐ¹": 4205,
      "ÑıÑĤ": 4206,
      "Ð¾ÑĢÑĤÐ½ÑĭÐ¹": 4207,
      "Ġ168": 4208,
      "Ġ006": 4209,
      "ĠÐ±Ð»Ð¾ÐºÐ¸ÑĢÐ¾Ð²Ð¾ÑĩÐ½ÑĭÐ¹": 4210,
      "Ð¾ÑĢÐ¾Ð¶Ð´ÐµÐ½Ð¸Ðµ": 4211,
      "ĠÐ¼ÐµÑģÑĤÐ¾ÑĢÐ¾Ð¶Ð´ÐµÐ½Ð¸Ðµ": 4212,
      "Ð´ÐµÑĢÐ¶Ð°ÑĤÐµÐ»ÑĮ": 4213,
      "ÑĤÑĢÐµÐ±": 4214,
      "ĠÐºÐ¿ÑįÐ¿Ð½Ð³": 4215,
      "ĠÐºÐºÐ±": 4216,
      "ÐºÐ°Ð½Ð°": 4217,
      "ĠÐ»Ð°ÑĤÑĥÐ½": 4218,
      "ĠÐ²Ð»Ð°Ð¶Ð½Ð¾ÑģÑĤÑĮ": 4219,
      "ĠÐ²Ð¾Ð´Ð¾Ð½ÐµÐ¿ÑĢÐ¾Ð½Ð¸ÑĨÐ°": 4220,
      "ĠÑĥÑģÑĤÐ°Ð½Ð¾Ð²Ð¾ÑĩÐ½ÑĭÐ¹": 4221,
      "Ġancon": 4222,
      "ĠÐ³ÑĢÐ°Ð´ÑĥÑģ": 4223,
      "ĠÐ¾ÑĤÐ²ÐµÑĢÐ¶Ð´ÐµÐ½Ð¸Ðµ": 4224,
      "ÑĨÐµÐ¼ÐµÐ½ÑĤ": 4225,
      "ĠÐ¾ÑĤÑħÐ¾Ð´": 4226,
      "ÑĩÐ°ÑĤÐºÐ°": 4227,
      "ĠÐ²Ð¾Ð´Ð¾Ð¾ÑĤÐ²Ð¾Ð´": 4228,
      "lc": 4229,
      "ĠÑĪÑĤÐ°": 4230,
      "ĠÐºÐ¼Ð¿Ð²": 4231,
      "ĠÐ¼ÐµÐ¶Ð´": 4232,
      "Ð¾Ð¸Ð·Ð¾Ð»ÑıÑĨÐ¸Ð¾Ð½Ð½ÑĭÐ¹": 4233,
      "Ġ43": 4234,
      "Ð¸Ð·Ð²ÐµÑīÐ°ÑĤÐµÐ»ÑĮ": 4235,
      "ĠÐ²Ð¾Ð·Ð´ÑĥÑħÐ¾Ð½Ð°Ð³ÑĢÐµÐ²Ð°ÑĤÐµÐ»ÑĮ": 4236,
      "Ġka": 4237,
      "Ġcoolant": 4238,
      "ĠÑĤÐ¼": 4239,
      "ÑĢÐµÐ²": 4240,
      "Ġho": 4241,
      "ĠÐ¾ÑĤÐ²ÐµÑĢÐ´Ð¸ÑĤÐµÐ»ÑĮ": 4242,
      "ĠÐ¼ÐµÐ»ÐºÐ¾Ð·ÐµÑĢÐ½Ð¸ÑģÑĤÑĭÐ¹": 4243,
      "Ġ109": 4244,
      "ÑģÑĤÐ²Ð¾ÑĢÑĩÐ°ÑĤÑĭÐ¹": 4245,
      "Âº": 4246,
      "Ð¸Ð»Ð¾Ð¹": 4247,
      "Ð¿ÐµÑĢÐµÐ¼ÑĭÑĩÐºÐ°": 4248,
      "ĠÐ¿ÑĢÐµÐ¾Ð±ÑĢÐ°Ð·Ð¾Ð²Ð°ÑĤÐµÐ»ÑĮ": 4249,
      "ĠÐ¾Ð±Ð¼Ð¾ÑĤÐºÐ°": 4250,
      "Ġ2012": 4251,
      "ĠÐ¿Ð¾Ð»Ð¾Ð¶ÐµÐ½Ð¸Ðµ": 4252,
      "ÑĢÐ°Ð²Ð»ÑıÑĤÑĮ": 4253,
      "ĠÐ´ÑĢÐµÐ½": 4254,
      "Ġhit": 4255,
      "Ġtz": 4256,
      "Ġtwo": 4257,
      "Ð¿Ð±": 4258,
      "ĠÐ·Ð°Ð³Ð¾ÑĤÐ¾Ð²": 4259,
      "ĠÐ¶Ð¸Ð»Ð¾Ð¹": 4260,
      "ĠÐ¾ÑģÐ½Ð¾Ð²Ð½ÑĭÐ¹": 4261,
      "ÑĢÐ°ÑĦ": 4262,
      "ĠÐ¾ÑĤÐ½Ð¾": 4263,
      "ĠÑįÐºÑĢÐ°Ð½Ð¸ÑĢÐ¾Ð²Ð°ÑĤÑĮ": 4264,
      "ĠÐ¾ÑĤÐ½Ð¾ÑĪÐµÐ½Ð¸Ðµ": 4265,
      "Ð´ÑİÐ±ÐµÐ»ÑĮ": 4266,
      "Ð¾ÑģÑĤÐ¾": 4267,
      "ĠÐ±Ð¾Ð»ÑĮÑĪ": 4268,
      "ĠÐ¾ÑĤÐºÐ¸Ð´Ð½Ð¾Ð¹": 4269,
      "Ġ19904": 4270,
      "Ġpri": 4271,
      "ĠÐ²Ð¸Ð±ÑĢÐ¾": 4272,
      "Ð¾Ð±ÐµÐ¶Ð½ÑĭÐ¹": 4273,
      "Ð¾ÑĤÐµÐº": 4274,
      "ĠÐ¼Ð°ÑģÐ»Ð¾": 4275,
      "Ð±Ð¸Ð²Ð½Ð¾Ð¹": 4276,
      "ĠÐ¸Ð·Ð²ÐµÑīÐ°ÑĤÐµÐ»ÑĮ": 4277,
      "ĠÐ¿Ð¾ÑĤÑĢÐµÐ±": 4278,
      "Ġbs": 4279,
      "mit": 4280,
      "Ð¿Ð°Ðº": 4281,
      "Ð¿ÐºÐ²": 4282,
      "ĠÐ½Ð°Ð´Ð·ÐµÐ¼Ð½ÑĭÐ¹": 4283,
      "Ð±ÑĭÐ¹": 4284,
      "ĠÑģÐ°ÑĨÐ±": 4285,
      "ĠÑĨÐµÐ½ÑĤÑĢÐ¾Ð±ÐµÐ¶Ð½ÑĭÐ¹": 4286,
      "ĠÑħÐ²Ð¾Ð¹Ð½ÑĭÐ¹": 4287,
      "ĠÑģÐ¾Ð±Ð¸ÑĢÐ°ÑĤÑĮ": 4288,
      "Ð²ÐµÑĤÐ²Ð¸ÑĤÐµÐ»ÑĮ": 4289,
      "Ð½ÐºÐ°": 4290,
      "ĠÑĤÑĩ": 4291,
      "ĠÐ¿ÑĢÐ¸Ð±Ð¾ÑĢ": 4292,
      "Ġ202": 4293,
      "ÐºÐ·ÑģÐ³": 4294,
      "ÑĩÐ¸Ð²": 4295,
      "Ġlimit": 4296,
      "Ð½ÐµÐ²Ð¾Ð¹": 4297,
      "ĠÐ»Ð¸": 4298,
      "ĠÑģÐ¾ÑģÑĤÐ°Ð²Ð»ÑıÑĤÑĮ": 4299,
      "Ġ39": 4300,
      "ÑĢÐ°ÑĨÐ¸Ñı": 4301,
      "ĠÐ¸Ð·Ð²": 4302,
      "ĠÑįÐºÑģÐ¿Ð»ÑĥÐ°ÑĤÐ°ÑĨÐ¸Ñı": 4303,
      "ÑıÑīÐ¸Ðº": 4304,
      "Ð¸ÑĢÐ¿": 4305,
      "ĠÐ¼Ð°Ð½Ð¾Ð¼ÐµÑĤÑĢ": 4306,
      "ĠÑĪÐ°Ð¼": 4307,
      "ĠÑĢÐ°ÑģÑĤÑıÐ¶ÐµÐ½Ð¸Ðµ": 4308,
      "ÑĥÐ²ÑģÑĤÐ²Ð¸ÑĤÐµÐ»ÑĮÐ½Ð¾ÑģÑĤÑĮ": 4309,
      "ĠÐ³Ð»ÑĥÐ±Ð¸Ð½Ð°": 4310,
      "Ð³ÐµÑĢÐ¼ÐµÑĤÐ¸Ðº": 4311,
      "ĠÐ»Ð¾Ð¿Ð°ÑģÑĤÑĮ": 4312,
      "og": 4313,
      "ÐµÑģÑģÐ¾Ð²Ð°ÑĤÑĮ": 4314,
      "ĠÐ¾ÑĨÐ¸Ð½ÐºÐ¾Ð²Ð°Ð½Ð¸Ðµ": 4315,
      "ĠÑĩÐ¸ÑģÑĤÑĭÐ¹": 4316,
      "ĠÐ²Ð¾Ð´Ð¾Ð½ÐµÐ¿ÑĢÐ¾Ð½Ð¸ÑĨÐ°ÐµÐ¼Ð¾ÑģÑĤÑĮ": 4317,
      "ĠÑĢÐ´": 4318,
      "ĠÑģÑĤÐµÐºÐ»ÑıÐ½Ð½ÑĭÐ¹": 4319,
      "Ð¾Ð½ÑĤ": 4320,
      "Ð¸Ð²Ð½Ð¾ÑģÑĤÑĮ": 4321,
      "Ġout": 4322,
      "708": 4323,
      "Ð¿ÐµÑģ": 4324,
      "ĠÐ°Ð²Ð²": 4325,
      "ÐµÐ½ÑĤÐ¸Ð»ÑĮ": 4326,
      "Ð¾ÐºÐ¾Ð¹Ð½ÑĭÐ¹": 4327,
      "ĠÐ½Ð°Ð»": 4328,
      "ĠÐ´Ð¾ÑĢ": 4329,
      "Ġ1300": 4330,
      "ĠÐ·Ð²ÑĥÐº": 4331,
      "ĠÐ¼Ð¸Ð½Ð¸Ð¼Ð°Ð»ÑĮÐ½ÑĭÐ¹": 4332,
      "ÑĥÑģÑĤÐ¸ÑĩÐµÑģÐºÐ¸Ð¹": 4333,
      "ĠÐ°Ð·Ð¾ÑĤ": 4334,
      "mar": 4335,
      "ĠÐ¾Ð´Ð½Ð¾Ð¼Ð¾Ð´Ð¾Ð²": 4336,
      "ĠÐ»ÑĥÐ¶": 4337,
      "va": 4338,
      "ĠÑģÑĤÐ°Ð½Ð´Ð°ÑĢÑĤ": 4339,
      "ĠÐºÐ»ÐµÐµÐ²Ð¾Ð¹": 4340,
      "ĠÐ»ÑĥÐ¶ÑĳÐ½ÑĭÐ¹": 4341,
      "660": 4342,
      "ÐµÑı": 4343,
      "ĠÐ½ÐµÐ»": 4344,
      "050": 4345,
      "Ġ53": 4346,
      "Ð¾Ð¾ÑħÐ»Ð°Ð´Ð¸ÑĤÐµÐ»ÑĮ": 4347,
      "Ð¾Ð³Ð°": 4348,
      "ĠÐ¾ÑĤÐ²ÐµÑĤÑģÑĤÐ²Ð¾": 4349,
      "Ð°ÑĤÐ¸Ðµ": 4350,
      "ĠÑĢÑĤ": 4351,
      "Ġ81": 4352,
      "ĠÐ¾Ð¿Ð»": 4353,
      "ĠÐ°ÑĢÐ¼Ð¾Ð±Ð»Ð¾Ðº": 4354,
      "Ġconnecting": 4355,
      "Ð°Ð²ÑĤ": 4356,
      "ĠÐ¿Ð¾Ð»Ð¾ÑĤÐ½Ð¾": 4357,
      "eider": 4358,
      "Ð¿Ð»Ð¸ÑĤÐºÐ°": 4359,
      "ÐºÑĢÐµÐ¿Ð»ÐµÐ½Ð¸Ðµ": 4360,
      "neider": 4361,
      "ĠcÐµÑĩÐµÐ½Ð¸Ðµ": 4362,
      "Ġele": 4363,
      "Ġjo": 4364,
      "ĠÑĢÐ°Ð·Ð´ÐµÐ»": 4365,
      "185": 4366,
      "032": 4367,
      "ĠÐ¿Ð»Ð°ÑģÑĤÐ¸Ð½Ð°": 4368,
      "ĠÐºÐ¾Ð¼Ð¼ÑĥÑĤÐ°ÑĨÐ¸Ð¾Ð½Ð½ÑĭÐ¹": 4369,
      "ĠÐ¾Ð±ÑĬ": 4370,
      "Ġ196": 4371,
      "ĠÐ¾Ð¿Ð»ÑĳÑĤÐºÐ°": 4372,
      "au": 4373,
      "Ð½Ð¸ÑĤ": 4374,
      "ÐµÐ¿ÑĢÐ¾Ð´ÑĥÐºÑĤ": 4375,
      "Ġradi": 4376,
      "ĠÐ²Ð¾Ð´Ð¾Ð¾ÑĤÐ²Ð¾Ð´Ð½ÑĭÐ¹": 4377,
      "Ð¾Ð²Ð¾ÑĢÐ¾ÑĤ": 4378,
      "Ġpen": 4379,
      "Ġble": 4380,
      "ĠÐ¿ÑĢÐµÐ´ÐµÐ»ÑĮÐ½ÑĭÐ¹": 4381,
      "ĠÐ½Ð°ÐºÐ»Ð¾Ð½Ð½ÑĭÐ¹": 4382,
      "Ð¾Ð²Ð¾Ð»Ð¾Ðº": 4383,
      "Ð½Ð°ÐºÐ¾Ð½ÐµÑĩÐ½Ð¸Ðº": 4384,
      "ĠÐ²ÐµÐ½ÑĤÐ¸Ð»ÑıÑĨÐ¸Ñı": 4385,
      "Ð»ÑĥÑĩ": 4386,
      "ĠÐ¿ÐµÐ½Ð¾Ð¿Ð¾Ð»Ð¸ÑĥÑĢÐµÑĤÐ°Ð½": 4387,
      "ĠÑģÐ¶Ð°ÑĤÐ¸Ðµ": 4388,
      "ĠÑĦÑĢ": 4389,
      "ĠÐ°ÐºÑĥÑģÑĤÐ¸ÑĩÐµÑģÐºÐ¸Ð¹": 4390,
      "Ð¾Ð¹ÑĩÐ¸Ð²": 4391,
      "ĠmÐ¿Ð°": 4392,
      "Ġ5900": 4393,
      "ĠÑīÐµÐ»": 4394,
      "ĠÑĪÐ°Ð¼Ð¾ÑĤÐ½ÑĭÐ¹": 4395,
      "ĠÐ²Ð´": 4396,
      "ĠÐ½ÐµÑĦÑĤÐµÐ¿ÑĢÐ¾Ð´ÑĥÐºÑĤ": 4397,
      "Ġ93": 4398,
      "iiic": 4399,
      "ĠÑĦÐ¾ÑĢÐ¼": 4400,
      "83": 4401,
      "Ġtn": 4402,
      "ĠÐºÐ¾Ð½Ñģ": 4403,
      "gr": 4404,
      "ĠÑģÐ¾ÑģÑĤÐ¾": 4405,
      "ĠÐ³ÑĢÑĥÐ±ÑĭÐ¹": 4406,
      "ÑĢÐ°Ð¼Ð»ÐµÐ½Ð¸Ðµ": 4407,
      "ĠÑģÐ¾ÑģÑĤÐ¾ÑıÑĤÑĮ": 4408,
      "1803": 4409,
      "Ġ4860": 4410,
      "Ð¾ÑĤÐµÐºÑģÑĤ": 4411,
      "ĠÐ½ÐµÑģÑĤÐ¸": 4412,
      "Ġ6000": 4413,
      "ĠqÑħÐ¾Ð»": 4414,
      "Ġgl": 4415,
      "ĠÐ»Ð°ÐºÐ¾ÐºÑĢÐ°ÑģÐ¾ÑĩÐ½ÑĭÐ¹": 4416,
      "ĠÐ¿ÑĢÐ¾Ð²Ð¾Ð»Ð¾ÑĩÐ½ÑĭÐ¹": 4417,
      "ĠÐ²ÑĭÑħÐ¾Ð´Ð½Ð¾Ð¹": 4418,
      "ĠÐºÐ¾Ð²Ñĭ": 4419,
      "Ġ210": 4420,
      "Ġ720": 4421,
      "ÑĥÐ³Ð¾Ð»ÑĮ": 4422,
      "ĠÐ¼ÐµÑħÐ°Ð½Ð¸Ð·": 4423,
      "ÑģÐ¾ÑģÑĤÐ°Ð²": 4424,
      "ĠÑĢÑĥÐ±": 4425,
      "ĠÐ²Ð¾Ð´Ð½ÑĭÐ¹": 4426,
      "mineral": 4427,
      "ĠÑģÐ¾Ð³Ð»Ð°ÑģÐ½Ð¾": 4428,
      "Ð°ÑĪ": 4429,
      "ĠÐ¿ÑĢÐ¾Ð´Ñĥ": 4430,
      "ÑıÑĩÑĮ": 4431,
      "Ġdemineral": 4432,
      "Ġdemineralized": 4433,
      "ik": 4434,
      "Ð°ÑĨÐ¸Ð¾Ð½Ð½ÑĭÐ¹": 4435,
      "ĠÑģÐºÐ°": 4436,
      "Ġbro": 4437,
      "7492": 4438,
      "ĠÐ¾ÑģÑĤÐµÐº": 4439,
      "Ġ59007492": 4440,
      "Ġover": 4441,
      "Ġgen": 4442,
      "Ð¾Ð¼Ð¿Ð¾Ð½ÐµÐ½ÑĤÐ½ÑĭÐ¹": 4443,
      "ÐºÐ¾Ñģ": 4444,
      "ĠÐ¸Ð¿": 4445,
      "ĠÐ¼Ð¾ÑĢ": 4446,
      "ÑģÑĤÑĥÐ¿": 4447,
      "ĠÐ¾Ð±ÑĢÐµÐ·Ð½Ð¾Ð¹": 4448,
      "ĠÑĩÑĥÐ²ÑģÑĤÐ²Ð¸ÑĤÐµÐ»ÑĮÐ½ÑĭÐ¹": 4449,
      "083": 4450,
      "ĠÐ¼ÐµÐ»ÐºÐ¸Ð¹": 4451,
      "ĠÐ´Ð¸ÑģÑĤÐ°Ð½": 4452,
      "ĠÑģÑĤÑĢÑĥ": 4453,
      "ĠÑĢÐ°ÑģÑģ": 4454,
      "Ġtta": 4455,
      "ĠÐ¿Ð¾Ð´Ð°ÑĩÐ°": 4456,
      "ĠÑĨÐ¸Ð½ÐºÐ¾Ð²Ð°Ð½Ð¸Ðµ": 4457,
      "ĠÑĤÐµÑħÐ½Ð¾Ð»Ð¾Ð³Ð¸ÑĩÐµÑģÐºÐ¸Ð¹": 4458,
      "Ġbroen": 4459,
      "Ð»Ð°Ð½Ð´": 4460,
      "Ġ173": 4461,
      "Ġmasterseal": 4462,
      "ÑĢÐ¾Ð²ÑĭÐ¹": 4463,
      "Ġbor": 4464,
      "ĠÐ¿Ðº": 4465,
      "Ð¸ÑĤÑĭÐ²Ð°ÑĤÑĮ": 4466,
      "ĠÐ¼ÐµÐ¶Ð´Ñĥ": 4467,
      "Ð±ÐµÐ·": 4468,
      "Ð»Ð°Ð²Ð¸ÑĪÐ½ÑĭÐ¹": 4469,
      "Ġ49": 4470,
      "ĠÑĢÐµÐ»ÑĮÑģ": 4471,
      "ĠÐ¾Ð±ÑĬÐµÐºÑĤ": 4472,
      "pac": 4473,
      "ÑĢÐ°ÑģÐ¿": 4474,
      "Ġ320": 4475,
      "ĠÑħÑĢÐ°Ð½": 4476,
      "ĠÑģÐ¸Ð³Ð½Ð°Ð»": 4477,
      "ĠÐ¼Ðº": 4478,
      "ĠÐ±Ð¸": 4479,
      "ĠÑĤÐµÐ¼Ð¿ÐµÑĢÐ°ÑĤÑĥÑĢÐ½ÑĭÐ¹": 4480,
      "ÑĢÐ½ÑĭÐ¹": 4481,
      "ÑĢÐµÐ¼": 4482,
      "Ġ2248": 4483,
      "ĠÑģÐºÑĢÑĭÑĤÑĭÐ¹": 4484,
      "ĠÐ¾Ð´Ð½Ð¾ÐºÐ»Ð°Ð²Ð¸ÑĪÐ½ÑĭÐ¹": 4485,
      "ĠÐ¿Ð½Ð´": 4486,
      "ÑįÐ»ÐµÐºÑĤÑĢÐ¾Ð´": 4487,
      "ga": 4488,
      "Ġled": 4489,
      "Ġacid": 4490,
      "ĠÐºÐ¾Ð½Ð´Ð¸ÑĨÐ¸Ð¾Ð½ÐµÑĢ": 4491,
      "180370": 4492,
      "ĠÐ´ÐµÑĢÐ¶Ð°ÑĤÐµÐ»ÑĮ": 4493,
      "ĠÑĤÐ½": 4494,
      "Ð¾Ð´Ð¾ÑĢÐ¾Ð¶Ð½ÑĭÐ¹": 4495,
      "ÑģÐºÐ¾Ð¹": 4496,
      "ĠÐ°ÐºÑĢÐ¸Ð»Ð¾Ð²ÑĭÐ¹": 4497,
      "ÐºÐ¾Ð½ÑĤÑĢÐ³Ð°Ð¹ÐºÐ°": 4498,
      "uja": 4499,
      "Ð¼ÑħÐ°": 4500,
      "ĠÐ¿ÑĢÐ¾ÑĩÐ¸Ð¹": 4501,
      "Ġsl": 4502,
      "ĠÑĢÑĢÐ°Ð±": 4503,
      "ĠÑģÐ¿Ð¾ÑģÐ¾Ð±Ð½Ð¾ÑģÑĤÑĮ": 4504,
      "300101": 4505,
      "ĠÐ¿ÑĢÐµÐ´Ð½Ð°Ð¿ÑĢ": 4506,
      "ĠÐ²Ñģ": 4507,
      "ĠÐ·Ð°Ð±Ð¸Ð²Ð½Ð¾Ð¹": 4508,
      "ÐµÐ²Ð¾Ð·": 4509,
      "Ð¿ÐµÑĢÐµÐ³Ð¾ÑĢÐ¾Ð´ÐºÐ°": 4510,
      "ĠÐ³ÑĢÐ°Ð½ÑĮ": 4511,
      "ĠÑģÐ¶Ð°ÑĤÑĮ": 4512,
      "Ð»Ð°Ð½Ð´ÑĨÐµÐ¼ÐµÐ½ÑĤ": 4513,
      "ĠÐ¿ÑĢÐµÐ´Ð½Ð°Ð¿ÑĢÑıÑĩÑĮ": 4514,
      "ÑĨÐ¸Ð¾Ð½": 4515,
      "ĠÐºÐ¾Ð´": 4516,
      "ĠÑĤÐµ": 4517,
      "ĠÑįÐºÑģ": 4518,
      "Ð¾ÑģÐ°": 4519,
      "ÑĥÐ»ÑĮÑĦ": 4520,
      "Ð¿ÐºÐ²ÐºÑĤ": 4521,
      "ĠÑģategory": 4522,
      "ĠÐ¿ÐµÑĢÐµÑģ": 4523,
      "ech": 4524,
      "Ð¸ÑĦÐ¾Ð½": 4525,
      "Ð¾ÑģÐ»Ð¾Ð¹Ð½ÑĭÐ¹": 4526,
      "ÑĦÐ°Ð»ÑĮ": 4527,
      "ĠÐ·Ð°ÑĩÐ¸ÑģÑĤÐºÐ°": 4528,
      "Ġgau": 4529,
      "Ð¾ÐºÐ¸Ð¹": 4530,
      "ĠÐ¿Ð¾ÑĤÐ¾Ð»Ð¾Ðº": 4531,
      "ĠÐ¿ÐµÑĢÐµÑģÑĩÑĳÑĤ": 4532,
      "ĠÐ³ÐµÑĢÐ¼": 4533,
      "Ġ59": 4534,
      "ĠÐ¾Ð´Ð½Ð¾ÐºÐ¾Ð¼Ð¿Ð¾Ð½ÐµÐ½ÑĤÐ½ÑĭÐ¹": 4535,
      "Ġschneider": 4536,
      "Ð³Ð°Ð½Ð¸ÑĩÐµÑģÐºÐ¸Ð¹": 4537,
      "ĠÑģÑĤÐ¾": 4538,
      "Ġhy": 4539,
      "Ġgauge": 4540,
      "oma": 4541,
      "ĠÐ¿ÑĢÐ¾Ð±Ð°": 4542,
      "ĠÐ¾ÑģÐ²ÐµÑĤ": 4543,
      "dap": 4544,
      "Ġuno": 4545,
      "79": 4546,
      "ĠÑĢÐ°Ð¼": 4547,
      "Ð¼Ð°ÑģÑĤÐ¸ÐºÐ°": 4548,
      "Ġ57180370": 4549,
      "Ġadap": 4550,
      "Ġ005": 4551,
      "ÐµÐ²Ð¾Ð·ÐºÐ°": 4552,
      "Ġadapter": 4553,
      "ĠÐ¿ÑĢÐ¾Ð»Ñĳ": 4554,
      "ĠÑĪÐ°ÑĢÐ½": 4555,
      "Ġ3741": 4556,
      "ĠÐºÐ¾Ð½ÑģÐ¾Ð»ÑĮÐ½ÑĭÐ¹": 4557,
      "ĠÑĥÑĩÐ¸ÑĤÑĭÐ²Ð°ÑĤÑĮ": 4558,
      "ÐµÑĢÑı": 4559,
      "ĠÐ¿ÐµÑĢÑĩÐ°ÑĤÐºÐ°": 4560,
      "Ð²Ð°ÐºÑĥ": 4561,
      "ĠÐ¿Ð¾ÑĤÐµÑĢÑı": 4562,
      "ĠÑĢÐ¸ÑĦÐ»ÐµÐ½Ð¸Ðµ": 4563,
      "vs": 4564,
      "850": 4565,
      "ĠÐ¿ÐµÐ½Ð¾Ð¿Ð¾Ð»": 4566,
      "ĠÐ´Ð¸ÑģÑĤÐ°Ð½ÑĨÐ¸Ð¾Ð½Ð½ÑĭÐ¹": 4567,
      "425": 4568,
      "Ð±Ð°Ðº": 4569,
      "ĠÑĢÐ°ÑģÑĪÐ¸ÑĢ": 4570,
      "ĠÐ¾ÑĤÐºÐ»Ð¾Ð½": 4571,
      "ĠÑĤÐµÐ¿Ð»Ð¾Ð¸Ð·Ð¾Ð»ÑıÑĨÐ¸Ñı": 4572,
      "Ð¼ÐµÑģÑĤÐ¸Ð¼Ð¾ÑģÑĤÑĮ": 4573,
      "mer": 4574,
      "ÐºÐ¾Ð¼": 4575,
      "Ð±Ð¾Ð½": 4576,
      "Ġ311": 4577,
      "Ð¶ÑĥÑĤ": 4578,
      "Ġ86": 4579,
      "Ġcat": 4580,
      "Ð¾Ð¼ÐµÐ¶ÑĥÑĤ": 4581,
      "Ð¿Ð¼Ð½Ð³": 4582,
      "ĠÐ¾ÑĤÐºÐ»Ð¾Ð½ÐµÐ½Ð¸Ðµ": 4583,
      "Ġmul": 4584,
      "Ġ245": 4585,
      "ĠÑħÑĢÐ°Ð½ÐµÐ½Ð¸Ñı": 4586,
      "ÑĤÐ¾Ð½": 4587,
      "ĠÑĥÐ¾": 4588,
      "ĠÑĤÐ°Ð±": 4589,
      "ĠÐ°ÑĤÐ¼Ð¾ÑģÑĦÐµÑĢ": 4590,
      "ĠÐ¾ÑģÐµÐ²Ð¾Ð¹": 4591,
      "Ġswitches": 4592,
      "Ð»Ð°Ð½Ñģ": 4593,
      "Ð¾ÑıÑĤÐºÐ°": 4594,
      "ĠÑĢÐ°Ð²Ð½Ð¾Ð¿ÑĢÐ¾ÑħÐ¾Ð´Ð½ÑĭÐ¹": 4595,
      "pcs": 4596,
      "ĠÐ¼Ñį": 4597,
      "ĠÐ¿ÑĢÐ¾Ð¼ÐµÐ¶ÑĥÑĤ": 4598,
      "xy": 4599,
      "Ð¾Ð½Ð¸ÑĤ": 4600,
      "Ġ47": 4601,
      "Ð¼ÐµÑĤÑĢÐ¸ÑĩÐ½ÑĭÐ¹": 4602,
      "ĠÐ²Ð¾Ð·Ð´ÑĥÑħÐ¾Ð¾ÑħÐ»Ð°Ð´Ð¸ÑĤÐµÐ»ÑĮ": 4603,
      "ĠÐºÐ¸ÑģÐ»Ð¾ÑĤÐ°": 4604,
      "ĠÐ½ÐµÐ»ÐµÐ³Ð¸ÑĢÐ¾Ð²Ð°Ð½Ð½ÑĭÐ¹": 4605,
      "ĠÑĢÐµÐ¹ÐºÐ°": 4606,
      "Ġ128": 4607,
      "Ð»Ð°Ð½Ð³": 4608,
      "ĠÑĥÐ´Ð»Ð¸Ð½ÑĳÐ½Ð½ÑĭÐ¹": 4609,
      "ĠÑĦÐ»Ð¾ÐºÐµÐ½Ð¾ÑĩÑĥÐ²ÑģÑĤÐ²Ð¸ÑĤÐµÐ»ÑĮÐ½Ð¾ÑģÑĤÑĮ": 4610,
      "ĠÐ´Ð¾Ð±Ð°Ð²ÐºÐ°": 4611,
      "Ġ73": 4612,
      "ĠÐ¿ÐµÑĢÐµÐºÐ»ÑİÑĩÐ°ÑĤÐµÐ»ÑĮ": 4613,
      "ĠÐ²Ð¼ÐµÑģÑĤÐ¸Ð¼Ð¾ÑģÑĤÑĮ": 4614,
      "ĠÐºÐ¾Ð¼Ð¿ÑĢÐµÑģÑģ": 4615,
      "Ġcooled": 4616,
      "ĠÐ¿ÑĢÐ¾Ð¼ÐµÐ¶ÑĥÑĤÐ¾ÑĩÐ½ÑĭÐ¹": 4617,
      "ĠÐ±Ð°ÑĤ": 4618,
      "Ġfx": 4619,
      "ĠÑģÐµÐ¹ÑģÐ¼Ð¾ÑģÑĤÐ¾Ð¹ÐºÐ¾ÑģÑĤ": 4620,
      "ĠÑģÐ¼Ð¾ÑĤÑĢÐ¾Ð²Ð¾Ð¹": 4621,
      "ĠÑĤÑĢÐ°Ð½ÑģÑĦÐ¾ÑĢÐ¼Ð°ÑĤÐ¾ÑĢ": 4622,
      "ÑĤÑģ": 4623,
      "ÐºÐ¾Ð½Ð½ÑĭÐ¹": 4624,
      "ĠÑĢÐ°Ð·Ð¼ÐµÑĢÐ½ÑĭÐ¹": 4625,
      "Ġdmc": 4626,
      "ĠÐ±Ð°Ð»ÐºÐ¾Ð½Ð½ÑĭÐ¹": 4627,
      "qu": 4628,
      "ĠÐ±Ð°Ð»Ð°Ð½Ñģ": 4629,
      "ÑīÐ¸ÑĤÐ¾Ðº": 4630,
      "ĠÐ»Ð¸ÑĨÐµÐ²Ð¾Ð¹": 4631,
      "ĠÑĥÐ¿Ð°Ðº": 4632,
      "onent": 4633,
      "ĠÐ¿Ð¾Ð²Ð¸Ð²Ð½Ð¾Ð¹": 4634,
      "ĠÑģÑĤÐ¾Ð¹Ðº": 4635,
      "ĠÑįÐºÑĢÐ°Ð½Ð¸ÑĢÐ¾Ð²ÐºÐ°": 4636,
      "Ġcomponent": 4637,
      "ĠÑĢÑĥÐºÐ¾ÑıÑĤÐºÐ°": 4638,
      "ÑĢÐµÐ¼Ð½ÐµÐ·": 4639,
      "Ð°Ð½Ð´": 4640,
      "Ġ012": 4641,
      "ĠÑģÑĤÑĭÐºÐ¾Ð²Ð¾Ð¹": 4642,
      "ĠÑģÐ²ÐµÑĢÑħÑĥ": 4643,
      "ĠÐ°ÑģÐº": 4644,
      "ÐµÐ¼Ð¸ÑģÑĤÑĭÐ¹": 4645,
      "ÐºÐ°Ð±ÐµÐ»ÑĮÐ½ÑĭÐ¹": 4646,
      "Ð¾ÑĢÐ°Ð·": 4647,
      "Ð½Ð¾ÑģÑĤÐ¸": 4648,
      "ĠÑģÐ¿Ð¸ÑĢÐ°Ð»ÑĮÐ½ÑĭÐ¹": 4649,
      "ĠÐºÑĢÐµÑģÑĤÐ¾Ð¾Ð±ÑĢÐ°Ð·Ð½ÑĭÐ¹": 4650,
      "ĠÐ¾ÑĤÐ²ÐµÑĤÐ½": 4651,
      "ĠÐ»Ð°ÑĤÑĥÐ½Ð½": 4652,
      "ÑĥÐ³Ð¾Ð»ÑĮÐ½Ð¸Ðº": 4653,
      "ĠÐ±Ñĥ": 4654,
      "Ġ820": 4655,
      "ĠÐ¿Ð»Ð¸ÑĤÐºÐ°": 4656,
      "Ð¿ÑĥÑģÐºÐ°ÑĤÐµÐ»ÑĮ": 4657,
      "ĠÑħÐ¾Ð»Ð¾Ð´Ð½Ð¾ÐºÐ°ÑĤÐ°Ð½ÑĭÐ¹": 4658,
      "ĠÑĤÐµÐ¿Ð»Ð¾ÑģÐ½Ð°Ð±Ð¶ÐµÐ½Ð¸Ðµ": 4659,
      "Ð³ÑĢÐµÐ³Ð°ÑĤ": 4660,
      "bo": 4661,
      "ĠÐ°Ð¿Ð¿Ð°ÑĢÐ°ÑĤ": 4662,
      "ĠÐ³ÑĢÑĥÐ¿Ð¿": 4663,
      "ĠÐ¼ÐµÑĤÑĢ": 4664,
      "aa": 4665,
      "ĠÐ±Ð¸ÑĢ": 4666,
      "Ġdan": 4667,
      "ĠÐ³ÐµÑĢÐ¼ÐµÑĤÐ¸ÑĩÐµÑģÐºÐ¸Ð¹": 4668,
      "Ġheating": 4669,
      "ÐºÐ°Ð·Ð°ÑĤÐµÐ»ÑĮ": 4670,
      "ĠÐ¼ÐµÐ¼Ð±ÑĢÐ°Ð½Ð°": 4671,
      "Ġmulti": 4672,
      "ÐµÐ½Ð´": 4673,
      "ĠÐ½Ð¸Ð¿Ð¿ÐµÐ»ÑĮ": 4674,
      "ĠÑįÐ²Ð°ÐºÑĥ": 4675,
      "ĠÐ½Ð¸Ð·ÐºÐ¾": 4676,
      "ĠÐ³Ð°Ð·Ð¾": 4677,
      "ÑĢÐµÐ¼Ð½ÐµÐ·ÐµÐ¼Ð¸ÑģÑĤÑĭÐ¹": 4678,
      "ĠÐ¿Ð¸": 4679,
      "Ð´Ð°ÑĤÑĩÐ¸Ðº": 4680,
      "ĠÐ¸ÑģÐ¿ÑĭÑĤ": 4681,
      "ÑĢÐ°Ð±Ð¾ÑĤÐ°ÑĤÑĮ": 4682,
      "ĠÐºÐ»Ð°Ð´Ð¾ÑĩÐ½ÑĭÐ¹": 4683,
      "Ð·ÑģÐ´": 4684,
      "Ð¾Ð·Ð¾Ð½": 4685,
      "ĠÐ¿Ð¾Ð´Ð´ÐµÑĢÐ¶Ð¸Ð²Ð°ÑĤÑĮ": 4686,
      "ĠÐ¼ÑĥÐ»Ð»Ð¸ÑĤÐ¾ÐºÑĢÐµÐ¼Ð½ÐµÐ·ÐµÐ¼Ð¸ÑģÑĤÑĭÐ¹": 4687,
      "ĠÑĦÐ¾ÑĢÐ¼Ð¾Ð²Ð°Ð½Ð¸Ðµ": 4688,
      "ex": 4689,
      "ÑĤÐ¿": 4690,
      "ĠÐ²Ð¸Ð»": 4691,
      "Ð¾Ð·ÑĢÐ°ÑĩÐ½ÑĭÐ¹": 4692,
      "Ġ2004": 4693,
      "ĠÐ´Ð¾ÑĢÐ¾Ð³Ð°": 4694,
      "ator": 4695,
      "Ð½Ð¾Ð´Ð¾ÑĢÐ¾Ð¶Ð½ÑĭÐ¹": 4696,
      "Ð³Ð¿Ñģ": 4697,
      "Ġam": 4698,
      "ĠÐ±ÐµÐ·Ð¾Ð¿Ð°Ð»ÑĥÐ±": 4699,
      "Ð±Ð°Ð»ÐºÐ°": 4700,
      "ĠÐ¶ÐµÐ»ÐµÐ·Ð½Ð¾Ð´Ð¾ÑĢÐ¾Ð¶Ð½ÑĭÐ¹": 4701,
      "ĠÐ²ÑħÐ¾Ð´Ð½Ð¾Ð¹": 4702,
      "ĠÐ±ÐµÐ·Ð¾Ð¿Ð°Ð»ÑĥÐ±Ð¾ÑĩÐ½ÑĭÐ¹": 4703,
      "Ġ1737": 4704,
      "Ð²Ð¸Ð¶Ð½Ð¾Ð¹": 4705,
      "Ð¾ÑĤÐµÐºÑģÑĤÐ¸Ð»ÑĮ": 4706,
      "ĠÑģÑĥÐ»ÑĮÑĦ": 4707,
      "ĠÑĥÐ¼": 4708,
      "ĠÑģÑĤÐ°Ð»Ðµ": 4709,
      "ress": 4710,
      "ĠÐ´Ð¸ÑģÐ¿": 4711,
      "ĠÑģÐµÐ¹ÑģÐ¼Ð¾ÑģÑĤÐ¾Ð¹ÐºÐ¾ÑģÑĤÐ¸": 4712,
      "ĠÐ³ÑĢÑĥÐ¿Ð¿Ð¾Ð²Ð¾Ð¹": 4713,
      "ÑĢÐ°Ð¸Ð²Ð°ÑĤÑĮ": 4714,
      "ĠÐºÐ¾Ð¼Ð¿Ð¾Ð·Ð¸ÑĤÐ½ÑĭÐ¹": 4715,
      "Ġ002": 4716,
      "ÑĢÐ°ÑģÑĪÐ¸ÑĢ": 4717,
      "Ð¸Ð¼Ð¼ÐµÑĤÑĢÐ¸ÑĩÐ½ÑĭÐ¹": 4718,
      "ĠÐºÐ°Ð½Ð°Ð»Ð¸Ð·Ð°ÑĨÐ¸Ñı": 4719,
      "ĠÐ²ÑıÐ·ÐºÐ¾ÑģÑĤÑĮ": 4720,
      "ĠÐ¸ÑģÐ¿ÑĭÑĤÐ°ÑĤÐµÐ»ÑĮÐ½ÑĭÐ¹": 4721,
      "tive": 4722,
      "ĠÐ¶Ð°ÑĢ": 4723,
      "Ġrp": 4724,
      "ÑĥÐ³Ð»ÐµÑĢÐ¾Ð´": 4725,
      "Ġiso": 4726,
      "ĠÐ²Ð»Ð°Ð³": 4727,
      "âģ°": 4728,
      "ÑĥÐºÑĤÐ¾ÑĢ": 4729,
      "ĠÑĥÐ·": 4730,
      "ower": 4731,
      "ĠÑģÐ¸ÑĦÐ¾Ð½": 4732,
      "ĠÐ»Ð¸ÑĤÐ°": 4733,
      "Ġ710": 4734,
      "ÑĦÐ°Ð»ÑĮÑĤ": 4735,
      "201": 4736,
      "ĠÐ¾Ð¿ÑĢ": 4737,
      "Ð±Ð¸ÑĢÐºÐ°": 4738,
      "Ð¾Ð½Ð°Ñģ": 4739,
      "Ġcu": 4740,
      "annel": 4741,
      "ĠÑģÐ°Ð¼Ð¾ÐºÐ»Ðµ": 4742,
      "Ð°Ð³": 4743,
      "ÐµÐ¿Ñģ": 4744,
      "Ġppr": 4745,
      "ĠÑĦÐ¾ÑĢÐ¼Ð°": 4746,
      "ĠÐ´Ð²ÑĥÑģÑĤÐ¾ÑĢÐ¾Ð½Ð½Ð¸Ð¹": 4747,
      "grand": 4748,
      "Ð³Ð¸Ð±": 4749,
      "Ġ290": 4750,
      "Ġ2002": 4751,
      "und": 4752,
      "Ġlegrand": 4753,
      "vc": 4754,
      "Ġ2100": 4755,
      "ÑĨÐ¾Ð²ÑĭÐ¹": 4756,
      "ĠÑĤÐµÑĢÐ¼Ð¾Ð¾Ð±": 4757,
      "ÑĥÐ³Ð»ÐµÑĢÐ¾Ð´Ð¸ÑģÑĤÑĭÐ¹": 4758,
      "ĠÐ¾Ð±ÑĪ": 4759,
      "Ġ84": 4760,
      "ĠÐ¿Ð¾Ð»Ð¸Ð°": 4761,
      "Ġstand": 4762,
      "Ġfrls": 4763,
      "ĠÐ²Ð¸Ð±ÑĢÐ°ÑĨÐ¸Ñı": 4764,
      "Ð¼Ð°Ð½Ð¶ÐµÑĤÐ°": 4765,
      "ĠÐ¾ÑĤÑħÐ¾Ð´Ð¸ÑĤÑĮ": 4766,
      "ĠÑħÐ¾Ð´": 4767,
      "Ġet": 4768,
      "Ġlp": 4769,
      "ĠÑįÐºÑģÑĤÑĢÑĥÐ´Ð¸ÑĢÐ¾Ð²Ð°ÑĤÑĮ": 4770,
      "ĠÐ±Ð°Ð»Ð°Ð½ÑģÐ¸ÑĢÐ¾Ð²Ð¾ÑĩÐ½ÑĭÐ¹": 4771,
      "ÐµÐ¿ÑģÐµÐ»ÑĮÐ½ÑĭÐ¹": 4772,
      "81": 4773,
      "late": 4774,
      "Ð°ÑĪÐ½Ð¾Ð¹": 4775,
      "ĠÐ¼Ð¸Ðº": 4776,
      "ĠÐ°ÑĥÑģÑĤ": 4777,
      "ĠÐ¼Ð°Ð³": 4778,
      "Ġ324": 4779,
      "acbc": 4780,
      "ĠÐ¾Ð±ÑĢÐ°Ð¼Ð»ÐµÐ½Ð¸Ðµ": 4781,
      "ĠÑĪÑĢ": 4782,
      "ĠÑĪÑĤÐµÐ¿ÑģÐµÐ»ÑĮÐ½ÑĭÐ¹": 4783,
      "ĠÑĢÐ°ÑģÐ¿Ð°ÑĪÐ½Ð¾Ð¹": 4784,
      "ĠÑĤÑĥÑĢÐµÑĨ": 4785,
      "ĠÑģÑĤÐ°ÑĤÐ¸ÑĩÐµÑģÐºÐ¸Ð¹": 4786,
      "Ġ2011": 4787,
      "Ġvi": 4788,
      "ĠÐºÐ¾Ð¼Ð¿Ð°": 4789,
      "Ġdistil": 4790,
      "Ġdistillate": 4791,
      "km": 4792,
      "ÐµÑĤÐµÐ²Ð¾Ð¹": 4793,
      "ĠÑįÐ»": 4794,
      "em": 4795,
      "ĠÑĢÐµÐ³ÑĥÐ»Ð¸ÑĢÐ¾Ð²Ð°Ð½Ð¸Ðµ": 4796,
      "ĠÐ¾ÑģÐ²ÐµÑĤÐ¸ÑĤÐµÐ»ÑĮÐ½ÑĭÐ¹": 4797,
      "Ð¾Ð·Ð´ÑĮ": 4798,
      "ĠÑģÐ¿Ð¾": 4799,
      "ÐºÐ°ÑĤÐµÐ³Ð¾ÑĢÐ¸Ñı": 4800,
      "ĠÐ½Ð¸Ð·ÐºÐ¾ÑĥÐ³Ð»ÐµÑĢÐ¾Ð´Ð¸ÑģÑĤÑĭÐ¹": 4801,
      "ad": 4802,
      "ĠÐ²Ð¾Ð´Ð¾ÑģÑĤ": 4803,
      "ĠÐ½Ð°Ð¿ÑĢÐ°Ð²Ð»ÑıÑĤÑĮ": 4804,
      "ĠÐ¶Ð°Ð»ÑİÐ·Ñı": 4805,
      "ĠÑĢÐµÐ³ÑĥÐ»Ð¸ÑĢÐ¾Ð²ÐºÐ°": 4806,
      "ĠÐ±ÐµÐ·Ð¾Ð¿Ð°ÑģÐ½Ð¾ÑģÐ½Ð¾ÑģÑĤÐ¸": 4807,
      "ÑĩÐ°ÑģÑĤÑĮ": 4808,
      "ĠÐ³Ð¾Ð´": 4809,
      "ĠÐ·ÑĤ": 4810,
      "Ġti": 4811,
      "Ġpcs": 4812,
      "Ġpurpose": 4813,
      "Ġbp": 4814,
      "ĠÐ¾ÑħÑĢÐ°Ð½Ð½ÑĭÐ¹": 4815,
      "ÐºÐ¾Ð¼Ð¿ÐµÐ½ÑģÐ°ÑĤÐ¾ÑĢ": 4816,
      "Ð¾Ð´Ð²Ð¸Ð¶Ð½ÑĭÐ¹": 4817,
      "ĠÐ°ÑĥÑģÑĤÐµÐ½": 4818,
      "ĠÐ±ÐµÐ·Ð½Ð°Ð¿": 4819,
      "ĠÐ°Ð¼Ð½Ð°": 4820,
      "ĠÐ±ÐµÐ·Ð½Ð°Ð¿Ð¾ÑĢÐ½ÑĭÐ¹": 4821,
      "ÑĤÑĢÐ°Ð½": 4822,
      "Ð»Ð°Ð¶": 4823,
      "ÑĳÐ»ÐºÐ°": 4824,
      "ase": 4825,
      "012": 4826,
      "Ġgm": 4827,
      "ĠÐ¾Ð±ÑĬÑĳÐ¼Ð½ÑĭÐ¹": 4828,
      "ĠÑģÐ¸Ð»Ð°": 4829,
      "ĠÐ¿Ð¾Ð»Ð¸Ð¼ÐµÑĢÑĨÐµÐ¼ÐµÐ½ÑĤÐ½ÑĭÐ¹": 4830,
      "ĠÐ³ÐµÑĢÐ¼Ð¾Ð·Ð¾Ð½": 4831,
      "ĠÐ´ÑģÐ¿": 4832,
      "ĠÐ²Ð°Ð»": 4833,
      "Ð°Ð·Ð½ÑĭÐ¹": 4834,
      "ÑĥÑĢÐ¾Ð²": 4835,
      "ĠÐ¼Ð¾Ð»": 4836,
      "ĠÐ¶Ð¸Ð´": 4837,
      "Ð¾Ð¿ÐµÑĢÐµÐ´": 4838,
      "ĠÐºÐ°ÑĢ": 4839,
      "ĠÐ¾Ð²": 4840,
      "ĠÑĥÑĢÐ¾Ð²": 4841,
      "183": 4842,
      "ÑĭÐ²Ð°Ð»ÑĮÐ½Ð¸Ðº": 4843,
      "ĠÐ½ÐµÐ¿Ð¾Ð´Ð²Ð¸Ð¶Ð½ÑĭÐ¹": 4844,
      "ĠÑĢÐ°Ð·Ð´ÐµÐ»Ð¸ÑĤÐµÐ»ÑĮÐ½ÑĭÐ¹": 4845,
      "ĠÐ¼ÐµÑħÐ°Ð½Ð¸Ð·Ð¼": 4846,
      "ĠÐ¿ÑĢÐ¾Ð³": 4847,
      "Ð¾Ð¼ÐµÑĢ": 4848,
      "ĠÑĢÐ½": 4849,
      "ĠÐ¼Ð°ÑĢÑĪ": 4850,
      "ix": 4851,
      "ĠÐ½ÐµÐ¹": 4852,
      "ĠÑģÑĤÐ°ÑĢÑĤ": 4853,
      "ĠÑĦÑĥÐ½Ð´Ð°Ð¼ÐµÐ½ÑĤ": 4854,
      "ĠÐ±Ð¾Ð»ÑĮÑĪÐ¸Ð¹": 4855,
      "ĠÑĤÑĥÑĢÐµÑĨÐºÐ¸Ð¹": 4856,
      "ĠÐ¼ÐºÑģ": 4857,
      "ĠÑĢÐ¾": 4858,
      "Ġchannel": 4859,
      "86": 4860,
      "ĠÐ¼Ð¾Ð´": 4861,
      "ÐµÐ³ÑĥÐ»ÑıÑĤÐ¾ÑĢ": 4862,
      "ĠÑĤÐµÑĢÐ¼Ð¾ÑģÑĤÐ¾Ð¹ÐºÐ¸Ð¹": 4863,
      "ĠÐ¼Ð°Ð³Ð¸ÑģÑĤ": 4864,
      "Ð²Ð²Ð¾Ð´": 4865,
      "Ġ10025": 4866,
      "ĠÐºÑĢÐ¾Ð¼": 4867,
      "ĠÐ½ÐµÑģÐº": 4868,
      "ÑĤÐ¸Ð¿": 4869,
      "ĠvÐ¿Ð¾Ð»": 4870,
      "ĠÐ°ÑģÑĦÐ°Ð»ÑĮÑĤ": 4871,
      "ĠÐ¶ÑĳÐ»": 4872,
      "Ð±ÑĪÐ²Ð°": 4873,
      "let": 4874,
      "Ð½ÐµÐ²ÑĭÐ¹": 4875,
      "Ð²Ð¾Ð·": 4876,
      "ĠÐ´Ð¸Ð·": 4877,
      "ĠÑĤÐµÐ»": 4878,
      "ĠÐ½Ð°Ð¿Ð»Ð°Ð²": 4879,
      "Ġgeneral": 4880,
      "ĠÐ´Ð¿": 4881,
      "Ð°ÑĤÐ¾ÑĢÐ½ÑĭÐ¹": 4882,
      "Ġoc": 4883,
      "ĠÐ¿ÐµÑĢÐµÐ´Ð²Ð¸Ð¶Ð½Ð¾Ð¹": 4884,
      "Ð³Ð°Ð»Ð¾Ð³": 4885,
      "ĠÑĦÑĥÑĢ": 4886,
      "ĠÐ½Ð°Ð¿Ð¾Ð»Ð½Ð¸ÑĤÐµÐ»ÑĮ": 4887,
      "ĠÑĢÐµÐ·ÐµÑĢÐ²Ð½ÑĭÐ¹": 4888,
      "Ð¾ÑĨ": 4889,
      "Ð¸ÑĤÐ°ÑĤÑĮ": 4890,
      "Ġ360": 4891,
      "ĠÐ±ÐµÐ·Ð³Ð°Ð»Ð¾Ð³": 4892,
      "ĠÑĪÐ»Ð°Ð½Ð³": 4893,
      "Ð»ÑİÐº": 4894,
      "ĠÐ°Ð³ÑĢÐµÐ³Ð°ÑĤ": 4895,
      "ÑĨÐ¸Ð¾Ð½Ð°ÑĢÐ½ÑĭÐ¹": 4896,
      "440": 4897,
      "ĠÐºÐ°Ð¼ÐµÑĢÐ°": 4898,
      "Ġ2022": 4899,
      "Ġclos": 4900,
      "ĠÐ²Ð¸Ð±ÑĢÐ¾Ð¸Ð·Ð¾Ð»ÑıÑĤÐ¾ÑĢ": 4901,
      "Ð¾Ð¹ÑĩÐ¸Ð²ÑĭÐ¹": 4902,
      "ĠÐ°ÑĤÐ¼Ð¾ÑģÑĦÐµÑĢÑĭ": 4903,
      "ĠÐºÑĢÐ¾Ð¼ÐºÐ°": 4904,
      "no": 4905,
      "Ð²ÐºÐ°": 4906,
      "Ð¾ÑĤÐ¾ÑĢ": 4907,
      "Ġ92": 4908,
      "Ġ508": 4909,
      "111": 4910,
      "foss": 4911,
      "Ġdanfoss": 4912,
      "ĠÐ²Ð¾Ð´Ð¾ÑģÑĤÐ¾ÑĩÐ½ÑĭÐ¹": 4913,
      "ĠÐ´Ð¼": 4914,
      "Ð³Ðµ": 4915,
      "ten": 4916,
      "ĠÑģÑĥÐ¿ÐµÑĢ": 4917,
      "Ð°ÑīÐ¸Ð¹": 4918,
      "ĠÑģÐµÑĤÑĩÐ°ÑĤÑĭÐ¹": 4919,
      "Ġ330": 4920,
      "Ð¼ÐµÑĤÑĮ": 4921,
      "ĠÐ¿ÐµÑĢÐ²": 4922,
      "ĠÑĦÐ°Ð½ÐµÑĢÐ°": 4923,
      "Ð¾Ð»ÑĮÐºÐ¾": 4924,
      "ĠÐ¿Ð¾Ð´Ð²Ð¸": 4925,
      "Ð¼ÐµÑĤÐ°Ð»Ð»Ð¸ÑĩÐµÑģÐºÐ¸Ð¹": 4926,
      "Ð¸ÑĢÐºÑĥÐ»ÑıÑĨÐ¸Ð¾Ð½Ð½ÑĭÐ¹": 4927,
      "ĠÑĢÐ°Ð¼ÐºÐ°": 4928,
      "ĠÐ½ÐµÑģÐºÐ¾Ð»ÑĮÐºÐ¾": 4929,
      "ĠÐ¿Ð¾Ð´Ð²Ð¸Ð¶Ð½ÑĭÐ¹": 4930,
      "Ð½Ñģ": 4931,
      "ĠÐ´ÑĥÑĪ": 4932,
      "ÐºÐ°Ð¼ÐµÐ½ÑĮ": 4933,
      "Ġ66": 4934,
      "Ð¸Ð·Ð¸ÑĢÐ¾Ð²Ð°ÑĤÑĮ": 4935,
      "ĠÐ¿Ð¾Ð²ÐµÑĢÑħÐ½Ð¾ÑģÑĤ": 4936,
      "ĠÑģÐ¸Ð»Ð¸ÐºÐ¾Ð½": 4937,
      "ĠÐ¿ÑĢÐµÑģÑģÐ¾Ð²Ð°ÑĤÑĮ": 4938,
      "ĠÑĢÐ°ÑģÐº": 4939,
      "Ð°ÑģÑĤÐ¾ÑĤÐ½ÑĭÐ¹": 4940,
      "ĠÐ²ÑģÑĤÑĭÐº": 4941,
      "ms": 4942,
      "ps": 4943,
      "ĠÐ¸Ð¼ÐµÑĤÑĮ": 4944,
      "ure": 4945,
      "ĠÐ¾ÑĤÐ²ÐµÑĤÑģÑĤÐ²ÐµÐ½Ð½ÑĭÐ¹": 4946,
      "ĠÑĤÑĢÐ°Ð½ÑģÐ¿Ð¾ÑĢÑĤÐ½ÑĭÐ¹": 4947,
      "ÑħÐµÐ¼Ð°": 4948,
      "Ġ11165": 4949,
      "Ð²Ð°Ð¶": 4950,
      "178": 4951,
      "285": 4952,
      "1500": 4953,
      "Ð¾Ð²ÐµÑī": 4954,
      "ĠÐ²Ð½Ñĥ": 4955,
      "ĠÑĢÐ·": 4956,
      "108": 4957,
      "ĠÐ¿ÑĢÐ¸Ð»Ð¾Ð¶ÐµÐ½Ð¸Ðµ": 4958,
      "Ð½Ð¸ÑĤÑĥÑĢÐ°": 4959,
      "Ð¾Ð¿ÐµÑĢÐµÐ´Ð°ÑĩÐ°": 4960,
      "Ð´ÐµÑĢÐ¶": 4961,
      "Ð¼ÐµÐ´Ð½ÑĭÐ¹": 4962,
      "ÐµÑģÑĤÐ²Ð°": 4963,
      "ĠÑģÐ¿Ð¾ÐºÐ¾Ð¹Ð½ÑĭÐ¹": 4964,
      "ĠÐºÐ°ÑĩÐµÑģÑĤÐ²Ð°": 4965,
      "ĠÑģÐ°Ð¼Ð¾Ð½Ð°ÑĢ": 4966,
      "ÑĭÐ»": 4967,
      "Ð¿ÐºÐ°": 4968,
      "ĠÐ¿Ð¾Ð´ÐºÐ°ÑĤÐµÐ³Ð¾ÑĢÐ¸Ñı": 4969,
      "ĠÐ°Ð·Ðµ": 4970,
      "ÐºÐ°Ð»": 4971,
      "ĠÐ·Ð½Ð°Ðº": 4972,
      "ĠÐºÐ¾Ð½ÑĨ": 4973,
      "134": 4974,
      "ĠÑıÑīÐ¸Ðº": 4975,
      "ĠÑįÐ²Ð°ÐºÑĥÐ°ÑĨÐ¸Ð¾Ð½Ð½ÑĭÐ¹": 4976,
      "na": 4977,
      "ÑĤÐµÐ¿Ð»": 4978,
      "ĠÐ¿Ð¼": 4979,
      "ĠÐ³ÑĢÐ°Ð²Ð¸Ð¹": 4980,
      "Ð½Ð³Ð°": 4981,
      "Ð¾ÐºÐ»Ð°Ð´ÐºÐ°": 4982,
      "ĠÐ·ÐµÑĢÐ½Ð¾": 4983,
      "ĠÃ": 4984,
      "ÐµÐ¶": 4985,
      "Ġpower": 4986,
      "ÐµÐ»Ð»Ð°Ð¶": 4987,
      "ĠÑĢÐµÐ±": 4988,
      "Ġcond": 4989,
      "Ġ131": 4990,
      "ĠÐ¿Ð°ÑĢÐ°Ð¼ÐµÑĤÑĢ": 4991,
      "ĠÑĦÑĥÑĢÐ½Ð¸ÑĤÑĥÑĢÐ°": 4992,
      "ĠÑģÐ°Ð¼Ð¾Ð½Ð°ÑĢÐµÐ·Ð°": 4993,
      "Ġ260": 4994,
      "ÑįÐ²ÑįÐ²Ð½Ð³": 4995,
      "ÐµÑĢÐ°Ð·": 4996,
      "ĠÑģÑĤÐ°ÑĨÐ¸Ð¾Ð½Ð°ÑĢÐ½ÑĭÐ¹": 4997,
      "Ġheated": 4998,
      "Ġelevation": 4999,
      "Ġboric": 5000,
      "ĠÑģÐ°Ð¼Ð¾Ð½Ð°ÑĢÐµÐ·Ð°ÑİÑīÐ¸Ð¹": 5001,
      "ĠÐ²ÑĢÐ°": 5002,
      "Ð¶Ð½Ð¾Ð¹": 5003,
      "Ð¿ÑĢÐ¾ÐºÐ»Ð°Ð´ÐºÐ°": 5004,
      "ĠÐ¸Ð½ÑĦÐ¾ÑĢÐ¼Ð°": 5005,
      "ĠÑģÑĥÐ»ÑĮÑĦÐ°ÑĤ": 5006,
      "zh": 5007,
      "ĠÑĥÑĦ": 5008,
      "Ġdr": 5009,
      "Ġgas": 5010,
      "Ð°ÑĢÐ¼Ð°ÑĤÑĥÑĢÐ°": 5011,
      "ĠÑĦÑĥÐ½Ð´Ð°Ð¼ÐµÐ½ÑĤÐ½ÑĭÐ¹": 5012,
      "ĠÐ°Ð²ÑĤÐ¾Ð¼Ð¾Ð±Ð¸Ð»ÑĮÐ½ÑĭÐ¹": 5013,
      "Ð¼Ð½Ð¸ÐºÐ½ÑĥÑĤÑĮ": 5014,
      "oor": 5015,
      "ĠÐºÑģÑģ": 5016,
      "ĠÑĤÐ¾Ð¿": 5017,
      "Ġ165": 5018,
      "0120": 5019,
      "Ð´Ð²ÑĥÑĤÐ°Ð²ÑĢ": 5020,
      "Ð¿ÐµÑģÐ¾Ðº": 5021,
      "ĠÑĥÑĢÐ¾Ð²ÐµÐ½ÑĮ": 5022,
      "ĠÐ²ÑĭÑģÐ¾ÐºÐ¾": 5023,
      "ĠÐ½ÐµÐ¿ÐµÑĢ": 5024,
      "ĠÑįÐºÑģÑĨÐµÐ½ÑĤÑĢÐ¸ÑĩÐµÑģÐºÐ¸Ð¹": 5025,
      "210": 5026,
      "Ð»Ð¾Ð¼": 5027,
      "Ġ410": 5028,
      "ork": 5029,
      "ÐµÐ»ÐµÐ²ÑĭÐ¹": 5030,
      "enum": 5031,
      "ÐºÑģÐ¸Ð°Ð»ÑĮÐ½ÑĭÐ¹": 5032,
      "Ġplenum": 5033,
      "ÑĤÐ¾Ð½ÐºÐ¸Ð¹": 5034,
      "be": 5035,
      "ÐºÐ²": 5036,
      "Ð¼ÐµÐ¼": 5037,
      "Ġap": 5038,
      "Ġacting": 5039,
      "ĠÑģÑĥÐ¿ÐµÑĢÑĤÐ¾Ð½ÐºÐ¸Ð¹": 5040,
      "ĠÐ¿ÐµÑĢÐ²Ð¸ÑĩÐ½ÑĭÐ¹": 5041,
      "87": 5042,
      "ĠÑģÐµÑĤÐµÐ²Ð¾Ð¹": 5043,
      "ĠÐ¸Ð¼Ð¿": 5044,
      "ÑĢÐ°Ð¶Ð½ÑĭÐ¹": 5045,
      "ÑĦÐ°Ð·Ð½ÑĭÐ¹": 5046,
      "ĠÐ²ÑģÑĤÑĢÐ°Ð¸Ð²Ð°ÑĤÑĮ": 5047,
      "ĠÑĢÐµÐ´ÑĥÐºÑĤÐ¾ÑĢ": 5048,
      "ÐµÐ½Ð¾ÑģÐ½ÑĭÐ¹": 5049,
      "ÐµÐºÑģ": 5050,
      "Ġred": 5051,
      "ĠÐ¼Ð°Ð½Ñģ": 5052,
      "Ð¾Ð²ÐµÑīÐ°ÑĤÐµÐ»ÑĮ": 5053,
      "Ð´ÐµÑĢÐ¶ÐºÐ°": 5054,
      "320": 5055,
      "ĠÐ¾Ð½Ð°": 5056,
      "ĠÐ¿ÑĢÐ¾Ð·ÑĢÐ°ÑĩÐ½ÑĭÐ¹": 5057,
      "ÐµÐ²Ð¸Ð·": 5058,
      "Ð¿ÑĢÐ¸ÑĤÐ¾ÑĩÐ½ÑĭÐ¹": 5059,
      "ĠÐ°Ð²Ð²Ð³Ð½Ð³": 5060,
      "ÐºÐ·ÑģÐ²": 5061,
      "ĠÑģÐ°Ð¼Ð¾ÑģÐ²": 5062,
      "Ð°Ð²ÑĤÐ¾Ð¼": 5063,
      "ĠÑĤÑĢÐ¾Ñģ": 5064,
      "ical": 5065,
      "ĠÐ³Ð»Ð´Ð¼": 5066,
      "Ð¼ÐµÐ¼Ð±ÑĢÐ°Ð½Ð°": 5067,
      "ÐµÑĤÑĢ": 5068,
      "ĠÑģÐ¸Ð¼Ð¼ÐµÑĤÑĢÐ¸ÑĩÐ½ÑĭÐ¹": 5069,
      "ĠÐ²ÑĭÑģÑĤÑĥÐ¿": 5070,
      "Ġ377": 5071,
      "ĠÐ¼ÑįÐ¾": 5072,
      "ĠÑģÑĤÐ°Ð»ÐµÐ¼ÐµÐ´Ð½ÑĭÐ¹": 5073,
      "ÑĩÐ°Ð½Ð¸Ðµ": 5074,
      "ĠÐ»ÑİÑĩÐ¾Ðº": 5075,
      "ĠÐºÐ¿Ð¿Ð³ÑįÐ½Ð³": 5076,
      "ÐµÐ¿Ð°ÑĢ": 5077,
      "ĠÃ¸": 5078,
      "ĠÐ¿ÐµÑĩÑĮ": 5079,
      "ĠÐ¿ÑĢÐ¸ÑĢ": 5080,
      "Ġrj": 5081,
      "Ġcapac": 5082,
      "ĠÑĥÑģÐ°Ð´ÐºÐ°": 5083,
      "Ð»ÑıÑĤÐ¾ÑĢÐ½ÑĭÐ¹": 5084,
      "Ð¿Ð°ÑĤ": 5085,
      "ĠÐ±Ð¸ÑĢÐºÐ°": 5086,
      "Ð¾Ð¼Ð±": 5087,
      "ÑİÑģ": 5088,
      "Ġvr": 5089,
      "ÑĥÐ³Ð¾Ð²Ð¾Ð¹": 5090,
      "ĠÐ°ÑįÑĢ": 5091,
      "ĠÑĤÑĥÑĢÑĨÐ¸Ñı": 5092,
      "ÑĥÐ·Ð¾ÑĢ": 5093,
      "ĠÑĢÐµÐ·Ð¸Ð½Ð°": 5094,
      "ĠÐ¾ÐºÐ½Ð¾": 5095,
      "ĠÑģÑĤÐ°ÑĢÐµÐ½Ð¸Ðµ": 5096,
      "ĠÐ¿Ð¾Ð²ÐµÑĢÑħÐ½Ð¾ÑģÑĤÐ½ÑĭÐ¹": 5097,
      "ĠÑģÐ¸Ð»Ð¸ÐºÐ¾Ð½Ð¾Ð²ÑĭÐ¹": 5098,
      "ĠÐ¿ÑĢÐ¸ÑĢÐ¾Ð´Ð½ÑĭÐ¹": 5099,
      "530": 5100,
      "650": 5101,
      "004": 5102,
      "ÑįÐ»Ð°ÑģÑĤ": 5103,
      "Ġflange": 5104,
      "ĠÐ´ÑĢÐµÐ½Ð°Ð¶": 5105,
      "ĠÐ°ÑĥÑģÑĤÐµÐ½Ð¸ÑĤÐ½ÑĭÐ¹": 5106,
      "ca": 5107,
      "ĠÐºÐ°Ð¼ÐµÐ½ÑĮ": 5108,
      "Ġ104": 5109,
      "ĠÐ¿Ð¾Ð»Ð¸ÑĢÐ¾Ð²Ð°ÑĤÑĮ": 5110,
      "ĠÐ´ÑĭÐ¼Ð¾Ð²ÑĭÐ´ÐµÐ»ÐµÐ½Ð¸Ðµ": 5111,
      "ĠÐºÐ»Ð°Ð´ÐºÐ°": 5112,
      "ĠÐ·Ð°Ð³Ð¾ÑĤÐ¾Ð²ÐºÐ°": 5113,
      "Ġclosed": 5114,
      "ĠÐ¼Ð³": 5115,
      "Ġpum": 5116,
      "ĠÑģÐ»ÑĥÐ¶": 5117,
      "ĠÐ¼Ð°Ð³Ð¸ÑģÑĤÑĢÐ°Ð»ÑĮÐ½ÑĭÐ¹": 5118,
      "ĠÑģÑĥÐ»ÑĮÑĦÐ°ÑĤÐ¾ÑģÑĤÐ¾Ð¹ÐºÐ¸Ð¹": 5119,
      "ÐµÐ¿Ð°ÑĢÐ°ÑĤÐ¾ÑĢ": 5120,
      "Ð½Ð°ÑĢ": 5121,
      "ĠÐ±ÐºÐ·Ðº": 5122,
      "Ð¸Ð·Ð¾Ð»Ð¸ÑĢÐ¾Ð²Ð°Ð½Ð½ÑĭÐ¹": 5123,
      "tb": 5124,
      "ĠÑĢÐ¾Ð¼Ð±": 5125,
      "Ġfd": 5126,
      "ĠÐ±ÑĭÑģÑĤÑĢ": 5127,
      "Ð¸ÑĢÐ¿Ð¸Ñĩ": 5128,
      "410": 5129,
      "Ð¾ÑĩÐ°ÑģÑĤÐ¾ÑĤÐ½ÑĭÐ¹": 5130,
      "ĠÐ½ÐµÐ¾ÑĨÐ¸Ð½ÐºÐ¾Ð²Ð°ÑĤÑĮ": 5131,
      "ĠÐ¿Ð¾Ð²Ð¸ÑĤÑĮ": 5132,
      "ĠÑĥÑģÑĤÐ°Ð½Ð¾Ð²ÐºÐ¸": 5133,
      "ĠÐ»ÑİÐº": 5134,
      "ĠÐ±Ð°Ðº": 5135,
      "ĠÐ¾Ð½Ð¸": 5136,
      "Ġfas": 5137,
      "ĠÐ¿Ð¾Ð»ÑİÑģ": 5138,
      "ĠÐ°ÑĢÐ¼Ð¸ÑĢÐ¾Ð²Ð°Ð½Ð½ÑĭÐ¹": 5139,
      "ĠÐ¿Ð»Ð°Ð½Ðº": 5140,
      "ĠÐ¿Ð¾Ð»Ð¸Ð°Ð¼": 5141,
      "ff": 5142,
      "ÑĪÐ½ÑĥÑĢ": 5143,
      "ĠtÐ°": 5144,
      "ĠÑĦÐ°ÑĢÑĦÐ¾ÑĢÐ¾Ð²ÑĭÐ¹": 5145,
      "Ġ179": 5146,
      "ÐµÑĢÑģÐ¸Ð¾Ð½Ð½ÑĭÐ¹": 5147,
      "920": 5148,
      "Ġ170": 5149,
      "ÐµÐºÑĨÐ¸Ð¾Ð½Ð½ÑĭÐ¹": 5150,
      "ĠÑįÐ»ÐµÐºÑĤÑĢÐ¾Ð¸Ð·Ð¾Ð»ÑıÑĨÐ¸Ð¾Ð½Ð½ÑĭÐ¹": 5151,
      "Ð¾Ð³ÑĢÐµÐ²": 5152,
      "ĠÑĤÐ¿Ð¿": 5153,
      "ÑĳÑħ": 5154,
      "ĠÑģÐ²Ð¸Ð½": 5155,
      "ĠÐ¿ÐµÑĢÐµÐ½Ð¾ÑģÐ½ÑĭÐ¹": 5156,
      "ĠÑĢÐ¸ÑģÐº": 5157,
      "ĠÐ½Ð°ÐºÐ»Ð°Ð´ÐºÐ°": 5158,
      "ÐºÑĢÐµÑģÑĤ": 5159,
      "Ð·Ð¾Ð½ÑĤ": 5160,
      "Ġ17375": 5161,
      "ĠÑģÐ°Ð½": 5162,
      "ĠÐ½Ð¸ÑĤÑĮ": 5163,
      "ĠÑĤÐ´": 5164,
      "Ð¾Ð³Ð»ÑĥÑĪÐ¸ÑĤÐµÐ»ÑĮ": 5165,
      "ĠÐ¼Ð°ÑĤÐ¾Ð²ÑĭÐ¹": 5166,
      "ÑĤÑĢÑĥÐ±Ð½ÑĭÐ¹": 5167,
      "ĠÐ½Ð°Ð½Ð¾Ñģ": 5168,
      "Ġsupports": 5169,
      "ration": 5170,
      "ÑĤÐµÑĢÐ¼": 5171,
      "ĠÐ´ÑİÐ±ÐµÐ»ÑĮ": 5172,
      "ĠÑįÐ»ÐµÐºÑĤÑĢÐ¾Ð¿ÐµÑĢÐµÐ´Ð°ÑĩÐ°": 5173,
      "ber": 5174,
      "Ð¾Ð¾": 5175,
      "ÑģÐ°": 5176,
      "Ġfil": 5177,
      "ĠÐ²Ð¾Ð´ÑıÐ½Ð¾Ð¹": 5178,
      "ĠÐ·Ð°ÑīÑĳÐ»ÐºÐ°": 5179,
      "Ð²ÑĤÑĥÐ»ÐºÐ°": 5180,
      "Ð¸Ð½Ð¸": 5181,
      "Ġ510": 5182,
      "ĠÐ¿ÑĢÐ¸Ð¼Ðµ": 5183,
      "Ð¾Ð´ÐµÑĢÐ¶Ð°ÑīÐ¸Ð¹": 5184,
      "ĠÐ±ÑĥÑĢÐµÐ½Ð¸Ðµ": 5185,
      "ÐºÐ»ÐµÐ¼Ð¼Ð½Ð¸ÐºÐ½ÑĥÑĤÑĮ": 5186,
      "ĠÑĤÐ¸Ð¿Ð¾Ð²Ð¾Ð¹": 5187,
      "ĠÐ²ÑĭÐ´ÐµÑĢÐ¶Ð¸Ð²Ð°ÑĤÑĮ": 5188,
      "ĠÐ¿Ð»Ð¸Ð½ÑĤ": 5189,
      "Ð¿ÑĥÑģÐºÐ½Ð¾Ð¹": 5190,
      "ĠÐ¾ÑĤÐ²ÐµÑĤÐ²Ð»ÐµÐ½Ð¸Ðµ": 5191,
      "ĠÐ¿ÑĢÐ¸Ð¼ÐµÑĩÐ°Ð½Ð¸Ðµ": 5192,
      "ĠÑĥÐ¿ÑĢÑĥÐ³": 5193,
      "ÑĥÐ°ÑĢ": 5194,
      "ĠÑĥÐ»Ð¸ÑĩÐ½ÑĭÐ¹": 5195,
      "ĠÐ¾ÑĤÐ¿ÑĥÑģÐºÐ½Ð¾Ð¹": 5196,
      "ĠÐ»Ð¼": 5197,
      "Ġeae": 5198,
      "ĠÑģÑĢÐ¾Ðº": 5199,
      "ĠÐ³Ð²Ð¾Ð·Ð´ÑĮ": 5200,
      "ÐµÑĢÐ³": 5201,
      "Ġ136": 5202,
      "ĠÑģÑĤÐµÐºÐ»Ð¾Ð²Ð¾Ð»Ð¾Ðº": 5203,
      "Ð¾ÑıÑĢÑĥÑģÐ½ÑĭÐ¹": 5204,
      "Ġflu": 5205,
      "ĠÐ¿ÑĢÐ¾Ð¸Ð·Ð²Ð¾Ð´Ð¸ÑĤÑĮÑģÑı": 5206,
      "ÐµÑģÑĤÐ½Ñı": 5207,
      "ĠÐ¼Ð½Ð¾Ð³Ð¾ÑıÑĢÑĥÑģÐ½ÑĭÐ¹": 5208,
      "ĠÐ¸Ð·Ð²ÐµÑģÑĤÐ½Ñı": 5209,
      "ĠÑģÐ»ÑĥÐ¶Ð±Ð°": 5210,
      "Ð²Ð¿": 5211,
      "ĠÐ¾Ð¼": 5212,
      "Ġds": 5213,
      "Ġ540": 5214,
      "ÑĥÑģÐ½ÑĭÐ¹": 5215,
      "ĠÐ²ÑĤÐ¾ÑĢ": 5216,
      "Ġrock": 5217,
      "ĠÐ°Ð²ÑĤÐ¾Ð¼Ð¾Ð±Ð¸Ð»ÑĮ": 5218,
      "ĠÐ¿ÑĢÐ°Ð²": 5219,
      "ĠÐ²Ð¾Ð·": 5220,
      "Ð¼ÐµÐ½Ð½ÑĭÐ¹": 5221,
      "ÑĢÐ°Ð·Ð²ÐµÑĤÐ²Ð¸ÑĤÐµÐ»ÑĮ": 5222,
      "dw": 5223,
      "hi": 5224,
      "Ð»ÑĳÐ½ÑĭÐ¹": 5225,
      "ĠÐ¿ÐµÑĤ": 5226,
      "ĠÐ¿ÐµÐ½Ð¾Ð¿Ð¾Ð»Ð¸ÑģÑĤÐ¸ÑĢÐ¾Ð»": 5227,
      "Â·": 5228,
      "Ð¼Ð¾Ðº": 5229,
      "Ġ340": 5230,
      "Ġome": 5231,
      "ĠÑģÐµÐ¹ÑģÐ¼Ð¸ÑĩÐ½Ð¾ÑģÑĤÑĮ": 5232,
      "ĠÐ½ÐµÐ¸Ð·Ð¾Ð»Ð¸ÑĢÐ¾Ð²Ð°Ð½Ð½ÑĭÐ¹": 5233,
      "ĠÐ¾Ð±ÑīÐµÑģÑĤÐ²ÐµÐ½Ð½ÑĭÐ¹": 5234,
      "ĠÐ²Ð»Ð°Ð³Ð¾ÑģÑĤÐ¾Ð¹ÐºÐ¸Ð¹": 5235,
      "ĠÐ½Ð°Ð½Ð¾ÑģÐ¸ÑĤÑĮÑģÑı": 5236,
      "Ġ440": 5237,
      "Ġ4200": 5238,
      "ĠÑĥÐ»ÑĮÑĤ": 5239,
      "ÑħÐ¾Ð´Ð¾Ð²Ð¾Ð¹": 5240,
      "ĠÑįÐ»ÐµÐºÑĤÑĢÐ¾Ð´": 5241,
      "ĠÑĪÑĤÑĭÑĢ": 5242,
      "Ġseal": 5243,
      "Ð¾ÑģÐ½Ð¾Ð²Ð°": 5244,
      "ĠÐ¾Ð¾Ð¾": 5245,
      "Ð¿ÑĢÐ¸": 5246,
      "Ġ305": 5247,
      "Ġ32415": 5248,
      "ĠÐ²ÑĨ": 5249,
      "ĠÑĢÐµÐ¼": 5250,
      "ÑĢÑĥÐ³Ð»ÑĭÐ¹": 5251,
      "97": 5252,
      "ÑĤÑĢÐ°": 5253,
      "ÑĤÐ¸ÑĤÑĮ": 5254,
      "ĠÑģÐ¾ÑģÐ½Ð°": 5255,
      "Ð²ÑģÑĤÐ°Ð²ÐºÐ°": 5256,
      "ÑħÐ¼Ð°": 5257,
      "Ġpvc": 5258,
      "Ð¸Ð·Ð°ÑĨÐ¸Ñı": 5259,
      "ĠÑģÐ¾Ñħ": 5260,
      "ĠÐ´ÑĢÐ¾Ð±": 5261,
      "Ġ4178": 5262,
      "ĠÑĤÐµÑĢÐ¼Ð¾ÑĢÐ°ÑģÑĪÐ¸ÑĢ": 5263,
      "uel": 5264,
      "âĢ": 5265,
      "ĠÑĤÐµÑĩÐµÐ½Ð¸Ðµ": 5266,
      "Ð¸Ð²Ð°ÑĤÐµÐ»ÑĮ": 5267,
      "Ġai": 5268,
      "ĠÐ¿Ð¾Ð»ÑĥÐº": 5269,
      "Ġhp": 5270,
      "ĠÐºÑĢÐ¾Ð²Ð»Ñı": 5271,
      "Ð¾ÑĤÐ¾ÑĢÑĭÐ¹": 5272,
      "Ġpump": 5273,
      "ĠÐºÐ¾ÑĤÐ¾ÑĢÑĭÐ¹": 5274,
      "Ð»Ð°Ð¼Ð¿Ð°": 5275,
      "ĠÐ±Ð¾ÑĢÑĤ": 5276,
      "ÑĦÐ¾Ð±": 5277,
      "Ġ82": 5278,
      "Ġremo": 5279,
      "wool": 5280,
      "ĠÐ°ÐºÐºÑĥÐ¼ÑĥÐ»ÑıÑĤÐ¾ÑĢ": 5281,
      "ĠÐ¾Ð²Ð°Ð»ÑĮÐ½ÑĭÐ¹": 5282,
      "ĠÑĢÐ°Ð·Ð´ÐµÐ»ÐºÐ°": 5283,
      "Ġhi": 5284,
      "Ġ77": 5285,
      "int": 5286,
      "ĠÐ¿Ð»Ð¾ÑĤÐ½ÑĭÐ¹": 5287,
      "ĠÑģÐ¸Ð»Ð¸ÐºÐ°ÑĤÐ½ÑĭÐ¹": 5288,
      "vice": 5289,
      "Ð°Ð±": 5290,
      "ĠÑģÐµÐ¿Ð°ÑĢÐ°ÑĤÐ¾ÑĢ": 5291,
      "Ġ175": 5292,
      "Ġ215": 5293,
      "ÐµÑĤÐºÐ°Ð½ÑĭÐ¹": 5294,
      "ĠÐ¶Ð°ÑĢÐ¾ÑģÑĤÐ¾Ð¹ÐºÐ¸Ð¹": 5295,
      "ĠÑģÐ²Ð¸Ð½ÑĨÐ¾Ð²ÑĭÐ¹": 5296,
      "Ð¾Ð½Ð½Ð°": 5297,
      "Ġtr": 5298,
      "ÐµÑĤÐ¾Ð²ÑĭÐ¹": 5299,
      "ĠÑįÐ½": 5300,
      "ÐµÐ¼Ð¿ÐµÑĢÐ°ÑĤÑĥÑĢÐ½ÑĭÐ¹": 5301,
      "Ġresistant": 5302,
      "ĠÐ°ÑģÐ±": 5303,
      "Ġcapacity": 5304,
      "Ġomega": 5305,
      "ÑĥÐºÐ°Ð²": 5306,
      "Ð¾ÑĢÐºÐ°": 5307,
      "Ð¾ÑĢÑĥÐºÐ°Ð²": 5308,
      "Ð¾Ð½ÐµÑģ": 5309,
      "Ð¾Ð±ÐµÐ·": 5310,
      "Ġ101": 5311,
      "ĠÑģÐ¿ÑĢÐ°Ð²": 5312,
      "Ġsika": 5313,
      "Ð²ÑĢÐ¾Ð²ÑĭÐ¹": 5314,
      "Ð¾Ð»Ð»ÐµÑĢ": 5315,
      "ĠÐ²Ð¼": 5316,
      "ĠÐ¿Ð¾ÑĢÐ¸ÑģÑĤÑĭÐ¹": 5317,
      "Ġrockwool": 5318,
      "flex": 5319,
      "ible": 5320,
      "Ð¾ÑĩÐ½ÐµÐ½Ð¸Ðµ": 5321,
      "Ð¾Ð¿Ð°ÑģÐ½ÑĭÐ¹": 5322,
      "Ġzin": 5323,
      "550": 5324,
      "put": 5325,
      "Ð¾ÑģÐ¿": 5326,
      "tec": 5327,
      "ĠÂ±": 5328,
      "ĠÐ¿Ð¾Ð´Ð¾ÑģÐ½Ð¾Ð²Ð°": 5329,
      "145": 5330,
      "ĠÐºÐ»Ð¸Ð½": 5331,
      "Ġmoun": 5332,
      "ĠÐ°Ð½Ð°Ð»Ð¾Ð³Ð¾Ð²ÑĭÐ¹": 5333,
      "ding": 5334,
      "Ð±Ð¿": 5335,
      "ĠÐ°Ð»": 5336,
      "ĠÑĢÐ°Ð·Ð»Ð¸ÑĩÐ½ÑĭÐ¹": 5337,
      "Ð»Ð¸Ð²Ð¾": 5338,
      "ĠÐºÐ¾Ð°": 5339,
      "Ġ18599": 5340,
      "ÑĳÑĤ": 5341,
      "ĠÐ¼ÐµÑģÑĤÐ½ÑĭÐ¹": 5342,
      "ĠÐ°ÐºÐºÑĥÐ¼ÑĥÐ»ÑıÑĤÐ¾ÑĢÐ½ÑĭÐ¹": 5343,
      "Ġzinc": 5344,
      "ĠÐ¿ÑĥÐ»ÑĮÑĤ": 5345,
      "ÐºÐ°Ð´Ð°": 5346,
      "Ð°Ð½Ð°Ð»ÑĮÐ½ÑĭÐ¹": 5347,
      "Ð¶Ð¸Ð¼Ð½ÑĭÐ¹": 5348,
      "ĠÑĤÑĢÐµÑħÑħÐ¾Ð´Ð¾Ð²Ð¾Ð¹": 5349,
      "ÑģÑĤÐ°ÐºÐ°Ð´Ð°": 5350,
      "ĠÐ¿Ð¾ÐºÐ°Ð·Ð°ÑĤÐµÐ»ÑĮ": 5351,
      "ÐµÐ¸Ð²Ð°ÑĤÐµÐ»ÑĮ": 5352,
      "ĠÐ»Ð°Ð¼Ð¸Ð½": 5353,
      "ÑģÑĤÐ°Ð½ÑĨÐ¸Ñı": 5354,
      "ĠÐ±Ð¸Ð¼ÐµÑĤÐ°Ð»Ð»Ð¸ÑĩÐµÑģÐºÐ¸Ð¹": 5355,
      "ron": 5356,
      "Ð¾ÑĤÐµÐ»ÑĭÐ¹": 5357,
      "ÑĢÐ°Ð²Ð½": 5358,
      "ĠÑģÐ±Ð¾ÑĢÐ½Ð°Ñı": 5359,
      "omax": 5360,
      "ĠÐ½ÐµÑĢÐµÐ²ÐµÑĢÑģÐ¸Ð²Ð½ÑĭÐ¹": 5361,
      "ÑĤÐ¾Ðº": 5362,
      "Ġmod": 5363,
      "ĠÑĦÑĥÑĤ": 5364,
      "ĠÑĤÐµÑĢÐ¼Ð¾ÑįÐ»ÐµÐ¼ÐµÐ½ÑĤ": 5365,
      "ĠÐ¿ÑĢÐ¾Ð¸Ð·Ð²Ð¾Ð´ÑģÑĤÐ²ÐµÐ½Ð½ÑĭÐ¹": 5366,
      "089": 5367,
      "ĠÐ¿Ð¾ÑĢÑĤÐ»Ð°Ð½Ð´ÑĨÐµÐ¼ÐµÐ½ÑĤ": 5368,
      "ĠÐºÐ¾Ð°ÐºÑģÐ¸Ð°Ð»ÑĮÐ½ÑĭÐ¹": 5369,
      "sd": 5370,
      "ĠÐ²Ð¾Ð»": 5371,
      "ĠÐ¸Ð·Ð»ÑĥÑĩ": 5372,
      "ÑĦÑĥÐ½Ð´Ð°Ð¼": 5373,
      "Ð¾ÑĤÐµÐ¼Ð¿ÐµÑĢÐ°ÑĤÑĥÑĢÐ½ÑĭÐ¹": 5374,
      "ĠÑħÑĢÑĥÐ¿": 5375,
      "Ġeit": 5376,
      "ĠÐ¿Ð»Ð°ÑģÑĤÐ¸Ð½": 5377,
      "ĠÐ¼Ð¾Ð»Ð½Ð¸Ðµ": 5378,
      "ĠÑĤÐ¾Ð¿Ð»Ð¸Ð²Ð¾": 5379,
      "ÑĦÑĥÐ½Ð´Ð°Ð¼ÐµÐ½ÑĤ": 5380,
      "Ġsr": 5381,
      "105": 5382,
      "ĠÐ¿Ð»Ð¾ÑģÐºÐ¾ÑģÑĤÑĮ": 5383,
      "ÐºÐ°Ð½Ð°Ð»ÑĮÐ½ÑĭÐ¹": 5384,
      "ÑįÐ¼": 5385,
      "ÐµÐ²Ð°Ñı": 5386,
      "Ġ121": 5387,
      "ĠÐºÐ¾ÑĢÐ½ÐµÐ²Ð¾Ð¹": 5388,
      "Ġpenet": 5389,
      "ĠÐ¿Ð»Ð°ÑģÑĤÐ¸Ð½ÑĩÐ°ÑĤÑĭÐ¹": 5390,
      "ĠÐ½Ð´": 5391,
      "ĠÑĦÐ¸Ð±": 5392,
      "ÑįÐºÑģ": 5393,
      "Ġastm": 5394,
      "ĠÐ¿Ð¾Ð³ÑĢÑĥÐ¶Ð½Ð¾Ð¹": 5395,
      "ĠÑĢÐ°ÑģÑģÐµÐ¸Ð²Ð°ÑĤÐµÐ»ÑĮ": 5396,
      "Ġcondens": 5397,
      "ĠÑħÑĢÑĥÐ¿ÐºÐ¾ÑģÑĤÑĮ": 5398,
      "ĠÐ¿ÑĢÐ°": 5399,
      "ÑģÐ»Ð¾Ð¹": 5400,
      "Ġuja": 5401,
      "ĠÐ³Ð°Ð»Ð¾Ð³ÐµÐ½Ð¾Ð½ÐµÑģ": 5402,
      "Ġpenetration": 5403,
      "ĠÐ³Ð°Ð»Ð¾Ð³ÐµÐ½Ð¾Ð½ÐµÑģÐ¾Ð´ÐµÑĢÐ¶Ð°ÑīÐ¸Ð¹": 5404,
      "ÑģÐ¸ÑģÑĤÐµÐ¼Ð°": 5405,
      "ĠÐ¼Ð³ÑĢ": 5406,
      "ĠÐ½ÐµÑĢÐ°Ð·": 5407,
      "ĠÑħÑĢ": 5408,
      "ĠÐ´ÑĥÑĪÐµÐ²Ð°Ñı": 5409,
      "ÑģÐµÐ¹ÑģÐ¼": 5410,
      "Ð»Ð°Ð·": 5411,
      "Ġau": 5412,
      "Ġ67": 5413,
      "ĠÐ²ÑĭÐ´ÐµÑĢÐ¶ÐºÐ°": 5414,
      "Ð¿ÑĢÐ¾Ð²Ð¾Ð´Ð½Ð¾Ð¹": 5415,
      "ĠÑĨÐ¸ÐºÐ»Ð¸ÑĩÐµÑģÐºÐ¸Ð¹": 5416,
      "fs": 5417,
      "Ġ83": 5418,
      "203": 5419,
      "ĠÑģÐ¿Ð»Ð¸ÑĤ": 5420,
      "ĠÐ½Ð¸ÐºÐµÐ»ÐµÐ²ÑĭÐ¹": 5421,
      "130": 5422,
      "ĠÐ¿ÑĥÑģÐº": 5423,
      "ĠÐ¼Ð°ÑģÑĤÐ¸ÐºÐ°": 5424,
      "ĠÐ¾ÑĤÐ´ÐµÐ»ÑĮÐ½ÑĭÐ¹": 5425,
      "ĠÑģÐºÐ²Ð¾Ð·": 5426,
      "ĠÑĦÐ»Ð¾ÐºÐµÐ½Ð¾ÑĩÑĥÐ²ÑģÑĤÐ²Ð¸ÑĤÐµÐ»ÑĮÐ½ÑĭÐ¹": 5427,
      "ĠÐ¿Ð¾ÑĤÑĢÐµÐ±Ð¸ÑĤÐµÐ»ÑĮ": 5428,
      "Ð´Ð¾Ð½": 5429,
      "ĠÐ·Ð°ÑĤ": 5430,
      "ĠÐºÐ°ÑĤÐºÐ¾Ð²ÑĭÐ¹": 5431,
      "Ġ657": 5432,
      "ness": 5433,
      "ĠÑĥÐ¿Ð°ÐºÐ¾Ð²ÐºÐ°": 5434,
      "ÑĤÐ°Ð¶Ð½ÑĭÐ¹": 5435,
      "Ð°ÑĢÐµÑı": 5436,
      "ick": 5437,
      "ĠÑĤÐµÑħÐ½Ð¾": 5438,
      "ĠÐ½Ð°Ð¿Ð»Ð°Ð²Ð»ÑıÑĤÑĮ": 5439,
      "ĠÑĤÐµÑĢÐ¼Ð¾ÑĢÐ°ÑģÑĪÐ¸ÑĢÑıÑĤÑĮÑģÑı": 5440,
      "oper": 5441,
      "ĠÐ¼ÐºÑĢ": 5442,
      "Ð°ÑĢÐ´Ð½ÑĭÐ¹": 5443,
      "ĠÐ³Ð¸Ð¿Ñģ": 5444,
      "ĠÑįÑģÑĤÐ°ÐºÐ°Ð´Ð°": 5445,
      "ĠÐºÐ³Ð½": 5446,
      "ĠÐºÐ¾Ð½Ð¸ÑĩÐµÑģÐºÐ¸Ð¹": 5447,
      "Ġbr": 5448,
      "ĠÑįÐ»ÐµÐºÑĤÑĢÐ¾ÑĤ": 5449,
      "ĠÐ¼Ð°Ð½ÑģÐ°ÑĢÐ´Ð½ÑĭÐ¹": 5450,
      "ĠÑĢÐ¾Ð¼Ð±Ð¸ÑĩÐµÑģÐºÐ¸Ð¹": 5451,
      "ÑģÑĤÐµÐ»Ð»Ð°Ð¶": 5452,
      "ĠÐ´Ð¾Ð¼": 5453,
      "ĠÐ°Ð¸ÑĢ": 5454,
      "Ġmi": 5455,
      "ĠÑģÐ²Ð¾Ð¹ÑģÑĤÐ²Ð¾": 5456,
      "106": 5457,
      "Ð·Ð½Ð°Ðº": 5458,
      "ĠÐ¿ÑĢÐ¸Ð½": 5459,
      "Ġdb": 5460,
      "ÑĥÑģÑĤÐ¾Ð¹ÑĩÐ¸Ð²ÑĭÐ¹": 5461,
      "Ð¾Ð½Ð°ÑģÐ¾ÑģÐ½ÑĭÐ¹": 5462,
      "Ð³Ð°Ð±": 5463,
      "ĠÐ¿ÐµÐ½Ð°": 5464,
      "ĠÐºÐ½Ð¾Ð¿ÐºÐ°": 5465,
      "ĠÐ²ÐµÐ½ÑĤÐ¸": 5466,
      "0012": 5467,
      "ĠÐ·Ð°Ð¿Ð°ÑģÐ½ÑĭÐ¹": 5468,
      "Ð²Ð°Ð¶Ð¸Ð½Ð°": 5469,
      "ĠÐ¸Ð½ÑĦÐ¾ÑĢÐ¼Ð°ÑĨÐ¸Ð¾Ð½Ð½ÑĭÐ¹": 5470,
      "Ġfasten": 5471,
      "ĠÐ´Ð½Ð¸Ñī": 5472,
      "345": 5473,
      "biiic": 5474,
      "purpose": 5475,
      "006": 5476,
      "ĠÐ¿Ð»ÐµÐ½Ð°": 5477,
      "ĠÑģÐºÐ»Ð¾Ð½Ð½ÑĭÐ¹": 5478,
      "Ġ080": 5479,
      "ÑģÐ¿Ð»": 5480,
      "Ġ8084": 5481,
      "Ġep": 5482,
      "Ð¿ÐºÐ²ÑĤÐ¿Ð½Ð³": 5483,
      "ubn": 5484,
      "Ġad": 5485,
      "ĠÐ´Ð²Ð¸Ð³": 5486,
      "ĠÐ¾Ð´Ð½Ð¾ÐºÐ°Ð½Ð°Ð»ÑĮÐ½ÑĭÐ¹": 5487,
      "Ð»Ð°Ð²Ð½ÑĭÐ¹": 5488,
      "ĠÐ³Ð»ÑĥÐ±Ð¾ÐºÐ¸Ð¹": 5489,
      "Ð³ÐµÑĢÐ¼ÐµÑĤÐ¸ÑĩÐ½ÑĭÐ¹": 5490,
      "ĠÑĤÑıÐ½ÑĥÑĤÑĭÐ¹": 5491,
      "ĠÐ¾Ð¿ÑĢÐµÑģÑģ": 5492,
      "ĠÑĤÐ¿Ð¿ÑįÐ¿": 5493,
      "Ġ480": 5494,
      "ÐµÐ´ÐµÐ½Ð¸Ðµ": 5495,
      "Ġoil": 5496,
      "ĠÐ¿Ð¾Ð´Ð·ÐµÐ¼Ð½ÑĭÐ¹": 5497,
      "ĠÑģÐ¾Ð±ÑģÑĤ": 5498,
      "usy": 5499,
      "Ð°Ð³ÐµÐ½ÑĤ": 5500,
      "ĠÑģÐºÐ»Ð°Ð´": 5501,
      "ÑĥÐ»Ð°": 5502,
      "10000": 5503,
      "Ð¾Ð±ÐµÑĤÐ¾Ð½": 5504,
      "ĠÐ¾Ð´Ð½Ð¾ÐºÑĢÐ°ÑĤÐ½ÑĭÐ¹": 5505,
      "ĠÑħÑĢÐ¾Ð¼Ð¾Ð²ÑĭÐ¹": 5506,
      "Ġmultipurpose": 5507,
      "Ð¾Ð±ÐµÐ·Ð¾Ð¿Ð°ÑģÐ½ÑĭÐ¹": 5508,
      "Ð½Ð¾Ð¼": 5509,
      "ĠÑģÑģ": 5510,
      "ĠÐ¿Ð³": 5511,
      "Ġmh": 5512,
      "ĠÐ²ÑĭÐ¿Ð¾Ð»Ð½Ð¸ÑĤÑĮ": 5513,
      "ĠÑģÐ¼ÐµÑģÐ¸ÑĤÐµÐ»ÑĮ": 5514,
      "enc": 5515,
      "Ð»Ð¸Ð²Ð°Ð½Ð¸Ðµ": 5516,
      "ÑĥÐ»ÑĮÑģ": 5517,
      "ĠÑĥÑĤÐ¾ÑĩÐ½ÐµÐ½Ð¸Ðµ": 5518,
      "ĠÐºÑĥÐ»Ð°": 5519,
      "ĠÑĥÐ¿ÑĢÑĥÐ³Ð¾ÑģÑĤÑĮ": 5520,
      "020": 5521,
      "lo": 5522,
      "mm": 5523,
      "Ð½Ð¸ÑĨÐ°": 5524,
      "ÐºÐ¾Ð³": 5525,
      "Ġ206": 5526,
      "Ġbar": 5527,
      "ÑĥÑĤÐ°ÑĤÐ¾ÑĢ": 5528,
      "Ġins": 5529,
      "ĠÐ¸Ð·Ð»ÑĥÑĩÐµÐ½Ð¸Ðµ": 5530,
      "Ĺ¦": 5531,
      "Ð½Ð¾ÑĢ": 5532,
      "Ġwork": 5533,
      "ĠÐ¿Ð¾Ð´ÑģÐ»Ð¾Ð¹": 5534,
      "ĠâĹ¦": 5535,
      "Ġoverall": 5536,
      "ĠÐ´Ð¸ÑģÐ¿ÐµÑĢÑģÐ¸Ð¾Ð½Ð½ÑĭÐ¹": 5537,
      "Ð°ÑĤÐµÑĢÐ¼Ñĭ": 5538,
      "Ġ004": 5539,
      "9130": 5540,
      "Ð¾Ð¿Ð¾": 5541,
      "ĠÑĥÐ´ÐµÑĢÐ¶Ð¸Ð²Ð°ÑĤÑĮ": 5542,
      "Ġ3743": 5543,
      "ÑĢÐµÐ¼ÐµÐ½Ð½ÑĭÐ¹": 5544,
      "Ð¿Ð¾Ð²Ð¾ÑĢÐ¾ÑĤ": 5545,
      "Ġcr": 5546,
      "Ġme": 5547,
      "ĠÑįÐ»ÐµÐºÑĤÑĢÐ¾Ð½Ð½ÑĭÐ¹": 5548,
      "Ð·Ð°ÐºÐ»Ð°Ð´": 5549,
      "ĠÑĥÐ´Ð°": 5550,
      "ÐµÐ¾Ð±ÑĢÐ°Ð·Ð¾Ð²Ð°ÑĤÐµÐ»ÑĮ": 5551,
      "ĠÐ¸Ð½ÑĤÐµÐ½Ñģ": 5552,
      "ĠÐ¿Ð¾Ð»ÑĥÐºÑĢÑĥÐ³Ð»ÑĭÐ¹": 5553,
      "uble": 5554,
      "ĠÎ": 5555,
      "ÐµÐ½ÐµÑĢ": 5556,
      "Ð¾Ð»Ð¸ÑĤÐ½ÑĭÐ¹": 5557,
      "Ġ61": 5558,
      "Ð¾ÑģÐº": 5559,
      "ĠÑģÐ²ÐµÑĤÐ¾": 5560,
      "Ġ31173": 5561,
      "ÑĦÑĦÐµÐºÑĤ": 5562,
      "ĠÐ²Ð¸Ð»Ð°ÑĤÐµÑĢÐ¼Ñĭ": 5563,
      "ÑĢÐ°ÑĤ": 5564,
      "ĠÑĢÐ°Ð±Ð¾ÑĤÐ°ÑĤÑĮ": 5565,
      "ĠÐ´Ð½Ð¸ÑīÐµ": 5566,
      "Ð»ÐµÐ¹": 5567,
      "Ð¾ÑĤÐ¾": 5568,
      "ĠÐ·ÐµÐ»": 5569,
      "ĠÑģÐ²Ð°ÑĢÐ¸Ð²Ð°ÑĤÑĮ": 5570,
      "ĠÐ½ÐµÐ¿ÐµÑĢÑĦÐ¾ÑĢÐ¸ÑĢÐ¾Ð²Ð°Ð½Ð½ÑĭÐ¹": 5571,
      "ĠÑģÐ°Ð¼Ð¾ÑģÐ²Ð°Ð»": 5572,
      "Ð¾Ð²Ð¾ÑĢ": 5573,
      "ÑģÑģÐµÐ¹Ð½": 5574,
      "ÑĦÑĢÐ°": 5575,
      "104": 5576,
      "Ġ509": 5577,
      "ĠÐ°Ð»ÑİÐ¼": 5578,
      "Ġflexible": 5579,
      "Ð·Ð°ÐºÐ»Ð°Ð´Ð½Ð°Ñı": 5580,
      "ĠÑĤÑĢÐ°Ð²": 5581,
      "ĠqÐ¾Ñħ": 5582,
      "ĠÐ±Ð°ÑģÑģÐµÐ¹Ð½": 5583,
      "Ġdouble": 5584,
      "ĠÑĪÐ»Ð¸ÑĦÐ¾Ð²Ð°ÑĤÑĮ": 5585,
      "ĠÑĪÑĤÐ°Ð½Ð³Ð°": 5586,
      "260": 5587,
      "ĠÐ»Ð¿": 5588,
      "ĠÐ¾Ð±ÑĢÐµÐ·": 5589,
      "ĠÐ¼ÐµÑĤÐ°Ð»Ð»Ð¾ÑĢÑĥÐºÐ°Ð²": 5590,
      "ÑĢÐµÐ´ÐµÐ»Ð¸ÑĤÐµÐ»ÑĮÐ½ÑĭÐ¹": 5591,
      "ĠÑĢÐ°ÑģÑĤÐ²Ð¾ÑĢÐ¸ÑĤÐµÐ»ÑĮ": 5592,
      "ÑĤÑĢÐ°Ð½ÑģÑĦÐ¾ÑĢÐ¼Ð°ÑĤÐ¾ÑĢ": 5593,
      "Ġmounting": 5594,
      "ÑĥÑĤÐ½ÑĭÐ¹": 5595,
      "Ð²Ð°Ð½": 5596,
      "Ġ920": 5597,
      "Ð¾Ð³ÐµÐ½Ð½ÑĭÐ¹": 5598,
      "ÑĥÑģÐµÐ½": 5599,
      "Ġcock": 5600,
      "ĠÐ³Ð¸Ð´ÑĢÐ¾ÑĦÐ¾Ð±": 5601,
      "Ġelectro": 5602,
      "ĠÑĢÐ°ÑģÐºÐ¸ÑģÐ»": 5603,
      "ĠÑģÑħÐµÐ¼Ð°": 5604,
      "ĠÐºÐ¿Ð°": 5605,
      "ĠÐºÐ·Ð°": 5606,
      "Ð¾ÐºÐ°": 5607,
      "ĠÐ´Ð²Ñĥ": 5608,
      "ĠÐ¾Ð¿ÑĢÐµÑģÑģÐ¾Ð²ÐºÐ°": 5609,
      "132": 5610,
      "310": 5611,
      "Ð½Ð¸ÑĤÐµÐ»ÑĮ": 5612,
      "Ð¿ÑĢÑĥ": 5613,
      "Ð¾Ð½ÐµÐ½ÑĤ": 5614,
      "ĠÐ·Ð¾Ð½ÑĤ": 5615,
      "Ġpart": 5616,
      "Ð¾ÑģÑĤÐ°Ð²ÐºÐ°": 5617,
      "ÐºÐ»ÐµÐ¹": 5618,
      "ĠÐºÑĥÐ¿Ð¿Ð¼Ð½Ð³": 5619,
      "330": 5620,
      "Ġ68": 5621,
      "Ð¾Ð²Ð¾Ð´ÑĩÐ¸Ðº": 5622,
      "ÐºÐ»ÐµÐ¹ÐºÐ°": 5623,
      "ĠÐ½ÐµÑģÑĥÑīÐ¸Ð¹": 5624,
      "ĠÐ·ÐµÐ»ÑĳÐ½ÑĭÐ¹": 5625,
      "ĠÑĢÐ°ÑģÐºÐ¸ÑģÐ»ÐµÐ½Ð½ÑĭÐ¹": 5626,
      "2248": 5627,
      "560": 5628,
      "ler": 5629,
      "Ð²Ð¸Ð½ÑĤ": 5630,
      "ĠÐ¼Ñģ": 5631,
      "Ġ270": 5632,
      "Ġmn": 5633,
      "ĠÑģÑĤÑıÐ¶ÐºÐ°": 5634,
      "Ð¸ÑĩÐµÑģÐºÐ¸": 5635,
      "ĠÐ¿Ð°ÑģÑģ": 5636,
      "ÑĢÑıÐ´Ð½ÑĭÐ¹": 5637,
      "ling": 5638,
      "ĠÐ²ÑĢÐµÐ·ÐºÐ°": 5639,
      "Ġ3500": 5640,
      "Ġ103": 5641,
      "ĠÐ¿Ð¾Ð»Ð¸ÐºÐ°ÑĢ": 5642,
      "act": 5643,
      "Ġradial": 5644,
      "Ġ000": 5645,
      "Ð³Ð¼Ð°": 5646,
      "ĠÐ²Ð¸ÑĤÐ°": 5647,
      "Ġ75245": 5648,
      "ÑĥÐºÐ°ÑĤ": 5649,
      "ĠtzÑĤÐ¸Ð¿": 5650,
      "mary": 5651,
      "Ġ75245920": 5652,
      "ĠÐ¼Ð²": 5653,
      "ĠÐ´ÐµÑĦÐ¾ÑĢ": 5654,
      "ĠÐ¾ÑĩÐ¸ÑģÑĤ": 5655,
      "Ð¸ÑĤÐ¸Ð½Ð³": 5656,
      "Ð¾ÑĤÐº": 5657,
      "ĠÑĢÐµÐ²Ð¸Ð·": 5658,
      "alog": 5659,
      "121": 5660,
      "Ġplus": 5661,
      "ĠÑĥÑĤÐµÐ¿Ð»Ð¸ÑĤÑĮ": 5662,
      "ĠÐ»Ð°Ð¼Ð¸Ð½Ð¸ÑĢÐ¾Ð²Ð°ÑĤÑĮ": 5663,
      "ĠÐ¿Ð¾Ð»Ð¸ÐºÐ°ÑĢÐ±Ð¾Ð½": 5664,
      "ÑĢÐ¸Ð³ÐµÐ»ÑĮ": 5665,
      "ĠÐ¿Ð¸Ð»": 5666,
      "Ġâī": 5667,
      "ĠÐ½Ð¾ÑĢÐ¼Ð¸ÑĢÐ¾Ð²Ð°ÑĤÑĮ": 5668,
      "ĠÐ¸Ð·Ð¾Ð»ÑıÑĤÐ¾ÑĢ": 5669,
      "Ġworking": 5670,
      "Ġ640": 5671,
      "ĠÑĦÐµÑĢ": 5672,
      "Ġ840": 5673,
      "eli": 5674,
      "ĠÐ²Ð¾Ð´Ð¾Ð¾ÑĤ": 5675,
      "Ð½Ð°Ð¿Ð¾ÑĢ": 5676,
      "Ġcondensate": 5677,
      "ÑĭÐ½ÐºÐ°": 5678,
      "ĠÐºÐ°ÑĢÑĮÐµÑĢ": 5679,
      "ĠiiiÑĤÑĮ": 5680,
      "ĠÑįÐ¿Ð´Ð¼": 5681,
      "Ġsing": 5682,
      "Ð¾ÑģÐ¼": 5683,
      "ĠÑĨÐ¸ÑĦ": 5684,
      "ĠÑĢÐµÐ°": 5685,
      "ĠÑĤÐ¾ÑĢÐµÑĨ": 5686,
      "ĠÑĩÐµÑĤÑĭÑĢÐµÑħÐ¿Ð¾Ð»ÑİÑģÐ½ÑĭÐ¹": 5687,
      "Ġcc": 5688,
      "Ð¸Ð¿Ð°": 5689,
      "ĠÐºÐ¾Ð¼Ð¿Ð¾Ð½ÐµÐ½ÑĤ": 5690,
      "Ġeaa": 5691,
      "Ġhea": 5692,
      "Ð»Ð¸Ð·Ð°ÑĤÐ¾ÑĢ": 5693,
      "ĠÐºÐ¼Ð¿ÑįÐ²ÑįÐ²Ð½Ð³": 5694,
      "ĠÑĤÐµÑĢÐ¼Ð¾Ð¾Ð±ÑĢÐ°Ð±Ð¾ÑĤÐ°ÑĤÑĮ": 5695,
      "Ġdt": 5696,
      "Ð²Ð¾Ð´Ð°": 5697,
      "ĠÐ²Ð·Ð»Ð¾Ð¼": 5698,
      "ĠÐ³ÐµÐ¾ÑĤÐµÐºÑģÑĤÐ¸Ð»ÑĮ": 5699,
      "Ġelectrom": 5700,
      "ÑģÐ½": 5701,
      "Ð·Ð½Ð°Ñĩ": 5702,
      "ĠÐ¸ÑģÑĤ": 5703,
      "ĠÐ²Ð¾ÑĢ": 5704,
      "Ð¾ÑĤÐ¸Ð»": 5705,
      "Ð¸Ð·Ð¾ÑĤÐ¸Ð»": 5706,
      "sing": 5707,
      "Ġinter": 5708,
      "ÑĥÐºÑĨÐ¸Ð¾Ð½Ð½ÑĭÐ¹": 5709,
      "ĠÐ½Ð°ÑĤÑıÐ¶Ð½Ð¾Ð¹": 5710,
      "ĠÐ¸Ð·Ð¾Ð»ÑıÑĨÐ¸Ð¾Ð½Ð½ÑĭÐ¹": 5711,
      "Ġsingle": 5712,
      "ĠÐ±ÑĥÑĤ": 5713,
      "Ð¸ÐºÑĥÐ»": 5714,
      "cess": 5715,
      "ÑĥÐ½Ð¸ÐºÐ°": 5716,
      "ukc": 5717,
      "ÑĤÐ¾ÑĢÐ½ÑĭÐ¹": 5718,
      "Ð¸Ð½ÐºÐ°": 5719,
      "Ġtra": 5720,
      "Ġ535": 5721,
      "ĠÑĢÐµÑĨ": 5722,
      "ĠÑĤÐ¾ÐºÐ¾Ð¿Ð¾": 5723,
      "Ġ9130": 5724,
      "ĠÑģÐ¿Ð¸ÑĢÐ°": 5725,
      "ĠÐ¿ÑĢÐ°Ð²ÑĭÐ¹": 5726,
      "ĠÑĤÐ¾ÐºÐ¾Ð¿Ð¾Ð¸ÑģÐºÐ¾Ð²ÑĭÐ¹": 5727,
      "ap": 5728,
      "gth": 5729,
      "Ð½f": 5730,
      "Ġpr": 5731,
      "Ġpt": 5732,
      "ĠÐºÐ²Ð°": 5733,
      "Ġrt": 5734,
      "ĠÑĢÐ°ÑģÐ¿Ð¾Ð»": 5735,
      "Ð¿ÐµÑĢÐµÐº": 5736,
      "ĠÑħÑĢÐ¾Ð¼Ð¾Ð½Ð¸Ðº": 5737,
      "ÑĳÑħÑģÐ»Ð¾Ð¹Ð½ÑĭÐ¹": 5738,
      "ĠÑįÐ½ÐµÑĢÐ³": 5739,
      "ĠÐ±Ð¾ÑĢ": 5740,
      "ÐµÐ½ÑĤÐ¾ÑĩÐ½ÑĭÐ¹": 5741,
      "Ð¿ÐµÑĢÐµÐ²Ð¾Ð·ÐºÐ°": 5742,
      "Ġ18425": 5743,
      "Ġthick": 5744,
      "ÑĪÐ¿Ð¾Ð½ÐºÐ°": 5745,
      "Ġ18425183": 5746,
      "lp": 5747,
      "Ð¿ÑĤÐµÑĢ": 5748,
      "ĠÑįÑģÐº": 5749,
      "ĠÑįÑĦÑĦÐµÐºÑĤ": 5750,
      "Ġprimary": 5751,
      "ĠÐ¼Ð¾ÑĢÑģÐºÐ¾Ð¹": 5752,
      "ĠÐ¸Ð½ÑĤÐµÐ½ÑģÐ¸Ð²Ð½Ð¾ÑģÑĤÑĮ": 5753,
      "ĠÐºÑĤ": 5754,
      "Ð¾ÑĢÐ³Ð°Ð½Ð¸ÑĩÐµÑģÐºÐ¸Ð¹": 5755,
      "ÐµÐ·Ð½ÑĭÐ¹": 5756,
      "ĠÐ¿Ð¸ÑĤÐ°ÑĤÐµÐ»ÑĮÐ½ÑĭÐ¹": 5757,
      "Ð²ÐµÐ½ÑĤÐ¸Ð»ÑĮ": 5758,
      "ÑģÑĤÐµÐ½Ð´": 5759,
      "Ð¾Ð½Ð¾Ð¼Ð½ÑĭÐ¹": 5760,
      "Ð½Ð°ÑģÑĤ": 5761,
      "ĠÐ¿Ð²Ð¿": 5762,
      "Ð²Ð¾ÑĢÐ¾Ð½ÐºÐ°": 5763,
      "Ġspr": 5764,
      "ĠÑĢÐ°ÑģÑĪÐ¸ÑĢÐµÐ½Ð¸Ðµ": 5765,
      "Ð°Ð½Ð´Ð°Ð¶": 5766,
      "ĠÐ´Ð¸Ð·ÐµÐ»ÑĮÐ½ÑĭÐ¹": 5767,
      "1100": 5768,
      "ĠÐºÐ°ÑģÑģ": 5769,
      "ĠÑĢÐ¸Ð³ÐµÐ»ÑĮ": 5770,
      "ĠÐºÐ¾Ð¼Ð¿ÐµÐ½ÑģÐ°ÑĤÐ¾ÑĢ": 5771,
      "Ġlog": 5772,
      "ĠÑĪÐ°ÑĢÐ½Ð¸ÑĢÐ½ÑĭÐ¹": 5773,
      "5285": 5774,
      "Ð·Ð¸Ð¾Ð½Ð½ÑĭÐ¹": 5775,
      "ĠÐ»ÐµÐ½ÑĤÐ¾ÑĩÐ½ÑĭÐ¹": 5776,
      "Ð½Ð°Ð¿Ð¾Ð»Ð½Ð¸ÑĤÑĮ": 5777,
      "ĠÐ³Ð°Ð·Ð¾Ð¿ÑĢÐ¾Ð²Ð¾Ð´Ð½ÑĭÐ¹": 5778,
      "Ġinst": 5779,
      "ĠÐ¿Ð¿Ñĥ": 5780,
      "Ġisw": 5781,
      "Ð¿ÐºÐ²ÐºÑĤÑįÐ½Ð³": 5782,
      "ĠÐ°ÑģÑĦÐ°Ð»ÑĮÑĤÐ¾Ð±ÐµÑĤÐ¾Ð½Ð½ÑĭÐ¹": 5783,
      "112": 5784,
      "380": 5785,
      "ĠÐ¾ÑĤÑĢÐ°Ð¶": 5786,
      "Ġqnom": 5787,
      "ĠÐ¾Ð´Ð½Ð¾ÑģÐ»Ð¾Ð¹Ð½ÑĭÐ¹": 5788,
      "ĠÐ¸ÑĤÐ¾Ð³": 5789,
      "Ġfluid": 5790,
      "Ġaisi": 5791,
      "ab": 5792,
      "ĠÐ¿Ñı": 5793,
      "ÑİÑī": 5794,
      "ÐºÐ¾Ð¼Ð¿Ð»ÐµÐºÑģ": 5795,
      "ĠÐ½Ð°Ð»Ð¸Ð²Ð½Ð¾Ð¹": 5796,
      "Ð¾ÑĢÐ°Ð·Ð¼ÐµÑĢ": 5797,
      "Ġ274": 5798,
      "ĠÐ¿ÑĢÑĥÑĤ": 5799,
      "Ġser": 5800,
      "Ð±ÑĪÐ²Ð½Ð³": 5801,
      "270": 5802,
      "325": 5803,
      "ÑĥÐ°ÑĢÐ½ÑĭÐ¹": 5804,
      "ĠÐ¿ÑĢÐ¾Ñģ": 5805,
      "Ġrxy": 5806,
      "ĠÑĤÐµÑĢÐ¼Ð¾Ð¿Ð»Ð°ÑģÑĤ": 5807,
      "ĠÑĨÐ¸Ð½ÐºÐ½Ð°Ð¿Ð¾Ð»Ð½Ð¸ÑĤÑĮ": 5808,
      "Ġhsa": 5809,
      "Ġdrain": 5810,
      "ĠÐ¿ÐµÑĤÐ»Ð¸ÑĤÑĮ": 5811,
      "ĠÑħÑĢÐ¸Ð·Ð¾ÑĤÐ¸Ð»": 5812,
      "ÐºÐ¾Ð³Ð¾Ð²Ð¾ÑĢ": 5813,
      "Ġrxyq": 5814,
      "Ð¼ÐµÐºÑģ": 5815,
      "ĠÑĤÐ¸Ð¿Ð¾ÑĢÐ°Ð·Ð¼ÐµÑĢ": 5816,
      "Ġna": 5817,
      "Ġft": 5818,
      "1800": 5819,
      "Ð°Ð¶Ð¸Ð²Ð°ÑĤÑĮÑģÑı": 5820,
      "Ġsteam": 5821,
      "ĠÑĥÑģÐ°Ð¶Ð¸Ð²Ð°ÑĤÑĮÑģÑı": 5822,
      "Ġthickness": 5823,
      "Ġlogic": 5824,
      "ĠÐ¾Ð¶": 5825,
      "ĠÐ»Ð±Ð¾": 5826,
      "Ġfuel": 5827,
      "ĠÐ¿Ð¾Ð»Ñĥ": 5828,
      "Ð¾Ð¶Ð½Ð¾ÑģÑĤÑĮ": 5829,
      "ĠÑģÐ»Ð¸Ð²Ð½Ð¾Ð¹": 5830,
      "ĠÐ¾ÑĤÐºÑĢÑĭÐ²": 5831,
      "ĠÐ°ÑĢÑĤÐ¸ÐºÑĥÐ»": 5832,
      "Ð¿ÐµÑĢÐµÐºÐ»ÑİÑĩÐ°ÑĤÐµÐ»ÑĮ": 5833,
      "ĠÐ¼Ñı": 5834,
      "ĠÐ´Ð¾Ð²Ð¾Ð´ÑĩÐ¸Ðº": 5835,
      "ÑĩÐºÐ¾Ð²ÑĭÐ¹": 5836,
      "ĠÑįÐ¼Ð¿": 5837,
      "ĠÑĪÐ²": 5838,
      "Ð¿ÑģÑĥÐ»Ð°": 5839,
      "ĠÐ°Ð²ÑĤÐ¾Ð½Ð¾Ð¼Ð½ÑĭÐ¹": 5840,
      "ĠÑģÑĤÐ°ÑĢÐ¼ÐµÐºÑģ": 5841,
      "ĠÐºÑĥÐ»Ð°ÑĩÐºÐ¾Ð²ÑĭÐ¹": 5842,
      "ÑģÑĩÑĳÑĤÑĩÐ¸Ðº": 5843,
      "Ð¾Ð½Ð¸ÑĤÑĮ": 5844,
      "ĠÐ¿Ð¾Ð»ÑĥÑĦ": 5845,
      "ĠÑĨÐ°": 5846,
      "Ð½Ð¸ÐºÐ¾Ð²ÑĭÐ¹": 5847,
      "ĠÐ¼Ð¾Ð½Ð¾Ð»Ð¸ÑĤÐ½ÑĭÐ¹": 5848,
      "Ġlength": 5849,
      "ÑĢÐ°ÑģÐ¿ÑĢÐµÐ´ÐµÐ»Ð¸ÑĤÐµÐ»ÑĮÐ½ÑĭÐ¹": 5850,
      "Ġxl": 5851,
      "0025": 5852,
      "Ġ670": 5853,
      "Ġpol": 5854,
      "ĠÐºÐ°ÑĩÐµÑģÑĤÐ²ÐµÐ½Ð½ÑĭÐ¹": 5855,
      "1250": 5856,
      "ĠÐ³ÑĢÑĥÐ½ÑĤÐ¾Ð²Ð¾ÑĩÐ½ÑĭÐ¹": 5857,
      "Ġconnector": 5858,
      "ĠÑĤÑĢÐ¾ÑĤ": 5859,
      "ĠÐ°Ð½ÑĤÐ¸Ð¿": 5860,
      "Ġ4863": 5861,
      "ĠÐ½Ð°ÑĤÑĢ": 5862,
      "ency": 5863,
      "ĠÐ¿ÑıÑĤÑĭÐ¹": 5864,
      "cm": 5865,
      "Ġ422": 5866,
      "ĠÑĥÑĩÑĳÑĤ": 5867,
      "Ġix": 5868,
      "ĠÐ¿ÑĢÐ¾ÐºÐ°ÑĤÐ½ÑĭÐ¹": 5869,
      "ĠÑģÐ»ÐµÐ´": 5870,
      "ĠÐ½Ð°ÑģÑĤÑĢ": 5871,
      "ĠÑīÐµÐ»ÐµÐ²Ð¾Ð¹": 5872,
      "ĠÑĢÐµÐ±ÑĢÐ¾": 5873,
      "hite": 5874,
      "Ð¿ÑĢÑĥÑĤÐ¾Ðº": 5875,
      "ĠÐ½ÐµÐ³": 5876,
      "362": 5877,
      "ĠÐ°Ð·Ð´": 5878,
      "Ġfeed": 5879,
      "iiiÑĤÑĮ": 5880,
      "ĠÑĤÑĢÐ°Ð½ÑģÐ¿Ð¾ÑĢÑĤÐ¸ÑĢÐ¾Ð²ÐºÐ°": 5881,
      "ciii": 5882,
      "Ð¿Ð¾ÑĢÐ½ÑĭÐ¹": 5883,
      "Ð¿Ð»Ð°ÑģÑĤ": 5884,
      "ÐµÐ³Ð¼ÐµÐ½ÑĤ": 5885,
      "ĠÐºÑĢÐ¾Ð¼Ðµ": 5886,
      "Ð²Ð¾ÑĢÑĩÐ°ÑĤÑĭÐ¹": 5887,
      "ĠÐ²ÑĢÐµÐ¼Ñı": 5888,
      "Ġtherm": 5889,
      ".-": 5890,
      "ĠÐ½ÐµÐ¿ÑĢ": 5891,
      "Ġwhite": 5892,
      "ĠÐ´ÐµÑĦÐ¾ÑĢÐ¼Ð°": 5893,
      "219": 5894,
      "Ð°Ð³ÑĢÐµÐ³Ð°ÑĤ": 5895,
      "ĠÑģÑĩÑĳÑĤÑĩÐ¸Ðº": 5896,
      "ĠÐ´Ð¸Ð½Ð°": 5897,
      "ĠÑĤÐ¿": 5898,
      "Ġ218": 5899,
      "Ġ235": 5900,
      "Ð°ÑĢÑĤ": 5901,
      "Ġ106": 5902,
      "Ð¾Ð»ÑĮÑĤÐ½ÑĭÐ¹": 5903,
      "ĠÐºÑĢÐ¸": 5904,
      "ĠÐ±Ð¾Ð»ÑĤÐ¾Ð²ÑĭÐ¹": 5905,
      "Ð±Ð¾Ð¹Ð½ÑĭÐ¹": 5906,
      "ÑĤÐ¸ÑĩÐµÑģÐºÐ¸Ð¹": 5907,
      "ĠÑģÐµÐ±": 5908,
      "Ð³Ð¸Ð´": 5909,
      "Ġid": 5910,
      "ÐµÐ²Ð°ÑĤÑĮÑģÑı": 5911,
      "ĠÐ¾Ð´ÐµÐ²Ð°ÑĤÑĮÑģÑı": 5912,
      "159": 5913,
      "ĠÑĢÐ°ÑģÐ¿ÑĢÐµÐ´ÐµÐ»Ð¸ÑĤÑĮ": 5914,
      "Ð¾Ð·Ð°ÑīÐ¸ÑĤÐ½ÑĭÐ¹": 5915,
      "ĠÐ¸Ð·Ð³Ð¸Ð±Ð½ÑĭÐ¹": 5916,
      "ĠÑįÑģÐºÐ½": 5917,
      "ĠÐ¼ÑıÐ³ÐºÐ¸Ð¹": 5918,
      "ĠÑģÐµÐ±Ñı": 5919,
      "Ð»ÐµÐ´": 5920,
      "ÑģÑĤÑıÐ¶ÐºÐ°": 5921,
      "ĠÑĢÐ°Ð·Ð±Ð¾ÑĢÐ½ÑĭÐ¹": 5922,
      "Ġwb": 5923,
      "ĠÐ½Ð¸Ð·ÐºÐ¾Ð»": 5924,
      "Ġmain": 5925,
      "ĠÐ¶ÐµÐ»ÐµÐ·Ð½ÑĭÐ¹": 5926,
      "ÐºÐ»Ñĳ": 5927,
      "ĠÐ¾ÑģÑĤÐµÐºÐ»ÐµÐ½Ð¸Ðµ": 5928,
      "ÐºÐ¾ÑģÑĭÐ½ÐºÐ°": 5929,
      "ĠÑĥÐ¼ÑĭÐ²Ð°Ð»ÑĮÐ½Ð¸Ðº": 5930,
      "ly": 5931,
      "ÑĢÐµÐ³ÑĥÐ»ÑıÑĤÐ¾ÑĢ": 5932,
      "Ġdk": 5933,
      "Ġ94": 5934,
      "Ġps": 5935,
      "Ð°Ð²Ð½": 5936,
      "ĠÐºÐ¾Ð»Ð¾Ð½Ð½Ð°": 5937,
      "ĠÐºÐ¾Ð¼Ð¿ÑĢÐµÑģÑģÐ¸Ð¾Ð½Ð½ÑĭÐ¹": 5938,
      "Ġspring": 5939,
      "mf": 5940,
      "Ð°Ð¹": 5941,
      "Ð¸ÑģÑĤÐ¾ÑģÑĤÑĮ": 5942,
      "ĠÐ¾ÑģÑĮ": 5943,
      "Ġcompress": 5944,
      "ĠÑĢÐ¸ÑĦÐ»ÑĳÐ½ÑĭÐ¹": 5945,
      "ĠÐ¸Ð·Ð²ÐµÑģÑĤÐ½ÑıÐºÐ¾Ð²ÑĭÐ¹": 5946,
      "ĠÐ½Ð¸Ð·ÐºÐ¾Ð»ÐµÐ³Ð¸ÑĢÐ¾Ð²Ð°Ð½Ð½ÑĭÐ¹": 5947,
      "ĠÐ±Ð°Ð½Ð´Ð°Ð¶": 5948,
      "Ð°Ð²Ð½Ð¾Ð¹": 5949,
      "Ġ2018": 5950,
      "Ġbet": 5951,
      "ĠÐ¿Ð»ÐµÑĤ": 5952,
      "ĠÑĤÑĢÐ¸": 5953,
      "ÐºÐ¾Ð»ÐµÐ½Ð¾": 5954,
      "Ġ1900": 5955,
      "ary": 5956,
      "ĠÑĦÐ¸ÐºÑģÐ°ÑĤÐ¾ÑĢ": 5957,
      "ĠÑħÑĢÐ¸Ð·Ð¾ÑĤÐ¸Ð»ÑĨÐµÐ¼ÐµÐ½ÑĤÐ½ÑĭÐ¹": 5958,
      "vr": 5959,
      "ĠÐ½Ñĥ": 5960,
      "Ġ032": 5961,
      "Ð½Ð°ÐºÐ»ÐµÐ¹ÐºÐ°": 5962,
      "ĠÐ¿Ð¾Ð»Ð¸ÑģÑĤÐ¸ÑĢÐ¾Ð»": 5963,
      "ÐµÐ²Ð°ÑĤÑĮ": 5964,
      "Ġret": 5965,
      "Ġdevice": 5966,
      "ĠÐ´ÑĥÐ±": 5967,
      "ĠÐ·Ð°ÐºÐ°ÑĤ": 5968,
      "772": 5969,
      "Ð¶ÐºÐ°": 5970,
      "ĠÐ»ÐµÐ²ÑĭÐ¹": 5971,
      "ÐºÐ¾Ð¼Ð¿Ð¾Ð·Ð¸ÑĨÐ¸Ñı": 5972,
      "ĠÑģÐ°Ð¼Ð¾Ð·": 5973,
      "ĠÑģÐºÑĢÑĥÑĤÐ¸ÑĤÑĮ": 5974,
      "ÑĭÑĩÐ½ÑĭÐ¹": 5975,
      "ĠÐ²ÑĭÐ²Ð¾Ð´Ð¸ÑĤÑĮ": 5976,
      "ĠÐ´Ð²Ð¸Ð³Ð°ÑĤÐµÐ»ÑĮ": 5977,
      "ĠÐ¿Ð»Ð°": 5978,
      "Ġite": 5979,
      "ĠÐ¾Ð±ÑĭÑĩÐ½ÑĭÐ¹": 5980,
      "Ġ1220": 5981,
      "Ð¿ÑĢÐ¾ÑĩÐ¸Ð¹": 5982,
      "Ġrec": 5983,
      "ÑĬÑıÑĢÑĥÑģÐ½ÑĭÐ¹": 5984,
      "urn": 5985,
      "ÑĢÐ¾Ð¿ÑĢ": 5986,
      "Ġline": 5987,
      "ÐºÐ¾Ð»Ð¾Ð´ÐµÑĨ": 5988,
      "Ġ052": 5989,
      "Ġcaa": 5990,
      "Ġfrs": 5991,
      "ĠÑĤÑıÐ³Ð°": 5992,
      "Ð±Ðº": 5993,
      "ÑĨÐ¸": 5994,
      "Ġ370": 5995,
      "Ġlt": 5996,
      "ĠÑĪÑĤÑĥÐºÐ°ÑĤ": 5997,
      "ĠÑĤÐµÑĢÐ¼Ð¾ÑģÑĤ": 5998,
      "ĠÐ½ÐµÑĢÐ°Ð²Ð½": 5999,
      "ÑıÐ´Ð½ÑĭÐ¹": 6000,
      "ĠÑįÐºÑģÑĤÑĢÑĥÐ·Ð¸Ð¾Ð½Ð½ÑĭÐ¹": 6001,
      "ĠÐ¿Ð¾Ð»Ð¸ÐºÐ°ÑĢÐ±Ð¾Ð½Ð°ÑĤ": 6002,
      "Ġ425": 6003,
      "Ð¸Ð·Ð¾Ð»Ð¸ÑĢÐ¾Ð²Ð°ÑĤÑĮ": 6004,
      "ĠÐ³Ð²Ñģ": 6005,
      "ĠÑĪÑĥÐ¼Ð¾Ð³Ð»ÑĥÑĪÐ¸ÑĤÐµÐ»ÑĮ": 6006,
      "val": 6007,
      "ÑĢÐ¾Ð½": 6008,
      "ĠÐ´Ð±Ð¾": 6009,
      "ĠÑĤÐº": 6010,
      "ĠÑįÐ¼Ð°": 6011,
      "Ġpar": 6012,
      "ĠÑħÐ»Ð°Ð´": 6013,
      "Ġhd": 6014,
      "ĠÐ½ÐµÐ²Ñĭ": 6015,
      "Ð¾Ð¶Ð¸ÑĤÑĮ": 6016,
      "ĠÐ³Ð¾ÑĢÐ½ÑĭÐ¹": 6017,
      "ĠÐºÐ»ÐµÐ²Ð°ÑĤÑĮ": 6018,
      "ĠÐ²ÑĭÑģÐ¾ÐºÐ¾ÑĤÐµÐ¼Ð¿ÐµÑĢÐ°ÑĤÑĥÑĢÐ½ÑĭÐ¹": 6019,
      "Ð¸ÑĤÐ°Ð½Ð¾Ð²ÑĭÐ¹": 6020,
      "ĠÐºÐ¾Ð¼Ð¿Ð»ÐµÐºÑģÐ½ÑĭÐ¹": 6021,
      "ĠÐ¿Ð¾ÐºÐ°Ð·ÑĭÐ²Ð°ÑĤÑĮ": 6022,
      "Ð¼ÑĮ": 6023,
      "Ġ79": 6024,
      "Ġws": 6025,
      "ĠÐ¿Ð¾ÑģÐ»ÐµÐ´": 6026,
      "Ð»Ð¸Ð·Ð¸ÑĢÐ¾Ð²Ð°ÑĤÑĮ": 6027,
      "ĠÑħÑĢÐ¾Ð¼Ð¾Ð½Ð¸ÐºÐµÐ»": 6028,
      "Ð»Ð²": 6029,
      "ĠÐ¿ÑĥÑĤÑĮ": 6030,
      "ĠÐ¿ÐºÑĥ": 6031,
      "ĠÐ¿Ð¾ÑģÑĤÐ°Ð²ÐºÐ°": 6032,
      "Ð¾Ð¼Ð¼": 6033,
      "Ð°Ð´Ð½ÑĭÐ¹": 6034,
      "ĠÐ¿ÐµÑĢÐµÑħÐ¾Ð´Ð½Ð¸Ðº": 6035,
      "Ð¾ÑīÐ°Ð´ÐºÐ°": 6036,
      "ĠÑģÐµÐºÑĨÐ¸Ð¾Ð½Ð½ÑĭÐ¹": 6037,
      "ĠÐ¼ÑĥÐ»Ð»Ð¸ÑĤÐ¾Ð²ÑĭÐ¹": 6038,
      "Ġsealed": 6039,
      "ÐºÐ¾Ð³Ð¾Ð²Ð¾ÑĢÐ¸ÑĤÐµÐ»ÑĮ": 6040,
      "Ð¿Ð¾ÑĢ": 6041,
      "ĠÐºÐº": 6042,
      "ĠÐ´ÑĥÐ³Ð¾Ð²Ð¾Ð¹": 6043,
      "ÑħÐ¾Ð´Ð½ÑĭÐ¹": 6044,
      "Ġ71": 6045,
      "Ð²ÐµÑĤÐ½ÑĭÐ¹": 6046,
      "ÑĥÐ¿Ð»Ð¾ÑĤ": 6047,
      "ĠÐ°Ð½ÑĤÐ¸Ð²": 6048,
      "ĠÐ¿ÐµÐ½Ð¾Ð¿Ð¾Ð»Ð¸ÑįÑĤ": 6049,
      "echan": 6050,
      "016": 6051,
      "ĠÐ½Ð¾Ð¶": 6052,
      "ÑĦÐ°Ð½ÐµÑĢÐ°": 6053,
      "ÐµÑĤÐ¸ÑĤÐ°Ð½Ð¾Ð²ÑĭÐ¹": 6054,
      "ĠÑĢÐµÐº": 6055,
      "Ġba": 6056,
      "Ð¾Ð³Ð½": 6057,
      "ĠÐ¼Ð°ÑģÑģÐ¾Ð²ÑĭÐ¹": 6058,
      "ĠÐ¿Ð½ÐµÐ²": 6059,
      "ÑĳÐ½Ð¾ÑĩÐ½ÑĭÐ¹": 6060,
      "isco": 6061,
      "ĠÑĦÐ°Ð·Ð°": 6062,
      "ĠÐ¿ÑĢÐµÐ´Ð½Ð°Ð·Ð½Ð°Ñĩ": 6063,
      "ĠÐºÐ½Ð¾Ð¿Ð¾ÑĩÐ½ÑĭÐ¹": 6064,
      "ĠÐºÐºÐ±Ñģ": 6065,
      "ĠÑĪÑĤÑĭÑĢÐµÐ²Ð¾Ð¹": 6066,
      "ĠÐ¿ÑĢÑĥÑĤÐ¾Ðº": 6067,
      "ĠÑħÑĢÐ¾Ð¼Ð¾Ð½Ð¸ÐºÐµÐ»ÐµÑĤÐ¸ÑĤÐ°Ð½Ð¾Ð²ÑĭÐ¹": 6068,
      "114": 6069,
      "ĠÐ¿Ñĥ": 6070,
      "ĠÐºÐ°Ð¿": 6071,
      "ĠÑĪÐ¸ÑĢÐ¾ÑĤÐ°": 6072,
      "ĠÐ±ÑĢÐ¾Ð½Ð¸ÑĢÐ¾Ð²Ð°ÑĤÑĮ": 6073,
      "ĠÐ¿Ð´": 6074,
      "Ð¾Ð½Ð¾Ð²ÑĭÐ¹": 6075,
      "ĠÑĥÐºÑģ": 6076,
      "ĠÐ½Ð°ÐºÐ°": 6077,
      "ÐµÑĩÐºÐ°": 6078,
      "ĠÐ¿ÑĢÐ¸ÑĳÐ¼Ð½ÑĭÐ¹": 6079,
      "ĠÑĢÑĪ": 6080,
      "Ġ730": 6081,
      "Ð¸Ð±Ð¾ÑĢ": 6082,
      "ĠÑģÐºÐ°Ð»ÑĮÐ½ÑĭÐ¹": 6083,
      "Ð²Ð²": 6084,
      "Ð²Ð¸Ð³": 6085,
      "117": 6086,
      "xla": 6087,
      "Ġcoun": 6088,
      "741": 6089,
      "4541": 6090,
      "Ġ762": 6091,
      "ĠÐ½ÐµÐ¹Ð»Ð¾Ð½": 6092,
      "ĠÐ²Ð¾Ð·Ð¼": 6093,
      "Ð¸Ð»Ð¸": 6094,
      "Ð¼Ð¾Ð½": 6095,
      "Ġasme": 6096,
      "Ð¾Ð¿Ð¾Ð»Ð¸Ð¼ÐµÑĢÐ½ÑĭÐ¹": 6097,
      "Ġheat": 6098,
      "ÑģÐ¿Ð»Ð¸ÑĤ": 6099,
      "ĠÐºÑĢÐ¸Ð¾Ð³ÐµÐ½Ð½ÑĭÐ¹": 6100,
      "ĠÐ½Ð°ÐºÐ°Ð»Ð¸Ð²Ð°Ð½Ð¸Ðµ": 6101,
      "cr": 6102,
      "ĠÐ¸Ð¼": 6103,
      "one": 6104,
      "Ġ950": 6105,
      "ĠpÐ½Ð°Ð¿Ð¾ÑĢ": 6106,
      "202": 6107,
      "Ġfa": 6108,
      "Ð¼Ð°Ð¶Ð½ÑĭÐ¹": 6109,
      "Ġcompact": 6110,
      "Ġ0471": 6111,
      "ĠÑĢÐ°Ð´Ð¸Ð¾ÑĩÐ°ÑģÑĤÐ¾ÑĤÐ½ÑĭÐ¹": 6112,
      "ĠÐ°ÑĢÐ¼Ð¸ÑĢÐ¾Ð²Ð°ÑĤÑĮ": 6113,
      "Ġcounter": 6114,
      "ĠÐ²Ð¾Ð·Ð¼Ð¾Ð¶Ð½Ð¾ÑģÑĤÑĮ": 6115,
      "Ð¾Ð²Ð¾Ð·Ð²": 6116,
      "ĠÐ²ÐµÐ½ÑĤÐ¸Ð»ÑĮ": 6117,
      "ĠÐ·Ð°Ð´": 6118,
      "ĠÐ·Ð°Ð´ÐµÐ»ÐºÐ°": 6119,
      "ĠÑħÐ¾Ð¼": 6120,
      "Ð¾Ð¿ÑĢÐµÐ¾Ð±ÑĢÐ°Ð·Ð¾Ð²Ð°ÑĤÐµÐ»ÑĮ": 6121,
      "eter": 6122,
      "4038": 6123,
      "Ð¸ÑĤÐ°Ð·": 6124,
      "Ð²Ð¾ÑĢÐ¾ÑĤÐ°": 6125,
      "ĠÑĪÐ¿Ð¾Ð½": 6126,
      "ĠÐºÐ¸ÑģÐ»Ð¾ÑĤÐ½ÑĭÐ¹": 6127,
      "ĠÐ°ÑįÑĢÐ¾Ð´": 6128,
      "Ġmeas": 6129,
      "ĠÐ¿Ð¾Ð»ÑĥÑĦÐ°ÑĢÑĦÐ¾ÑĢÐ¾Ð²ÑĭÐ¹": 6130,
      "ĠÐ¿ÑĢÐµÐ´Ð½Ð°Ð·Ð½Ð°ÑĩÐ¸ÑĤÑĮ": 6131,
      "Ġ04714038": 6132,
      "ĠÐ½ÐµÑĤÐºÐ°Ð½ÑĭÐ¹": 6133,
      "Ġpc": 6134,
      "Ġfc": 6135,
      "Ġ763": 6136,
      "Ð¿ÑĢÐ¸Ð±Ð¾ÑĢ": 6137,
      "ÑĤÑĢÐ°Ð¿": 6138,
      "ĠÐ¿Ð°ÑģÑģÐ¸Ð²Ð½ÑĭÐ¹": 6139,
      "ĠÐ¸ÑģÑĤÐ¾ÑĩÐ½Ð¸Ðº": 6140,
      "ĠÑĢÐ°ÑģÐ¿Ð¾Ð»Ð¾Ð¶ÐµÐ½Ð¸Ðµ": 6141,
      "pÐ°": 6142,
      "ĠÐºÐ±": 6143,
      "ĠÐºÐ»ÑİÑĩ": 6144,
      "ÑĦÐµÑĢ": 6145,
      "ĠÐ½Ð°Ð²": 6146,
      "Ġrd": 6147,
      "Ġkz": 6148,
      "ĠÐ·Ð°Ð¼ÐºÐ¾Ð²ÑĭÐ¹": 6149,
      "Ð¿ÐµÑĢÐµÑħÐ¾Ð´Ð½Ð¸Ðº": 6150,
      "ĠÐºÐ¾Ð¼Ð¿Ð°ÐºÑĤ": 6151,
      "ÐµÐ½Ð¾Ð²ÑĭÐ¹": 6152,
      "ÑĢÐ°Ñī": 6153,
      "Ġost": 6154,
      "Ġhus": 6155,
      "ÐºÐ¾Ð½Ð´": 6156,
      "Ġplant": 6157,
      "Ð¿Ð»Ð¾ÑīÐ°Ð´ÐºÐ°": 6158,
      "ĠÐ½ÐµÑĢÐ°Ð·ÑĬÑĳÐ¼Ð½ÑĭÐ¹": 6159,
      "ĠÐ¾ÑĤÑĢÐ°Ð¶Ð°ÑĤÐµÐ»ÑĮ": 6160,
      "ĠÑįÐ¼Ð°Ð»Ð¸ÑĢÐ¾Ð²Ð°ÑĤÑĮ": 6161,
      "sa": 6162,
      "ÐºÐ¸ÑĢÐ¿Ð¸Ñĩ": 6163,
      "ĠÑģÐºÐ¾ÑĢ": 6164,
      "ĠÐ¼pÐ°": 6165,
      "ÐµÐ½Ð½Ð°": 6166,
      "ĠÐ²Ð¾Ñģ": 6167,
      "Ġ390": 6168,
      "Ġml": 6169,
      "Ġtan": 6170,
      "ÑĳÐ»": 6171,
      "ĠÑĦÐº": 6172,
      "Ġmar": 6173,
      "dra": 6174,
      "ĠÑįÐ¿Ð¾ÐºÑģÐ¸Ð´": 6175,
      "ĠÐ¾ÑĨÐ¸Ð½ÐºÐ¾Ð²": 6176,
      "ÐµÑĢÑĭÐ²": 6177,
      "Ð¾Ð¿ÑĥÑģÐºÐ½Ð¾Ð¹": 6178,
      "ĠÑĦÐ¸ÑĤÐ¸Ð½Ð³": 6179,
      "Ð²Ð¾Ð¸ÑĤÑĮ": 6180,
      "ĠÑģÐ¿ÑĥÑģÐºÐ½Ð¾Ð¹": 6181,
      "Ð¾Ð³ÑĢÐ°Ð¼": 6182,
      "Ġrm": 6183,
      "ĠÐ¾Ð´Ð½Ð¾ÑĢ": 6184,
      "Ð¿Ð¾Ð»Ð¾ÑģÐ°": 6185,
      "ĠÐ´ÑĭÐ¼ÑĭÐ¹": 6186,
      "Ġeco": 6187,
      "ĠÑģÑĤÑĢÑĥÐºÑĤ": 6188,
      "ĠÐ·Ð°ÑĤÑıÐ¶ÐºÐ°": 6189,
      "Ġitems": 6190,
      "echanical": 6191,
      "ÑĢÐ¾Ð¼Ð½ÑĭÐ¹": 6192,
      "ÑĥÑĤÐ¾Ð²ÑĭÐ¹": 6193,
      "ĠÐ½Ð½": 6194,
      "ame": 6195,
      "ĠÑģÐ´Ð²Ð¸Ð³": 6196,
      "ĠÐ±Ð¸ÑĢÑģÑģ": 6197,
      "Ġfasteners": 6198,
      "ĠÑĢÐµÐ²Ð¸Ð·Ð¸Ñı": 6199,
      "ĠÐ½ÐµÐ¿ÑĢÐµÑĢÑĭÐ²": 6200,
      "mann": 6201,
      "ĠÐºÐ°Ð»": 6202,
      "ÐµÐ¼Ñı": 6203,
      "ĠÑĢÐµÐ²ÐµÑĢÑģÐ¸Ð²Ð½ÑĭÐ¹": 6204,
      "Ġhl": 6205,
      "ĠÐºÐ¾Ð½ÑĤÑĢÐ¾Ð»Ð»ÐµÑĢ": 6206,
      "ĠÐ¿ÐµÐ½Ð¾Ð¿": 6207,
      "Ð¼Ð°Ð½Ð¾Ð¼ÐµÑĤÑĢ": 6208,
      "ĠÑĤÐµÐ¾ÑĢ": 6209,
      "ĠÐ±Ð°ÑĤÐ°ÑĢÐµÑı": 6210,
      "Ġfilter": 6211,
      "280": 6212,
      "Ð¸Ð²Ð¾ÑĩÐ½ÑĭÐ¹": 6213,
      "Ð¾Ð½Ð°Ð»ÑĮÐ½ÑĭÐ¹": 6214,
      "ÑĥÐ¼Ð±Ð°": 6215,
      "ĠÐºÐ¼Ð¿Ð²Ð½Ð³": 6216,
      "ĠÐ½ÐµÐ¿ÑĢÐµÑĢÑĭÐ²Ð½ÑĭÐ¹": 6217,
      "ÑĥÐºÐ°Ð·Ð°ÑĤÐµÐ»ÑĮ": 6218,
      "ĠÐ¿ÑĢÐ¾ÑģÑĤÐ¾Ð¹": 6219,
      "ĠÐ·Ð°Ð³Ð¸Ð±": 6220,
      "ĠÐ¾ÑĤÑģ": 6221,
      "Ġ5200": 6222,
      "ĠÑĦÐ¸Ð½Ð¸": 6223,
      "ÑģÐ¼ÐµÑģÐ¸ÑĤÐµÐ»ÑĮ": 6224,
      "Ð¿ÐµÑĢÐµ": 6225,
      "Ġanalog": 6226,
      "Ġjot": 6227,
      "ĠÑĨÐ¸ÑĦÑĢÐ¾Ð²Ð¾Ð¹": 6228,
      "1400": 6229,
      "ĠÑĤÑģÐ¿": 6230,
      "Ġ610": 6231,
      "ĠÐ·Ð°Ð¼Ðº": 6232,
      "Ð»Ð°Ð¶Ð´ÐµÐ½Ð¸Ðµ": 6233,
      "Ġtem": 6234,
      "ĠÑīÐµÐ»Ð¾Ñĩ": 6235,
      "53085": 6236,
      "ĠÑģÐºÐ¾ÑĢÐ¾ÑģÑĤÑĮ": 6237,
      "Ð¾ÑĥÑģÑĤÐ¾Ð¹ÑĩÐ¸Ð²ÑĭÐ¹": 6238,
      "ĠÐ²ÐµÑī": 6239,
      "ĠÑĢÐ°Ð·Ð½Ð¾ÑĢ": 6240,
      "ÐµÐ¿Ð¸ÑĨÐ°": 6241,
      "Ð¿Ð»Ð°ÑģÑĤÐ¸Ð½Ð°": 6242,
      "Ġcompressed": 6243,
      "ĠÑĢÐ°Ð·Ð½Ð¾ÑĢÐ¾Ð´Ð½ÑĭÐ¹": 6244,
      "Ð²Ð¾ÑĩÐ½ÑĭÐ¹": 6245,
      "ĠÐ¿ÑģÐ¿": 6246,
      "Ð°Ð½Ð¸Ð½Ð°": 6247,
      "Ġsre": 6248,
      "Ġtherma": 6249,
      "ĠÑĢÐ²Ð°Ð½Ð¸Ð½Ð°": 6250,
      "ĠÐ¿ÑĢÐ¾Ð»ÑĳÑĤ": 6251,
      "ĠÐ¿ÑĢÐ¾Ð»ÑĳÑĤÐ½ÑĭÐ¹": 6252,
      "ĠÑĤÑĢÐ¾ÑĤÑĥÐ°ÑĢÐ½ÑĭÐ¹": 6253,
      "ĠÐ°ÑįÑĢÐ¾Ð´ÑĢÐ¾Ð¼Ð½ÑĭÐ¹": 6254,
      "ĠÐ½Ð°Ð²Ð¸Ð²Ð½Ð¾Ð¹": 6255,
      "ĠÑĦÐ¸Ð½Ð¸ÑĪÐ½ÑĭÐ¹": 6256,
      "Ð´Ð¸ÑĦÑĦ": 6257,
      "Ð¾Ð¼ÐµÑĤ": 6258,
      "Ġdc": 6259,
      "ĠÑĢÐ°Ð·Ð½Ð¾ÑģÑĤÑĮ": 6260,
      "Ġobo": 6261,
      "ĠÑĤÐ¾Ð½Ð½": 6262,
      "ĠÑģÐ²ÐµÑĤÐ¾Ð´Ð¸Ð¾Ð´": 6263,
      "ĠÐ´Ð²ÑĥÑħÐºÐ¾Ð¼Ð¿Ð¾Ð½": 6264,
      "Ġisol": 6265,
      "Ġupc": 6266,
      "ĠÐ±Ð°Ð»Ð»Ð¾Ð½": 6267,
      "Ð»Ð°Ð·ÑĥÑĢÐ¾Ð²": 6268,
      "ĠÐ³Ð¸Ð¿ÑģÐ¾Ð²ÑĭÐ¹": 6269,
      "oh": 6270,
      "Ð¾Ð²Ð¸Ð½Ð°": 6271,
      "ĠÐ´ÐµÑĤ": 6272,
      "Ġmsv": 6273,
      "ĠÑģÑĤÑıÐ¶Ð½Ð¾Ð¹": 6274,
      "ĠÑĪÐµÑģÑĤÑĮ": 6275,
      "Ġph": 6276,
      "Ġhnom": 6277,
      "ĠÐ²ÑĭÐ¿": 6278,
      "ĠÐ¿Ð¾Ð´ÑģÑĤÐ°Ð²ÐºÐ°": 6279,
      "ĠÐ»Ð¸ÑģÑĤÐ²ÐµÐ½Ð½ÑĭÐ¹": 6280,
      "ĠÐºÐ´Ð¶": 6281,
      "ĠÐ¼Ð¾ÑģÑĤÐ¾Ð²ÑĭÐ¹": 6282,
      "Ġ17378": 6283,
      "ĠÐ¶ÑĳÐ»ÑĤÑĭÐ¹": 6284,
      "ĠÐ½Ð°ÑģÑĤÑĢÐ¾Ð¹ÐºÐ°": 6285,
      "ĠÐ¿ÑĥÑģÑĤ": 6286,
      "Ġ216": 6287,
      "Ð¾Ð¿Ð¾Ð³": 6288,
      "Ð¾Ð¿Ð¸ÑĤÐµÐ»ÑĮÐ½ÑĭÐ¹": 6289,
      "Ð¾ÑĤÐºÐ¾Ð²ÑĭÐ¹": 6290,
      "Ð¾ÑģÐºÐ°": 6291,
      "stral": 6292,
      "Ġcoated": 6293,
      "ĠÐ¾ÐºÑĢÐ°ÑģÐºÐ°": 6294,
      "ĠÑģÐ´Ð²Ð¾Ð¸ÑĤÑĮ": 6295,
      "ĠÐ¿Ð¸ÑĤÐ¾Ð¼ÐµÑĤ": 6296,
      "ĠqÐ¾ÑħÐ»Ð°Ð¶Ð´ÐµÐ½Ð¸Ðµ": 6297,
      "ĠÐ´Ð²ÑĥÑģÑĤÐ²Ð¾ÑĢÑĩÐ°ÑĤÑĭÐ¹": 6298,
      "ĠÑħÐ¾Ð¼ÑĥÑĤÐ¾Ð²ÑĭÐ¹": 6299,
      "ĠÑĤÐµÐ¾ÑĢÐµÑĤÐ¸ÑĩÐµÑģÐºÐ¸Ð¹": 6300,
      "ĠÐ¿Ð¸ÑĤÐ¾Ð¼ÐµÑĤÑĢÐ°Ð¶Ð½ÑĭÐ¹": 6301,
      "ÑĤÐµÐ»Ðµ": 6302,
      "Ġcisco": 6303,
      "Ġsg": 6304,
      "Ġhas": 6305,
      "ĠÐ¿Ð¾Ñı": 6306,
      "ĠÐ´Ð²ÑĥÑħÑģÑĤ": 6307,
      "ĠÑīÐµÐ±": 6308,
      "Ð³Ð¾ÑĤÐ¾Ð²Ð»ÐµÐ½Ð¸Ðµ": 6309,
      "Ġreduc": 6310,
      "ĠÐ²ÑĤÐ¾ÑĢÐ¾Ð¹": 6311,
      "Ġreturn": 6312,
      "br": 6313,
      "pressure": 6314,
      "ÑĢÐµÑĪ": 6315,
      "Ġsub": 6316,
      "ĠÐ»Ð¾ÑĤÐºÐ¾Ð²ÑĭÐ¹": 6317,
      "Ġht": 6318,
      "Ġvol": 6319,
      "ĠÑģÑĢÐµÐ´Ð½": 6320,
      "termann": 6321,
      "ĠÑģÐ²ÐµÑĤÐ¾Ð²Ð¾Ð·Ð²": 6322,
      "Ġ27772": 6323,
      "ĠÐ¾ÑģÑĤÐµÐºÐ»Ð¸ÑĤÑĮ": 6324,
      "ĠÑģÐºÐ²Ð¾Ð·Ð½Ð¾Ð¹": 6325,
      "Ð¿Ñĥ": 6326,
      "ĠÐ°Ð»ÑĮÑĤ": 6327,
      "Ġpan": 6328,
      "ĠÑĢÑıÐ´": 6329,
      "443": 6330,
      "Ð¾ÑģÐ¼ÐµÑģÑĮ": 6331,
      "ĠÐ²Ð¾ÑĢÐ¾ÑĤÐ°": 6332,
      "ÑİÑīÐ¸": 6333,
      "ĠÑįÐ¿Ð¾ÐºÑģÐ¸Ð´Ð½Ð°": 6334,
      "ĠÐ²Ð¸ÑĤ": 6335,
      "Ġ335": 6336,
      "Ġlif": 6337,
      "ÑĥÑģÐ°Ð´Ð¾ÑĩÐ½ÑĭÐ¹": 6338,
      "ĠÐ±ÐµÑģÐ¿ÐµÑĢÐµ": 6339,
      "ÑįÐ»ÐµÐºÑĤÑĢÐ¸ÑĩÐµÑģÐºÐ¸Ð¹": 6340,
      "ĠÐ¿ÑĢÐµÐ´Ð¾ÑħÑĢÐ°Ð½Ð¸ÑĤÐµÐ»ÑĮ": 6341,
      "ĠÑĤÑĢÐ°Ð¿Ð½Ð¾Ð¹": 6342,
      "ĠÐ±ÐµÑģÐ¿ÐµÑĢÐµÐ±Ð¾Ð¹Ð½ÑĭÐ¹": 6343,
      "080": 6344,
      "kd": 6345,
      "Ð°ÑĢÐ¼": 6346,
      "ĠÐ·Ð½Ð°ÑĩÐµÐ½Ð¸Ðµ": 6347,
      "Ġ620": 6348,
      "ĠÐºÐ¾Ð½ÑĤ": 6349,
      "ĠÐ³Ð½ÑĥÑĤ": 6350,
      "281": 6351,
      "ĠÑĤÑĢÐµÑħÑĦÐ°Ð·Ð½ÑĭÐ¹": 6352,
      "Ġpipes": 6353,
      "ĠÑĥÐ·Ð¾": 6354,
      "ÑĢÐ°ÑīÐ°ÑİÑīÐ¸Ð¹": 6355,
      "ĠÑģÐ²ÐµÑĤÐ¾Ð²Ð¾Ð·Ð²ÑĢÐ°ÑīÐ°ÑİÑīÐ¸Ð¹": 6356,
      "ef": 6357,
      "Ð¼Ð¾ÑģÑĤ": 6358,
      "ĠÐ´ÑģÐ²": 6359,
      "Ð°ÑĢÐ¾ÑĩÐ½ÑĭÐ¹": 6360,
      "ĠÐ¿ÐµÑĢÐ²ÑĭÐ¹": 6361,
      "Ġmating": 6362,
      "Ġremote": 6363,
      "ÑĥÐ½Ð¸ÐºÐ°ÑĨÐ¸Ð¾Ð½Ð½ÑĭÐ¹": 6364,
      "ĠÐ¾ÑĤÐºÑĢÑĭÐ²Ð°Ð½Ð¸Ðµ": 6365,
      "ĠÐ½ÐµÐ²ÑĭÐ´Ð²Ð¸Ð¶Ð½Ð¾Ð¹": 6366,
      "ĠÑīÐµÐ»Ð¾ÑĩÐ½Ð¾Ð¹": 6367,
      "ĠÐ²ÐµÑīÐµÑģÑĤÐ²Ð¾": 6368,
      "Ð¾Ð²Ð°Ð»ÑĮÐ½ÑĭÐ¹": 6369,
      "ÑĦÐ¾Ð½": 6370,
      "Ġ127": 6371,
      "Ð¼ÐµÐ½Ð½Ð¸Ðº": 6372,
      "304": 6373,
      "ĠÐ¿Ð¾ÑģÑĤÐ°Ð²Ð»ÑıÑĤÑĮÑģÑı": 6374,
      "Ð¸ÑĤÐ°ÑĨÐ¸Ñı": 6375,
      "ĠÑģÑĤÐ¾Ð»Ð±": 6376,
      "Ġmistral": 6377,
      "ÑĦÑĢÐ°Ð³Ð¼Ð°": 6378,
      "ĠÐ¸Ð¼Ð¸ÑĤÐ°ÑĨÐ¸Ñı": 6379,
      "Ġtank": 6380,
      "620": 6381,
      "Ð°Ð¿Ð¿Ð°ÑĢÐ°ÑĤ": 6382,
      "ĠÐµÑģÑĤ": 6383,
      "ĠÐºÑĢÐµÐ¼Ð½Ð¸Ð¹Ð¾ÑĢÐ³Ð°Ð½Ð¸ÑĩÐµÑģÐºÐ¸Ð¹": 6384,
      "ĠÐºÐ¾Ð¼Ð¿Ð»ÐµÐºÑĤÐ°ÑĨÐ¸Ñı": 6385,
      "ĠÑģÐ°Ð¼Ð¾ÐºÐ»ÐµÑİÑīÐ¸": 6386,
      "ĠÑĦÑĥÑĤÐµÑĢ": 6387,
      "ĠÑĤÐµÑħÐ½Ð¾ÑįÐ»Ð°ÑģÑĤ": 6388,
      "ĠÐ¾ÑĩÐ¸ÑģÑĤÐ½ÑĭÐ¹": 6389,
      "ha": 6390,
      "pn": 6391,
      "Ð¿Ð¾ÑĢÑĤ": 6392,
      "ĠÑĤÐºÐ°Ð½": 6393,
      "Ð¸ÑĦÐµÑĢ": 6394,
      "040": 6395,
      "ÑģÑįÐ½Ð´Ð²Ð¸Ñĩ": 6396,
      "Ð¾Ð²Ð¸Ð´Ð½ÑĭÐ¹": 6397,
      "Ġtl": 6398,
      "ĠÑģÑĤÑĥÐ¿": 6399,
      "Ġ205": 6400,
      "Ð¾Ð²Ð°ÑĤÑĮÑģÑı": 6401,
      "Ð¼Ð°ÑĪÐ¸Ð½Ð°": 6402,
      "ĠÐ¿Ð»Ð¾ÑģÐºÐ¾ÑģÑĤ": 6403,
      "ĠÑĢÐµÐ³ÑĥÐ»ÑıÑĤÐ¾ÑĢ": 6404,
      "ĠÐ¿ÑĢÐ¾Ð¸Ð·Ð²Ð¾Ð´ÑģÑĤÐ²Ð¾": 6405,
      "ĠÐ¿Ð°ÑĢÐ¾Ð½Ð¸ÑĤ": 6406,
      "ÑģÑĦÐ¾ÑĢÐ¼Ð°ÑĤÐ¾ÑĢÐ½ÑĭÐ¹": 6407,
      "Ġsuppl": 6408,
      "ÑģÑĤÐ°Ð½Ð¾Ðº": 6409,
      "ĠÎ»": 6410,
      "ĠÐ¿Ð»Ð¾ÑģÐºÐ¾ÑģÑĤÐ½Ð¾ÑģÑĤÑĮ": 6411,
      "970": 6412,
      "Ġ040": 6413,
      "Ð¾Ð¼ÐµÑĢÐ½ÑĭÐ¹": 6414,
      "ĠÐ»Ð°Ð·": 6415,
      "ÐµÑĩÐ¸Ð½Ð°": 6416,
      "Ġne": 6417,
      "ĠÐ¿Ð¾ÐºÑĢÐ¾Ð²": 6418,
      "ĠÐµÐ´ÐºÐ¸Ð¹": 6419,
      "ĠÑĩÐµÑĢÐµÐ·": 6420,
      "ĠÐ¾Ð±ÑĪÐ¸Ð²Ð¾ÑĩÐ½ÑĭÐ¹": 6421,
      "Ġelectromechanical": 6422,
      "Ġinstall": 6423,
      "im": 6424,
      "ĠÐºÐ°Ð¿ÑģÑĥÐ»Ð°": 6425,
      "Ġbb": 6426,
      "ĠÐ³Ð¾ÑĢÑİÑĩ": 6427,
      "Ð¾Ð¿ÑĢÐ¾": 6428,
      "255": 6429,
      "ÑĥÑĩÐ¾Ðº": 6430,
      "ÑĭÐ²Ð°Ð½Ð¸Ðµ": 6431,
      "ĠÐ·Ð°ÐºÑĢÑĭÑĤÑĭÐ¹": 6432,
      "ĠÐ¾Ð´Ð½Ð¾ÑģÑĤÐ²Ð¾ÑĢÑĩÐ°ÑĤÑĭÐ¹": 6433,
      "ĠÑĢÐ°Ð·Ð²ÐµÑĤÐ²Ð»ÐµÐ½Ð¸Ðµ": 6434,
      "Ġterminals": 6435,
      "ĠÐ´ÐµÐ¼": 6436,
      "ÑĤÐ°Ðº": 6437,
      "Ġaut": 6438,
      "Ġpg": 6439,
      "Ġby": 6440,
      "ÑĢÐ°ÑģÑĩÐ°": 6441,
      "ĠÑģÐºÐ²Ð°Ð¶Ð¸Ð½Ð°": 6442,
      "ĠÐ½Ð°ÐºÐ¾Ð¿Ð¸ÑĤÐµÐ»ÑĮÐ½ÑĭÐ¹": 6443,
      "Ġ227": 6444,
      "Ð¿ÐºÐ¾Ð²ÑĭÑı": 6445,
      "ĠÐ¿Ð¾Ð¿ÐµÑĢÐµÑĩÐ¸Ð½Ð°": 6446,
      "ĠÐ³Ð¾ÑĢÑİÑĩÐµÑģÑĤÑĮ": 6447,
      "6000": 6448,
      "ĠÐ¿ÑĥÑĩÐ¾Ðº": 6449,
      "Ð¾ÑĤÐ¾ÑĩÐ½ÑĭÐ¹": 6450,
      "edge": 6451,
      "ÐºÐ¾ÑĢÐ¿ÑĥÑģ": 6452,
      "Ġinlet": 6453,
      "Ð±Ð¾ÑĢÐ°ÑĤÐ¾ÑĢÐ½ÑĭÐ¹": 6454,
      "ĠÑģÐ¿Ð¸Ð½ÐºÐ°": 6455,
      "ĠÐ¼Ð°Ð»ÑĭÐ¹": 6456,
      "ĠÐ½Ð¸Ð·ÐºÐ¾Ð²": 6457,
      "Ġ113": 6458,
      "Ġ195": 6459,
      "ÑĨÐµÐ¿Ð½Ð¾Ð¹": 6460,
      "ĠÐ·Ð²ÑĥÐºÐ¾Ð²Ð¾Ð¹": 6461,
      "ĠÐ¿Ð¾ÑıÑģ": 6462,
      "bin": 6463,
      "ÑĥÑĪÐºÐ°": 6464,
      "ĠÐºÑĪ": 6465,
      "ĠÐ²Ð¿": 6466,
      "Ġcw": 6467,
      "Ġ823": 6468,
      "ĠÑĤÐ¾Ð½ÐºÐ¸Ð¹": 6469,
      "221": 6470,
      "Ġacc": 6471,
      "Ð¿Ð»ÑĳÐ½ÐºÐ°": 6472,
      "Ð¾ÑģÑĤÐ¾ÑıÐ½Ð¸Ðµ": 6473,
      "Ġtypdm": 6474,
      "ĠÑĢÑĤÑĤ": 6475,
      "base": 6476,
      "Ð°ÐºÑĤÐ¸Ð²Ð½ÑĭÐ¹": 6477,
      "ÐµÑĥÐ¼": 6478,
      "ĠÑģÐ¼Ðµ": 6479,
      "ÑıÐ½ÑĥÑĤÑĭÐ¹": 6480,
      "ÐµÑĢÑĦ": 6481,
      "ĠÐ³Ð°Ð»ÑĮ": 6482,
      "Ġve": 6483,
      "perat": 6484,
      "ĠÑıÑĩÐµ": 6485,
      "Ġnsx": 6486,
      "ĠÐ¿Ð¸Ð»ÑĳÐ½ÑĭÐ¹": 6487,
      "ĠÐ¿Ð»ÐµÑĤÑĳÐ½ÑĭÐ¹": 6488,
      "hing": 6489,
      "ÐºÑĪ": 6490,
      "Ð²ÐµÐ½Ð¾": 6491,
      "Ð¾Ð»ÐµÑĥÐ¼": 6492,
      "ĠÐ¾ÐºÐ°Ð»": 6493,
      "ĠÐ±ÑĥÑĩ": 6494,
      "Ð°ÑĢÐ´Ð¸ÑĢÐ¾Ð²Ð°ÑĤÑĮ": 6495,
      "ĠÐºÐ¾Ð½ÑĥÑģÐ½ÑĭÐ¹": 6496,
      "ĠÑģÑĤÐ°Ð»Ð¸": 6497,
      "Ġ011": 6498,
      "ĠÑĤÐµÐ¿Ð»Ð¾Ð¸Ð·Ð¾Ð»Ð¸ÑĢÐ¾Ð²Ð°ÑĤÑĮ": 6499,
      "ĠÐ¿ÑĢÐ¾Ð²Ð¾Ð´Ð½Ð¾Ð¹": 6500,
      "Ġflag": 6501,
      "ÑĥÐ»ÑĮÑģÐ½ÑĭÐ¹": 6502,
      "Ð¾ÑģÑĤÐ¾ÑıÑīÐ¸Ð¹": 6503,
      "ĠÐ¿Ð¾Ð»Ð¸Ð°Ð¼Ð¸Ð´": 6504,
      "ĠÐ¿ÐµÐ½Ð¾Ð¿Ð¾Ð»Ð¸ÑįÑĤÐ¸Ð»ÐµÐ½Ð¾Ð²ÑĭÐ¹": 6505,
      "Ð´Ð¸ÑĦÑĦÑĥÐ·Ð¾ÑĢ": 6506,
      "ĠÐ¾ÐºÐ°Ð»Ð¸Ð½Ð°": 6507,
      "ĠÐ±ÑĥÑĩÐ°ÑĢÐ´Ð¸ÑĢÐ¾Ð²Ð°ÑĤÑĮ": 6508,
      "465": 6509,
      "Ð»Ð°Ðº": 6510,
      "ĠÐ°Ð±": 6511,
      "Ġ420": 6512,
      "ĠÑĢÐ°Ð·ÑĬÑĳÐ¼": 6513,
      "ĠÐ¿ÑĢÐ¸Ð³Ð¾ÑĤÐ¾Ð²Ð»ÐµÐ½Ð¸Ðµ": 6514,
      "Ġvs": 6515,
      "10025": 6516,
      "Ġ3700": 6517,
      "Ġballomax": 6518,
      "ĠÑģÑĤÐ°Ð½Ð´Ð°ÑĢÑĤÐ½": 6519,
      "175": 6520,
      "dn": 6521,
      "ĠÑģÐ¾ÑģÑĤÐ¾ÑıÐ½Ð¸Ðµ": 6522,
      "ÐµÑĢÑĮ": 6523,
      "ĠÐ¾ÑĤÐ¼": 6524,
      "Ġ5800": 6525,
      "0006": 6526,
      "ĠÑĪÐ¿ÑĥÐ½": 6527,
      "ĠÑĤÐµÑĢÐ¼Ð¾ÑĢ": 6528,
      "ĠÐºÐ¿Ð»Ð²": 6529,
      "ĠÑĢÐµÐ´ÑĥÐºÑĨÐ¸Ð¾Ð½Ð½ÑĭÐ¹": 6530,
      "ĠÑĤÐ¼Ð»": 6531,
      "ĠÐ´Ð¾Ð¼ÐµÐ½Ð½ÑĭÐ¹": 6532,
      "ĠÐ½ÐµÐ¹Ð»Ð¾Ð½Ð¾Ð²ÑĭÐ¹": 6533,
      "perature": 6534,
      "ĠÑģÑĤÐ°Ð½Ð´Ð°ÑĢÑĤÐ½Ð¾Ð¿ÑĢÐ¾ÑħÐ¾Ð´Ð½ÑĭÐ¹": 6535,
      "rm": 6536,
      "ĠÐ¿ÑĥÑĤ": 6537,
      "ĠÑĤÐ¸": 6538,
      "ĠÐ½Ð°Ð¼Ð¾ÑĤÐºÐ°": 6539,
      "Ð¸ÑģÑĤÐ¾ÑĩÐ½Ð¸Ðº": 6540,
      "ĠÐ¿ÐµÑĢÐµÐ³": 6541,
      "153": 6542,
      "ĠÐºÑĥÐ¿Ð¿Ð½Ð³": 6543,
      "ĠÐ±ÐµÐ·Ð³Ð°Ð»Ð¾Ð³ÐµÐ½Ð½ÑĭÐ¹": 6544,
      "ÐºÐ»ÑĳÐ¿ÐºÐ°": 6545,
      "Ð¾Ð¿ÑĢÐ¾Ð¸Ð·Ð²Ð¾Ð´": 6546,
      "943": 6547,
      "Ð¸Ð¶ÐµÐ½Ð¸Ðµ": 6548,
      "ÑĮÑİ": 6549,
      "ĠÐ¾Ð±Ð¾Ð³ÑĢÐµÐ²": 6550,
      "Ð»Ð»Ð¸ÑĩÐµÑģÐºÐ¸Ð¹": 6551,
      "Ġwedge": 6552,
      "ĠÐ¾Ð´Ð¸Ð½Ð¾ÑĩÐ½ÑĭÐ¹": 6553,
      "ĠÐ´Ð²ÑĥÑħÑĬÑıÑĢÑĥÑģÐ½ÑĭÐ¹": 6554,
      "ĠÑģÐ±Ð²": 6555,
      "ĠÐ¼Ð½Ð¾Ð³Ð¾Ðº": 6556,
      "ĠÑĪÑĤÑĥÐºÐ°": 6557,
      "ĠÐ¿ÑĢÐ¾Ð¿Ð¸ÑĤÐ°ÑĤÑĮ": 6558,
      "ÑģÐ°Ð´Ð½ÑĭÐ¹": 6559,
      "008": 6560,
      "ÑĢÐ°ÑĨÐ¸Ð¾Ð½Ð½ÑĭÐ¹": 6561,
      "ĠÐ¿ÑĢÐ¸ÑģÑĤ": 6562,
      "ĠÐ¾Ð±ÑģÐ°Ð´Ð½ÑĭÐ¹": 6563,
      "107": 6564,
      "Ð³ÑĢÑıÐ·": 6565,
      "Ð²ÐµÑĢÐ½ÑĥÑĤÑĮ": 6566,
      "ĠÑīÐµÐ±ÑĳÐ½Ð¾ÑĩÐ½ÑĭÐ¹": 6567,
      "led": 6568,
      "Ð½Ð¾ÑģÑĤÐ¾ÑıÑīÐ¸Ð¹": 6569,
      "Ð¸ÐµÐ²": 6570,
      "ĠÐ½Ñģ": 6571,
      "ĠÐ°Ð´Ð°": 6572,
      "Ġ8443": 6573,
      "Ġ7200": 6574,
      "Ð¾Ð¶Ð¸Ð»ÑĮÐ½ÑĭÐ¹": 6575,
      "agle": 6576,
      "Ġeagle": 6577,
      "ange": 6578,
      "Ġlszh": 6579,
      "ĠÐ¾Ð±Ð¾ÑĢÑĥÐ´Ð°": 6580,
      "Ġ8509": 6581,
      "ĠÑĥÑģÑĤÐ°Ð½Ð¾Ð²Ð¸ÑĤÑĮ": 6582,
      "ĠÐ²ÐµÐ½ÑĤÐ¸Ð»Ð¸ÑĢÐ¾Ð²Ð°ÑĤÑĮ": 6583,
      "ĠÐ¾Ð±ÑĢÐµÐ·Ð°ÑĤÑĮ": 6584,
      "ĠÐ±ÑĥÑĤÑĭ": 6585,
      "Ġsupply": 6586,
      "ct": 6587,
      "ÑĤÐ¸": 6588,
      "Ð¸Ð¾Ð»": 6589,
      "Ð²ÐµÐ´ÐµÐ½Ð¸Ðµ": 6590,
      "ĠÐ°Ð¸Ð¼": 6591,
      "Ð¸ÐºÐ¾": 6592,
      "2020": 6593,
      "ĠÑĤÐ°Ð²ÑĢÐ¾Ð²ÑĭÐ¹": 6594,
      "Ġri": 6595,
      "ĠÐ¿ÑĢÐ¾Ð±ÐºÐ°": 6596,
      "ĠÑįÑĦÑĦÐµÐºÑĤÐ¸Ð²Ð½Ð¾ÑģÑĤÑĮ": 6597,
      "dz": 6598,
      "ke": 6599,
      "tu": 6600,
      "Ð½Ñĭ": 6601,
      "ĠÐ¿Ð¾ÑģÑĤ": 6602,
      "ÑĢÐ°ÐºÑģ": 6603,
      "ÐºÐ»Ð°Ð²Ð¸ÑĪÐ½ÑĭÐ¹": 6604,
      "ÑĢÐ°Ð²ÐºÐ°": 6605,
      "Ġ255": 6606,
      "Ð°ÑģÑĤÐ½ÑĭÐ¹": 6607,
      "ĠÐºÑĢÑĥÐ¿Ð½ÑĭÐ¹": 6608,
      "ĠÐ¾Ð³ÑĢÐ°ÐºÑģ": 6609,
      "Ð¹Ð½ÑĭÐ¹": 6610,
      "ĠÐ¿ÑĤ": 6611,
      "ĠÐ´Ð³": 6612,
      "ĠÐ±ÑģÐ»": 6613,
      "ĠÑĥÐºÐ°Ð·Ð°ÑĤÐµÐ»ÑĮ": 6614,
      "Ġms": 6615,
      "ÑĪÐ°ÑĢ": 6616,
      "Ð½Ð°ÐºÐ»Ð°Ð´ÐºÐ°": 6617,
      "ĠÐ²ÑĭÐ¿Ð¾Ð»Ð½": 6618,
      "ĠÐºÐ²Ð°ÑĢ": 6619,
      "Ġreli": 6620,
      "ĠÐ´Ð²ÑĥÑħÐ»Ð°": 6621,
      "ĠÐ±Ð°Ð·Ð¾Ð²ÑĭÐ¹": 6622,
      "Ġexit": 6623,
      "ĠÐ¾Ð±ÑĪÐ¸Ð²ÐºÐ°": 6624,
      "ĠÑĢÐµÑĨÐ¸ÑĢÐºÑĥÐ»ÑıÑĨÐ¸Ð¾Ð½Ð½ÑĭÐ¹": 6625,
      "Ġtemperature": 6626,
      "Ġrelief": 6627,
      "170": 6628,
      "Ð²ÐµÐ½": 6629,
      "ĠÐºÑĨ": 6630,
      "Ġfi": 6631,
      "Ġ780": 6632,
      "ĠÐ¿ÑĢÐ¾Ð³Ð¸Ð±": 6633,
      "Ð¾ÑĢÐ¸ÑĦÐµÑĢ": 6634,
      "Ġ723": 6635,
      "Ġes": 6636,
      "ĠÑģÐ±Ð¾ÑĢÐºÐ°": 6637,
      "ĠÐºÐ°Ð½Ð°Ð»Ð¾Ð²": 6638,
      "ÐºÐ°Ñĩ": 6639,
      "ĠÐ±ÐµÑĢ": 6640,
      "Ġcfs": 6641,
      "302": 6642,
      "ĠÐ¸Ð³Ð»Ð°": 6643,
      "tal": 6644,
      "Ð½Ð»": 6645,
      "Ð½Ð´": 6646,
      "Ð¾Ð»Ð¾Ð²": 6647,
      "Ġdvs": 6648,
      "ĠÐ±ÐµÐ·ÑĥÑģÐ°Ð´Ð¾ÑĩÐ½ÑĭÐ¹": 6649,
      "Ġ960": 6650,
      "ĠÑĢÐ°Ð·Ð¼": 6651,
      "Ġ123": 6652,
      "ÐµÐ¼ÑıÐ½ÐºÐ°": 6653,
      "011": 6654,
      "ni": 6655,
      "ĠÐ´Ð¾ÑģÐºÐ°": 6656,
      "Ð»ÑıÐ½ÑĭÐ¹": 6657,
      "Ġ156": 6658,
      "ĠÑĤÐµÐ¿Ð»Ð¾ÑģÑĤÐ¾Ð¹ÐºÐ¾ÑģÑĤÑĮ": 6659,
      "Ð²ÐµÑĢÐ´": 6660,
      "ĠÐ±ÑĢÐ¾Ð½Ñı": 6661,
      "Ð¾Ð²Ð¾ÑĢÐ¾ÑĤÐ½ÑĭÐ¹": 6662,
      "ĠÐ²ÑĭÐ¿Ð¾Ð»Ð½ÑıÑĤÑĮÑģÑı": 6663,
      "gu": 6664,
      "Ð»Ð¾Ð¿ÑĢ": 6665,
      "ĠÐ³Ð»Ð°Ð²Ð½ÑĭÐ¹": 6666,
      "Ġtech": 6667,
      "Ġ6100": 6668,
      "ĠÑĤÑĢÑĥÐ´": 6669,
      "ĠÐ¼Ð°ÑĢÐºÐµÑĢÐ½ÑĭÐ¹": 6670,
      "ĠÐ¿Ð¾Ð»Ð¾ÑģÑĤÑĮ": 6671,
      "Ġhel": 6672,
      "Ġln": 6673,
      "ĠÐ·Ð°Ð¿Ð¸ÑĢÐ°ÑĤÑĮ": 6674,
      "ĠÐ¿Ð²Ð²Ð½Ð³": 6675,
      "Ġstar": 6676,
      "ĠÐ»Ð°Ð±Ð¾ÑĢÐ°ÑĤÐ¾ÑĢÐ½ÑĭÐ¹": 6677,
      "ĠÐºÐ»ÐµÑĳÐ½ÑĭÐ¹": 6678,
      "Ġtran": 6679,
      "ĠÐ²Ð¾Ð´Ð¾Ð¾ÑĤÐ²ÐµÐ´ÐµÐ½Ð¸Ðµ": 6680,
      "ĠÐ·Ð°Ð´Ð½Ð¸Ð¹": 6681,
      "ĠÐ³Ð½ÑĥÑĤÐ¾ÑģÐ²Ð°ÑĢÐ½Ð¾Ð¹": 6682,
      "2500": 6683,
      "710": 6684,
      "cl": 6685,
      "Ð¾ÐµÑĩÐ½ÑĭÐ¹": 6686,
      "ĠÐ¿Ð¸Ðº": 6687,
      "Ð³Ð¾Ð»Ð¾Ð²ÐºÐ°": 6688,
      "ÐµÑģÐµÐ½Ð¸Ðµ": 6689,
      "Ġ520": 6690,
      "ĠÐ¿ÐµÑĢÑĦÐ¾ÑĢ": 6691,
      "ĠÑĢÐ°Ð·ÑĬÑĳÐ¼Ð½ÑĭÐ¹": 6692,
      "ÑĨÐµÐ²Ð¸Ð½Ð°": 6693,
      "296": 6694,
      "Ġ52134": 6695,
      "Ġgrund": 6696,
      "ĠÐ½Ð°Ð½ÐµÑģÐµÐ½Ð¸Ðµ": 6697,
      "ĠÑģÐ¾ÑħÑĢÐ°Ð½": 6698,
      "loy": 6699,
      "ÐµÐ½ÐµÑĢÐ°ÑĤÐ¾ÑĢ": 6700,
      "ĠÐ±ÑĥÑĤÑĭÐ»Ð¾ÑĩÐ½ÑĭÐ¹": 6701,
      "ÑĢÐ¿": 6702,
      "Ð¿ÐµÐ½Ð°": 6703,
      "ĠÐ¼ÐºÐ±": 6704,
      "ĠÐ½ÑĥÐ»": 6705,
      "Ġ460": 6706,
      "ĠcÂº": 6707,
      "ÑĦÐ»ÐµÐºÑĤÐ¾ÑĢ": 6708,
      "Ġmc": 6709,
      "ÑĪÐ½": 6710,
      "0003": 6711,
      "1230": 6712,
      "ÑĢÐ¾Ð·ÑĢÐ°ÑĩÐ½ÑĭÐ¹": 6713,
      "Ġequ": 6714,
      "ĠÐ½ÐµÐ¿ÑĢÐ¾Ð·ÑĢÐ°ÑĩÐ½ÑĭÐ¹": 6715,
      "ĠÐºÑĢÑĭÑĪÐ°": 6716,
      "ĠÑģÐµÑĢÐ´ÑĨÐµÐ²Ð¸Ð½Ð°": 6717,
      "ĠÑĤÑĢÐ°Ð¿ÐµÑĨ": 6718,
      "ĠÐ½ÑĥÐ»ÐµÐ²Ð¾Ð¹": 6719,
      "Ð»ÐµÑģÑĤÐ½": 6720,
      "Ð¾ÑĤÑıÐ½ÑĥÑĤÑĭÐ¹": 6721,
      "Ġ2019": 6722,
      "ÑĢÐµÐ´Ðµ": 6723,
      "ĠÐ¾Ð¿Ð¾Ð²ÐµÑīÐ°ÑĤÐµÐ»ÑĮ": 6724,
      "ĠÐµÑģ": 6725,
      "Ð´Ð°ÑĢÑĤÐ½ÑĭÐ¹": 6726,
      "ÑıÑĤÐ¸Ð½Ð°": 6727,
      "Ġstandart": 6728,
      "ĠÐ²Ð¼ÑıÑĤÐ¸Ð½Ð°": 6729,
      "Ð¾Ð¿ÑĢÐ¾Ð¸Ð·Ð²Ð¾Ð´Ð¸ÑĤÐµÐ»ÑĮÐ½Ð¾ÑģÑĤÑĮ": 6730,
      "842": 6731,
      "Ð¿Ð¾Ð³": 6732,
      "ĠÐ¿ÑĢÐ¸ÑĤ": 6733,
      "ĠÐ³Ð»Ð¸Ð½": 6734,
      "ĠÑĢÑģ": 6735,
      "Ð»ÑİÑģ": 6736,
      "Ð¾Ð³ÑĢÐ°Ð½": 6737,
      "rier": 6738,
      "chor": 6739,
      "Ð¾Ð¼ÐµÑĤÑĢÐ¸ÑĩÐµÑģÐºÐ¸Ð¹": 6740,
      "fos": 6741,
      "ĠÐºÑĥÐ½": 6742,
      "ĠÐ¿z": 6743,
      "Ð±Ð½": 6744,
      "ĠÐ½ÐµÐ·": 6745,
      "ÑģÑģÐ¸Ð²": 6746,
      "ÐµÑģÑĤÐ°Ð½": 6747,
      "ĠÑĤÐ°ÑĢ": 6748,
      "144": 6749,
      "Ġmetal": 6750,
      "371": 6751,
      "ĠÐ½Ð°ÑģÐ°Ð´ÐºÐ°": 6752,
      "26524": 6753,
      "ah": 6754,
      "top": 6755,
      "ÐºÐµÑĤ": 6756,
      "ĠÐºÑĥÐ²": 6757,
      "Ð·Ðº": 6758,
      "Ð³Ð»ÑĥÑĪÐ¸ÑĤÐµÐ»ÑĮ": 6759,
      "ÐºÐ°Ð»ÑĮÐ½ÑĭÐ¹": 6760,
      "ÑħÐ²": 6761,
      "Ð»Ð°Ð¼Ð½ÑĭÐ¹": 6762,
      "ĠÐ±Ð°ÑĢ": 6763,
      "ÐµÐºÐ»Ð¾": 6764,
      "ĠÑĢÐµÑģ": 6765,
      "Ð¿ÑĢÐ¾ÑĦ": 6766,
      "Ð¾Ð²Ð¾Ð´Ð¾Ð½Ð°Ð³ÑĢÐµÐ²Ð°ÑĤÐµÐ»ÑĮ": 6767,
      "Ġwp": 6768,
      "ĠÐ¿Ð¾Ð´ÑĬÑĳÐ¼Ð½ÑĭÐ¹": 6769,
      "ĠÑĨÐºÐ±": 6770,
      "Ġfrhf": 6771,
      "Ġxps": 6772,
      "ĠÑħÐ¾Ð»Ð¾Ð´Ð½Ð¾ÑĤÑıÐ½ÑĥÑĤÑĭÐ¹": 6773,
      "ĠvÐ¿Ð¾Ð»ÐµÐ·Ð½ÑĭÐ¹": 6774,
      "ĠÐ²ÑĢÐ°ÑīÐµÐ½Ð¸Ðµ": 6775,
      "ĠÑĢÐµÐºÐ»Ð°Ð¼Ð½ÑĭÐ¹": 6776,
      "ĠÐ´Ð²ÑĥÑħÑģÑĤÐ¾ÑĢÐ¾Ð½Ð½Ð¸Ð¹": 6777,
      "ule": 6778,
      "ĠÐ½Ñį": 6779,
      "Ġ3600": 6780,
      "ÐµÐ¿ÑĢÐ¾Ð²Ð¾Ð´": 6781,
      "Ð¾Ð³Ð¸Ñı": 6782,
      "ĠÐºÑĢÐ¾": 6783,
      "Ġgra": 6784,
      "ĠÐ¿ÑĢÐ¸Ð¼ÐµÐ½Ð¸ÑĤÐµÐ»ÑĮÐ½Ð¾": 6785,
      "ĠÐ²Ð¾Ð´Ð¾Ð¿ÑĢ": 6786,
      "ĠÐ´Ð²ÑĥÑħÑĢÑıÐ´Ð½ÑĭÐ¹": 6787,
      "ĠÑĥÐ¿Ð»Ð¾ÑĤÐ½Ð¸ÑĤÐµÐ»ÑĮ": 6788,
      "ÐºÑĢÐµÐ¿Ð»ÑıÑĤÑĮ": 6789,
      "ÑĢÐ°ÑĦÐ¸Ð¾Ð»": 6790,
      "ĠÑĥÐ»ÑĮÑĤÑĢÐ°ÑĦÐ¸Ð¾Ð»": 6791,
      "ĠÑįÐ»ÐµÐºÑĤÑĢÐ¾ÑĤÐµÑħÐ½Ð¸ÑĩÐµÑģÐºÐ¸Ð¹": 6792,
      "Ð²ÐµÐ½Ð½Ð¸ÑĨÐ°": 6793,
      "man": 6794,
      "Ð¿ÑĢÐ¾ÑģÑĤÑĢÐ°Ð½ÑıÑĤÑĮ": 6795,
      "Ġ152": 6796,
      "Ġanchor": 6797,
      "ĠÑĦÐ¸Ð»ÑĮÑĤÑĢÐ¾Ð²Ð°ÑĤÑĮ": 6798,
      "ĠÑģÐ¿ÑĢÐ°Ð²Ð¾ÑĩÐ½Ð¸Ðº": 6799,
      "ĠÐµÑģÑĤÐµÑģÑĤÐ²ÐµÐ½Ð½ÑĭÐ¹": 6800,
      "ĠÐ¿ÑĦ": 6801,
      "Ġdlp": 6802,
      "Ð¸Ð´ÐµÐ½Ð¸Ðµ": 6803,
      "ĠÐ¼Ð°ÑģÑģÐ¸Ð²": 6804,
      "Ð¾Ð·Ð¸ÑĨÐ¸Ð¾Ð½Ð½ÑĭÐ¹": 6805,
      "ĠÐ¿Ð¾Ð½Ð¸Ð¶": 6806,
      "ĠÐ½ÐµÑĢÐ°Ñģ": 6807,
      "Ġalloy": 6808,
      "ĠÑĦÐ¸ÐºÑģÐ°ÑĨÐ¸Ñı": 6809,
      "ĠÐ¿ÑĢÐ¾Ð´ÑĥÐ²Ð¾ÑĩÐ½ÑĭÐ¹": 6810,
      "Ð±ÐµÐ·Ð¾Ð¿Ð°ÑģÐ½Ð¾ÑģÑĤÑĮ": 6811,
      "ĠÐ¸Ð¼Ð¿ÑĥÐ»ÑĮÑģÐ½ÑĭÐ¹": 6812,
      "ÑĥÑģÐµÐ½Ð¸ÑĩÐ½ÑĭÐ¹": 6813,
      "ĠÑģÐ°Ð¼Ð¾Ð·Ð°ÑĤ": 6814,
      "ĠÑıÑĩÐµÐ¸ÑģÑĤÑĭÐ¹": 6815,
      "ĠÑģÐµÑĩ": 6816,
      "ĠÑĤÑĢÐ°Ð±": 6817,
      "Ġmu": 6818,
      "Ġni": 6819,
      "2010": 6820,
      "ĠÐ¼Ð°Ð³Ð½Ð¸ÑĤÐ½ÑĭÐ¹": 6821,
      "ĠÐ¾Ð´Ð½Ð¾Ñģ": 6822,
      "ÑĪÑĤÑĥ": 6823,
      "Ġ2350": 6824,
      "ĠÑĦÐ¾Ð»ÑĮÐ³": 6825,
      "ĠÑĦÑĢÐµ": 6826,
      "ĠÐ±Ð°ÑĤÑĤÑģ": 6827,
      "Ġbarrier": 6828,
      "ĠÐ¾ÑĨÐ¸Ð½ÐºÐ¾Ð²Ð°Ð½ÑĭÐ¹": 6829,
      "Ġgrundfos": 6830,
      "ÐºÑĢÑĥÐ³": 6831,
      "Ġipe": 6832,
      "Ð¾Ð±Ð¾": 6833,
      "ÑĥÑħÐ°ÑİÑīÐ¸Ð¹": 6834,
      "Ġhno": 6835,
      "Ġven": 6836,
      "ĠÑĥÐ¿ÑĢÐ°Ð²": 6837,
      "166": 6838,
      "ĠÐºÐ°ÑĢÐºÐ°ÑģÐ½ÑĭÐ¹": 6839,
      "ĠÑĤÑĢÐµÑħÑģÑĤÐ²Ð¾ÑĢÑĩÐ°ÑĤÑĭÐ¹": 6840,
      "ĠÐ¸Ð½Ð²": 6841,
      "ÑıÑīÐ¸Ð¹ÑģÑı": 6842,
      "ĠÑıÐ²": 6843,
      "ĠÑĪÐ°ÑħÑĤÐ½ÑĭÐ¹": 6844,
      "ÐºÐ»ÐµÐ¼Ð¼Ð°": 6845,
      "Ð¸ÐµÐ²Ð¸Ð´Ð½ÑĭÐ¹": 6846,
      "ĠÑģÐ°Ð¼Ð¾Ð·Ð°ÑĤÑĥÑħÐ°ÑİÑīÐ¸Ð¹": 6847,
      "190": 6848,
      "pk": 6849,
      "Ð²Ð°Ð»": 6850,
      "ĠÐ¸ÑģÐº": 6851,
      "ÑĢÐ°Ð¹": 6852,
      "ĠÐ³ÑĥÑģÐµÐ½Ð¸ÑĩÐ½ÑĭÐ¹": 6853,
      "ĠÐ±ÐµÐ·Ð¾Ð¿": 6854,
      "Ġ1628": 6855,
      "ĠÐ±ÐµÑĤÐ¾Ð½Ð°": 6856,
      "Ð¸ÑĢÐ¼Ð°": 6857,
      "ĠÐ¿Ð°ÑĢÐ°Ð¿": 6858,
      "ĠÐ¾ÑĢÐ³Ð°Ð½Ð¸ÑĩÐµÑģÐºÐ¸Ð¹": 6859,
      "mart": 6860,
      "Ġnaoh": 6861,
      "ĠÑģÑĢÐµÐ´Ð½ÐµÐ¿": 6862,
      "Ð»Ñĳ": 6863,
      "ĠÐ½ÐµÑģÑĤÐ°Ð½": 6864,
      "Ð°ÑĢÐ¸ÑĤÐµÐ»ÑĮÐ½ÑĭÐ¹": 6865,
      "ĠÑįÑĤÐ°": 6866,
      "Ġ10029": 6867,
      "Ġbu": 6868,
      "Ġrange": 6869,
      "ĠÐ²Ð½ÑĥÑĤÑĢÐ¸": 6870,
      "Ġem": 6871,
      "Ġdiam": 6872,
      "ĠÐ¾Ð¿ÑĤÐ¸ÐºÐ¾": 6873,
      "ĠÐ³ÑĢÑĥÐ½ÑĤÐ¾Ð²Ð°ÑĤÑĮ": 6874,
      "ĠÐ¿ÐµÑģÐ¾Ðº": 6875,
      "ĠÐ¿Ð¾Ð³ÑĢÐµÑĪ": 6876,
      "Ġexp": 6877,
      "ĠÑĩÐµÑĤÑĭÑĢÑĳÑħÑģÐ»Ð¾Ð¹Ð½ÑĭÐ¹": 6878,
      "Ġ17376": 6879,
      "beg": 6880,
      "âĢ¢": 6881,
      "ĠÐ¼Ð½Ð¾Ð³Ð¾ÐºÑĢÐ°ÑĤÐ½ÑĭÐ¹": 6882,
      "Ġhelmer": 6883,
      "ĠÐ½ÐµÑĢÐ°ÑģÐ¿ÑĢÐ¾ÑģÑĤÑĢÐ°Ð½ÑıÑĤÑĮ": 6884,
      "ĠÑģÑĢÐµÐ´Ð½ÐµÐ¿Ð¾Ð²Ð¾ÑĢÐ¾ÑĤÐ½ÑĭÐ¹": 6885,
      "ĠÐ¿Ð¾Ð³ÑĢÐµÑĪÐ½Ð¾ÑģÑĤÑĮ": 6886,
      "614": 6887,
      "gi": 6888,
      "ĠÐ²Ð¾ÑģÐ¿": 6889,
      "Ð»ÑıÑĢÐ½ÑĭÐ¹": 6890,
      "Ġ204": 6891,
      "Ġ2590": 6892,
      "Ġ323": 6893,
      "osing": 6894,
      "ĠÐ»Ð¸ÑģÑĤÐ²ÐµÐ½Ð½Ð¸ÑĨÐ°": 6895,
      "ĠÑģÑĤÑĢÐ¾ÐµÐ½Ð¸Ðµ": 6896,
      "Ġuni": 6897,
      "ulation": 6898,
      "ĠÐ¿ÑĢÐ¾Ð´ÑĥÐ²ÐºÐ°": 6899,
      "ĠÑĪÐ°ÑĢÐ½Ð¸ÑĢ": 6900,
      "Ġconnectors": 6901,
      "ĠÑģÑĤÑĥÐ¿ÐµÐ½ÑĮ": 6902,
      "ĠÑģÐ¾ÑħÑĢÐ°Ð½ÑıÑĤÑĮÑģÑı": 6903,
      "ĠÐ½ÐµÑģÑĤÐ°Ð½Ð´Ð°ÑĢÑĤÐ½ÑĭÐ¹": 6904,
      "224": 6905,
      "ĠÑģÑĥÐ±": 6906,
      "ĠÐ¿ÐµÐºÑģ": 6907,
      "Ð±ÑĥÑĢ": 6908,
      "ĠÐ²ÐµÑĢ": 6909,
      "Ð¾Ð½ÑĤÐ½ÑĭÐ¹": 6910,
      "Ġ496": 6911,
      "407": 6912,
      "Ġul": 6913,
      "Ġ2700": 6914,
      "tron": 6915,
      "ĠÑĤÑĢÐ°Ð½ÑģÑĦÐ¾ÑĢÐ¼Ð°ÑĤÐ¾ÑĢÐ½ÑĭÐ¹": 6916,
      "ĠÐ¼Ð¾ÑĢÐ¾Ð·": 6917,
      "Ð¾Ð³ÑĢÐ°Ð¼Ð¼Ð°": 6918,
      "ĠÑĤÑĢÐ°Ð¿ÐµÑĨÐ¸ÐµÐ²Ð¸Ð´Ð½ÑĭÐ¹": 6919,
      "ĠÐ²Ð½ÑĥÑĤÑĢÐ¸ÑĤÑĢÑĥÐ±Ð½ÑĭÐ¹": 6920,
      "Ð¿Ð¾": 6921,
      "ĠÐ¿ÑĥÐ³": 6922,
      "ĠÐ²Ð¾Ð»Ð½": 6923,
      "Ð¾Ð¼ÐµÑĤÐ°": 6924,
      "ĠÐºÐ°Ð»Ð¸": 6925,
      "ĠÐºÐ°Ð¼ÐµÐ½Ð½ÑĭÐ¹": 6926,
      "ĠÑĪÑĥ": 6927,
      "ĠÐ°Ð½Ð¾Ð´": 6928,
      "ĠÑĤÑĢÐµ": 6929,
      "ÐºÐ¾Ð½ÑĤÐ°ÐºÑĤ": 6930,
      "Ġ2268": 6931,
      "ĠÑģÑĤÑĢÐµÐ¼ÑıÐ½ÐºÐ°": 6932,
      "5112": 6933,
      "ÑĢÐ°ÑģÑĤÐ²Ð¾ÑĢÐ¸ÑĤÐµÐ»ÑĮ": 6934,
      "ĠÑģÐ°Ð¼Ð¾ÐºÐ»ÐµÑıÑīÐ¸Ð¹ÑģÑı": 6935,
      "Ð³Ð¸Ð±ÐºÐ¸Ð¹": 6936,
      "ronex": 6937,
      "Ð¾Ð¼ÐµÑĤÐ°Ð»Ð»Ð¸ÑĩÐµÑģÐºÐ¸Ð¹": 6938,
      "Ġ275": 6939,
      "ÐµÑģÑĥÑīÐ¸Ð¹": 6940,
      "Ġ430": 6941,
      "Ð¶Ð¸Ð»ÑĮÐ½ÑĭÐ¹": 6942,
      "Ð¾ÑĤÐ²Ð¾": 6943,
      "tial": 6944,
      "ĠÑĦÐ¸ÑĢÐ¼Ð°": 6945,
      "Ġ2021": 6946,
      "2015": 6947,
      "ĠÐ¸ÑģÐ¿Ð¾Ð»Ð½": 6948,
      "Ġwei": 6949,
      "Ġ4025": 6950,
      "0138": 6951,
      "Ġinput": 6952,
      "Ð¿Ð¾Ð´Ð²ÐµÑģ": 6953,
      "ĠÐ¼Ð°ÑģÐ»ÑıÐ½ÑĭÐ¹": 6954,
      "ĠÑĢÐµÐ´Ð°": 6955,
      "Ġsupport": 6956,
      "ĠÑĪÑĤÑĥÐºÐ°ÑĤÑĥÑĢÐ½ÑĭÐ¹": 6957,
      "ĠÐºÐ¾Ð¼Ð¿Ð°ÐºÑĤÐ½ÑĭÐ¹": 6958,
      "Ġdiameter": 6959,
      "Ðºv": 6960,
      "ĠÐ³ÑĢÐ°ÑĦ": 6961,
      "Ð¾ÑĩÐ¸ÑģÑĤ": 6962,
      "ĠÐ¿ÐµÑĢÐµÐ²Ð¾Ð·ÐºÐ°": 6963,
      "Ġrc": 6964,
      "182": 6965,
      "Ġ145": 6966,
      "Ġ30970": 6967,
      "Ġproma": 6968,
      "ĠÑģÑĤÑĢÐµÐ»": 6969,
      "ĠÐ¸Ð³ÑĢÐ¾Ð²Ð¾Ð¹": 6970,
      "ĠÐ´Ð²ÑĥÑģÑĤÐµÐ½Ð½Ð¾Ð¹": 6971,
      "Ð°Ð²ÑĤÐ¾Ð¼Ð°ÑĤÐ¸ÑĩÐµÑģÐºÐ¸Ð¹": 6972,
      "berg": 6973,
      "guard": 6974,
      "Ġweidm": 6975,
      "Ð¾Ð»ÑģÑĤ": 6976,
      "ĠÑĤÑģ": 6977,
      "ĠpÑĢ": 6978,
      "Ġny": 6979,
      "Ġema": 6980,
      "ĠâĢķ": 6981,
      "ĠÐºÐµÑĢÐ°Ð¼Ð¾Ð³ÑĢÐ°Ð½": 6982,
      "ĠÐ²ÑģÐ°Ñģ": 6983,
      "ĠÑģÑĪ": 6984,
      "Ð¿a": 6985,
      "Ð¿ÐµÐ½": 6986,
      "Ð¾Ð²Ð°ÑĤÐµÐ»ÑĮÐ½ÑĭÐ¹": 6987,
      "Ð°ÑĤv": 6988,
      "Ð¾Ð»Ð¸Ð½": 6989,
      "Ð¾Ð¿Ð¾Ð²ÐµÑīÐ°ÑĤÐµÐ»ÑĮ": 6990,
      "Ġflow": 6991,
      "Ġloca": 6992,
      "ĠÐ¸Ð·Ð¼ÐµÑĢÑıÑĤÑĮ": 6993,
      "ĠÐ¼Ð°Ð½Ð¶ÐµÑĤÐ°": 6994,
      "ĠÑĤÐ°Ð±Ð»": 6995,
      "Ġthermal": 6996,
      "Ð¼Ð¾Ð½ÑĤÐ°Ð¶Ð½ÑĭÐ¹": 6997,
      "ÐµÐ¶Ð´": 6998,
      "ĠÐ¼ÑĢÐ°Ð¼": 6999,
      "ĠÐ¸Ð·Ð½Ð¾Ñģ": 7000,
      "Ð¾ÑĤÐµÑĢÐ¼Ñĭ": 7001,
      "ÐµÐ´Ð¾Ð²Ð°Ð½Ð¸Ðµ": 7002,
      "Ð¾ÑģÐµÐ²Ð¾Ð¹": 7003,
      "Ġor": 7004,
      "ĠÑģÑĤÑĢÐµÐ¶": 7005,
      "Ġ049": 7006,
      "ĠÐ¿ÑĢÐ¾ÑĤÑıÐ¶ÐºÐ°": 7007,
      "Ġmarg": 7008,
      "ĠÑĤÐºÐ°Ð½ÑĮ": 7009,
      "ĠÐ°Ð´Ð°Ð¿ÑĤÐµÑĢ": 7010,
      "ĠÑģÑĤÑĢÐµÐ¶ÐµÐ½ÑĮ": 7011,
      "ÑĤÐ¾Ð³ÑĢÐ°Ð¼Ð¼Ð°": 7012,
      "Ð½Ð¸Ð¿Ð¿ÐµÐ»ÑĮ": 7013,
      "Ð¸ÑĢÑĥ": 7014,
      "ĠÑģÑĥÐ¼": 7015,
      "0029": 7016,
      "Ð³ÑĢÐ°Ð²Ð¸Ð¹": 7017,
      "Ġ116": 7018,
      "Ġ112": 7019,
      "Ġ132": 7020,
      "Ð±Ð¸Ð½Ð°": 7021,
      "ĠÐ²Ð¾ÑĢÐ¾ÑĤ": 7022,
      "Ð°Ð½ÑĤ": 7023,
      "Ð¾ÑĤÐµÐ½ÑĨ": 7024,
      "Ġiy": 7025,
      "rol": 7026,
      "ĠÐºÐ¾Ð¼Ð¿ÑĮÑİ": 7027,
      "ĠÑģÐºÑĢ": 7028,
      "ÑĢÑĭÐ²Ð½Ð¾Ð¹": 7029,
      "Ġframe": 7030,
      "ĠÐ¿Ð°ÑĢÑĥÑģ": 7031,
      "ĠÐ²Ð¾Ð»Ð½Ð°": 7032,
      "Ġauma": 7033,
      "ÑĤÐµÐ»ÐµÐ¶ÐºÐ°": 7034,
      "ĠÑĢÐµÐ´Ð°ÐºÑĨÐ¸Ñı": 7035,
      "Ð²ÑħÐ°": 7036,
      "ĠÐ¿Ð»Ð°Ð²": 7037,
      "ĠÐ¸Ðº": 7038,
      "Ð±ÑĪÐ¿": 7039,
      "Ð¾ÑĤÐ²ÐµÑĤÐ²Ð¸ÑĤÐµÐ»ÑĮ": 7040,
      "Ġnb": 7041,
      "Ð¼Ð°Ð·ÐºÐ°": 7042,
      "Ġclosing": 7043,
      "ĠÐ²Ð¾Ð·Ð´ÑĥÑħÐ¾Ð¿ÑĢÐ¾Ð²Ð¾Ð´": 7044,
      "259": 7045,
      "ĠÐ¼Ð°Ð³Ð½": 7046,
      "ĠÐ¼Ð°ÑĪÐ¸Ð½Ð°": 7047,
      "ĠÐºÐ¾Ð»ÐµÐ½Ð¾": 7048,
      "222": 7049,
      "ĠÐ´ÑĥÑĤÑĮÑĳ": 7050,
      "ĠÐ²ÑĭÑģÐ¾ÐºÐ¾Ð»": 7051,
      "Ð¾ÑĢÑĥÐ´Ð¾Ð²Ð°Ð½Ð¸Ðµ": 7052,
      "ĠÑĢÐ°Ð´Ð¸Ð¾": 7053,
      "ĠÐ±ÑĭÑģÑĤ": 7054,
      "ĠÐ¿Ð¾Ð»Ð½Ð¾ÑĤÐµÐ»ÑĭÐ¹": 7055,
      "ĠÑĩÐµÑĢÐµÐ´Ð¾Ð²Ð°Ð½Ð¸Ðµ": 7056,
      "ĠÐºÐ¾Ð¼Ð¿Ð°ÑĥÐ½Ð´": 7057,
      "ÑĪÑĤÑĥÑĨÐµÑĢ": 7058,
      "0101": 7059,
      "1300": 7060,
      "ft": 7061,
      "ĠÐ³Ð»Ð°Ð·ÑĥÑĢÐ¾Ð²": 7062,
      "Ġtbeg": 7063,
      "Ġbol": 7064,
      "ÐµÑĢÐ¼ÐµÑĤÐ¸ÑĩÐ½ÑĭÐ¹": 7065,
      "Ð¾Ð¿Ð¾Ð»Ð¸Ð¼ÐµÑĢ": 7066,
      "ÑįÐ»ÐµÐºÑĤÑĢÐ¾Ð½Ð°ÑģÐ¾ÑģÐ½ÑĭÐ¹": 7067,
      "ĠÑĨÐ¸Ð½Ð¾Ð»": 7068,
      "Ð¿Ð°ÑĤÑĩ": 7069,
      "ĠÑĦÐ¸Ð±ÑĢÐ¾": 7070,
      "ĠÐ¾Ð´Ð½Ð¾ÑĢÑıÐ´Ð½ÑĭÐ¹": 7071,
      "Ġlifting": 7072,
      "Ð°ÑĢÐ¼Ð¸ÑĢÐ¾Ð²Ð°Ð½Ð½ÑĭÐ¹": 7073,
      "Ð²ÐµÑĢÐ´ÐµÑİÑīÐ¸Ð¹": 7074,
      "ĠÐ²Ð¾ÑĢÐ¾ÑĤÐ½Ð¸ÐºÐ¾Ð²ÑĭÐ¹": 7075,
      "941": 7076,
      "ÑĤÐ¼": 7077,
      "ÑģÐµÐ³Ð¼ÐµÐ½ÑĤ": 7078,
      "ĠÑģÐ¸Ð´ÐµÐ½Ð¸Ðµ": 7079,
      "ĠÐ¿ÑĭÐ»": 7080,
      "ÐºÐ°Ð½ÑĭÐ¹": 7081,
      "ĠÑĤÐºÐ°Ð½ÑĭÐ¹": 7082,
      "Ġ2300": 7083,
      "Ð¾Ð¿Ð°ÑģÑĤÐ½ÑĭÐ¹": 7084,
      "ĠÑĪÑģ": 7085,
      "ĠÑĢÐ°Ð·Ð²ÐµÑĢÐ½ÑĥÑĤÑĮ": 7086,
      "ĠÐ²ÑĭÑĢÑĭÑĤÑĮ": 7087,
      "Ġcoup": 7088,
      "ÐµÐ½ÑĤÐ°Ð³ÑĢÐµÐ³Ð°ÑĤ": 7089,
      "Ġpaa": 7090,
      "ĠÐ±ÑĭÑĤ": 7091,
      "ĠÐºÐ¾Ð½Ð´ÐµÐ½ÑģÐ°ÑĤÐ¾ÑĢ": 7092,
      "ĠÑĩÐµÑĤÐ²ÐµÑĢ": 7093,
      "Ġvib": 7094,
      "ĠÑĥÐ»ÑĮÑĤÑĢÐ°ÑĦÐ¸Ð¾Ð»ÐµÑĤÐ¾Ð²ÑĭÐ¹": 7095,
      "ĠÑĩÐµÑĤÐ²ÐµÑĢÑĤÑĮ": 7096,
      "cÐ¸Ñĩ": 7097,
      "ĠÐ´ÑĤ": 7098,
      "ĠmÐ¿a": 7099,
      "Ġnu": 7100,
      "ĠÑĤÐ°Ð½Ñģ": 7101,
      "Ġbt": 7102,
      "301": 7103,
      "1009": 7104,
      "ĠÐ·Ð°ÑīÐ¸ÑĤ": 7105,
      "ĠÑĢÐ°ÑģÑĩÑĳÑĤ": 7106,
      "Ġâģ°": 7107,
      "Ġcover": 7108,
      "ÑĥÐ¼ÐµÐ½ÑĤ": 7109,
      "ĠÐ¼Ð¸Ð½ÑĥÑģÐ¾Ð²ÑĭÐ¹": 7110,
      "Ð²ÑĥÐºÐ¾Ð²Ð¾Ð¹": 7111,
      "ĠÑĤÐµÐ»ÐµÐº": 7112,
      "Ġ29012": 7113,
      "ĠÐ¿Ð¾ÑģÐ»ÐµÐ´Ð¾Ð²Ð°ÑĤÐµÐ»ÑĮÐ½ÑĭÐ¹": 7114,
      "Ġinstallation": 7115,
      "ĠÐ¿Ð°ÑĢÑĥÑģÐ¸Ð½Ð°": 7116,
      "ĠÐºÐ¸Ð¿": 7117,
      "ÑıÐ³Ð°": 7118,
      "ĠÐ²ÐµÑĤÑĢ": 7119,
      "Ġ3100": 7120,
      "Ð¾Ð±Ð¸Ð²Ð½Ð¾Ð¹": 7121,
      "Ð±Ð°Ð·Ð°": 7122,
      "ĠÐ½ÐµÐ°ÑĢÐ¼Ð¸ÑĢÐ¾Ð²Ð°Ð½Ð½ÑĭÐ¹": 7123,
      "403": 7124,
      "0135": 7125,
      "ĠÑģÐ¾Ð±ÑģÑĤÐ²ÐµÐ½Ð½ÑĭÐ¹": 7126,
      "ĠÑĤÐµÑĢÐ¼Ð¾ÑģÑĤÐ°ÑĤ": 7127,
      "Ġjotun": 7128,
      "ĠÐ¿ÑĢÐ¸ÑĤÐ²Ð¾ÑĢ": 7129,
      "135": 7130,
      "kw": 7131,
      "ĠÑģÑĬÑĳÐ¼Ð½ÑĭÐ¹": 7132,
      "Ð¿ÑĤ": 7133,
      "ĠÐ³Ð¾": 7134,
      "ĠÐºÐ°ÑĤÐ°Ð»Ð¾Ð³": 7135,
      "ÐµÑĩÐµÐ²": 7136,
      "Ġfk": 7137,
      "Ġbre": 7138,
      "Ġ321": 7139,
      "Ð¸ÑĦÑĤ": 7140,
      "136": 7141,
      "4930": 7142,
      "Ġ8732": 7143,
      "ĠÐ²ÑħÐ¾Ð´Ð¸ÑĤÑĮ": 7144,
      "ĠÐ¿Ð¾Ð´Ð²Ð¾Ð´Ð°": 7145,
      "ĠÑĢÐµÐ¼Ð¾Ð½ÑĤÐ½ÑĭÐ¹": 7146,
      "ĠÑģÐ¿Ð¸ÑĢÐ°Ð»ÑĮÐ½Ð¾": 7147,
      "ĠÐ¿Ð²Ð¿Ð³Ð½Ð³": 7148,
      "ĠÐ½ÐµÑĢÐ°Ð²Ð½Ð¾Ð¿Ð¾Ð»Ð¾ÑĩÐ½ÑĭÐ¹": 7149,
      "Ð¼ÑĮÑı": 7150,
      "Ġbasi": 7151,
      "Ġostberg": 7152,
      "ĠÑĤÐµÑħÐ½Ð¾ÑįÐ»Ð°ÑģÑĤÐ¼Ð¾ÑģÑĤ": 7153,
      "Ð»Ð¾Ð¿ÑĢÐ¾Ð±Ð¸Ð²Ð½Ð¾Ð¹": 7154,
      "cg": 7155,
      "ÑĮÐ¼": 7156,
      "Ð±ÐµÑĤ": 7157,
      "Ð±Ð³Ð°": 7158,
      "ĠÑħÐ¾Ð·": 7159,
      "ĠÑĩÐµÑĩÐµÐ²": 7160,
      "038": 7161,
      "Ð´ÐµÑĦÐ»ÐµÐºÑĤÐ¾ÑĢ": 7162,
      "Ġproof": 7163,
      "ĠÐ¿ÐµÑĢÐµÐ¼Ðµ": 7164,
      "ĠÐ¸Ð³Ð»Ð¾Ð¿ÑĢÐ¾Ð±Ð¸Ð²Ð½Ð¾Ð¹": 7165,
      "ĠÐ¶ÑĳÐ»Ð¾Ð±": 7166,
      "ĠÐ°ÑģÐ±ÐµÑģÑĤ": 7167,
      "ĠÑģÐºÐ»Ð°Ð´ÑģÐºÐ¾Ð¹": 7168,
      "Ð¾Ð¼Ð¼ÑĥÐ½Ð¸ÐºÐ°ÑĨÐ¸Ð¾Ð½Ð½ÑĭÐ¹": 7169,
      "2400": 7170,
      "kt": 7171,
      "Ġ2800": 7172,
      "Ġ3800": 7173,
      "ell": 7174,
      "ĠÑģÐ²ÐµÑĤÐ»ÑĭÐ¹": 7175,
      "ĠÐ´Ð¾ÐºÑĥÐ¼ÐµÐ½ÑĤ": 7176,
      "ĠÑıÑĤÐ¿": 7177,
      "Ġsfp": 7178,
      "Ġsubor": 7179,
      "ĠÐ³Ð»Ð°Ð·ÑĥÑĢÐ¾Ð²Ð°ÑĤÑĮ": 7180,
      "Ð»ÑįÐºÑģ": 7181,
      "ÑıÐ¹": 7182,
      "ÑĢÐ°Ð²Ð¾": 7183,
      "Ġ4500": 7184,
      "Ġcm": 7185,
      "Ġdec": 7186,
      "Ġpu": 7187,
      "Ð½Ð°Ð»ÑĮÐ½ÑĭÐ¹": 7188,
      "Ġcadw": 7189,
      "ĠÐ²ÐºÐ»ÑİÑĩÐ°Ñı": 7190,
      "ĠÐ»Ð°ÐºÐ¸ÑĢÐ¾Ð²Ð°Ð½Ð½ÑĭÐ¹": 7191,
      "Ġnova": 7192,
      "ĠÐ½Ð¾ÑĢÐ¼Ð¸ÑĢÐ¾Ð²Ð°Ð½Ð¸Ðµ": 7193,
      "Ġjoint": 7194,
      "ĠÐ¶Ð¸Ð´ÐºÐ¾ÑģÑĤÑĮ": 7195,
      "ĠÐ¿ÐµÐ½Ð¾Ð¿Ð»ÑįÐºÑģ": 7196,
      "ĠÐ±ÐµÑĢÑĳ": 7197,
      "Ġventil": 7198,
      "ĠÐ°Ð½Ð¾Ð´Ð¸ÑĢÐ¾Ð²Ð°ÑĤÑĮ": 7199,
      "ĠÐ²ÑĭÑģÐ¾ÐºÐ¾Ð»ÐµÐ³Ð¸ÑĢÐ¾Ð²Ð°Ð½Ð½ÑĭÐ¹": 7200,
      "Ġbreak": 7201,
      "Ġcadweld": 7202,
      "mate": 7203,
      "ĠÐ±Ð¾ÐºÑģ": 7204,
      "Ġposition": 7205,
      "Ġhang": 7206,
      "ĠÐµÐ»ÑĮ": 7207,
      "ĠÑģÑĤÐµÐºÐ»Ð¾Ð½Ð¸ÑĤÑĮ": 7208,
      "ÑıÐ³Ð¾Ð²ÑĭÐ¹": 7209,
      "Ð¸Ð»Ð¸ÐºÐ°ÑĤÐ½ÑĭÐ¹": 7210,
      "ĠÐºÑĨÐºÐ¿": 7211,
      "ĠÐ¿Ð¾Ð½Ð¸Ð¶Ð°ÑĤÑĮ": 7212,
      "Ġventilation": 7213,
      "Ð±ÑĢÐ°Ð½Ð½ÑĭÐ¹": 7214,
      "ÑĢÐ°Ð½ÐµÐ½Ð¸Ðµ": 7215,
      "ĠÐ°ÐºÑĤÐ¸Ð²Ð½ÑĭÐ¹": 7216,
      "Ġ396": 7217,
      "Ġ570": 7218,
      "Ġ595": 7219,
      "ÐµÐ¿Ð»ÐµÐ½Ð¸Ðµ": 7220,
      "Ġhda": 7221,
      "Ġlm": 7222,
      "ential": 7223,
      "Ġ007": 7224,
      "ĠÑģÑĤÐµÑĢÐ¶Ð½ÐµÐ²Ð¾Ð¹": 7225,
      "Ġspl": 7226,
      "ĠÐ½Ð°ÑģÑĤÐ¾Ð»ÑĮÐ½ÑĭÐ¹": 7227,
      "294930": 7228,
      "Ð´Ð²ÐµÑĢÑĮ": 7229,
      "Ġ56294930": 7230,
      "ĠÐ´Ð¾Ð¿ÑĥÑģÐºÐ°ÑĤÑĮ": 7231,
      "Ġtyprm": 7232,
      "ÑįÐ¼ÑĥÐ»ÑĮÑģ": 7233,
      "ĠÑĥÐ´Ð°Ð»ÑıÑĤÑĮ": 7234,
      "Ġxlpe": 7235,
      "ÐµÑĢÑĦÐµÐ¹": 7236,
      "ĠÑħÐ¾Ð·ÑıÐ¹": 7237,
      "Ġ296": 7238,
      "ĠÐ·Ð°Ð³ÑĢÑıÐ·": 7239,
      "Ġlan": 7240,
      "ÑĢÐ°Ð·Ð²ÑĥÐºÐ¾Ð²Ð¾Ð¹": 7241,
      "ĠÑģÐ°Ð¼Ð¾ÐºÐ»": 7242,
      "Ġoutlet": 7243,
      "ĠÐ±ÑĥÐ¼Ð°Ð¶Ð½ÑĭÐ¹": 7244,
      "ĠÐ½Ð¸Ð·ÐºÐ¾Ð²Ð¾Ð»ÑĮÑĤÐ½ÑĭÐ¹": 7245,
      "uy": 7246,
      "Ð³ÐµÐ·": 7247,
      "ĠÐ³Ð¸Ð¿": 7248,
      "Ġnet": 7249,
      "Ð¸ÐºÐ°ÑĤÐ¾ÑĢ": 7250,
      "roof": 7251,
      "Ð¸Ð¼Ð°ÑĤÑĮÑģÑı": 7252,
      "Ð¾ÑĢÐ°ÑģÐ¿": 7253,
      "ÑĢÐ°Ð·Ð¸Ð½": 7254,
      "ĠÑģÐ¿ÐµÑĨÐºÐ°Ð½Ð°": 7255,
      "Ġnsy": 7256,
      "ÑįÐ»ÐµÐºÑĤÑĢÐ¾Ð²Ð¾Ð´Ð¾Ð½Ð°Ð³ÑĢÐµÐ²Ð°ÑĤÐµÐ»ÑĮ": 7257,
      "ĠÑģÐ°Ð¼Ð¾Ð½ÐµÑģÑĥÑīÐ¸Ð¹": 7258,
      "Ġparts": 7259,
      "binet": 7260,
      "ĠÑĤÐµÐ»ÐµÐºÐ¾Ð¼Ð¼ÑĥÐ½Ð¸ÐºÐ°ÑĨÐ¸Ð¾Ð½Ð½ÑĭÐ¹": 7261,
      "ĠÑģÐ¿Ð¸ÑĢÐ°Ð»ÑĮÐ½Ð¾ÑĪÐ¾Ð²Ð½ÑĭÐ¹": 7262,
      "ĠÑģÐ¿ÐµÑĨÐºÐ°Ð½Ð°Ð»Ð¸Ð·Ð°ÑĨÐ¸Ñı": 7263,
      "ĠÑģÐ¸ÑĤ": 7264,
      "Ġ2600": 7265,
      "ĠÐºÐ»Ð°ÑģÐ°": 7266,
      "ĠÑįÐ¼": 7267,
      "Ġcont": 7268,
      "Ġ1420": 7269,
      "ĠÐºÐ»ÐµÐ¹": 7270,
      "Ġcabinet": 7271,
      "Ġ3332": 7272,
      "ĠÐ¼ÐµÐ¼Ð±ÑĢÐ°Ð½Ð½ÑĭÐ¹": 7273,
      "ÑĤÐµÐ¿Ð»Ð¾Ð¾Ð±": 7274,
      "ÐµÑĤÑĢÐ¾Ð½": 7275,
      "ĠÑģÐ°Ð½Ð°ÑĨÐ¸Ñı": 7276,
      "Ġâī¥": 7277,
      "Ġltd": 7278,
      "ĠÐ¼Ð¾ÑĢÐ¾Ð·Ð¾ÑģÑĤÐ¾Ð¹ÐºÐ¾ÑģÑĤÑĮ": 7279,
      "ĠÑĢÐ°Ð´Ð¸Ð¾Ð°ÐºÑĤÐ¸Ð²Ð½ÑĭÐ¹": 7280,
      "sg": 7281,
      "ÐµÐ½Ð·": 7282,
      "ĠÐ´Ð±": 7283,
      "Ġction": 7284,
      "Ġ580": 7285,
      "ÐµÐ²Ð¾": 7286,
      "ĠÐ½Ð°ÑĢÑĥÐ¶": 7287,
      "ĠÐ¿Ð¾ÐºÑĢÑĭÑĤÑĮ": 7288,
      "133": 7289,
      "ĠÐ¿ÐµÐ½ÐµÑĤÑĢÐ¾Ð½": 7290,
      "ĠÐ¸Ð½ÑĤÐµÑĢÑĦÐµÐ¹": 7291,
      "ĠÐ·Ð°Ð³Ð¾ÑĤÐ¾Ð²Ð¸ÑĤÐµÐ»ÑĮÐ½ÑĭÐ¹": 7292,
      "Ġrpm": 7293,
      "Ġpprc": 7294,
      "ĠÑĢÐµÐ°ÐºÑĤÐ¾ÑĢ": 7295,
      "ĠÐ¿ÐµÑĢÑĦÐ¾ÑĢÐ¸ÑĢÐ¾Ð²Ð°ÑĤÑĮ": 7296,
      "ĠÐ¼ÑĥÐ»ÑĮÑĤ": 7297,
      "ÑĨÐµÑĤ": 7298,
      "Ð°ÑĢÑıÐ´": 7299,
      "Ġie": 7300,
      "Ġdx": 7301,
      "Ġou": 7302,
      "1593": 7303,
      "ĠÐ²Ð²Ð³": 7304,
      "1900": 7305,
      "ĠÑģÐºÑĢÑĭÑĤÑĮ": 7306,
      "Ġcasing": 7307,
      "ĠÐ¾ÑĤÐ²ÐµÑĤÐ²Ð¸ÑĤÐµÐ»ÑĮ": 7308,
      "ĠÐ½Ð°ÑģÐ¾ÑģÐ½ÑĭÐ¹": 7309,
      "ĠÐ¿ÐµÑĢÐµÐ´Ð°ÑĩÐ°": 7310,
      "Ġ14637": 7311,
      "ĠÐ¼Ð¾Ð´Ð¸ÑĦÐ¸ÑĨÐ¸ÑĢÐ¾Ð²Ð°ÑĤÑĮ": 7312,
      "ĠÐ±ÐµÐ·Ð³Ð°Ð»Ð¾Ð³ÐµÐ½Ð¾Ð²ÑĭÐ¹": 7313,
      "Ġ29012225": 7314,
      "ÑĤÐµÐ¿Ð»Ð¾Ð¾Ð±Ð¼ÐµÐ½Ð½Ð¸Ðº": 7315,
      "mp": 7316,
      "ĠÐ²ÑĢÑĥ": 7317,
      "ĠÐ½ÑĥÐ¶": 7318,
      "ĠÐ³Ð¾ÑĤÐ²Ð¾": 7319,
      "Ð¾ÐºÐ¾Ð½Ð½ÑĭÐ¹": 7320,
      "ĠiÑĢ": 7321,
      "ĠÐ¾ÑĤÐºÐ»ÑİÑĩÐµÐ½Ð¸Ðµ": 7322,
      "ÐµÐ¼Ð½ÑĭÐ¹": 7323,
      "ĠÑĦÐ»": 7324,
      "Ġfo": 7325,
      "305": 7326,
      "ĠÐ½Ð¸Ð·Ðº": 7327,
      "Ġ142": 7328,
      "ĠÐ¿ÑĢÐ¸Ð²ÐµÑģÑĤÐ¸": 7329,
      "ĠÐºÐ°Ð½Ð°ÑĤÐ½ÑĭÐ¹": 7330,
      "ĠÐ¿Ð¾ÑĤÑĢÐµÐ±Ð»ÑıÑĤÑĮ": 7331,
      "Ġradio": 7332,
      "Ġvrv": 7333,
      "ĠÑģÑĤÐµÐºÐ»Ð¾Ð²Ð¾Ð»Ð¾ÐºÐ½Ð¾": 7334,
      "Ġmodule": 7335,
      "ĠÐ¾Ð´Ð½Ð¾ÑģÐµÐºÑĨÐ¸Ð¾Ð½Ð½ÑĭÐ¹": 7336,
      "ĠÐ¸Ð·Ð½Ð¾ÑģÐ¾ÑģÑĤÐ¾Ð¹ÐºÐ¸Ð¹": 7337,
      "ĠÐ½ÑĥÐ¶Ð´Ð°": 7338,
      "Ġer": 7339,
      "Ð½ÑĳÐ½Ð½ÑĭÐ¹": 7340,
      "Ð³Ð¸Ð»ÑĮÐ·Ð°": 7341,
      "ĠÐ¸Ð·Ð¼ÐµÐ½": 7342,
      "Ġass": 7343,
      "Ð¾ÑģÑĢÐµÐ´": 7344,
      "ĠÐ¿ÐµÑĢÐµÑģÑĤ": 7345,
      "Ġbat": 7346,
      "ĠÐ¿ÑĢÐµÐ´Ð²": 7347,
      "ĠÐ³Ð¸Ð´ÑĢÐ°Ð·Ð¸Ð½": 7348,
      "ĠÐ¿Ð¾Ð»Ð¸Ð²Ð¸Ð½Ð¸Ð»ÑħÐ»Ð¾ÑĢÐ¸Ð´": 7349,
      "Ġconne": 7350,
      "ÐµÐ·Ð°ÑīÐ¸ÑĤÐ°": 7351,
      "ull": 7352,
      "Ð»ÐµÐ¹ÑĦ": 7353,
      "ĠÐ¿ÐµÑĢÐµÑģÑĤÐ°Ð²Ð½Ð¾Ð¹": 7354,
      "Ð¾Ð¾ÑĤÐ²Ð¾Ð´": 7355,
      "ÑĢÐ¸Ð½": 7356,
      "ÐµÑĢÐµÐ¿Ð¸ÑĨÐ°": 7357,
      "Ð¿ÑĢÐ¸Ð²Ð¾Ð´": 7358,
      "ĠÐ¿Ð¾Ð´Ð´Ð¾Ð½": 7359,
      "ĠÐºÑĢÐ°ÑĤ": 7360,
      "ĠÐ¾Ð³Ð½ÐµÐ·Ð°ÑīÐ¸ÑĤÐ°": 7361,
      "Ð¼Ð¸Ð½Ð½ÑĭÐ¹": 7362,
      "ĠÐ´Ð²ÑĥÑħÐºÐ»Ð°Ð²Ð¸ÑĪÐ½ÑĭÐ¹": 7363,
      "ĠÐ´ÑĢÐµÐ½Ñĩ": 7364,
      "ÐºÐ¾Ð¼Ð¼": 7365,
      "ĠÑĤÐµÐ»Ð¾": 7366,
      "Ġvrf": 7367,
      "Ġ80841593": 7368,
      "ĠÑĢÑıÐ´Ð¾Ð²Ð¾Ð¹": 7369,
      "Ð½Ð¸ÑĤÑĮ": 7370,
      "ĠÐ¿Ð»ÑİÑģ": 7371,
      "ĠÐ²Ð±ÑĪÐ²Ð½Ð³": 7372,
      "ÐµÐ´ÑĢ": 7373,
      "Ð·Ð°Ð¼Ð¾Ðº": 7374,
      "Ð¸Ð¼Ð°ÑĤÑĮ": 7375,
      "ĠÐ¼ÐµÐ¶Ð¾ÑģÐµÐ²Ð¾Ð¹": 7376,
      "ĠÐºÐ¼Ð¿Ð²ÑįÐ½Ð³": 7377,
      "ĠÐºÐµÑĢÐ°Ð¼Ð¾Ð³ÑĢÐ°Ð½Ð¸ÑĤÐ½ÑĭÐ¹": 7378,
      "kb": 7379,
      "Ð·Ð¾ÑĩÐ½ÑĭÐ¹": 7380,
      "ĠÐ²ÐµÐ½ÑĤÐ°Ð³ÑĢÐµÐ³Ð°ÑĤ": 7381,
      "Ġ212": 7382,
      "ĠÐ°Ð¿Ð²": 7383,
      "ĠÐ±ÑĥÐº": 7384,
      "ĠpÑĥ": 7385,
      "Ð¾Ð¶ÐµÐºÑĤÐ¾ÑĢ": 7386,
      "ĠÐ¿Ð¾Ð´ÐºÐ¾Ñģ": 7387,
      "401": 7388,
      "ÐµÐºÑĤÐ¸ÑĢÐ¾Ð²Ð°Ð½Ð¸Ðµ": 7389,
      "ĠÐ³ÑĢÐ°ÑĤ": 7390,
      "ĠÑģÐ°Ð»ÑĮÐ½Ð¸ÐºÐ¾Ð²ÑĭÐ¹": 7391,
      "ĠÐ½ÐµÐ³ÐµÑĢÐ¼ÐµÑĤÐ¸ÑĩÐ½ÑĭÐ¹": 7392,
      "ĠÑĩÐµÑĩÐµÐ²Ð¸ÑĩÐ½ÑĭÐ¹": 7393,
      "Ġhangers": 7394,
      "mk": 7395,
      "ya": 7396,
      "ĠÐ¿ÑĥÐ½ÐºÑĤ": 7397,
      "ÐµÑģÐº": 7398,
      "ĠÑĥÐºÐ»Ð°Ð´ÐºÐ°": 7399,
      "Ġtend": 7400,
      "Ġ612": 7401,
      "Ġfs": 7402,
      "ĠÐºÐ¾ÑĢÐ¾Ð·": 7403,
      "Ġ148": 7404,
      "Ġeff": 7405,
      "1970": 7406,
      "Ġdies": 7407,
      "Ġactu": 7408,
      "ustic": 7409,
      "ĠÐ´ÑĭÐ¼Ð¾Ð³Ð°Ð·": 7410,
      "Ð²ÐµÑĢÐº": 7411,
      "ĠÑĢÐµÐ¼Ð¾Ð½ÑĤ": 7412,
      "Ð°Ð±Ð¸": 7413,
      "Ð»ÐµÑģÑĤÐ½Ð¸ÑĨÐ°": 7414,
      "Ġdiesel": 7415,
      "ud": 7416,
      "ÑģÐ±": 7417,
      "ÑĢÐµÐ»Ðµ": 7418,
      "ĠÐ¿ÑģÑĤ": 7419,
      "ÑıÐ·Ð°": 7420,
      "Ð¾Ð²Ð¸ÑĤÐµÐ»ÑĮ": 7421,
      "ĠÐ²Ð»": 7422,
      "ĠÐ±Ð´": 7423,
      "Ð°Ð½Ð¾Ð²ÑĭÐ¹": 7424,
      "ĠÐ·Ð°Ð²Ð¾Ð´": 7425,
      "ĠÑĢÐµÐ³": 7426,
      "Ġhv": 7427,
      "Ð¼Ð°Ñį": 7428,
      "Ġla": 7429,
      "162": 7430,
      "904": 7431,
      "ĠÑĪÐ¿Ðº": 7432,
      "Ð»Ð¸Ð½Ð¾Ð»ÐµÑĥÐ¼": 7433,
      "ĠÐºÐ¾Ð¼Ð¼ÑĥÑĤÐ°ÑĤÐ¾ÑĢ": 7434,
      "ĠÐ¿ÑĢÐ¾Ð¿Ð¸ÑĤÐºÐ°": 7435,
      "ĠÑĢÑĤÑĥÑĤÐ½ÑĭÐ¹": 7436,
      "ĠÐ¿ÑĥÑĤÐµÐ²Ð¾Ð¹": 7437,
      "la": 7438,
      "zz": 7439,
      "ÑĤÑĢÐ°Ð²": 7440,
      "ĠÐ´Ð¸ÑģÐº": 7441,
      "ÐµÑģÑĥÑĪÐ¸ÑĤÐµÐ»ÑĮ": 7442,
      "Ġ490": 7443,
      "Ġ990": 7444,
      "Ġ258": 7445,
      "Ġge": 7446,
      "ÐµÑİÑīÐ¸Ð¹ÑģÑı": 7447,
      "Ġef": 7448,
      "Ġev": 7449,
      "ĠÑīÐ¾": 7450,
      "082": 7451,
      "Ġfrz": 7452,
      "ators": 7453,
      "ĠÐ°Ð»Ð¼Ð°Ð·": 7454,
      "ĠÐºÐ°ÑģÑģÐµÑĤÐ½ÑĭÐ¹": 7455,
      "Ġisolating": 7456,
      "ÑĢÐµÐ´ÐµÐ»ÐµÐ½Ð¸Ðµ": 7457,
      "ĠÐ²Ð¾ÑģÐ¿ÑĢÐ¸Ð½": 7458,
      "Ð¾ÑĤÐµÐ½ÑĨÐµÑģÑĥÑĪÐ¸ÑĤÐµÐ»ÑĮ": 7459,
      "ĠÑģÐ°Ð¼Ð¾ÐºÐ»ÐµÑİÑīÐ¸Ð¹ÑģÑı": 7460,
      "ĠÐ²Ð¾ÑģÐ¿ÑĢÐ¸Ð½Ð¸Ð¼Ð°ÑĤÑĮ": 7461,
      "ciiic": 7462,
      "ĠÐ¿Ð°Ð»": 7463,
      "Ð³Ð¾Ð²": 7464,
      "501": 7465,
      "ĠÐ¿ÐµÑĢÐµÐ¼ÑĭÑĩÐºÐ°": 7466,
      "ÑĢÐ°Ð²Ð¸ÑĤÑĮ": 7467,
      "ĠÑģÑĢÐµÐ´ÑģÑĤÐ²Ð¾": 7468,
      "149": 7469,
      "ĠÐºÐ·Ð½Ñģ": 7470,
      "Ð¸ÑĢÐºÑĥÐ»ÑıÑĨÐ¸Ñı": 7471,
      "Ġpprs": 7472,
      "ĠÐ´ÐµÑĦÐ¾ÑĢÐ¼Ð°ÑĨÐ¸Ð¾Ð½Ð½ÑĭÐ¹": 7473,
      "ĠÐºÐ°Ð¿Ð¸Ð»": 7474,
      "ÐºÐ¾Ð½Ð´Ð¸ÑĨÐ¸Ð¾Ð½ÐµÑĢ": 7475,
      "Ġthermaflex": 7476,
      "ĠÐ¿Ð¸ÐºÑĤÐ¾Ð³ÑĢÐ°Ð¼Ð¼Ð°": 7477,
      "zzle": 7478,
      "360": 7479,
      "ÑĥÐ±Ð°": 7480,
      "Ð°Ð²Ð»ÑıÑĤÑĮ": 7481,
      "ĠÐ¿ÐµÑĢÐµÑĤ": 7482,
      "Ġqmax": 7483,
      "ÑĥÐ»Ð¾Ð²Ð¸ÑĤÐµÐ»ÑĮ": 7484,
      "ĠÐ¾ÐºÐ»": 7485,
      "Ð¿Ð¾Ð»Ð¾ÑĤÐµÐ½ÑĨÐµÑģÑĥÑĪÐ¸ÑĤÐµÐ»ÑĮ": 7486,
      "design": 7487,
      "Ġflagman": 7488,
      "ĠÐ¿ÐµÑĢÐµÐ¼ÐµÑīÐµÐ½Ð¸Ðµ": 7489,
      "ug": 7490,
      "Ð¿ÑĢÐµÐ´": 7491,
      "ĠÐºÐ¸ÑĢÐ¿": 7492,
      "Ð»ÑıÐµÐ¼ÑĭÐ¹": 7493,
      "Ð¸Ð¿ÑĤÐ¸ÑĩÐµÑģÐºÐ¸Ð¹": 7494,
      "Ġnuc": 7495,
      "Ġ2020": 7496,
      "Ġ8000": 7497,
      "Ġhr": 7498,
      "ĠÐ¿Ð°Ð¹ÐºÐ°": 7499,
      "Ð°Ð½ÐºÐµÑĢÐ½ÑĭÐ¹": 7500,
      "967": 7501,
      "Ġbfn": 7502,
      "ĠÐ´Ð¾Ð»Ð³Ð¾Ð²": 7503,
      "ĠÐ¿Ð°ÑĤÑĩ": 7504,
      "ĠÐ±ÑĢÑĥÑģÐºÐ¾Ð²ÑĭÐ¹": 7505,
      "ĠÐ°Ð»Ð¼Ð°Ð·Ð½ÑĭÐ¹": 7506,
      "ĠÐºÐ°Ð¿Ð¸Ð»Ð»ÑıÑĢÐ½ÑĭÐ¹": 7507,
      "ĠÐºÐ¸ÑĢÐ¿Ð¸ÑĩÐ½ÑĭÐ¹": 7508,
      "ies": 7509,
      "ĠÐºÐ¸Ð´": 7510,
      "ÐµÐ½ÑĩÐ°ÑĤÑĭÐ¹": 7511,
      "Ð³Ñģ": 7512,
      "Ð¾Ð¿Ð»Ð°ÑģÑĤÐ¸ÐºÐ¾Ð²ÑĭÐ¹": 7513,
      "Ð¼ÐµÑħ": 7514,
      "ĠÐ·ÐµÑĤÐ¾Ð²ÑĭÐ¹": 7515,
      "Ġ525": 7516,
      "ÐµÑģÑĤÐºÐ¾Ð²ÑĭÐ¹": 7517,
      "Ð»Ð»Ð¸Ð¿ÑĤÐ¸ÑĩÐµÑģÐºÐ¸Ð¹": 7518,
      "6035": 7519,
      "148": 7520,
      "196": 7521,
      "ĠÐ´Ð¸ÑĦÑĦÑĥÐ·Ð¾ÑĢ": 7522,
      "ĠÑĤÐ¾Ð½Ð½ÐµÐ»ÑĮ": 7523,
      "ĠÐ´ÐµÑĤÐµÐºÑĤÐ¸ÑĢÐ¾Ð²Ð°Ð½Ð¸Ðµ": 7524,
      "ĠÐ¸ÑģÐ¿Ð¾Ð»Ð½Ð¸ÑĤÐµÐ»ÑĮÐ½ÑĭÐ¹": 7525,
      "Ð¼Ð°ÑĢÐ½ÑĭÐ¹": 7526,
      "ĠÐ´Ð¸Ð°Ð³": 7527,
      "Ġso": 7528,
      "Ġ61970": 7529,
      "Ð¾Ð±Ð¾ÑĢÑĥÐ´Ð¾Ð²Ð°Ð½Ð¸Ðµ": 7530,
      "ĠÐ¿Ð¾Ð»Ð¾ÑĩÐºÐ°": 7531,
      "ĠÐºÐ²ÑĢ": 7532,
      "Ġgs": 7533,
      "Ð¸ÑĢÐµÐ½": 7534,
      "241": 7535,
      "ĠÐ½ÐµÑģÑĬÑĳÐ¼Ð½ÑĭÐ¹": 7536,
      "ĠÑĦÐ°Ñħ": 7537,
      "ĠÑģÑĥÐ¼Ð¼Ð°ÑĢÐ½ÑĭÐ¹": 7538,
      "ĠÐ·Ð°ÑīÐ¸ÑĤÐ¸ÑĤÑĮ": 7539,
      "ĠÐ±ÐµÑĢÑĳÐ·Ð°": 7540,
      "ÑıÐ·Ð°Ð»ÑĮÐ½ÑĭÐ¹": 7541,
      "Ġ61970296": 7542,
      "bar": 7543,
      "ĠÐºÐ¾Ð·": 7544,
      "ĠÐ´Ð¸Ð°ÑĦÑĢÐ°Ð³Ð¼Ð°": 7545,
      "ĠÐ¿ÑĢÐ¸Ð¶Ð¸Ð¼Ð½ÑĭÐ¹": 7546,
      "Ġ1001": 7547,
      "Ð¸Ð»ÐºÐ°": 7548,
      "ĠÐºÐ»Ð°Ð¿Ð°Ð½Ð½ÑĭÐ¹": 7549,
      "ĠÐ¾Ð´Ð½Ð¾Ð´": 7550,
      "131": 7551,
      "paa": 7552,
      "Ġupn": 7553,
      "ĠÐºÐ¿Ð¿Ð³Ð½Ð³": 7554,
      "ĠÐ·Ð°Ð¼ÐºÐ½ÑĥÑĤÑĮ": 7555,
      "ĠÐ±ÑĭÑĤÐ¾Ð²Ð¾Ð¹": 7556,
      "603588": 7557,
      "ÑģÐºÐ°": 7558,
      "Ð¼Ð¸ÑĩÐµÑģÐºÐ¸Ð¹": 7559,
      "ÑĥÐ¶Ð½ÑĭÐ¹": 7560,
      "ĠÐ¸Ð½Ð¾Ð¹": 7561,
      "ĠÐ³ÑĢÐ¾Ð¼": 7562,
      "ÑĪÐ¸Ð½": 7563,
      "Ġae": 7564,
      "ĠÑįÐ»Ð»Ð¸Ð¿ÑĤÐ¸ÑĩÐµÑģÐºÐ¸Ð¹": 7565,
      "Ġlow": 7566,
      "ĠÐ¾ÐºÑģ": 7567,
      "Ġ62603588": 7568,
      "ĠÑĢÐµÐ»ÑĮÑģÐ¾Ð²ÑĭÐ¹": 7569,
      "ĠÑģÑĤÐµÐºÐ»Ð¾Ð²Ð¾Ð»Ð¾ÐºÐ¾Ð½Ð½ÑĭÐ¹": 7570,
      "ĠÐ°Ð½ÑĤÐ¸Ð¿Ð¸ÑĢÐµÐ½": 7571,
      "ĠÐ¿ÑĥÑģÑĤÐ¾ÑĤÐµÐ»ÑĭÐ¹": 7572,
      "ĠÑĥÐ¿ÑĢÐ°Ð²Ð»ÑıÐµÐ¼ÑĭÐ¹": 7573,
      "Ġbreakers": 7574,
      "ĠÐ´Ð¾Ð»Ð³Ð¾Ð²ÑĢÐµÐ¼ÐµÐ½Ð½ÑĭÐ¹": 7575,
      "074": 7576,
      "ĠÐ¾Ð±ÑĪÐ¸ÑĤÑĮ": 7577,
      "Ġnc": 7578,
      "ĠÑįÐ»ÐµÐºÑĤÑĢÐ¾Ð¿Ð»Ð°ÑģÑĤ": 7579,
      "ĠÐ¼ÐµÑĤÐ°Ð»Ð»Ð¾Ð¿Ð¾Ð»Ð¸Ð¼ÐµÑĢÐ½ÑĭÐ¹": 7580,
      "Ġuks": 7581,
      "1469": 7582,
      "ĠÐ¸Ð½ÑģÑĤÑĢÑĥ": 7583,
      "273": 7584,
      "ĠÐºÑģÐ°": 7585,
      "ĠÐ±ÐµÐ·Ð¾Ð¿Ð°ÑģÐ½Ð°": 7586,
      "crni": 7587,
      "ĠÐ¿ÑĭÐ»ÐµÐ²": 7588,
      "ÑĤÑĢÐ°Ð²ÐµÑĢÑģ": 7589,
      "ĠÑĦÐ°ÑħÐ²ÐµÑĢÐº": 7590,
      "ĠÑģÐ¼Ð°Ð·ÐºÐ°": 7591,
      "ĠÐºÑĪÑĤ": 7592,
      "Ġ111": 7593,
      "ĠÐ»ÑĤ": 7594,
      "Ġgb": 7595,
      "Ġblow": 7596,
      "ĠÑĢÐ°Ð·ÑĢÑĭÐ²Ð½ÑĭÐ¹": 7597,
      "ĠÐ´ÐµÑĦÐµÐºÑĤÐ¾ÑģÐº": 7598,
      "ĠÑģÑĪÑĨ": 7599,
      "ÐµÐ½ÐºÐ°": 7600,
      "ÑıÐ±": 7601,
      "Ð´Ð¾": 7602,
      "ĠÐ´Ð¾Ð·": 7603,
      "ÑĩÐ¸Ð²Ð°Ð½Ð¸Ðµ": 7604,
      "Ġcur": 7605,
      "Ġ031": 7606,
      "Ġsd": 7607,
      "ĠÑĢÐ°Ð·Ð²": 7608,
      "ÑįÐºÑĢÐ°Ð½": 7609,
      "ĠÑĪÐ¸ÑĢÐ¾ÐºÐ¸Ð¹": 7610,
      "ÑĢÑĭÐ²Ð¸ÑģÑĤÐ¾ÑģÑĤÑĮ": 7611,
      "ÑĥÐ¼ÑĭÐ²Ð°Ð»ÑĮÐ½Ð¸Ðº": 7612,
      "ĠÐ²Ð¸Ð´Ðµ": 7613,
      "Ġ5410": 7614,
      "ĠÑĥÐºÑĢÑĭÐ²Ð¸ÑģÑĤÐ¾ÑģÑĤÑĮ": 7615,
      "ĠÑģÐ°Ð¼Ð¾ÑħÐ¾Ð´Ð½ÑĭÐ¹": 7616,
      "ÐºÐ°Ð²Ð°ÑĤÐ¾ÑĢ": 7617,
      "ĠÐ¿ÐµÑģÐºÐ¾": 7618,
      "Ð¿Ð²ÑħÐ°": 7619,
      "ĠÐ¿ÐµÑĢÐµÐ¾Ð´Ð¸ÑĩÐµÑģÐºÐ¸Ð¹": 7620,
      "ĠÑĤÐµÐ»ÐµÑģÐº": 7621,
      "Ð³ÐµÐ¾ÑĤÐµÐºÑģÑĤÐ¸Ð»ÑĮ": 7622,
      "ĠÐ¿Ð¾Ð»Ð¸Ð°Ð¼Ð¸Ð´Ð½ÑĭÐ¹": 7623,
      "âĢĵ": 7624,
      "Ġ80841469": 7625,
      "ĠÐºÐ²Ð°ÑĢÑĨÐµÐ²ÑĭÐ¹": 7626,
      "ĠÐ¿Ð°Ð»ÑĥÐ±Ð°": 7627,
      "fc": 7628,
      "ÑĢÐµÐ»ÑĮÑģ": 7629,
      "ĠÐ¼ÑĢÐ°": 7630,
      "ĠÐ´ÑģÐ½": 7631,
      "ĠÐ¸ÐºÐ±": 7632,
      "ĠÐ»ÑĥÐ´": 7633,
      "ĠÑħÐ¿Ð²ÑħÐ°": 7634,
      "ÑįÑĦ": 7635,
      "Ġvk": 7636,
      "Ġ254": 7637,
      "ĠÐ¼Ð½Ð¾Ð³Ð¾ÑģÐ»Ð¾Ð¹Ð½ÑĭÐ¹": 7638,
      "Ġmanually": 7639,
      "ĠÐ¼Ð¾Ð´ÐµÐ»ÑĮ": 7640,
      "Ġapc": 7641,
      "Ð¿Ð°ÑĤÑĢÑĥÐ±Ð¾Ðº": 7642,
      "ĠÐ³Ð¸Ð´ÑĢÐ¾ÑĦÐ¾Ð±Ð¸Ð·Ð¸ÑĢÐ¾Ð²Ð°ÑĤÑĮ": 7643,
      "ĠÐ±Ð¾ÑĢÑĤÐ¾Ð²ÑĭÐ¹": 7644,
      "ĠÐ¿ÑĢÐµÐ´Ð²Ð°ÑĢÐ¸ÑĤÐµÐ»ÑĮÐ½ÑĭÐ¹": 7645,
      "ĠÐ»ÑĥÐ´Ð¸ÑĤÑĮ": 7646,
      "ÑĭÐ¿ÐºÐ°": 7647,
      "ĠÐ¸Ð·Ð¼": 7648,
      "Ġ316": 7649,
      "Ġ7000": 7650,
[...]
